<pad>	0
<s>	0
</s>	0
<unk>	0
니다	-0
습니다	-1
▁사	-2
▁이	-3
에서	-4
▁경	-5
으로	-6
▁있	-7
했습니다	-8
▁1	-9
▁지	-10
▁대	-11
▁경찰	-12
▁수	-13
▁전	-14
▁2	-15
▁시	-16
▁한	-17
▁것	-18
▁가	-19
▁보	-20
▁아	-21
▁조	-22
▁고	-23
입니다	-24
▁오	-25
▁주	-26
▁기	-27
▁정	-28
▁씨	-29
▁중	-30
▁A	-31
▁인	-32
▁신	-33
하고	-34
하는	-35
▁공	-36
▁부	-37
다고	-38
▁확	-39
▁3	-40
▁자	-41
▁있습니다	-42
▁나	-43
▁위	-44
▁일	-45
▁상	-46
▁지난	-47
▁않	-48
▁발	-49
▁소	-50
▁받	-51
▁관	-52
▁등	-53
▁내	-54
▁것으로	-55
▁의	-56
▁서	-57
▁유	-58
됐습니다	-59
▁차	-60
▁피	-61
▁남	-62
▁현	-63
▁방	-64
▁마	-65
▁불	-66
▁어	-67
▁여	-68
▁다	-69
들이	-70
▁검	-71
▁없	-72
▁제	-73
▁구	-74
▁5	-75
다는	-76
▁4	-77
▁집	-78
▁해	-79
▁당	-80
▁국	-81
졌습니다	-82
▁도	-83
에게	-84
▁강	-85
▁그	-86
▁혐	-87
▁안	-88
▁혐의	-89
▁비	-90
▁추	-91
까지	-92
▁뒤	-93
▁명	-94
▁진	-95
▁밝	-96
▁미	-97
▁있는	-98
라고	-99
▁서울	-100
▁경찰은	-101
▁조사	-102
지만	-103
면서	-104
▁원	-105
▁성	-106
▁통	-107
▁입	-108
혔습니다	-109
▁코	-110
▁피해	-111
▁말	-112
▁모	-113
▁하	-114
▁20	-115
▁오늘	-116
▁장	-117
▁알	-118
▁교	-119
▁선	-120
▁감	-121
▁운	-122
▁거	-123
▁사고	-124
로나	-125
는데	-126
▁코로나	-127
▁동	-128
▁최	-129
부터	-130
▁만	-131
▁무	-132
▁남성	-133
▁수사	-134
▁6	-135
▁직	-136
▁앵	-137
▁앵커	-138
▁밝혔습니다	-139
었습니다	-140
▁연	-141
▁사건	-142
들은	-143
▁재	-144
▁10	-145
▁영	-146
▁개	-147
에는	-148
▁숨	-149
▁건	-150
명이	-151
19	-152
▁확인	-153
▁폭	-154
▁기자	-155
▁반	-156
▁달	-157
▁출	-158
▁법	-159
▁결	-160
▁문	-161
▁씨는	-162
합니다	-163
▁범	-164
▁파	-165
▁실	-166
▁들	-167
▁사람	-168
▁처	-169
자가	-170
▁화	-171
▁행	-172
▁예	-173
았습니다	-174
자는	-175
▁학	-176
▁우	-177
▁적	-178
▁따	-179
▁차량	-180
▁계	-181
▁8	-182
▁벌	-183
▁신고	-184
▁경찰에	-185
▁총	-186
▁앞	-187
▁했습니다	-188
▁넘	-189
▁관련	-190
▁과	-191
▁김	-192
▁7	-193
▁대한	-194
▁시위	-195
하기	-196
▁판	-197
▁바	-198
▁두	-199
▁여성	-200
▁요	-201
▁분	-202
▁9	-203
▁현장	-204
▁병	-205
했다	-206
▁걸	-207
▁며	-208
▁등을	-209
에서는	-210
▁혐의로	-211
▁체	-212
하지	-213
▁확진	-214
▁취	-215
▁청	-216
▁단	-217
▁설	-218
▁L	-219
▁세	-220
▁D	-221
▁검찰	-222
▁대해	-223
경찰	-224
▁알려	-225
▁생	-226
▁목	-227
▁운전	-228
▁채	-229
▁정부	-230
▁N	-231
▁박	-232
▁특	-233
들을	-234
▁이어	-235
▁사실	-236
▁노	-237
▁올	-238
▁당시	-239
▁외	-240
▁어제	-241
▁치	-242
▁후	-243
▁위해	-244
▁발견	-245
▁트	-246
▁입니다	-247
▁발생	-248
▁포	-249
▁B	-250
▁살	-251
ew	-252
ews	-253
al	-254
it	-255
ab	-256
ig	-257
igit	-258
▁Lab	-259
▁News	-260
igital	-261
▁Digital	-262
들의	-263
▁미국	-264
▁열	-265
▁물	-266
▁작	-267
통령	-268
▁따르	-269
▁회	-270
▁업	-271
▁증	-272
라는	-273
▁금	-274
장을	-275
▁군	-276
▁배	-277
스크	-278
▁중국	-279
▁못	-280
▁들어	-281
▁관계	-282
▁참	-283
하게	-284
기도	-285
▁경찰이	-286
▁대통령	-287
▁병원	-288
▁받고	-289
▁접	-290
▁30	-291
▁따르면	-292
▁상황	-293
▁사망	-294
했다고	-295
대로	-296
씨는	-297
▁양	-298
▁투	-299
적으로	-300
▁승	-301
▁자신	-302
▁많	-303
▁오후	-304
▁근	-305
▁민	-306
격리	-307
▁씨가	-308
▁피해자	-309
▁저	-310
▁더	-311
▁마스크	-312
났습니다	-313
▁말했습니다	-314
▁오전	-315
였습니다	-316
사를	-317
▁감염	-318
▁구속	-319
▁음	-320
▁있었	-321
▁새	-322
시간	-323
▁상태	-324
리는	-325
▁전해	-326
했고	-327
▁결과	-328
▁보도	-329
에도	-330
▁주민	-331
▁아이	-332
적인	-333
▁때	-334
▁드	-335
▁스	-336
기를	-337
▁이후	-338
▁같	-339
명을	-340
▁시작	-341
▁집회	-342
상을	-343
▁매	-344
정을	-345
▁충	-346
▁통해	-347
▁돌	-348
다가	-349
분쯤	-350
▁체포	-351
▁아동	-352
▁광	-353
되는	-354
▁홍	-355
▁붙	-356
운데	-357
▁일부	-358
▁알려졌습니다	-359
▁착	-360
▁손	-361
▁심	-362
▁초	-363
▁혐의를	-364
▁있던	-365
▁곳	-366
▁지난달	-367
▁가운데	-368
▁타	-369
▁환	-370
▁위반	-371
▁C	-372
▁50	-373
▁소방	-374
▁담	-375
▁내용	-376
▁측	-377
▁난	-378
▁찾	-379
▁호	-380
▁12	-381
장이	-382
▁지역	-383
장은	-384
▁경우	-385
▁직원	-386
▁파악	-387
▁폭행	-388
부는	-389
▁40	-390
▁형	-391
▁11	-392
서는	-393
▁속	-394
리를	-395
지고	-396
▁역	-397
도로	-398
▁간	-399
▁남성이	-400
▁보고	-401
▁점	-402
▁필	-403
▁약	-404
▁규	-405
지는	-406
됩니다	-407
▁201	-408
▁몰	-409
▁백	-410
이나	-411
▁해당	-412
▁같은	-413
▁최근	-414
▁할	-415
▁도로	-416
▁맞	-417
▁협	-418
▁쓰	-419
하며	-420
▁누	-421
▁가능	-422
▁태	-423
사가	-424
▁용	-425
거나	-426
다며	-427
▁데	-428
지를	-429
▁주장	-430
도록	-431
▁과정	-432
▁것이	-433
▁아니	-434
▁재판	-435
라며	-436
▁공개	-437
▁사이	-438
▁휴	-439
▁숨진	-440
인이	-441
하겠	-442
▁범행	-443
▁하는	-444
▁인근	-445
▁현지	-446
▁문제	-447
▁종	-448
▁본	-449
▁산	-450
국은	-451
▁진행	-452
▁언	-453
▁번	-454
상이	-455
▁만에	-456
▁붙잡	-457
▁범죄	-458
했지만	-459
▁부산	-460
▁인천	-461
▁진술	-462
▁임	-463
▁항	-464
▁않았	-465
▁홍콩	-466
자를	-467
▁한국	-468
▁지난해	-469
▁북	-470
들에게	-471
▁19	-472
▁예정	-473
▁추가	-474
▁불이	-475
▁운영	-476
▁명이	-477
▁다시	-478
▁현재	-479
▁있다고	-480
▁합	-481
▁새벽	-482
▁씨의	-483
▁않은	-484
▁전해졌습니다	-485
▁건물	-486
▁씨를	-487
▁게	-488
▁뉴	-489
럼프	-490
▁없는	-491
▁처벌	-492
하면서	-493
▁서울시	-494
원이	-495
▁소식	-496
▁막	-497
▁크	-498
사는	-499
▁국민	-500
▁앞서	-501
▁이라고	-502
▁평	-503
▁시간	-504
▁불법	-505
용차	-506
으며	-507
▁겁	-508
파트	-509
했던	-510
▁드러	-511
▁작업	-512
▁트럼프	-513
▁이유	-514
되고	-515
▁설명	-516
▁는	-517
▁시민	-518
▁화재	-519
▁겁니다	-520
수사	-521
▁과정에서	-522
▁버	-523
왔습니다	-524
▁아파트	-525
▁격리	-526
▁확산	-527
▁옮	-528
▁허	-529
▁승용차	-530
▁변	-531
▁구조	-532
▁이용	-533
▁15	-534
▁않고	-535
렸습니다	-536
원은	-537
▁등에	-538
▁S	-539
▁늘	-540
▁방역	-541
▁요구	-542
▁돈	-543
머니	-544
하다	-545
▁조치	-546
▁밀	-547
▁경기	-548
▁절	-549
▁국가	-550
기관	-551
▁끝	-552
▁합니다	-553
▁카	-554
▁징	-555
기가	-556
▁보이	-557
▁프	-558
▁벌어	-559
했는데	-560
▁날	-561
▁논	-562
▁순	-563
위를	-564
▁받은	-565
TV	-566
▁된	-567
▁자가	-568
▁경찰관	-569
▁권	-570
▁밤	-571
▁복	-572
시쯤	-573
▁온	-574
▁관계자는	-575
▁라고	-576
▁사회	-577
▁전했습니다	-578
▁있었습니다	-579
▁빠	-580
씨가	-581
원을	-582
하던	-583
▁엄	-584
▁폐	-585
▁않는	-586
▁치료	-587
명은	-588
범죄	-589
▁걸로	-590
▁철	-591
▁모습	-592
기로	-593
▁활	-594
▁13	-595
▁없었	-596
▁송	-597
대를	-598
▁출동	-599
인데	-600
자의	-601
▁고발	-602
▁가능성	-603
▁높	-604
되지	-605
▁가족	-606
▁필요	-607
▁않았습니다	-608
▁민주	-609
▁흑	-610
▁것을	-611
▁자신의	-612
▁주변	-613
▁추정	-614
▁확인됐습니다	-615
▁검사	-616
▁계속	-617
▁휴대	-618
인을	-619
에서도	-620
했다는	-621
▁것입니다	-622
▁업무	-623
▁음주	-624
▁이를	-625
▁사실을	-626
▁침	-627
대가	-628
으나	-629
이었	-630
▁16	-631
▁경찰과	-632
▁커	-633
물을	-634
▁받아	-635
▁이날	-636
▁대표	-637
▁안전	-638
▁어린	-639
▁경기도	-640
▁창	-641
해야	-642
▁흑인	-643
▁병원으로	-644
▁술	-645
전화	-646
▁신청	-647
▁옮겨	-648
▁이동	-649
▁설명했습니다	-650
바이	-651
부를	-652
▁의혹	-653
▁포함	-654
▁플	-655
▁14	-656
▁나오	-657
▁대응	-658
▁위한	-659
▁취재	-660
▁극	-661
▁금지	-662
▁대상	-663
▁판단	-664
▁질	-665
▁큰	-666
▁보호	-667
▁사용	-668
▁하고	-669
▁마스크를	-670
천지	-671
▁기소	-672
▁경찰의	-673
▁면	-674
리가	-675
▁토	-676
▁설치	-677
▁메	-678
▁친	-679
보다	-680
▁25	-681
▁그는	-682
▁선수	-683
학생	-684
▁18	-685
▁고소	-686
▁사진	-687
▁처음	-688
▁휴대전화	-689
러스	-690
▁수도	-691
▁탈	-692
명의	-693
▁것은	-694
▁식	-695
▁교회	-696
▁시장	-697
▁우려	-698
▁나섰	-699
▁선고	-700
▁길	-701
▁떨	-702
▁근처	-703
▁의심	-704
▁첫	-705
▁계획	-706
▁시신	-707
▁언론	-708
▁판정을	-709
CTV	-710
▁관리	-711
▁실종	-712
경찰청	-713
▁CCTV	-714
▁긴	-715
의자	-716
▁가해	-717
▁요청	-718
▁학생	-719
▁조사를	-720
▁받았습니다	-721
00	-722
▁택	-723
▁박사	-724
▁전화	-725
▁사고가	-726
▁신천지	-727
▁있다는	-728
▁자가격리	-729
▁잡	-730
이라고	-731
는지	-732
▁등의	-733
▁이에	-734
▁정보	-735
▁직접	-736
▁여러	-737
▁잘	-738
개월	-739
위원	-740
처럼	-741
▁관련해	-742
▁이들은	-743
▁정부는	-744
들과	-745
▁찾아	-746
▁타고	-747
씨를	-748
▁남성은	-749
단체	-750
▁폭력	-751
센터	-752
▁공무	-753
▁돌아	-754
▁떨어	-755
▁방침	-756
▁인도	-757
▁지적	-758
로이	-759
의를	-760
하면	-761
▁들이	-762
▁많은	-763
렇게	-764
▁보건	-765
▁영상	-766
▁인정	-767
▁장관	-768
▁급	-769
▁줄	-770
인은	-771
▁없이	-772
▁정도	-773
▁확보	-774
기에	-775
천만	-776
▁적용	-777
▁차례	-778
▁준	-779
교회	-780
시설	-781
추행	-782
▁방문	-783
▁어려	-784
▁지금	-785
▁징역	-786
하기로	-787
▁바이	-788
▁인터	-789
▁있어	-790
그램	-791
▁대구	-792
▁사태	-793
▁독	-794
▁표	-795
동을	-796
이고	-797
▁원을	-798
▁있는데	-799
주시	-800
▁정확	-801
▁되	-802
▁사건이	-803
▁조사하고	-804
▁편	-805
▁이뤄	-806
▁지하	-807
▁눈	-808
▁애	-809
▁향	-810
▁사례	-811
▁학대	-812
▁수사를	-813
▁잠	-814
리고	-815
▁강제	-816
▁나타	-817
▁단체	-818
당국은	-819
▁발견됐습니다	-820
▁머	-821
원에	-822
정보	-823
▁올해	-824
▁대통령은	-825
▁결정	-826
▁업체	-827
▁박사방	-828
▁신고를	-829
▁운전자	-830
쳤습니다	-831
▁응	-832
▁등이	-833
▁이들	-834
▁행정	-835
해서	-836
명으로	-837
▁예정입니다	-838
▁완	-839
하려	-840
▁60	-841
▁야	-842
▁개인	-843
▁압	-844
▁24	-845
▁거리	-846
▁넘어	-847
▁수색	-848
▁의료	-849
▁행위	-850
▁어린이	-851
▁리	-852
▁테	-853
기는	-854
▁아직	-855
▁조직	-856
▁200	-857
▁발생한	-858
▁숨졌습니다	-859
식을	-860
▁도착	-861
▁글	-862
보호	-863
으면	-864
▁가장	-865
▁연락	-866
▁접수	-867
▁하루	-868
▁검찰은	-869
▁받았	-870
▁단속	-871
▁구속영	-872
▁브	-873
▁울	-874
▁17	-875
▁사람은	-876
▁윤	-877
▁책	-878
▁전국	-879
▁이미	-880
▁택시	-881
로부터	-882
▁들이받	-883
▁드러났습니다	-884
▁별	-885
▁은	-886
▁내려	-887
▁추적	-888
금을	-889
▁살해	-890
▁참석	-891
▁일어	-892
▁적발	-893
▁청와	-894
이었습니다	-895
장에	-896
선을	-897
스트	-898
안을	-899
▁분석	-900
▁증거	-901
▁라	-902
▁베	-903
▁에	-904
▁반대	-905
▁부모	-906
▁접촉	-907
▁중인	-908
위원회	-909
장에서	-910
▁갈	-911
▁딸	-912
▁힘	-913
▁대화	-914
로이드	-915
▁정확한	-916
▁확진자	-917
지자	-918
▁사랑	-919
▁성폭	-920
▁소속	-921
▁일이	-922
▁플로이드	-923
▁보도했습니다	-924
▁귀	-925
들도	-926
원의	-927
▁국회	-928
▁아닌	-929
▁투입	-930
▁트럭	-931
▁붙잡혔습니다	-932
▁꺼	-933
서를	-934
차를	-935
▁근무	-936
▁최대	-937
▁학교	-938
▁월	-939
▁퇴	-940
도를	-941
▁개정	-942
▁특히	-943
▁항의	-944
▁얼	-945
▁버스	-946
▁유포	-947
▁이른	-948
▁착취	-949
▁달아	-950
텔레	-951
▁교통	-952
▁당국	-953
▁실제	-954
▁사고로	-955
▁보입니다	-956
▁갑	-957
됐고	-958
▁21	-959
▁논란	-960
▁돈을	-961
▁현장에	-962
▁몸	-963
▁클	-964
지방	-965
▁받는	-966
▁지나	-967
▁사건을	-968
▁확진자가	-969
▁떠	-970
두순	-971
사고	-972
씨의	-973
▁27	-974
▁발표	-975
▁없다	-976
▁우한	-977
▁제기	-978
▁지원	-979
▁하지	-980
일부터	-981
▁조두순	-982
▁출동한	-983
하자	-984
▁법무	-985
▁않아	-986
▁측은	-987
▁투표	-988
▁아니라	-989
한다	-990
▁강조	-991
▁이유로	-992
▁청와대	-993
▁현장에서	-994
▁나섰습니다	-995
운전	-996
▁북한	-997
▁생활	-998
▁충돌	-999
▁크게	-1000
▁텔레	-1001
▁후보	-1002
속도로	-1003
▁사람이	-1004
▁성추행	-1005
▁중입니다	-1006
▁주장했습니다	-1007
▁강화	-1008
▁중앙	-1009
▁사실이	-1010
▁시위대	-1011
▁치료를	-1012
겼습니다	-1013
▁텔레그램	-1014
레이	-1015
부가	-1016
▁보내	-1017
▁책임	-1018
▁경찰청	-1019
갔습니다	-1020
▁0	-1021
구의	-1022
조사	-1023
▁뉴욕	-1024
▁지시	-1025
▁100	-1026
▁집회를	-1027
▁퍼	-1028
주의	-1029
학교	-1030
▁국내	-1031
경찰서는	-1032
문을	-1033
인의	-1034
차별	-1035
▁만들	-1036
▁관계자	-1037
▁시위가	-1038
▁이렇게	-1039
냈습니다	-1040
하겠다고	-1041
▁흉	-1042
당국	-1043
부분	-1044
▁모든	-1045
▁인종	-1046
▁형사	-1047
▁수사에	-1048
▁답	-1049
▁봉	-1050
▁긴급	-1051
▁시설	-1052
▁한다	-1053
경찰서	-1054
▁검찰에	-1055
▁정부가	-1056
▁검거	-1057
▁변호	-1058
▁생각	-1059
▁될	-1060
▁악	-1061
라인	-1062
▁선거	-1063
▁어젯	-1064
▁폐쇄	-1065
▁사람들이	-1066
▁먼	-1067
▁잃	-1068
력을	-1069
▁비롯	-1070
하기도	-1071
▁검사를	-1072
주빈	-1073
촬영	-1074
▁시도	-1075
▁이번	-1076
▁착용	-1077
▁화물	-1078
▁사고를	-1079
▁조주빈	-1080
▁방침입니다	-1081
▁천	-1082
시아	-1083
▁입건	-1084
▁제한	-1085
▁직후	-1086
▁특정	-1087
▁어젯밤	-1088
▁탄	-1089
치를	-1090
▁만큼	-1091
▁신종	-1092
▁안에	-1093
▁올라	-1094
▁집단	-1095
▁집중	-1096
▁특별	-1097
▁협박	-1098
라도	-1099
▁백신	-1100
▁얼굴	-1101
▁주택	-1102
▁촬영	-1103
지면서	-1104
▁어머니	-1105
▁인터넷	-1106
▁대통령이	-1107
▁낮	-1108
▁잇	-1109
▁터	-1110
소년	-1111
▁검토	-1112
▁넘게	-1113
▁도주	-1114
▁명령	-1115
▁비판	-1116
▁이상	-1117
당한	-1118
움을	-1119
▁23	-1120
▁달리	-1121
됐다고	-1122
▁이른바	-1123
▁놓	-1124
▁멈	-1125
단을	-1126
보드	-1127
소를	-1128
자로	-1129
차례	-1130
▁곳곳	-1131
▁합동	-1132
▁민주당	-1133
▁여성이	-1134
▁차량이	-1135
NS	-1136
▁블	-1137
르고	-1138
시는	-1139
▁노동	-1140
▁면서	-1141
▁명의	-1142
▁시행	-1143
▁위험	-1144
▁유족	-1145
▁출입	-1146
▁통제	-1147
▁상대로	-1148
▁성범죄	-1149
▁밖	-1150
▁거부	-1151
▁거주	-1152
▁그러	-1153
▁영국	-1154
▁유출	-1155
▁총격	-1156
▁SNS	-1157
더니	-1158
사의	-1159
지법	-1160
현준	-1161
▁내부	-1162
▁참여	-1163
▁판매	-1164
▁호소	-1165
▁여부를	-1166
▁됐습니다	-1167
력이	-1168
업체	-1169
▁교민	-1170
▁넘겨	-1171
▁시사	-1172
▁이하	-1173
▁전날	-1174
▁전문	-1175
월부터	-1176
하거나	-1177
▁고현준	-1178
▁났습니다	-1179
▁나왔습니다	-1180
NN	-1181
▁골	-1182
▁디	-1183
▁또	-1184
▁워	-1185
▁흔	-1186
안전	-1187
어서	-1188
업을	-1189
지가	-1190
▁22	-1191
▁선택	-1192
▁프랑	-1193
는데요	-1194
바이러스	-1195
론가	-1196
장의	-1197
통신	-1198
▁대피	-1199
▁먼저	-1200
▁씨와	-1201
▁피의자	-1202
▁코로나바이러스	-1203
▁로	-1204
견을	-1205
받은	-1206
이는	-1207
▁경비	-1208
▁대형	-1209
▁때문	-1210
▁백인	-1211
▁보안	-1212
▁신분	-1213
▁압수	-1214
▁외국	-1215
▁제출	-1216
▁주차	-1217
▁먹	-1218
▁죽	-1219
권을	-1220
리아	-1221
비를	-1222
지에	-1223
▁규정	-1224
▁기록	-1225
▁많이	-1226
▁이름	-1227
▁공무원	-1228
▁대부분	-1229
▁피해를	-1230
졌고	-1231
▁28	-1232
▁광주	-1233
▁나온	-1234
▁중심	-1235
▁폭발	-1236
▁해경	-1237
평론가	-1238
베이	-1239
제일	-1240
지로	-1241
립니다	-1242
원에서	-1243
킥보드	-1244
▁아동학	-1245
▁영상을	-1246
▁차량을	-1247
지방경찰청	-1248
▁싶	-1249
▁찍	-1250
▁극단	-1251
▁뉴스	-1252
▁두고	-1253
▁제주	-1254
▁사회적	-1255
▁씨에게	-1256
▁음주운전	-1257
▁덧	-1258
▁거래	-1259
▁공공	-1260
▁국방	-1261
▁못한	-1262
▁방송	-1263
▁의사	-1264
▁중이	-1265
▁환자	-1266
소에서	-1267
▁온라인	-1268
▁이라며	-1269
제일교회	-1270
▁시사평론가	-1271
▁강조했습니다	-1272
▁낸	-1273
명과	-1274
명에	-1275
▁넘는	-1276
▁있고	-1277
▁중단	-1278
▁당국은	-1279
▁사랑제일교회	-1280
▁라며	-1281
▁부인	-1282
▁취소	-1283
하다고	-1284
▁등으로	-1285
▁신고가	-1286
▁촉	-1287
▁덧붙	-1288
▁마련	-1289
▁아무	-1290
▁자료	-1291
▁앞으로	-1292
▁재판에	-1293
▁조사됐습니다	-1294
▁파악됐습니다	-1295
계를	-1296
식이	-1297
천여	-1298
훼손	-1299
▁기간	-1300
▁사기	-1301
▁정신	-1302
▁프랑스	-1303
▁페	-1304
가는	-1305
제를	-1306
▁명을	-1307
▁역시	-1308
▁충격	-1309
소에	-1310
자기	-1311
지지	-1312
▁규모	-1313
▁늘어	-1314
▁다가	-1315
▁세계	-1316
▁저녁	-1317
겠다고	-1318
▁제대로	-1319
▁상태입니다	-1320
로를	-1321
었다	-1322
▁가까	-1323
▁강력	-1324
▁벌금	-1325
▁인명	-1326
▁갑자기	-1327
▁조사에서	-1328
▁풀	-1329
▁29	-1330
▁70	-1331
▁게시	-1332
▁경위	-1333
▁공장	-1334
▁교육	-1335
▁라는	-1336
▁쓰러	-1337
▁있을	-1338
됐는데	-1339
▁범행을	-1340
▁가능성이	-1341
▁네	-1342
▁쏟	-1343
▁훔	-1344
▁휘	-1345
성이	-1346
차가	-1347
▁나서	-1348
▁목격	-1349
▁법률	-1350
집니다	-1351
▁여성을	-1352
▁계획입니다	-1353
▁소방당국은	-1354
지막	-1355
행을	-1356
▁가로	-1357
▁공격	-1358
하도록	-1359
▁덧붙였습니다	-1360
▁좋	-1361
관리	-1362
했을	-1363
▁감독	-1364
▁반쯤	-1365
▁부딪	-1366
▁숨지	-1367
▁예배	-1368
▁차를	-1369
▁자신이	-1370
▁킥보드	-1371
▁운전자가	-1372
▁구속영장을	-1373
▁희	-1374
공항	-1375
대에	-1376
들에	-1377
▁기관	-1378
▁동원	-1379
▁등은	-1380
▁살인	-1381
▁송치	-1382
▁이송	-1383
▁이탈	-1384
▁친구	-1385
▁테러	-1386
▁통과	-1387
옵니다	-1388
▁마지막	-1389
▁할머니	-1390
▁없었습니다	-1391
UV	-1392
▁끌	-1393
▁돼	-1394
▁뜻	-1395
▁키	-1396
둘러	-1397
본부	-1398
자와	-1399
▁상당	-1400
▁시내	-1401
▁입국	-1402
▁전체	-1403
▁SUV	-1404
▁내용을	-1405
▁문제가	-1406
▁안에서	-1407
▁있었던	-1408
▁횡	-1409
됐다	-1410
방을	-1411
▁26	-1412
▁31	-1413
▁국정	-1414
▁비난	-1415
▁착수	-1416
▁청구	-1417
▁초등	-1418
▁피고	-1419
▁있지만	-1420
▁깨	-1421
도는	-1422
르는	-1423
연구	-1424
▁목소	-1425
▁밝혀	-1426
▁쏟아	-1427
▁알고	-1428
▁위협	-1429
▁잇따	-1430
▁정치	-1431
▁집행	-1432
▁해외	-1433
원으로	-1434
▁있도록	-1435
▁2018	-1436
규직	-1437
되면	-1438
사와	-1439
지검	-1440
▁마약	-1441
▁전달	-1442
▁다쳤습니다	-1443
▁벌어졌습니다	-1444
▁n	-1445
▁곧	-1446
▁농	-1447
▁벗	-1448
겠다	-1449
▁나와	-1450
▁사라	-1451
▁이야	-1452
▁이틀	-1453
▁자유	-1454
▁했다	-1455
원들이	-1456
▁논란이	-1457
▁시위를	-1458
▁작업을	-1459
▁발생했습니다	-1460
▁겪	-1461
가량	-1462
니까	-1463
산시	-1464
원과	-1465
지도	-1466
▁대책	-1467
▁수준	-1468
▁아래	-1469
▁엄마	-1470
▁의뢰	-1471
▁이달	-1472
하겠다	-1473
▁국민의	-1474
▁K	-1475
▁삼	-1476
▁팔	-1477
규모	-1478
동안	-1479
성을	-1480
실에	-1481
▁그제	-1482
▁번째	-1483
▁빠져	-1484
▁정황	-1485
▁지정	-1486
▁현행	-1487
▁들어가	-1488
▁발견된	-1489
▁상황이	-1490
▁갖	-1491
▁놀	-1492
▁잔	-1493
느냐	-1494
싱턴	-1495
체를	-1496
품을	-1497
호를	-1498
▁경남	-1499
▁면허	-1500
▁신상	-1501
▁경위를	-1502
▁남성을	-1503
▁됩니다	-1504
▁상황을	-1505
▁수도권	-1506
▁워싱턴	-1507
▁인종차별	-1508
▁맡	-1509
▁죄	-1510
대는	-1511
물이	-1512
▁개혁	-1513
▁맞아	-1514
▁법정	-1515
▁불길	-1516
▁열린	-1517
▁제작	-1518
▁한편	-1519
▁그대로	-1520
▁숨지고	-1521
▁보도합니다	-1522
리스	-1523
번방	-1524
었고	-1525
▁교인	-1526
▁나머	-1527
▁대가	-1528
▁순찰	-1529
▁제보	-1530
▁주요	-1531
▁출석	-1532
▁하나	-1533
졌지만	-1534
▁청소년	-1535
랜드	-1536
적이	-1537
화문	-1538
▁경북	-1539
▁승객	-1540
▁임시	-1541
▁자택	-1542
▁처리	-1543
▁클럽	-1544
▁훼손	-1545
▁나머지	-1546
▁대해서는	-1547
▁아동학대	-1548
▁피해자가	-1549
BC	-1550
치고	-1551
▁가정	-1552
▁공사	-1553
▁마음	-1554
▁보여	-1555
▁사과	-1556
▁이곳	-1557
▁일반	-1558
▁입장	-1559
▁집에	-1560
▁처분	-1561
겠다는	-1562
리에서	-1563
▁감염병	-1564
▁정도로	-1565
▁지하철	-1566
▁바이러스	-1567
▁승용차가	-1568
▁격	-1569
▁끊	-1570
▁빚	-1571
▁빼	-1572
▁옆	-1573
기고	-1574
메라	-1575
밖에	-1576
성년	-1577
수색	-1578
주는	-1579
지털	-1580
피해	-1581
▁국립	-1582
▁다친	-1583
▁동료	-1584
▁보인	-1585
▁용의	-1586
▁저지	-1587
▁활동	-1588
▁광화문	-1589
▁미성년	-1590
▁없다고	-1591
▁원인을	-1592
▁재판부는	-1593
▁황	-1594
과학	-1595
년간	-1596
이트	-1597
인지	-1598
정부	-1599
▁감시	-1600
▁경고	-1601
▁다행	-1602
▁마을	-1603
▁방식	-1604
▁수십	-1605
▁없어	-1606
▁여자	-1607
▁오는	-1608
▁월북	-1609
▁유튜	-1610
▁조지	-1611
▁추진	-1612
▁향해	-1613
됐지만	-1614
자들이	-1615
▁디지털	-1616
▁아이를	-1617
▁추가로	-1618
▁환자가	-1619
부했습니다	-1620
▁뒷	-1621
건을	-1622
교통	-1623
보안	-1624
입국	-1625
자인	-1626
▁기준	-1627
▁말을	-1628
▁밝히	-1629
▁아내	-1630
▁외부	-1631
▁투자	-1632
▁허위	-1633
▁활용	-1634
실에서	-1635
▁상태로	-1636
▁고속도로	-1637
▁상황에서	-1638
▁압수수색	-1639
늦게	-1640
서도	-1641
형을	-1642
▁대비	-1643
▁목숨	-1644
▁무단	-1645
▁부분	-1646
▁의무	-1647
▁재산	-1648
▁진압	-1649
▁통화	-1650
▁CNN	-1651
▁시작된	-1652
▁이들이	-1653
▁너	-1654
▁느	-1655
▁탑	-1656
려고	-1657
스가	-1658
스는	-1659
였던	-1660
자체	-1661
전에	-1662
청은	-1663
▁강남	-1664
▁끝에	-1665
▁누군	-1666
▁비서	-1667
▁심각	-1668
▁아버	-1669
▁의견	-1670
▁인사	-1671
▁일본	-1672
▁점검	-1673
▁증가	-1674
▁참가	-1675
▁대규모	-1676
▁모습을	-1677
▁보이는	-1678
▁이들의	-1679
▁조치를	-1680
▁지자체	-1681
▁집에서	-1682
▁총리는	-1683
▁레	-1684
▁욕	-1685
▁육	-1686
▁챙	-1687
금지	-1688
법상	-1689
회의	-1690
▁80	-1691
▁공범	-1692
▁교도	-1693
▁또는	-1694
▁봉쇄	-1695
▁불러	-1696
▁손님	-1697
▁술을	-1698
▁응급	-1699
▁평소	-1700
▁토대로	-1701
▁P	-1702
▁볼	-1703
법을	-1704
이가	-1705
인과	-1706
▁건강	-1707
▁도시	-1708
▁메시	-1709
▁예방	-1710
▁입원	-1711
▁잘못	-1712
▁포착	-1713
▁입장을	-1714
▁때문입니다	-1715
▁못했습니다	-1716
▁신고했습니다	-1717
▁덮	-1718
▁빌	-1719
▁헬	-1720
상화	-1721
스를	-1722
에선	-1723
▁고등	-1724
▁나선	-1725
▁대전	-1726
▁도심	-1727
▁되는	-1728
▁벌인	-1729
▁부동	-1730
▁수는	-1731
▁알아	-1732
▁적극	-1733
▁최소	-1734
▁항공	-1735
되면서	-1736
역에서	-1737
자들을	-1738
한다는	-1739
했으나	-1740
▁떨어진	-1741
▁우려가	-1742
▁이용해	-1743
▁한다는	-1744
▁추정되는	-1745
▁묻	-1746
▁펜	-1747
동의	-1748
리에	-1749
씨와	-1750
▁검은	-1751
▁공유	-1752
▁내일	-1753
▁매우	-1754
▁유통	-1755
▁지점	-1756
▁창고	-1757
▁편의	-1758
▁개정안	-1759
▁경찰서	-1760
▁바이든	-1761
▁선택을	-1762
▁정부의	-1763
▁현장을	-1764
▁내렸습니다	-1765
km	-1766
▁던	-1767
관이	-1768
구가	-1769
두고	-1770
마다	-1771
장과	-1772
중앙	-1773
차로	-1774
▁고려	-1775
▁고양	-1776
▁모여	-1777
▁박원	-1778
▁식당	-1779
▁양성	-1780
▁영업	-1781
▁집계	-1782
▁추돌	-1783
▁행사	-1784
한다고	-1785
▁검찰이	-1786
▁결과를	-1787
▁만들어	-1788
으로부터	-1789
▁개인정보	-1790
▁대상으로	-1791
▁체포됐습니다	-1792
▁존	-1793
도가	-1794
이다	-1795
전히	-1796
▁경제	-1797
▁나왔	-1798
▁앞에	-1799
▁역학	-1800
▁자체	-1801
▁장비	-1802
▁전에	-1803
▁진입	-1804
▁프로	-1805
▁협조	-1806
▁박원순	-1807
▁체포된	-1808
▁병원에서	-1809
▁확진자는	-1810
▁시작했습니다	-1811
▁축	-1812
바로	-1813
심을	-1814
행위	-1815
▁과거	-1816
▁막기	-1817
▁문을	-1818
▁반발	-1819
▁발언	-1820
▁비슷	-1821
▁아침	-1822
▁의원	-1823
▁장면	-1824
▁현직	-1825
달라고	-1826
하다는	-1827
▁300	-1828
▁500	-1829
▁못하고	-1830
▁성폭행	-1831
▁수사가	-1832
▁시장은	-1833
▁진술한	-1834
▁나옵니다	-1835
▁취재했습니다	-1836
▁괴	-1837
▁뛰	-1838
▁앱	-1839
관은	-1840
나는	-1841
었던	-1842
▁강행	-1843
▁공소	-1844
▁그런	-1845
▁글을	-1846
▁담긴	-1847
▁대선	-1848
▁술에	-1849
▁외출	-1850
▁자녀	-1851
▁장례	-1852
▁접종	-1853
▁탑승	-1854
▁특수	-1855
인으로	-1856
▁모습이	-1857
▁비롯한	-1858
▁사진을	-1859
▁있었다	-1860
▁중이던	-1861
▁취재진	-1862
▁했다고	-1863
▁2017	-1864
년을	-1865
동이	-1866
령을	-1867
문에	-1868
재인	-1869
▁거짓	-1870
▁구매	-1871
▁금융	-1872
▁남부	-1873
▁무릎	-1874
▁음성	-1875
▁전동	-1876
▁점을	-1877
▁지방	-1878
▁충남	-1879
일까지	-1880
졌는데	-1881
층에서	-1882
▁다행히	-1883
▁목숨을	-1884
▁문재인	-1885
▁밀입국	-1886
▁운영자	-1887
▁증상이	-1888
▁쉽	-1889
▁억	-1890
감염	-1891
개발	-1892
댓글	-1893
사에	-1894
저녁	-1895
주민	-1896
▁가득	-1897
▁공항	-1898
▁그의	-1899
▁기존	-1900
▁김포	-1901
▁다쳐	-1902
▁담당	-1903
▁뒤에	-1904
▁사무	-1905
▁어렵	-1906
▁예상	-1907
▁우리	-1908
▁원의	-1909
▁해상	-1910
했다가	-1911
했으며	-1912
▁법무부	-1913
▁빠져나	-1914
▁아이가	-1915
▁완전히	-1916
겠습니다	-1917
▁대통령의	-1918
▁어제저녁	-1919
▁운전자는	-1920
▁지금까지	-1921
▁나타났습니다	-1922
▁둔	-1923
▁빨	-1924
구속	-1925
니아	-1926
대책	-1927
르게	-1928
요일	-1929
위터	-1930
회를	-1931
▁기다	-1932
▁남편	-1933
▁댓글	-1934
▁들고	-1935
▁배치	-1936
▁쓰레	-1937
▁언급	-1938
▁오토	-1939
▁이와	-1940
▁이웃	-1941
▁장애	-1942
▁중요	-1943
▁합의	-1944
장으로	-1945
▁곧바로	-1946
▁밖으로	-1947
▁벌어진	-1948
▁트위터	-1949
▁편의점	-1950
▁것이라고	-1951
▁오토바이	-1952
▁중심으로	-1953
▁확인하고	-1954
▁T	-1955
▁봤	-1956
가를	-1957
가족	-1958
▁갈등	-1959
▁내리	-1960
▁대학	-1961
▁맞은	-1962
▁받을	-1963
▁방향	-1964
▁수백	-1965
▁수원	-1966
▁유리	-1967
▁유지	-1968
▁이제	-1969
▁전기	-1970
▁지켜	-1971
▁회의	-1972
▁희생	-1973
보안법	-1974
인데요	-1975
▁실제로	-1976
▁않았다	-1977
▁정규직	-1978
▁중국인	-1979
▁지적했습니다	-1980
▁춘	-1981
구를	-1982
단계	-1983
당이	-1984
사태	-1985
운동	-1986
▁35	-1987
▁따른	-1988
▁만나	-1989
▁멈춰	-1990
▁비밀	-1991
▁소재	-1992
▁수가	-1993
▁전북	-1994
▁접근	-1995
▁집을	-1996
▁출신	-1997
▁통보	-1998
▁필리	-1999
▁하면	-2000
자들은	-2001
자들의	-2002
▁나오고	-2003
▁숨지게	-2004
▁않으면	-2005
▁의료진	-2006
▁하는데	-2007
명입니다	-2008
▁서울시는	-2009
▁서울중앙	-2010
▁이어지고	-2011
받았습니다	-2012
▁쇼	-2013
▁움	-2014
▁혈	-2015
관계	-2016
방에	-2017
생활	-2018
수를	-2019
시키	-2020
였다	-2021
처벌	-2022
▁가담	-2023
▁당한	-2024
▁대로	-2025
▁등록	-2026
▁반응	-2027
▁보니	-2028
▁부족	-2029
▁불안	-2030
▁블랙	-2031
▁사는	-2032
▁유흥	-2033
▁인권	-2034
▁전남	-2035
▁주말	-2036
▁준비	-2037
▁화장	-2038
상화폐	-2039
▁119	-2040
▁전화를	-2041
▁지지자	-2042
▁차량에	-2043
▁했지만	-2044
▁가상화폐	-2045
▁도로에서	-2046
▁현재까지	-2047
▁진술했습니다	-2048
▁삭	-2049
▁혼	-2050
▁훈	-2051
교육	-2052
됐던	-2053
수가	-2054
이를	-2055
이터	-2056
▁논의	-2057
▁당일	-2058
▁둘러	-2059
▁안내	-2060
▁않을	-2061
▁약탈	-2062
▁영향	-2063
▁일을	-2064
▁촉구	-2065
▁피의	-2066
사에서	-2067
▁극단적	-2068
▁부동산	-2069
▁비슷한	-2070
▁조사에	-2071
▁카메라	-2072
▁포함해	-2073
▁폭행한	-2074
▁현행범	-2075
▁그러면서	-2076
▁않습니다	-2077
▁녹	-2078
▁땅	-2079
▁빈	-2080
▁쓴	-2081
▁왕	-2082
대교	-2083
부에	-2084
우고	-2085
이지	-2086
지역	-2087
▁거쳐	-2088
▁것도	-2089
▁몰던	-2090
▁민간	-2091
▁사업	-2092
▁씨에	-2093
▁이는	-2094
▁작성	-2095
▁전망	-2096
▁전환	-2097
▁제공	-2098
▁총을	-2099
▁내용의	-2100
▁사이트	-2101
▁주민들이	-2102
간에	-2103
병원	-2104
선거	-2105
처를	-2106
▁고위	-2107
▁국무	-2108
▁받지	-2109
▁소환	-2110
▁신규	-2111
▁열고	-2112
▁열어	-2113
▁운동	-2114
▁위치	-2115
▁자동	-2116
▁지목	-2117
▁진단	-2118
▁최고	-2119
년부터	-2120
▁여성은	-2121
▁없습니다	-2122
대와	-2123
스템	-2124
스피	-2125
시의	-2126
임을	-2127
항을	-2128
▁강원	-2129
▁교사	-2130
▁놓고	-2131
▁누리	-2132
▁다녀	-2133
▁동물	-2134
▁동생	-2135
▁방조	-2136
▁사흘	-2137
▁신속	-2138
▁연결	-2139
▁영장	-2140
▁인한	-2141
▁입은	-2142
▁출소	-2143
▁통신	-2144
▁확정	-2145
▁힘들	-2146
스피싱	-2147
이라는	-2148
이었다	-2149
▁법원은	-2150
▁어려운	-2151
▁있는지	-2152
▁피해가	-2153
과학수사	-2154
▁교통사고	-2155
▁피해자를	-2156
▁보이스피싱	-2157
▁국립과학수사	-2158
▁발표했습니다	-2159
▁걷	-2160
▁견	-2161
▁숙	-2162
▁핵	-2163
개를	-2164
료를	-2165
음을	-2166
일을	-2167
제가	-2168
차에	-2169
침을	-2170
▁PC	-2171
▁계좌	-2172
▁구체	-2173
▁나가	-2174
▁내고	-2175
▁너무	-2176
▁대북	-2177
▁무너	-2178
▁보면	-2179
▁부검	-2180
▁살포	-2181
▁움직	-2182
▁정책	-2183
▁증언	-2184
▁지키	-2185
▁허용	-2186
▁누리꾼	-2187
▁사건은	-2188
▁사망자	-2189
▁알려진	-2190
▁여성의	-2191
▁이상이	-2192
▁전해드	-2193
▁조사할	-2194
▁폭행을	-2195
▁들어갔습니다	-2196
▁싸	-2197
▁쌓	-2198
▁왔	-2199
려는	-2200
보는	-2201
복지	-2202
부모	-2203
세를	-2204
이스	-2205
치는	-2206
▁남자	-2207
▁대신	-2208
▁백악	-2209
▁소녀	-2210
▁신도	-2211
▁신체	-2212
▁유치	-2213
▁의미	-2214
▁저항	-2215
▁전담	-2216
▁전세	-2217
▁지인	-2218
▁학원	-2219
씨에게	-2220
▁남성의	-2221
▁누군가	-2222
▁병원에	-2223
▁사례가	-2224
▁소방관	-2225
▁연락이	-2226
▁의혹을	-2227
▁정보를	-2228
▁한다고	-2229
▁미국에서	-2230
▁받습니다	-2231
▁국립과학수사연구	-2232
▁든	-2233
▁뿐	-2234
▁암	-2235
▁쿠	-2236
▁헌	-2237
공의	-2238
구에	-2239
기와	-2240
라이	-2241
란다	-2242
부와	-2243
▁고의	-2244
▁기각	-2245
▁다음	-2246
▁되고	-2247
▁반복	-2248
▁보트	-2249
▁입고	-2250
▁진화	-2251
▁차단	-2252
▁해양	-2253
▁회원	-2254
했다며	-2255
▁가까이	-2256
▁것처럼	-2257
▁관련한	-2258
▁문제를	-2259
▁벌이고	-2260
▁사건에	-2261
▁성폭력	-2262
▁외국인	-2263
▁장관은	-2264
▁진술을	-2265
▁처벌을	-2266
▁확인한	-2267
▁흉기를	-2268
▁2016	-2269
▁대해서도	-2270
▁시간으로	-2271
▁벌였습니다	-2272
▁U	-2273
▁걱	-2274
▁듣	-2275
▁듯	-2276
▁찬	-2277
▁콜	-2278
▁함	-2279
▁흘	-2280
란을	-2281
명도	-2282
소로	-2283
자에	-2284
▁45	-2285
▁가격	-2286
▁달려	-2287
▁뛰어	-2288
▁만든	-2289
▁밝힌	-2290
▁배달	-2291
▁부과	-2292
▁불은	-2293
▁소지	-2294
▁연방	-2295
▁올린	-2296
▁울산	-2297
▁탈출	-2298
▁표현	-2299
▁핵심	-2300
▁했던	-2301
▁뒤늦게	-2302
▁불구속	-2303
▁사망한	-2304
▁업무를	-2305
▁용의자	-2306
▁우리는	-2307
▁자리를	-2308
하겠다는	-2309
▁곳곳에서	-2310
▁인명피해	-2311
▁있었는데	-2312
▁처음으로	-2313
▁뿌	-2314
▁쫓	-2315
설을	-2316
움이	-2317
중에	-2318
지원	-2319
짜리	-2320
칙을	-2321
투표	-2322
회는	-2323
▁감사	-2324
▁걸쳐	-2325
▁대기	-2326
▁몰래	-2327
▁물류	-2328
▁방해	-2329
▁벗어	-2330
▁부정	-2331
▁불을	-2332
▁신호	-2333
▁외교	-2334
▁의한	-2335
▁정상	-2336
▁중대	-2337
▁지속	-2338
▁차에	-2339
▁판결	-2340
으면서	-2341
하다가	-2342
▁그동안	-2343
▁보도에	-2344
▁시장이	-2345
▁않는다	-2346
▁지적이	-2347
▁학대를	-2348
▁한국인	-2349
▁늦	-2350
▁루	-2351
▁얻	-2352
달라	-2353
리로	-2354
사건	-2355
사이	-2356
소가	-2357
정이	-2358
행이	-2359
▁32	-2360
▁공직	-2361
▁구급	-2362
▁만취	-2363
▁밝혔	-2364
▁부장	-2365
▁사격	-2366
▁수용	-2367
▁연구	-2368
▁요양	-2369
▁이천	-2370
▁일으	-2371
▁주거	-2372
▁지지	-2373
▁취한	-2374
▁측이	-2375
▁태국	-2376
됐다는	-2377
▁발생해	-2378
▁백악관	-2379
▁사실상	-2380
▁수밖에	-2381
▁영상이	-2382
▁의원은	-2383
▁이하의	-2384
▁확산을	-2385
고속도로	-2386
▁있었지만	-2387
▁당부했습니다	-2388
DD	-2389
▁끼	-2390
▁냉	-2391
▁와	-2392
가고	-2393
기소	-2394
받아	-2395
비스	-2396
스로	-2397
이어	-2398
전문	-2399
조치	-2400
주택	-2401
창고	-2402
함을	-2403
회가	-2404
▁검색	-2405
▁높이	-2406
▁단독	-2407
▁방치	-2408
▁법안	-2409
▁분노	-2410
▁비상	-2411
▁순간	-2412
▁이태	-2413
▁있게	-2414
▁주고	-2415
▁파손	-2416
▁평가	-2417
▁했고	-2418
월까지	-2419
▁ADD	-2420
▁도로를	-2421
▁방안을	-2422
▁시신을	-2423
▁전공의	-2424
▁직원이	-2425
▁했는데	-2426
▁이번에는	-2427
▁초등학교	-2428
▁러	-2429
▁석	-2430
▁패	-2431
같이	-2432
거래	-2433
단은	-2434
리며	-2435
보고	-2436
부의	-2437
소는	-2438
실을	-2439
연합	-2440
였고	-2441
코올	-2442
▁가짜	-2443
▁감식	-2444
▁구성	-2445
▁돌려	-2446
▁부상	-2447
▁사전	-2448
▁아기	-2449
▁작년	-2450
▁조정	-2451
▁종교	-2452
▁주먹	-2453
▁채용	-2454
▁현금	-2455
기까지	-2456
주에서	-2457
▁기소된	-2458
▁명령을	-2459
▁민주화	-2460
▁살해한	-2461
▁소식은	-2462
▁시장의	-2463
▁있다며	-2464
▁책임을	-2465
▁확인할	-2466
▁가능성을	-2467
▁근처에서	-2468
▁방식으로	-2469
▁아동보호	-2470
▁이탈리아	-2471
▁착취물을	-2472
▁꺼졌습니다	-2473
▁옮겨졌습니다	-2474
▁요청했습니다	-2475
▁판단했습니다	-2476
▁들이받았습니다	-2477
▁서울지방경찰청	-2478
▁묵	-2479
감을	-2480
네요	-2481
년이	-2482
되자	-2483
리핑	-2484
버스	-2485
점을	-2486
▁36	-2487
▁걸어	-2488
▁과태	-2489
▁귀국	-2490
▁남아	-2491
▁도망	-2492
▁독일	-2493
▁뒤로	-2494
▁명은	-2495
▁선박	-2496
▁소송	-2497
▁속에	-2498
▁수감	-2499
▁역할	-2500
▁위원	-2501
▁인물	-2502
▁자세	-2503
▁전파	-2504
▁추락	-2505
▁춘천	-2506
▁출발	-2507
▁한인	-2508
▁떨어져	-2509
▁시간이	-2510
▁앞두고	-2511
▁없었다	-2512
▁예배를	-2513
▁입주민	-2514
▁자신을	-2515
▁혐의가	-2516
▁요구하는	-2517
▁피해자의	-2518
▁적발됐습니다	-2519
▁넣	-2520
▁품	-2521
구역	-2522
도의	-2523
리다	-2524
문이	-2525
수는	-2526
적을	-2527
▁공식	-2528
▁기억	-2529
▁대법	-2530
▁보관	-2531
▁보낸	-2532
▁비용	-2533
▁시험	-2534
▁쓰지	-2535
▁에스	-2536
▁전혀	-2537
▁충북	-2538
자에게	-2539
▁202	-2540
▁관련된	-2541
▁내용이	-2542
▁대표는	-2543
▁심각한	-2544
▁의식을	-2545
▁필요한	-2546
▁파악하고	-2547
▁이어졌습니다	-2548
▁접수됐습니다	-2549
▁났	-2550
▁써	-2551
▁팀	-2552
▁풍	-2553
기한	-2554
놓고	-2555
레스	-2556
로는	-2557
시에	-2558
통을	-2559
▁38	-2560
▁건데	-2561
▁결혼	-2562
▁기사	-2563
▁기술	-2564
▁라임	-2565
▁마무	-2566
▁명예	-2567
▁무장	-2568
▁방사	-2569
▁삭제	-2570
▁살펴	-2571
▁외신	-2572
▁이춘	-2573
▁장기	-2574
▁전자	-2575
▁제외	-2576
▁지휘	-2577
▁직무	-2578
▁태안	-2579
▁훔쳐	-2580
▁감염증	-2581
▁국민청	-2582
▁국정원	-2583
▁때까지	-2584
▁머리를	-2585
▁사건의	-2586
▁소방대	-2587
▁아무런	-2588
▁이들을	-2589
▁집회에	-2590
▁늘었습니다	-2591
▁휴대전화를	-2592
▁갓	-2593
▁꾸	-2594
▁낙	-2595
▁앉	-2596
▁옥	-2597
다른	-2598
단보	-2599
렸고	-2600
로운	-2601
리기	-2602
마트	-2603
물질	-2604
미터	-2605
법에	-2606
북구	-2607
없이	-2608
우는	-2609
조차	-2610
주일	-2611
증을	-2612
▁90	-2613
▁곳이	-2614
▁공급	-2615
▁공수	-2616
▁구청	-2617
▁군은	-2618
▁끝내	-2619
▁내린	-2620
▁달라	-2621
▁매체	-2622
▁바닥	-2623
▁본격	-2624
▁성매	-2625
▁수상	-2626
▁아들	-2627
▁올려	-2628
▁유명	-2629
▁저질	-2630
▁종로	-2631
▁주도	-2632
▁혈중	-2633
▁확대	-2634
▁흔들	-2635
갑니다	-2636
하라고	-2637
▁도움을	-2638
▁비롯해	-2639
▁신고한	-2640
▁신원을	-2641
▁이춘재	-2642
▁화물차	-2643
▁횡단보	-2644
웠습니다	-2645
▁시민들이	-2646
▁피해자는	-2647
▁현행범으로	-2648
▁확인했습니다	-2649
▁옷	-2650
▁탐	-2651
가지	-2652
군은	-2653
단이	-2654
대표	-2655
민주	-2656
방송	-2657
법이	-2658
사관	-2659
역을	-2660
점이	-2661
졌다	-2662
▁공동	-2663
▁권력	-2664
▁근로	-2665
▁길을	-2666
▁높아	-2667
▁다치	-2668
▁대출	-2669
▁동영	-2670
▁동의	-2671
▁드론	-2672
▁문자	-2673
▁보수	-2674
▁부대	-2675
▁사상	-2676
▁없고	-2677
▁인해	-2678
▁전수	-2679
▁지급	-2680
▁총리	-2681
▁추산	-2682
▁출근	-2683
▁탈북	-2684
▁해제	-2685
했는지	-2686
▁당국이	-2687
▁문제로	-2688
▁미국의	-2689
▁사이버	-2690
▁서울의	-2691
▁얼굴을	-2692
▁장례식	-2693
▁지난주	-2694
▁집으로	-2695
▁포함한	-2696
▁회견을	-2697
놨습니다	-2698
렀습니다	-2699
▁국민의힘	-2700
▁소방당국	-2701
▁않았다고	-2702
▁없었지만	-2703
▁착수했습니다	-2704
드는	-2705
시켰	-2706
입한	-2707
▁개발	-2708
▁건너	-2709
▁되지	-2710
▁머물	-2711
▁방지	-2712
▁분리	-2713
▁불과	-2714
▁서해	-2715
▁수천	-2716
▁여행	-2717
▁원인	-2718
▁음란	-2719
▁철거	-2720
▁해야	-2721
시부터	-2722
었는데	-2723
하는데	-2724
▁거리두	-2725
▁공수처	-2726
▁그렇게	-2727
▁나타나	-2728
▁달리던	-2729
▁러시아	-2730
▁마무리	-2731
▁블랙박	-2732
▁아이는	-2733
▁이상의	-2734
▁이태원	-2735
▁인천시	-2736
▁일어난	-2737
▁전문가	-2738
▁절차를	-2739
▁커지고	-2740
▁혐의도	-2741
▁확인된	-2742
▁2015	-2743
▁강제추행	-2744
▁미성년자	-2745
▁시위대가	-2746
▁인근에서	-2747
▁있는데요	-2748
▁지역에서	-2749
▁항의하는	-2750
▁플로이드의	-2751
▁각	-2752
▁갇	-2753
▁얘	-2754
▁휩	-2755
가요	-2756
과는	-2757
관찰	-2758
리지	-2759
받았	-2760
병을	-2761
복을	-2762
예방	-2763
▁가게	-2764
▁노출	-2765
▁발열	-2766
▁분류	-2767
▁분위	-2768
▁불가	-2769
▁비행	-2770
▁서로	-2771
▁시달	-2772
▁안산	-2773
▁유료	-2774
▁인력	-2775
▁자금	-2776
▁자전	-2777
▁직전	-2778
▁평화	-2779
▁폐기	-2780
▁호텔	-2781
조사를	-2782
▁경찰을	-2783
▁나오는	-2784
▁달라고	-2785
▁법원에	-2786
▁사이에	-2787
▁수차례	-2788
▁유튜브	-2789
▁인터뷰	-2790
▁있었고	-2791
▁택시기	-2792
▁해경은	-2793
▁고등학생	-2794
▁상태에서	-2795
▁역학조사	-2796
▁추정됩니다	-2797
▁익	-2798
남부	-2799
들로	-2800
받고	-2801
우스	-2802
위는	-2803
천절	-2804
학년	-2805
▁강도	-2806
▁걱정	-2807
▁국토	-2808
▁다쳤	-2809
▁말한	-2810
▁명단	-2811
▁몰고	-2812
▁반려	-2813
▁방화	-2814
▁부서	-2815
▁사법	-2816
▁손을	-2817
▁이슬	-2818
▁침수	-2819
▁호흡	-2820
졌다고	-2821
▁198	-2822
▁개천절	-2823
▁곳에서	-2824
▁대북전	-2825
▁동원해	-2826
▁드러나	-2827
▁이라는	-2828
▁저지른	-2829
▁적용해	-2830
▁참석한	-2831
▁학부모	-2832
▁행위를	-2833
경찰서에	-2834
▁공공기관	-2835
▁구체적인	-2836
▁냈습니다	-2837
▁시위대를	-2838
▁운영하는	-2839
▁보건당국은	-2840
▁구속됐습니다	-2841
▁신청했습니다	-2842
▁I	-2843
▁벽	-2844
▁좌	-2845
▁캠	-2846
▁팬	-2847
▁헤	-2848
▁효	-2849
고를	-2850
면허	-2851
보건	-2852
사로	-2853
시코	-2854
신저	-2855
합당	-2856
▁가지	-2857
▁간호	-2858
▁감찰	-2859
▁공포	-2860
▁과잉	-2861
▁다양	-2862
▁명에	-2863
▁모두	-2864
▁발령	-2865
▁작은	-2866
▁전광	-2867
▁정지	-2868
▁차별	-2869
▁총에	-2870
▁해명	-2871
더라도	-2872
하라는	-2873
▁대비해	-2874
▁대상이	-2875
▁대화방	-2876
▁메신저	-2877
▁보이지	-2878
▁브리핑	-2879
▁시간을	-2880
▁시위에	-2881
▁아니냐	-2882
▁일주일	-2883
▁자전거	-2884
▁페이스	-2885
▁어린이집	-2886
▁주민들은	-2887
▁보였습니다	-2888
▁넘겨졌습니다	-2889
▁상태였습니다	-2890
▁객	-2891
▁뇌	-2892
도에	-2893
동에	-2894
란드	-2895
량이	-2896
방해	-2897
상에	-2898
실로	-2899
씨에	-2900
어를	-2901
집행	-2902
▁고용	-2903
▁관심	-2904
▁구간	-2905
▁군사	-2906
▁귀가	-2907
▁끝나	-2908
▁대공	-2909
▁돌진	-2910
▁등과	-2911
▁등장	-2912
▁몰랐	-2913
▁복귀	-2914
▁불로	-2915
▁서류	-2916
▁수집	-2917
▁이사	-2918
▁인지	-2919
▁일정	-2920
▁자치	-2921
▁전인	-2922
▁조작	-2923
▁찾지	-2924
▁채팅	-2925
▁철저	-2926
▁최종	-2927
▁터널	-2928
▁한강	-2929
▁휘두	-2930
멕시코	-2931
이었던	-2932
▁강하게	-2933
▁경비원	-2934
▁다음날	-2935
▁대책을	-2936
▁도착한	-2937
▁반응을	-2938
▁방사청	-2939
▁사람을	-2940
▁상황에	-2941
▁신고로	-2942
▁없다는	-2943
▁연기가	-2944
▁이슬람	-2945
▁자료를	-2946
▁전광훈	-2947
▁주변에	-2948
▁중상을	-2949
▁차량은	-2950
▁화재가	-2951
▁확보한	-2952
▁승용차를	-2953
▁보도입니다	-2954
▁옮겨졌지만	-2955
▁입었습니다	-2956
▁고발했습니다	-2957
▁체포했습니다	-2958
▁겨	-2959
▁슬	-2960
▁즉	-2961
▁짓	-2962
▁탔	-2963
▁털	-2964
되기	-2965
번호	-2966
변을	-2967
석에	-2968
선이	-2969
수의	-2970
이자	-2971
익을	-2972
절한	-2973
형욱	-2974
희롱	-2975
▁LG	-2976
▁광복	-2977
▁군이	-2978
▁도중	-2979
▁뒤인	-2980
▁딸을	-2981
▁머리	-2982
▁무죄	-2983
▁물에	-2984
▁바람	-2985
▁발부	-2986
▁베이	-2987
▁상담	-2988
▁상대	-2989
▁신원	-2990
▁실시	-2991
▁용산	-2992
▁유사	-2993
▁일대	-2994
▁입양	-2995
▁진천	-2996
▁징계	-2997
▁협력	-2998
달라는	-2999
알코올	-3000
포스트	-3001
하려고	-3002
▁경우가	-3003
▁문형욱	-3004
▁민식이	-3005
▁성희롱	-3006
▁속도를	-3007
▁실종된	-3008
▁유가족	-3009
▁정인이	-3010
▁메시지를	-3011
▁물류창고	-3012
▁보호관찰	-3013
▁이들에게	-3014
▁페이스북	-3015
▁상황입니다	-3016
▁요구했습니다	-3017
▁집계됐습니다	-3018
▁선고받았습니다	-3019
▁갔	-3020
▁납	-3021
▁망	-3022
▁믿	-3023
▁밟	-3024
▁염	-3025
▁웨	-3026
▁홀	-3027
경을	-3028
내는	-3029
년에	-3030
도시	-3031
산을	-3032
▁33	-3033
▁가던	-3034
▁계정	-3035
▁국제	-3036
▁근거	-3037
▁다니	-3038
▁무시	-3039
▁받게	-3040
▁방안	-3041
▁방위	-3042
▁사유	-3043
▁세워	-3044
▁소개	-3045
▁소독	-3046
▁쇼핑	-3047
▁스타	-3048
▁시속	-3049
▁억울	-3050
▁외에	-3051
▁원이	-3052
▁의회	-3053
▁이해	-3054
▁적이	-3055
▁절반	-3056
▁주로	-3057
▁주지	-3058
▁채취	-3059
▁청약	-3060
▁최초	-3061
▁펜션	-3062
▁협의	-3063
▁횡령	-3064
되기도	-3065
▁단속을	-3066
▁별다른	-3067
▁보인다	-3068
▁불길이	-3069
▁사태가	-3070
▁스스로	-3071
▁시스템	-3072
▁쓰러진	-3073
▁아들이	-3074
▁유포한	-3075
▁이름을	-3076
▁이유를	-3077
▁일어나	-3078
▁있으며	-3079
▁작업이	-3080
봤습니다	-3081
알코올농	-3082
▁2019	-3083
▁말합니다	-3084
▁보건당국	-3085
▁확인되지	-3086
▁인명피해는	-3087
▁피해자에게	-3088
▁서울중앙지검	-3089
▁혈중알코올농	-3090
▁뚫	-3091
▁쪽	-3092
구는	-3093
배를	-3094
어도	-3095
위가	-3096
일간	-3097
일에	-3098
제로	-3099
증상	-3100
지의	-3101
진을	-3102
▁가슴	-3103
▁갖고	-3104
▁걸린	-3105
▁계약	-3106
▁공연	-3107
▁관할	-3108
▁기부	-3109
▁나눠	-3110
▁때는	-3111
▁막아	-3112
▁무관	-3113
▁범인	-3114
▁불편	-3115
▁스쿨	-3116
▁쓰고	-3117
▁어디	-3118
▁오른	-3119
▁원에	-3120
▁원칙	-3121
▁음식	-3122
▁잃은	-3123
▁정말	-3124
▁정밀	-3125
▁추행	-3126
▁통행	-3127
▁파티	-3128
명령을	-3129
명에게	-3130
법으로	-3131
지에서	-3132
하려는	-3133
▁112	-3134
▁가능한	-3135
▁고려해	-3136
▁멕시코	-3137
▁밤사이	-3138
▁방문한	-3139
▁성매매	-3140
▁언론에	-3141
▁역할을	-3142
▁조사가	-3143
▁지역에	-3144
▁필리핀	-3145
섰습니다	-3146
▁2014	-3147
▁공장에서	-3148
▁목소리를	-3149
▁시위대는	-3150
▁개인정보를	-3151
▁전망입니다	-3152
▁홍콩보안법	-3153
▁맨	-3154
▁빗	-3155
▁엘	-3156
가던	-3157
가에	-3158
계가	-3159
공사	-3160
관을	-3161
년의	-3162
다시	-3163
된다	-3164
드를	-3165
란히	-3166
량을	-3167
미애	-3168
발을	-3169
비가	-3170
장치	-3171
전을	-3172
지와	-3173
처가	-3174
500	-3175
▁가스	-3176
▁검체	-3177
▁결론	-3178
▁권한	-3179
▁기능	-3180
▁나는	-3181
▁높은	-3182
▁늘고	-3183
▁담은	-3184
▁매일	-3185
▁며칠	-3186
▁못해	-3187
▁물을	-3188
▁복지	-3189
▁빚어	-3190
▁생산	-3191
▁세월	-3192
▁수습	-3193
▁위에	-3194
▁위조	-3195
▁입금	-3196
▁전단	-3197
▁진상	-3198
▁추모	-3199
▁취해	-3200
▁치안	-3201
▁카페	-3202
▁퇴직	-3203
▁포항	-3204
▁회사	-3205
▁훔친	-3206
겠다며	-3207
였는데	-3208
폴리스	-3209
▁199	-3210
▁거짓말	-3211
▁내용은	-3212
▁발언을	-3213
▁사실은	-3214
▁스쿨존	-3215
▁않았고	-3216
▁유튜버	-3217
▁정황이	-3218
▁추미애	-3219
▁택시를	-3220
▁목소리가	-3221
▁반대하는	-3222
▁아니라고	-3223
▁않았지만	-3224
▁있었다고	-3225
▁해상에서	-3226
▁현지시간	-3227
▁덕	-3228
▁벨	-3229
공무	-3230
군의	-3231
디아	-3232
목을	-3233
뿐만	-3234
세대	-3235
스의	-3236
시장	-3237
자치	-3238
조직	-3239
트남	-3240
트를	-3241
판에	-3242
▁기념	-3243
▁다리	-3244
▁더욱	-3245
▁무엇	-3246
▁반면	-3247
▁불만	-3248
▁여기	-3249
▁여론	-3250
▁위로	-3251
▁이것	-3252
▁이르	-3253
▁잡아	-3254
▁제조	-3255
▁증상	-3256
▁지도	-3257
▁챙긴	-3258
▁청원	-3259
▁체류	-3260
▁침해	-3261
▁클릭	-3262
▁태풍	-3263
▁평택	-3264
▁해서	-3265
건으로	-3266
구에서	-3267
릅니다	-3268
민주당	-3269
었다고	-3270
었다는	-3271
주시죠	-3272
하지만	-3273
▁가까운	-3274
▁구속된	-3275
▁노동자	-3276
▁등에서	-3277
▁베트남	-3278
▁부부가	-3279
▁부장판	-3280
▁사건과	-3281
▁아들을	-3282
▁연락을	-3283
▁유학생	-3284
▁일부를	-3285
▁장면이	-3286
▁처분을	-3287
▁투입해	-3288
▁회장은	-3289
▁흉기로	-3290
랐습니다	-3291
범죄수사	-3292
▁서울시가	-3293
▁수사하고	-3294
▁잇따르고	-3295
▁감염병예방	-3296
▁깊	-3297
▁즐	-3298
▁했	-3299
각을	-3300
공개	-3301
과의	-3302
디오	-3303
사무	-3304
사회	-3305
서가	-3306
에만	-3307
일이	-3308
해온	-3309
화를	-3310
▁46	-3311
▁AP	-3312
▁가져	-3313
▁곳에	-3314
▁공모	-3315
▁국적	-3316
▁군의	-3317
▁그가	-3318
▁그것	-3319
▁두려	-3320
▁뜻을	-3321
▁마구	-3322
▁마시	-3323
▁마포	-3324
▁많아	-3325
▁명도	-3326
▁모텔	-3327
▁몰려	-3328
▁물어	-3329
▁미리	-3330
▁북부	-3331
▁비닐	-3332
▁시청	-3333
▁아산	-3334
▁아예	-3335
▁안타	-3336
▁양의	-3337
▁없을	-3338
▁엘리	-3339
▁전복	-3340
▁절도	-3341
▁중고	-3342
▁중부	-3343
▁질병	-3344
▁체육	-3345
▁하던	-3346
▁형태	-3347
▁화염	-3348
▁환경	-3349
▁훈련	-3350
일에는	-3351
회의를	-3352
▁감염된	-3353
▁감염이	-3354
▁검찰의	-3355
▁광복절	-3356
▁대한민	-3357
▁데이터	-3358
▁마치고	-3359
▁사람들	-3360
▁상당의	-3361
▁시작한	-3362
▁심하게	-3363
▁아이의	-3364
▁영장을	-3365
▁위반한	-3366
▁이같이	-3367
▁자동차	-3368
▁자세한	-3369
▁증거를	-3370
▁지침을	-3371
▁활동을	-3372
▁경찰에서	-3373
▁대북전단	-3374
▁않는다는	-3375
▁어려움을	-3376
▁없었다고	-3377
▁중국에서	-3378
▁중이라고	-3379
▁직원들이	-3380
▁행정안전	-3381
▁적극적으로	-3382
▁깔	-3383
▁찔	-3384
감이	-3385
군이	-3386
길에	-3387
끄러	-3388
나라	-3389
대응	-3390
령이	-3391
보를	-3392
분간	-3393
불어	-3394
세가	-3395
수로	-3396
요원	-3397
용해	-3398
으니	-3399
장관	-3400
주가	-3401
타임	-3402
폭력	-3403
회로	-3404
▁건설	-3405
▁걸려	-3406
▁공간	-3407
▁급히	-3408
▁날아	-3409
▁누구	-3410
▁대중	-3411
▁독립	-3412
▁들여	-3413
▁마이	-3414
▁무료	-3415
▁보행	-3416
▁브라	-3417
▁상점	-3418
▁성공	-3419
▁알게	-3420
▁유도	-3421
▁일당	-3422
▁자백	-3423
▁재개	-3424
▁전면	-3425
▁제안	-3426
▁준수	-3427
▁폭동	-3428
▁하며	-3429
▁해도	-3430
감염증	-3431
보호법	-3432
칩니다	-3433
▁KNN	-3434
▁결과가	-3435
▁곳곳에	-3436
▁과태료	-3437
▁난동을	-3438
▁다가가	-3439
▁더불어	-3440
▁들어갔	-3441
▁들어와	-3442
▁빠르게	-3443
▁소란을	-3444
▁욕설을	-3445
▁유리창	-3446
▁이야기	-3447
▁있어서	-3448
▁차량과	-3449
▁취지로	-3450
▁환자는	-3451
▁용의자가	-3452
▁초등학생	-3453
▁학생들이	-3454
▁넘겼습니다	-3455
▁누리꾼들은	-3456
▁담겼습니다	-3457
▁코로나바이러스감염증	-3458
▁런	-3459
▁숫	-3460
▁쉬	-3461
건이	-3462
곳에	-3463
길을	-3464
내고	-3465
됐을	-3466
등을	-3467
방이	-3468
술을	-3469
시험	-3470
아버	-3471
았다	-3472
았던	-3473
어는	-3474
어져	-3475
유예	-3476
이라	-3477
지며	-3478
착취	-3479
체육	-3480
▁39	-3481
▁강경	-3482
▁경계	-3483
▁급증	-3484
▁끌어	-3485
▁나올	-3486
▁노력	-3487
▁당사	-3488
▁도입	-3489
▁듣고	-3490
▁떠나	-3491
▁런던	-3492
▁멈추	-3493
▁부사	-3494
▁수행	-3495
▁숨을	-3496
▁스포	-3497
▁안티	-3498
▁압박	-3499
▁양육	-3500
▁연장	-3501
▁육군	-3502
▁의붓	-3503
▁이내	-3504
▁죄송	-3505
▁참고	-3506
▁충분	-3507
▁크레	-3508
▁털어	-3509
▁폭언	-3510
▁폭우	-3511
목으로	-3512
베이터	-3513
서비스	-3514
재개발	-3515
점에서	-3516
▁가담한	-3517
▁다양한	-3518
▁단체가	-3519
▁말했다	-3520
▁범죄를	-3521
▁붙잡힌	-3522
▁비서실	-3523
▁사용한	-3524
▁스마트	-3525
▁시민이	-3526
▁어려워	-3527
▁의견을	-3528
▁의혹에	-3529
▁장애인	-3530
▁재판을	-3531
▁조치가	-3532
▁검토하고	-3533
▁국민청원	-3534
▁도로교통	-3535
▁블랙박스	-3536
▁사건으로	-3537
▁사망자는	-3538
▁자리에서	-3539
▁중앙선을	-3540
▁당했습니다	-3541
▁아파트에서	-3542
▁엘리베이터	-3543
▁더불어민주당	-3544
▁호소했습니다	-3545
▁몇	-3546
▁젊	-3547
구대	-3548
니애	-3549
방위	-3550
분을	-3551
사법	-3552
상해	-3553
스턴	-3554
시가	-3555
아이	-3556
인인	-3557
정지	-3558
주고	-3559
중한	-3560
파로	-3561
피아	-3562
하라	-3563
▁48	-3564
▁간부	-3565
▁개입	-3566
▁검역	-3567
▁것과	-3568
▁곳은	-3569
▁나흘	-3570
▁남긴	-3571
▁내가	-3572
▁노인	-3573
▁노조	-3574
▁도와	-3575
▁된다	-3576
▁등도	-3577
▁따라	-3578
▁목을	-3579
▁몰아	-3580
▁무기	-3581
▁불에	-3582
▁생명	-3583
▁손해	-3584
▁안심	-3585
▁오래	-3586
▁유죄	-3587
▁이전	-3588
▁주는	-3589
▁주최	-3590
▁중에	-3591
▁즉각	-3592
▁진료	-3593
▁집합	-3594
▁참사	-3595
▁찾은	-3596
▁출국	-3597
▁취업	-3598
▁침입	-3599
▁태운	-3600
▁하자	-3601
▁하천	-3602
▁허가	-3603
▁호랑	-3604
▁화성	-3605
검사를	-3606
납니다	-3607
된다고	-3608
상으로	-3609
중처벌	-3610
행위를	-3611
▁가지고	-3612
▁강력한	-3613
▁결정할	-3614
▁경주시	-3615
▁금품을	-3616
▁뉴스딱	-3617
▁달아나	-3618
▁동선을	-3619
▁들어오	-3620
▁들어온	-3621
▁명단을	-3622
▁무차별	-3623
▁미니애	-3624
▁붙잡아	-3625
▁산사태	-3626
▁성착취	-3627
▁소동이	-3628
▁숨지는	-3629
▁시도한	-3630
▁않도록	-3631
▁없었던	-3632
▁옮겨졌	-3633
▁의사를	-3634
▁이어질	-3635
▁전까지	-3636
▁질문에	-3637
▁체포해	-3638
▁행동을	-3639
▁거리두기	-3640
▁경찰청은	-3641
▁구속영장	-3642
▁들이받고	-3643
▁민주당은	-3644
▁사람들을	-3645
▁수사기관	-3646
▁신상정보	-3647
▁운전자를	-3648
▁이뤄지지	-3649
▁인천공항	-3650
▁조두순이	-3651
▁집단감염	-3652
▁폐쇄회로	-3653
보겠습니다	-3654
▁구속영장이	-3655
▁전해주시죠	-3656
▁미니애폴리스	-3657
▁촉구했습니다	-3658
▁샤	-3659
▁슈	-3660
▁쏘	-3661
▁쓸	-3662
▁앓	-3663
▁찌	-3664
▁흐	-3665
개시	-3666
공단	-3667
대의	-3668
대한	-3669
라스	-3670
렸다	-3671
법은	-3672
숙현	-3673
스러	-3674
업소	-3675
재난	-3676
전자	-3677
주간	-3678
해진	-3679
협회	-3680
▁56	-3681
▁강한	-3682
▁과실	-3683
▁금액	-3684
▁대처	-3685
▁데려	-3686
▁동부	-3687
▁뒤따	-3688
▁따로	-3689
▁레이	-3690
▁마신	-3691
▁만인	-3692
▁모집	-3693
▁벌이	-3694
▁법적	-3695
▁부근	-3696
▁부적	-3697
▁비가	-3698
▁빠른	-3699
▁사드	-3700
▁선별	-3701
▁성적	-3702
▁소셜	-3703
▁엄격	-3704
▁업소	-3705
▁예고	-3706
▁요원	-3707
▁운행	-3708
▁유럽	-3709
▁자주	-3710
▁재난	-3711
▁젊은	-3712
▁정리	-3713
▁진정	-3714
▁질문	-3715
▁평균	-3716
▁한번	-3717
▁행동	-3718
▁화학	-3719
네시아	-3720
렸다고	-3721
에게는	-3722
였다고	-3723
▁150	-3724
▁국회의	-3725
▁규정을	-3726
▁달하는	-3727
▁대응을	-3728
▁바닥에	-3729
▁발견돼	-3730
▁선수가	-3731
▁속도로	-3732
▁숨졌고	-3733
▁스포츠	-3734
▁쓰러져	-3735
▁안티파	-3736
▁여자친	-3737
▁조사한	-3738
▁집회가	-3739
▁찾아가	-3740
▁최숙현	-3741
▁충격을	-3742
전문기관	-3743
▁변호사는	-3744
▁부모에게	-3745
▁시민들의	-3746
▁업무개시	-3747
▁우한에서	-3748
▁의견으로	-3749
▁이후에도	-3750
▁답했습니다	-3751
▁들었습니다	-3752
▁올렸습니다	-3753
▁인도네시아	-3754
▁발견했습니다	-3755
▁붙잡았습니다	-3756
▁사망했습니다	-3757
▁시작됐습니다	-3758
▁일어났습니다	-3759
▁냈	-3760
▁능	-3761
▁뜯	-3762
▁묘	-3763
▁쏜	-3764
▁컨	-3765
▁홈	-3766
▁흙	-3767
계에	-3768
고용	-3769
국제	-3770
내려	-3771
대문	-3772
르며	-3773
만간	-3774
머스	-3775
봐야	-3776
소와	-3777
스탄	-3778
자도	-3779
정은	-3780
층에	-3781
▁37	-3782
▁43	-3783
▁47	-3784
▁65	-3785
▁가는	-3786
▁가혹	-3787
▁게임	-3788
▁경쟁	-3789
▁고향	-3790
▁그만	-3791
▁끌고	-3792
▁네팔	-3793
▁단순	-3794
▁당선	-3795
▁대변	-3796
▁로이	-3797
▁모른	-3798
▁모욕	-3799
▁무사	-3800
▁발사	-3801
▁배제	-3802
▁법원	-3803
▁부패	-3804
▁불거	-3805
▁산업	-3806
▁살피	-3807
▁쉽지	-3808
▁싶다	-3809
▁예산	-3810
▁위기	-3811
▁위법	-3812
▁잃고	-3813
▁임신	-3814
▁자수	-3815
▁적은	-3816
▁전역	-3817
▁종업	-3818
▁죽음	-3819
▁청년	-3820
▁총선	-3821
▁해결	-3822
▁해운	-3823
▁헬기	-3824
▁홍보	-3825
다면서	-3826
됐으며	-3827
라면서	-3828
렸다는	-3829
시까지	-3830
▁건가요	-3831
▁넘겨진	-3832
▁도로에	-3833
▁뒤에서	-3834
▁로이터	-3835
▁방역수	-3836
▁백신을	-3837
▁설치된	-3838
▁영업을	-3839
▁이뤄진	-3840
▁입건해	-3841
▁장비를	-3842
▁전부터	-3843
▁정도가	-3844
▁조만간	-3845
▁지장이	-3846
▁착취물	-3847
▁총격을	-3848
▁하다가	-3849
▁확인해	-3850
들로부터	-3851
이었는데	-3852
▁경찰관이	-3853
▁남성에게	-3854
▁대한민국	-3855
▁법무부는	-3856
▁오늘부터	-3857
▁위반으로	-3858
▁있었는지	-3859
▁킥보드를	-3860
시했습니다	-3861
▁비판했습니다	-3862
▁지시했습니다	-3863
JB	-3864
NA	-3865
▁G	-3866
▁꼽	-3867
▁돕	-3868
▁멍	-3869
▁쌍	-3870
▁컴	-3871
▁컸	-3872
▁텐	-3873
▁펼	-3874
▁흡	-3875
건에	-3876
명한	-3877
받는	-3878
보가	-3879
심한	-3880
았고	-3881
약을	-3882
양이	-3883
용한	-3884
인권	-3885
주에	-3886
질이	-3887
치료	-3888
팀은	-3889
표를	-3890
허가	-3891
▁42	-3892
▁개를	-3893
▁것에	-3894
▁고스	-3895
▁긴장	-3896
▁남녀	-3897
▁누가	-3898
▁독감	-3899
▁동참	-3900
▁딸이	-3901
▁마리	-3902
▁목적	-3903
▁몸싸	-3904
▁물리	-3905
▁벌여	-3906
▁법인	-3907
▁보험	-3908
▁본인	-3909
▁상해	-3910
▁송파	-3911
▁신문	-3912
▁아르	-3913
▁약속	-3914
▁엄정	-3915
▁입증	-3916
▁정체	-3917
▁존재	-3918
▁종합	-3919
▁차가	-3920
▁출범	-3921
▁출연	-3922
▁치솟	-3923
▁통일	-3924
▁풀려	-3925
▁현수	-3926
심에서	-3927
총리는	-3928
▁곳으로	-3929
▁늘어날	-3930
▁달아난	-3931
▁또다시	-3932
▁받아들	-3933
▁베이징	-3934
▁부부는	-3935
▁성북구	-3936
▁세월호	-3937
▁수사권	-3938
▁신분을	-3939
▁쓰레기	-3940
▁언론은	-3941
▁업무상	-3942
▁인근에	-3943
▁일당이	-3944
▁접수된	-3945
▁폭력을	-3946
▁해운대	-3947
▁했다는	-3948
위원회는	-3949
▁가능성에	-3950
▁공무원이	-3951
▁극단적인	-3952
▁않았다는	-3953
▁자택에서	-3954
▁조두순은	-3955
▁하는데요	-3956
해왔습니다	-3957
▁많았습니다	-3958
▁공개됐습니다	-3959
▁선고했습니다	-3960
▁입건했습니다	-3961
▁전해드립니다	-3962
▁해명했습니다	-3963
▁아동보호전문기관	-3964
▁J	-3965
▁꿇	-3966
▁닫	-3967
▁붕	-3968
▁뽑	-3969
▁척	-3970
▁칼	-3971
갑을	-3972
검색	-3973
곳을	-3974
대학	-3975
등록	-3976
리포	-3977
뮤니	-3978
분이	-3979
스럽	-3980
시를	-3981
안에	-3982
양을	-3983
어진	-3984
여서	-3985
운티	-3986
으려	-3987
장애	-3988
주지	-3989
질을	-3990
행정	-3991
형이	-3992
히는	-3993
▁44	-3994
▁52	-3995
▁55	-3996
▁57	-3997
▁SK	-3998
▁공정	-3999
▁관광	-4000
▁그렇	-4001
▁그를	-4002
▁극우	-4003
▁내년	-4004
▁답변	-4005
▁데다	-4006
▁동선	-4007
▁때린	-4008
▁몸을	-4009
▁묵인	-4010
▁배송	-4011
▁비율	-4012
▁비정	-4013
▁상가	-4014
▁세력	-4015
▁소유	-4016
▁수거	-4017
▁쉽게	-4018
▁스트	-4019
▁시점	-4020
▁야간	-4021
▁야당	-4022
▁업주	-4023
▁연관	-4024
▁연휴	-4025
▁영화	-4026
▁예비	-4027
▁유권	-4028
▁은행	-4029
▁입법	-4030
▁입찰	-4031
▁있지	-4032
▁장병	-4033
▁정의	-4034
▁조국	-4035
▁철도	-4036
▁초기	-4037
▁침을	-4038
▁테이	-4039
▁파출	-4040
▁형제	-4041
로에서	-4042
섭니다	-4043
시간여	-4044
시설에	-4045
▁400	-4046
▁검은색	-4047
▁검찰과	-4048
▁근처에	-4049
▁뒤에도	-4050
▁따르지	-4051
▁말레이	-4052
▁목사가	-4053
▁물건을	-4054
▁미끄러	-4055
▁반정부	-4056
▁발견한	-4057
▁발견해	-4058
▁범행에	-4059
▁부상을	-4060
▁불리는	-4061
▁사진과	-4062
▁사태로	-4063
▁새로운	-4064
▁시신이	-4065
▁아기가	-4066
▁영향을	-4067
▁의사당	-4068
▁의원이	-4069
▁이번에	-4070
▁이용한	-4071
▁일하던	-4072
▁저질렀	-4073
▁접촉자	-4074
▁접촉한	-4075
▁주민이	-4076
▁촬영한	-4077
▁커뮤니	-4078
▁탈북민	-4079
▁태우고	-4080
▁피고인	-4081
▁현수막	-4082
▁환자의	-4083
▁흔적이	-4084
인재개발	-4085
자치단체	-4086
▁경찰관의	-4087
▁고스란히	-4088
▁고현준의	-4089
▁명목으로	-4090
▁보안검색	-4091
▁신분으로	-4092
▁카메라를	-4093
▁화물차가	-4094
하겠습니다	-4095
▁말레이시아	-4096
▁시간입니다	-4097
▁플로이드가	-4098
▁달아났습니다	-4099
▁확보했습니다	-4100
FP	-4101
▁궁	-4102
▁닿	-4103
▁띄	-4104
▁묶	-4105
▁썼	-4106
▁엿	-4107
▁졸	-4108
▁탓	-4109
▁픽	-4110
국민	-4111
까요	-4112
달러	-4113
달아	-4114
디터	-4115
량의	-4116
렸던	-4117
리자	-4118
면을	-4119
명령	-4120
서야	-4121
소방	-4122
수록	-4123
월에	-4124
이너	-4125
일러	-4126
있는	-4127
찌를	-4128
탄을	-4129
판을	-4130
한테	-4131
환을	-4132
▁51	-4133
▁58	-4134
▁거듭	-4135
▁거론	-4136
▁겪고	-4137
▁난입	-4138
▁내지	-4139
▁노래	-4140
▁누적	-4141
▁단계	-4142
▁대체	-4143
▁도피	-4144
▁동거	-4145
▁마주	-4146
▁마친	-4147
▁매몰	-4148
▁매점	-4149
▁받기	-4150
▁배우	-4151
▁번호	-4152
▁부실	-4153
▁부탁	-4154
▁빼앗	-4155
▁사안	-4156
▁산책	-4157
▁세종	-4158
▁수리	-4159
▁순식	-4160
▁아빠	-4161
▁악성	-4162
▁일간	-4163
▁장치	-4164
▁전주	-4165
▁절차	-4166
▁주의	-4167
▁주재	-4168
▁천추	-4169
▁촉발	-4170
▁퇴원	-4171
▁혼란	-4172
▁회복	-4173
경찰은	-4174
공무원	-4175
니아주	-4176
닙니다	-4177
레이크	-4178
리면서	-4179
번호를	-4180
센터에	-4181
었지만	-4182
주의자	-4183
질랜드	-4184
청소년	-4185
층짜리	-4186
틀랜드	-4187
▁AFP	-4188
▁DNA	-4189
▁가족의	-4190
▁감식을	-4191
▁강남구	-4192
▁강제로	-4193
▁검찰총	-4194
▁것이다	-4195
▁결정을	-4196
▁경찰도	-4197
▁고통을	-4198
▁내려진	-4199
▁달아났	-4200
▁바란다	-4201
▁받았고	-4202
▁범죄가	-4203
▁베란다	-4204
▁부산의	-4205
▁분석해	-4206
▁시신은	-4207
▁에디터	-4208
▁옮겨져	-4209
▁우리가	-4210
▁의혹이	-4211
▁이어진	-4212
▁적발된	-4213
▁중국의	-4214
▁지목된	-4215
▁지역을	-4216
▁지키지	-4217
▁통합당	-4218
▁트럭이	-4219
▁피해는	-4220
▁화상을	-4221
▁2020	-4222
▁가능성도	-4223
▁고등학교	-4224
▁규정하고	-4225
▁대통령을	-4226
▁발견되지	-4227
▁살해하고	-4228
▁순식간에	-4229
▁우리나라	-4230
▁진행하고	-4231
▁집행유예	-4232
▁커뮤니티	-4233
▁관련해서는	-4234
▁내놨습니다	-4235
▁시작합니다	-4236
▁예상됩니다	-4237
▁입장입니다	-4238
▁집중적으로	-4239
BS	-4240
▁곡	-4241
▁꼭	-4242
▁멀	-4243
▁쇠	-4244
▁층	-4245
▁캘	-4246
▁콘	-4247
고가	-4248
국이	-4249
군을	-4250
그러	-4251
네소	-4252
뉴스	-4253
다면	-4254
리게	-4255
리던	-4256
리와	-4257
무를	-4258
번째	-4259
보기	-4260
분에	-4261
살인	-4262
성과	-4263
시켜	-4264
왔고	-4265
위에	-4266
이기	-4267
이탈	-4268
정에	-4269
질심	-4270
추홀	-4271
치사	-4272
터널	-4273
페이	-4274
협의	-4275
호선	-4276
화가	-4277
환자	-4278
▁34	-4279
▁강요	-4280
▁건지	-4281
▁고립	-4282
▁골목	-4283
▁공익	-4284
▁군을	-4285
▁그때	-4286
▁기본	-4287
▁달러	-4288
▁담배	-4289
▁동승	-4290
▁리원	-4291
▁마찬	-4292
▁맞고	-4293
▁모임	-4294
▁무려	-4295
▁바탕	-4296
▁부담	-4297
▁부당	-4298
▁부착	-4299
▁사다	-4300
▁시절	-4301
▁심리	-4302
▁양천	-4303
▁연루	-4304
▁열차	-4305
▁오랜	-4306
▁우편	-4307
▁은폐	-4308
▁의암	-4309
▁이혼	-4310
▁일고	-4311
▁입수	-4312
▁자리	-4313
▁장소	-4314
▁저장	-4315
▁저희	-4316
▁정권	-4317
▁종결	-4318
▁주인	-4319
▁집어	-4320
▁차지	-4321
▁추도	-4322
▁타이	-4323
▁탈옥	-4324
▁특례	-4325
▁하다	-4326
▁홀로	-4327
▁회견	-4328
▁힘든	-4329
곳에서	-4330
네소타	-4331
렸는데	-4332
만으로	-4333
보다는	-4334
하지는	-4335
▁경로를	-4336
▁관리에	-4337
▁교도소	-4338
▁나오지	-4339
▁당국의	-4340
▁대학생	-4341
▁도움이	-4342
▁둘러싼	-4343
▁들어간	-4344
▁미추홀	-4345
▁별도로	-4346
▁브라질	-4347
▁소방서	-4348
▁신상을	-4349
▁신청할	-4350
▁실형을	-4351
▁아래로	-4352
▁직고용	-4353
▁차량의	-4354
▁춘천시	-4355
▁캘리포	-4356
▁행위가	-4357
▁혐의에	-4358
거리에서	-4359
국제공항	-4360
자들에게	-4361
▁개정안은	-4362
▁거주하는	-4363
▁경우에는	-4364
▁권력기관	-4365
▁목적으로	-4366
▁미네소타	-4367
▁보건복지	-4368
▁비정규직	-4369
▁사람들은	-4370
▁아이들을	-4371
▁어린이가	-4372
▁이어지는	-4373
▁장례식장	-4374
▁주변에서	-4375
▁주장하고	-4376
▁진행되고	-4377
▁질병관리	-4378
▁추적하고	-4379
▁추정하고	-4380
▁프로그램	-4381
▁화학물질	-4382
▁국가보안법	-4383
▁브리핑에서	-4384
▁옮겨졌으나	-4385
▁검거됐습니다	-4386
▁인천국제공항	-4387
▁조사했습니다	-4388
▁진행됐습니다	-4389
▁포착됐습니다	-4390
▁깃	-4391
▁낚	-4392
▁웃	-4393
▁쳐	-4394
▁티	-4395
금융	-4396
기간	-4397
기의	-4398
기지	-4399
노동	-4400
놓은	-4401
동물	-4402
디어	-4403
롭게	-4404
미수	-4405
받을	-4406
상의	-4407
서울	-4408
석을	-4409
스터	-4410
왔다	-4411
이며	-4412
인한	-4413
전이	-4414
지인	-4415
탱크	-4416
품이	-4417
퓨터	-4418
화학	-4419
▁강서	-4420
▁개선	-4421
▁건축	-4422
▁고무	-4423
▁고민	-4424
▁공적	-4425
▁공조	-4426
▁광역	-4427
▁기대	-4428
▁길이	-4429
▁나갔	-4430
▁나라	-4431
▁난간	-4432
▁남은	-4433
▁눈에	-4434
▁도박	-4435
▁동네	-4436
▁말이	-4437
▁매달	-4438
▁발레	-4439
▁사퇴	-4440
▁삼성	-4441
▁상습	-4442
▁선언	-4443
▁성향	-4444
▁소년	-4445
▁소비	-4446
▁수치	-4447
▁스페	-4448
▁야산	-4449
▁요즘	-4450
▁위안	-4451
▁의결	-4452
▁인계	-4453
▁일산	-4454
▁있기	-4455
▁자격	-4456
▁전신	-4457
▁전염	-4458
▁전직	-4459
▁조수	-4460
▁주목	-4461
▁증명	-4462
▁채로	-4463
▁초과	-4464
▁총기	-4465
▁총회	-4466
▁추격	-4467
▁텐데	-4468
▁통한	-4469
▁파주	-4470
▁풀어	-4471
▁해변	-4472
▁해산	-4473
▁호주	-4474
▁후원	-4475
면서도	-4476
버스터	-4477
본부는	-4478
았지만	-4479
판에서	-4480
하다며	-4481
▁가족이	-4482
▁강력히	-4483
▁강원도	-4484
▁검사가	-4485
▁결과는	-4486
▁계기로	-4487
▁고의로	-4488
▁국방부	-4489
▁놀이터	-4490
▁다녀온	-4491
▁돌아가	-4492
▁드라이	-4493
▁목격한	-4494
▁못했다	-4495
▁문제는	-4496
▁밝히지	-4497
▁부통령	-4498
▁사실도	-4499
▁사진이	-4500
▁성명을	-4501
▁수사는	-4502
▁안전을	-4503
▁않았던	-4504
▁어기고	-4505
▁엄마가	-4506
▁없었고	-4507
▁요청을	-4508
▁응하지	-4509
▁이르는	-4510
▁일부가	-4511
▁일하는	-4512
▁적용할	-4513
▁주변을	-4514
▁증거가	-4515
▁차에서	-4516
▁최대한	-4517
▁최선을	-4518
▁충돌이	-4519
▁컴퓨터	-4520
▁콜센터	-4521
▁투표용	-4522
▁폐기물	-4523
▁필요가	-4524
▁확보해	-4525
▁후베이	-4526
▁휘두른	-4527
기입니다	-4528
▁대중교통	-4529
▁보수단체	-4530
▁보인다고	-4531
▁봤습니다	-4532
▁스마트폰	-4533
▁아니냐는	-4534
▁어머니가	-4535
▁왔습니다	-4536
▁의심되는	-4537
▁이야기를	-4538
▁있었다는	-4539
▁조주빈이	-4540
▁집합금지	-4541
▁포틀랜드	-4542
▁확인하기	-4543
시켰습니다	-4544
▁경찰관에게	-4545
▁모습입니다	-4546
▁부산경찰청	-4547
▁열렸습니다	-4548
▁예정이라고	-4549
▁필리버스터	-4550
▁필요하다고	-4551
▁구속했습니다	-4552
▁파악했습니다	-4553
▁혈중알코올농도는	-4554
▁굉	-4555
▁꼬	-4556
▁꿈	-4557
▁눌	-4558
▁됐	-4559
▁쉴	-4560
▁좁	-4561
▁칸	-4562
▁훌	-4563
▁흰	-4564
객이	-4565
건은	-4566
건의	-4567
금이	-4568
다툼	-4569
단의	-4570
리카	-4571
북부	-4572
북한	-4573
뻘건	-4574
사인	-4575
서에	-4576
세청	-4577
수도	-4578
시킨	-4579
어난	-4580
없는	-4581
오는	-4582
운용	-4583
의료	-4584
이드	-4585
이션	-4586
이에	-4587
주행	-4588
트가	-4589
▁74	-4590
▁갓갓	-4591
▁격렬	-4592
▁고교	-4593
▁과학	-4594
▁구형	-4595
▁남북	-4596
▁냉장	-4597
▁넘은	-4598
▁닿지	-4599
▁대리	-4600
▁대폭	-4601
▁도내	-4602
▁돈이	-4603
▁만난	-4604
▁맡은	-4605
▁바꿔	-4606
▁발병	-4607
▁발전	-4608
▁방임	-4609
▁법과	-4610
▁법을	-4611
▁보복	-4612
▁부러	-4613
▁분양	-4614
▁불꽃	-4615
▁붕괴	-4616
▁상품	-4617
▁소형	-4618
▁속출	-4619
▁신뢰	-4620
▁않자	-4621
▁애초	-4622
▁양형	-4623
▁여야	-4624
▁여의	-4625
▁연예	-4626
▁웨이	-4627
▁윤석	-4628
▁이행	-4629
▁자살	-4630
▁작동	-4631
▁잠적	-4632
▁장갑	-4633
▁적힌	-4634
▁전임	-4635
▁조건	-4636
▁좋은	-4637
▁주문	-4638
▁지미	-4639
▁직장	-4640
▁집무	-4641
▁쫓아	-4642
▁채무	-4643
▁커피	-4644
▁택배	-4645
▁투약	-4646
▁트레	-4647
▁퍼뜨	-4648
▁하게	-4649
▁한때	-4650
▁행진	-4651
라스틱	-4652
습니까	-4653
았다고	-4654
▁TBC	-4655
▁거리를	-4656
▁광주시	-4657
▁남성과	-4658
▁다치게	-4659
▁댓글을	-4660
▁말다툼	-4661
▁무릎에	-4662
▁무면허	-4663
▁미시간	-4664
▁방지를	-4665
▁벌금을	-4666
▁법원이	-4667
▁벗어나	-4668
▁변호사	-4669
▁부모의	-4670
▁부산시	-4671
▁사람도	-4672
▁사망에	-4673
▁상황은	-4674
▁소식을	-4675
▁소식이	-4676
▁손해배	-4677
▁쇼핑몰	-4678
▁시간에	-4679
▁실종자	-4680
▁아기를	-4681
▁안에는	-4682
▁안타까	-4683
▁위험이	-4684
▁이처럼	-4685
▁인정한	-4686
▁전세기	-4687
▁제기한	-4688
▁제출한	-4689
▁직원은	-4690
▁타이어	-4691
▁파악한	-4692
북한운동	-4693
청사에서	-4694
해달라고	-4695
▁것이라는	-4696
▁국정원법	-4697
▁근무하는	-4698
▁대구교회	-4699
▁여성에게	-4700
▁외신들은	-4701
▁이곳에서	-4702
▁임시생활	-4703
▁전역에서	-4704
▁특별수사	-4705
▁플라스틱	-4706
▁미국에서는	-4707
북한운동연합	-4708
▁감염병예방법	-4709
▁검거했습니다	-4710
▁기소됐습니다	-4711
▁자유북한운동연합	-4712
11	-4713
▁낳	-4714
▁니	-4715
▁밑	-4716
▁삶	-4717
▁싱	-4718
▁엔	-4719
▁웡	-4720
▁찢	-4721
▁캐	-4722
가락	-4723
거돈	-4724
들어	-4725
법인	-4726
부로	-4727
선에	-4728
스프	-4729
양의	-4730
어가	-4731
인력	-4732
일과	-4733
자들	-4734
제한	-4735
주점	-4736
체포	-4737
카고	-4738
튿날	-4739
피스	-4740
▁54	-4741
▁가서	-4742
▁가평	-4743
▁개의	-4744
▁관여	-4745
▁군포	-4746
▁깨고	-4747
▁꺼내	-4748
▁끝난	-4749
▁나누	-4750
▁나눔	-4751
▁나설	-4752
▁넘긴	-4753
▁다투	-4754
▁동해	-4755
▁동행	-4756
▁두기	-4757
▁등교	-4758
▁때려	-4759
▁뜯어	-4760
▁마트	-4761
▁많다	-4762
▁면책	-4763
▁모인	-4764
▁목표	-4765
▁무리	-4766
▁문화	-4767
▁미래	-4768
▁미안	-4769
▁바뀌	-4770
▁배경	-4771
▁보냈	-4772
▁보육	-4773
▁부추	-4774
▁부평	-4775
▁브로	-4776
▁빼돌	-4777
▁살던	-4778
▁상징	-4779
▁생긴	-4780
▁생후	-4781
▁설립	-4782
▁세탁	-4783
▁소홀	-4784
▁송금	-4785
▁슈퍼	-4786
▁신경	-4787
▁심의	-4788
▁아는	-4789
▁아프	-4790
▁않다	-4791
▁앱을	-4792
▁양이	-4793
▁엄벌	-4794
▁없애	-4795
▁역사	-4796
▁용인	-4797
▁원내	-4798
▁의문	-4799
▁이루	-4800
▁적혀	-4801
▁전투	-4802
▁정당	-4803
▁주소	-4804
▁줄어	-4805
▁차이	-4806
▁창문	-4807
▁천막	-4808
▁체온	-4809
▁측근	-4810
▁태워	-4811
▁탱크	-4812
▁파견	-4813
▁휩쓸	-4814
됐다가	-4815
방에서	-4816
사이트	-4817
상에서	-4818
음에도	-4819
조치를	-4820
통신은	-4821
▁TJB	-4822
▁건물에	-4823
▁검사는	-4824
▁고양이	-4825
▁공개된	-4826
▁관심이	-4827
▁근로자	-4828
▁대표가	-4829
▁대화를	-4830
▁마약을	-4831
▁마음을	-4832
▁맞은편	-4833
▁모르는	-4834
▁못하는	-4835
▁무사히	-4836
▁무증상	-4837
▁병원을	-4838
▁북한이	-4839
▁사례는	-4840
▁사례를	-4841
▁사우스	-4842
▁살포를	-4843
▁상태가	-4844
▁선수를	-4845
▁설치해	-4846
▁소리를	-4847
▁소송을	-4848
▁수사와	-4849
▁시뻘건	-4850
▁시카고	-4851
▁신청을	-4852
▁신청한	-4853
▁실시간	-4854
▁아니다	-4855
▁안으로	-4856
▁없지만	-4857
▁오거돈	-4858
▁올라온	-4859
▁운전을	-4860
▁울산시	-4861
▁원인이	-4862
▁윤석열	-4863
▁이유가	-4864
▁이전에	-4865
▁이튿날	-4866
▁있다가	-4867
▁있어야	-4868
▁자유를	-4869
▁전자발	-4870
▁제주시	-4871
▁직원을	-4872
▁차이가	-4873
▁착용을	-4874
▁트럭을	-4875
▁항공기	-4876
▁화재로	-4877
▁가정폭력	-4878
▁검사에서	-4879
▁검색어는	-4880
▁경기남부	-4881
▁관계기관	-4882
▁긴급체포	-4883
▁대공수사	-4884
▁바탕으로	-4885
▁받았지만	-4886
▁사망자가	-4887
▁사전투표	-4888
▁아닙니다	-4889
▁차원에서	-4890
▁충격으로	-4891
▁필요하다	-4892
▁소식입니다	-4893
▁구조됐습니다	-4894
▁서울중앙지법	-4895
▁F	-4896
▁곤	-4897
▁넓	-4898
▁둘	-4899
▁뜨	-4900
▁벤	-4901
▁빛	-4902
▁뺑	-4903
▁뻔	-4904
▁옹	-4905
▁켜	-4906
▁턱	-4907
같은	-4908
관과	-4909
교도	-4910
구치	-4911
기술	-4912
널드	-4913
단속	-4914
드레	-4915
레탄	-4916
리티	-4917
마자	-4918
복무	-4919
부대	-4920
분께	-4921
비서	-4922
사업	-4923
상황	-4924
소니	-4925
시와	-4926
안보	-4927
업에	-4928
연히	-4929
오던	-4930
졌을	-4931
죄로	-4932
중이	-4933
진료	-4934
카오	-4935
팀을	-4936
평도	-4937
폴리	-4938
해도	-4939
해를	-4940
▁감소	-4941
▁개최	-4942
▁걸릴	-4943
▁경험	-4944
▁굉장	-4945
▁구로	-4946
▁군인	-4947
▁규탄	-4948
▁그냥	-4949
▁기침	-4950
▁나간	-4951
▁난방	-4952
▁노예	-4953
▁다급	-4954
▁당첨	-4955
▁대검	-4956
▁뒤집	-4957
▁뚫고	-4958
▁마린	-4959
▁막을	-4960
▁맞춰	-4961
▁명확	-4962
▁미만	-4963
▁반성	-4964
▁보는	-4965
▁보다	-4966
▁부부	-4967
▁산불	-4968
▁살아	-4969
▁상인	-4970
▁서구	-4971
▁손에	-4972
▁수영	-4973
▁수정	-4974
▁숙박	-4975
▁씨도	-4976
▁악화	-4977
▁안팎	-4978
▁양측	-4979
▁연쇄	-4980
▁엿새	-4981
▁완화	-4982
▁인식	-4983
▁잡고	-4984
▁장을	-4985
▁정식	-4986
▁조회	-4987
▁종종	-4988
▁주행	-4989
▁지내	-4990
▁지침	-4991
▁창녕	-4992
▁최루	-4993
▁추궁	-4994
▁추천	-4995
▁측에	-4996
▁측정	-4997
▁치러	-4998
▁컨테	-4999
▁피운	-5000
▁항소	-5001
▁해안	-5002
▁향후	-5003
▁화상	-5004
▁확실	-5005
▁휩싸	-5006
는지는	-5007
리기도	-5008
실질심	-5009
으로는	-5010
졌다는	-5011
지기도	-5012
피스텔	-5013
▁가로챈	-5014
▁가방에	-5015
▁거라고	-5016
▁건물이	-5017
▁검찰청	-5018
▁공개한	-5019
▁과정에	-5020
▁교차로	-5021
▁기사가	-5022
▁기억이	-5023
▁다세대	-5024
▁동의를	-5025
▁들여다	-5026
▁때마다	-5027
▁마시고	-5028
▁명으로	-5029
▁방침을	-5030
▁변호인	-5031
▁분석한	-5032
▁불가능	-5033
▁뺑소니	-5034
▁사업을	-5035
▁사태를	-5036
▁세상을	-5037
▁소셜미	-5038
▁수사도	-5039
▁수상한	-5040
▁신원이	-5041
▁아동을	-5042
▁에스퍼	-5043
▁연기를	-5044
▁열리는	-5045
▁우레탄	-5046
▁위에서	-5047
▁입국한	-5048
▁장면을	-5049
▁전기난	-5050
▁정부와	-5051
▁정황을	-5052
▁제보를	-5053
▁주민은	-5054
▁주장을	-5055
▁주차된	-5056
▁증상을	-5057
▁지금은	-5058
▁지나던	-5059
▁진행된	-5060
▁징역형	-5061
▁참여한	-5062
▁추적을	-5063
▁출발해	-5064
▁판결을	-5065
▁판사는	-5066
▁행위는	-5067
▁협조를	-5068
하면서도	-5069
했는데요	-5070
▁경주시청	-5071
▁경찰에게	-5072
▁계속해서	-5073
▁고소장을	-5074
▁구속기소	-5075
▁금지하는	-5076
▁나오면서	-5077
▁뉴질랜드	-5078
▁들이받은	-5079
▁무단이탈	-5080
▁무시하고	-5081
▁발견하고	-5082
▁발생하지	-5083
▁부산에서	-5084
▁생명에는	-5085
▁서울시와	-5086
▁업무방해	-5087
▁오피스텔	-5088
▁인터넷에	-5089
▁최근까지	-5090
▁컨테이너	-5091
▁현장에는	-5092
▁고속도로를	-5093
▁마지막으로	-5094
▁모였습니다	-5095
▁서울시장의	-5096
▁알려졌는데	-5097
▁인터뷰에서	-5098
▁피해자들을	-5099
▁횡단보도를	-5100
▁발부했습니다	-5101
▁밝혀졌습니다	-5102
▁송치했습니다	-5103
▁의뢰했습니다	-5104
▁이송됐습니다	-5105
▁지방자치단체	-5106
SB	-5107
cm	-5108
▁똑	-5109
▁셈	-5110
▁액	-5111
▁줬	-5112
▁짧	-5113
▁칠	-5114
▁톈	-5115
▁튀	-5116
가며	-5117
간의	-5118
감독	-5119
개의	-5120
게는	-5121
관에	-5122
구와	-5123
군과	-5124
급을	-5125
년대	-5126
단한	-5127
데도	-5128
들목	-5129
라면	-5130
량은	-5131
리어	-5132
망이	-5133
밀히	-5134
방사	-5135
보니	-5136
뼈가	-5137
사도	-5138
산의	-5139
생을	-5140
성에	-5141
성의	-5142
승을	-5143
시로	-5144
실과	-5145
아동	-5146
어로	-5147
여객	-5148
오고	-5149
졌던	-5150
조로	-5151
조정	-5152
카르	-5153
▁59	-5154
▁62	-5155
▁갇혀	-5156
▁감정	-5157
▁경로	-5158
▁고령	-5159
▁관제	-5160
▁괴롭	-5161
▁구명	-5162
▁권고	-5163
▁그룹	-5164
▁기초	-5165
▁나무	-5166
▁내세	-5167
▁네덜	-5168
▁녹음	-5169
▁대남	-5170
▁말에	-5171
▁목사	-5172
▁목포	-5173
▁무더	-5174
▁미군	-5175
▁미뤄	-5176
▁법조	-5177
▁변경	-5178
▁보기	-5179
▁봉투	-5180
▁부하	-5181
▁분명	-5182
▁비운	-5183
▁사연	-5184
▁사우	-5185
▁성인	-5186
▁소요	-5187
▁속속	-5188
▁실려	-5189
▁심야	-5190
▁심한	-5191
▁쌓여	-5192
▁역대	-5193
▁연기	-5194
▁욕설	-5195
▁위탁	-5196
▁의식	-5197
▁이스	-5198
▁일자	-5199
▁임명	-5200
▁입소	-5201
▁입어	-5202
▁자연	-5203
▁자칫	-5204
▁잠복	-5205
▁재심	-5206
▁재활	-5207
▁전쟁	-5208
▁정무	-5209
▁정차	-5210
▁제가	-5211
▁제도	-5212
▁제동	-5213
▁조금	-5214
▁주유	-5215
▁중순	-5216
▁지능	-5217
▁찬성	-5218
▁축구	-5219
▁탄핵	-5220
▁토로	-5221
▁퇴근	-5222
▁퍼져	-5223
▁플로	-5224
▁하기	-5225
▁해킹	-5226
▁환전	-5227
▁효과	-5228
▁흔적	-5229
▁힘을	-5230
르면서	-5231
스러운	-5232
시스템	-5233
시에서	-5234
았는데	-5235
적이고	-5236
치면서	-5237
통신에	-5238
▁갈등이	-5239
▁결혼식	-5240
▁경우도	-5241
▁경위는	-5242
▁공격을	-5243
▁굉장히	-5244
▁나눔의	-5245
▁나타났	-5246
▁다리를	-5247
▁단속에	-5248
▁당국에	-5249
▁대사관	-5250
▁도널드	-5251
▁뒤에야	-5252
▁매점매	-5253
▁무릎을	-5254
▁문자를	-5255
▁발생할	-5256
▁범인이	-5257
▁불길을	-5258
▁브로커	-5259
▁사전에	-5260
▁사태에	-5261
▁상처를	-5262
▁서울역	-5263
▁속에서	-5264
▁수준의	-5265
▁수천만	-5266
▁숨지기	-5267
▁시간대	-5268
▁시위는	-5269
▁식으로	-5270
▁아직도	-5271
▁어려울	-5272
▁오늘도	-5273
▁요청한	-5274
▁위험한	-5275
▁의무화	-5276
▁의사가	-5277
▁일어났	-5278
▁일으키	-5279
▁일정을	-5280
▁작업에	-5281
▁재개발	-5282
▁절차에	-5283
▁정보가	-5284
▁조직원	-5285
▁주먹을	-5286
▁중에는	-5287
▁지구대	-5288
▁지정된	-5289
▁지지를	-5290
▁진행할	-5291
▁체포한	-5292
▁카운티	-5293
▁판단을	-5294
▁혐의는	-5295
센터에서	-5296
▁곳입니다	-5297
▁공직선거	-5298
▁국가정보	-5299
▁국방과학	-5300
▁국방부는	-5301
▁김포공항	-5302
▁뉴욕타임	-5303
▁방역당국	-5304
▁사람들의	-5305
▁탔습니다	-5306
▁피의자가	-5307
▁가상화폐를	-5308
▁관계자들이	-5309
▁보냈습니다	-5310
▁열었습니다	-5311
▁자가격리를	-5312
▁지지자들이	-5313
▁경고했습니다	-5314
▁기각했습니다	-5315
▁도착했습니다	-5316
▁부인했습니다	-5317
▁언급했습니다	-5318
▁겸	-5319
▁덜	-5320
▁떼	-5321
▁밥	-5322
▁뱉	-5323
▁쟁	-5324
▁핀	-5325
공원	-5326
관의	-5327
구청	-5328
기야	-5329
기업	-5330
되어	-5331
들인	-5332
라서	-5333
렌식	-5334
르기	-5335
매체	-5336
메시	-5337
물에	-5338
바논	-5339
반이	-5340
백여	-5341
벽을	-5342
별로	-5343
비에	-5344
사키	-5345
세균	-5346
속히	-5347
수습	-5348
스에	-5349
어요	-5350
와의	-5351
우로	-5352
위로	-5353
일한	-5354
장도	-5355
직을	-5356
치지	-5357
통이	-5358
평등	-5359
푸르	-5360
하이	-5361
해양	-5362
▁63	-5363
▁75	-5364
▁감금	-5365
▁강동	-5366
▁강풍	-5367
▁거세	-5368
▁과속	-5369
▁관악	-5370
▁교체	-5371
▁권리	-5372
▁규제	-5373
▁그날	-5374
▁그중	-5375
▁극좌	-5376
▁날이	-5377
▁남양	-5378
▁내에	-5379
▁넣어	-5380
▁노원	-5381
▁노트	-5382
▁다툼	-5383
▁담겨	-5384
▁돌고	-5385
▁뒷좌	-5386
▁들은	-5387
▁말씀	-5388
▁매장	-5389
▁무게	-5390
▁물이	-5391
▁물품	-5392
▁발로	-5393
▁벤츠	-5394
▁보시	-5395
▁보장	-5396
▁보조	-5397
▁부활	-5398
▁비해	-5399
▁빌라	-5400
▁사살	-5401
▁새로	-5402
▁속여	-5403
▁술집	-5404
▁숨겨	-5405
▁스토	-5406
▁실랑	-5407
▁얘기	-5408
▁어른	-5409
▁엄청	-5410
▁우체	-5411
▁원래	-5412
▁위장	-5413
▁음악	-5414
▁입구	-5415
▁자정	-5416
▁작품	-5417
▁잔해	-5418
▁재범	-5419
▁적지	-5420
▁전략	-5421
▁접속	-5422
▁제시	-5423
▁조처	-5424
▁중태	-5425
▁진영	-5426
▁짓눌	-5427
▁찍은	-5428
▁찾는	-5429
▁챙겨	-5430
▁첫날	-5431
▁출산	-5432
▁치여	-5433
▁탓에	-5434
▁통상	-5435
▁퇴소	-5436
▁합참	-5437
▁해석	-5438
▁화가	-5439
▁흰색	-5440
가량을	-5441
개월을	-5442
관계를	-5443
교육청	-5444
도에서	-5445
선에서	-5446
시설을	-5447
연구소	-5448
이었고	-5449
졌으며	-5450
쪽으로	-5451
차이나	-5452
▁700	-5453
▁800	-5454
▁거라는	-5455
▁것인데	-5456
▁경찰차	-5457
▁고발을	-5458
▁과정을	-5459
▁규모의	-5460
▁기사를	-5461
▁단체는	-5462
▁대응에	-5463
▁됐다고	-5464
▁레바논	-5465
▁무기징	-5466
▁무죄를	-5467
▁벌이다	-5468
▁법정에	-5469
▁보여주	-5470
▁부모는	-5471
▁사고는	-5472
▁사람의	-5473
▁서대문	-5474
▁서울대	-5475
▁순찰차	-5476
▁아내와	-5477
▁아동의	-5478
▁안전한	-5479
▁여성과	-5480
▁여파로	-5481
▁오늘은	-5482
▁요구한	-5483
▁운전한	-5484
▁의식이	-5485
▁이번이	-5486
▁이스라	-5487
▁이용자	-5488
▁인천의	-5489
▁일부는	-5490
▁자신은	-5491
▁전단을	-5492
▁정도의	-5493
▁정세균	-5494
▁정신을	-5495
▁제외한	-5496
▁중요한	-5497
▁지시한	-5498
▁지원을	-5499
▁징계를	-5500
▁철저히	-5501
▁총기를	-5502
▁출동해	-5503
▁타이완	-5504
▁파악해	-5505
▁판단한	-5506
▁판매한	-5507
▁포함돼	-5508
▁학생이	-5509
▁합동감	-5510
▁현금을	-5511
▁휴스턴	-5512
닝포스트	-5513
위원회가	-5514
위원회를	-5515
이었지만	-5516
하겠다며	-5517
회의에서	-5518
▁개정안을	-5519
▁네덜란드	-5520
▁당했다고	-5521
▁대피하는	-5522
▁대한체육	-5523
▁만입니다	-5524
▁매점매석	-5525
▁받아들이	-5526
▁받았는데	-5527
▁사회복무	-5528
▁선별진료	-5529
▁수원여객	-5530
▁아르바이	-5531
▁어머니와	-5532
▁용의자를	-5533
▁원내대표	-5534
▁이상으로	-5535
▁이어가고	-5536
▁자신에게	-5537
▁재산피해	-5538
▁재판에서	-5539
▁주택에서	-5540
▁플로리다	-5541
▁확산하는	-5542
▁확인하는	-5543
▁회의에서	-5544
▁덮쳤습니다	-5545
▁부장판사는	-5546
▁영장실질심	-5547
▁오토바이를	-5548
▁주장합니다	-5549
▁피해자들은	-5550
▁피해자들이	-5551
범죄수사대는	-5552
▁공개했습니다	-5553
▁사우스차이나	-5554
▁소방대원들이	-5555
▁실종됐습니다	-5556
▁잇따랐습니다	-5557
▁중이었습니다	-5558
▁진행했습니다	-5559
▁추정했습니다	-5560
▁포함됐습니다	-5561
▁M	-5562
▁깜	-5563
▁뮤	-5564
▁솔	-5565
▁싣	-5566
▁쏴	-5567
▁앤	-5568
▁짐	-5569
가가	-5570
각지	-5571
거리	-5572
건강	-5573
격을	-5574
국에	-5575
끼리	-5576
널리	-5577
노총	-5578
니터	-5579
단에	-5580
당을	-5581
두에	-5582
라데	-5583
랑곳	-5584
르던	-5585
마켓	-5586
물로	-5587
미를	-5588
세의	-5589
소송	-5590
슈아	-5591
스코	-5592
시각	-5593
실이	-5594
안먼	-5595
양은	-5596
원도	-5597
원인	-5598
인트	-5599
자료	-5600
자산	-5601
지기	-5602
직자	-5603
채를	-5604
체가	-5605
카드	-5606
클럽	-5607
프는	-5608
해주	-5609
해준	-5610
▁49	-5611
▁LA	-5612
▁가방	-5613
▁강릉	-5614
▁개편	-5615
▁거센	-5616
▁공화	-5617
▁군과	-5618
▁규명	-5619
▁금은	-5620
▁기계	-5621
▁나지	-5622
▁내각	-5623
▁넘기	-5624
▁대치	-5625
▁동작	-5626
▁로드	-5627
▁면담	-5628
▁몇몇	-5629
▁모르	-5630
▁몸에	-5631
▁문의	-5632
▁바다	-5633
▁바라	-5634
▁별도	-5635
▁보름	-5636
▁빠진	-5637
▁빨리	-5638
▁서부	-5639
▁선정	-5640
▁속옷	-5641
▁수입	-5642
▁수출	-5643
▁스파	-5644
▁신용	-5645
▁실무	-5646
▁실패	-5647
▁앉아	-5648
▁오던	-5649
▁유형	-5650
▁음모	-5651
▁이란	-5652
▁이로	-5653
▁일은	-5654
▁입력	-5655
▁전과	-5656
▁제정	-5657
▁제지	-5658
▁중구	-5659
▁지갑	-5660
▁차로	-5661
▁찾기	-5662
▁체벌	-5663
▁측의	-5664
▁커다	-5665
▁파편	-5666
▁판정	-5667
▁폐렴	-5668
▁포천	-5669
▁필수	-5670
▁하늘	-5671
▁한참	-5672
▁화면	-5673
관계망	-5674
분부터	-5675
업지도	-5676
였지만	-5677
왔다고	-5678
카메라	-5679
회에서	-5680
▁600	-5681
▁가드레	-5682
▁검거된	-5683
▁것인지	-5684
▁고발한	-5685
▁고소한	-5686
▁공분을	-5687
▁관련이	-5688
▁관리를	-5689
▁국세청	-5690
▁극심한	-5691
▁금요일	-5692
▁기자회	-5693
▁끊이지	-5694
▁남자가	-5695
▁내용도	-5696
▁다가구	-5697
▁다니는	-5698
▁다수의	-5699
▁달리는	-5700
▁당분간	-5701
▁대해선	-5702
▁두기를	-5703
▁모니터	-5704
▁모르고	-5705
▁반려견	-5706
▁방문해	-5707
▁보도가	-5708
▁본인이	-5709
▁부검을	-5710
▁사각지	-5711
▁사격장	-5712
▁사다리	-5713
▁사라진	-5714
▁수색을	-5715
▁신속한	-5716
▁신호를	-5717
▁아랑곳	-5718
▁알려져	-5719
▁어렵다	-5720
▁얼굴이	-5721
▁엄마는	-5722
▁업체에	-5723
▁여학생	-5724
▁운영한	-5725
▁이유는	-5726
▁일가족	-5727
▁있으나	-5728
▁작업자	-5729
▁잘못된	-5730
▁장관의	-5731
▁장관이	-5732
▁정부에	-5733
▁조슈아	-5734
▁조치에	-5735
▁주도한	-5736
▁주장한	-5737
▁중학생	-5738
▁지시를	-5739
▁지역의	-5740
▁직원의	-5741
▁채팅앱	-5742
▁처벌이	-5743
▁카카오	-5744
▁통해서	-5745
▁특례법	-5746
▁하거나	-5747
▁학원강	-5748
▁행위로	-5749
▁현재는	-5750
▁형태로	-5751
▁화제가	-5752
▁확인이	-5753
▁환자를	-5754
▁황당한	-5755
▁후보가	-5756
대책본부	-5757
뒀습니다	-5758
시설에서	-5759
있습니다	-5760
해달라는	-5761
▁2008	-5762
▁2013	-5763
▁가중처벌	-5764
▁가해자의	-5765
▁같습니다	-5766
▁공개하지	-5767
▁달합니다	-5768
▁대변인은	-5769
▁많습니다	-5770
▁못했다고	-5771
▁무단으로	-5772
▁민식이법	-5773
▁받아들여	-5774
▁방향으로	-5775
▁법원에서	-5776
▁법정에서	-5777
▁부적절한	-5778
▁성추행을	-5779
▁성폭행한	-5780
▁시위대와	-5781
▁아버지는	-5782
▁않는다고	-5783
▁어머니를	-5784
▁용의자는	-5785
▁운전면허	-5786
▁유리창을	-5787
▁유흥업소	-5788
▁의료기관	-5789
▁인도에서	-5790
▁적극적인	-5791
▁전수조사	-5792
▁주민들의	-5793
▁지역사회	-5794
▁택시기사	-5795
▁피의자의	-5796
▁할머니가	-5797
▁현지시각	-5798
▁확산하고	-5799
▁후베이성	-5800
당했습니다	-5801
모닝포스트	-5802
▁방역수칙을	-5803
▁인종차별에	-5804
▁내려졌습니다	-5805
▁충돌했습니다	-5806
▁사우스차이나모닝포스트	-5807
▁굳	-5808
▁끔	-5809
▁닷	-5810
▁류	-5811
▁뭔	-5812
▁뱀	-5813
▁봐	-5814
▁섬	-5815
▁엉	-5816
▁잦	-5817
▁짚	-5818
▁케	-5819
▁흥	-5820
갔고	-5821
강도	-5822
개가	-5823
경호	-5824
고한	-5825
귀포	-5826
근무	-5827
끄는	-5828
냐후	-5829
담당	-5830
대원	-5831
데믹	-5832
돈을	-5833
라의	-5834
려던	-5835
력에	-5836
류의	-5837
리케	-5838
므로	-5839
반기	-5840
법과	-5841
비아	-5842
사기	-5843
세로	-5844
쉼터	-5845
어나	-5846
연금	-5847
오자	-5848
인가	-5849
일의	-5850
전담	-5851
조끼	-5852
줄이	-5853
직원	-5854
총을	-5855
층을	-5856
하러	-5857
화한	-5858
회사	-5859
200	-5860
▁53	-5861
▁가벼	-5862
▁가수	-5863
▁감지	-5864
▁강간	-5865
▁개표	-5866
▁건네	-5867
▁검경	-5868
▁고유	-5869
▁괴한	-5870
▁구금	-5871
▁기울	-5872
▁김태	-5873
▁끔찍	-5874
▁난사	-5875
▁냉동	-5876
▁네타	-5877
▁놀란	-5878
▁눈을	-5879
▁느끼	-5880
▁느낀	-5881
▁늦은	-5882
▁닷새	-5883
▁대마	-5884
▁동구	-5885
▁매년	-5886
▁머무	-5887
▁먹고	-5888
▁물러	-5889
▁미처	-5890
▁밀려	-5891
▁반박	-5892
▁반중	-5893
▁발송	-5894
▁발의	-5895
▁배상	-5896
▁버린	-5897
▁병역	-5898
▁보지	-5899
▁복무	-5900
▁비교	-5901
▁사설	-5902
▁사칭	-5903
▁살고	-5904
▁생중	-5905
▁선동	-5906
▁수익	-5907
▁식품	-5908
▁신변	-5909
▁심사	-5910
▁안보	-5911
▁어두	-5912
▁어떻	-5913
▁연속	-5914
▁온몸	-5915
▁옷을	-5916
▁우회	-5917
▁유발	-5918
▁이게	-5919
▁이례	-5920
▁일각	-5921
▁일도	-5922
▁재확	-5923
▁적법	-5924
▁점거	-5925
▁정전	-5926
▁제이	-5927
▁종료	-5928
▁주시	-5929
▁줄을	-5930
▁지상	-5931
▁집값	-5932
▁채널	-5933
▁천안	-5934
▁철인	-5935
▁초속	-5936
▁치고	-5937
▁침묵	-5938
▁파리	-5939
▁한가	-5940
▁한복	-5941
▁향한	-5942
▁현역	-5943
겠지만	-5944
국으로	-5945
동에서	-5946
되는데	-5947
라데시	-5948
명에서	-5949
병원에	-5950
스럽게	-5951
시설로	-5952
시키는	-5953
에게도	-5954
왔는데	-5955
월에는	-5956
위에서	-5957
장관이	-5958
장에게	-5959
정으로	-5960
하느냐	-5961
하려면	-5962
하우스	-5963
▁가로막	-5964
▁경위와	-5965
▁고개를	-5966
▁구성된	-5967
▁국적의	-5968
▁권한을	-5969
▁기록을	-5970
▁나중에	-5971
▁내에서	-5972
▁냉장고	-5973
▁눈물을	-5974
▁대가로	-5975
▁도로가	-5976
▁돌아다	-5977
▁동영상	-5978
▁둘러싸	-5979
▁말라고	-5980
▁명예를	-5981
▁목격자	-5982
▁바람에	-5983
▁방역지	-5984
▁버스를	-5985
▁부딪힌	-5986
▁부상자	-5987
▁부활절	-5988
▁붙잡혔	-5989
▁비용을	-5990
▁비판을	-5991
▁비판이	-5992
▁상태를	-5993
▁서귀포	-5994
▁서비스	-5995
▁설치한	-5996
▁시장에	-5997
▁시장을	-5998
▁아시아	-5999
▁아이디	-6000
▁업체는	-6001
▁여부는	-6002
▁영업이	-6003
▁유족은	-6004
▁유출된	-6005
▁의암댐	-6006
▁이곳에	-6007
▁이르면	-6008
▁인근의	-6009
▁인력을	-6010
▁일부러	-6011
▁있으면	-6012
▁재판이	-6013
▁적절한	-6014
▁전임의	-6015
▁정당한	-6016
▁정신적	-6017
▁중국이	-6018
▁중학교	-6019
▁차례로	-6020
▁참가자	-6021
▁철저한	-6022
▁촉발된	-6023
▁크리스	-6024
▁토사가	-6025
▁팬데믹	-6026
▁포함된	-6027
▁폭행은	-6028
▁한동안	-6029
▁항소심	-6030
▁행위에	-6031
▁활동에	-6032
병원에서	-6033
분쯤에는	-6034
주에서는	-6035
▁가해자로	-6036
▁계속되고	-6037
▁교민들이	-6038
▁구명조끼	-6039
▁네타냐후	-6040
▁등입니다	-6041
▁상태였던	-6042
▁서울시청	-6043
▁성범죄를	-6044
▁승용차는	-6045
▁시위대의	-6046
▁아버지가	-6047
▁아이들의	-6048
▁아이들이	-6049
▁원인으로	-6050
▁유족들은	-6051
▁유흥주점	-6052
▁이스라엘	-6053
▁정부서울	-6054
▁지점에서	-6055
▁집회금지	-6056
▁트위터에	-6057
▁특정범죄	-6058
▁확인했다	-6059
▁떠났습니다	-6060
▁민주화운동	-6061
▁바이러스를	-6062
▁비밀번호를	-6063
▁사회관계망	-6064
▁음주운전을	-6065
▁체포했다고	-6066
지방경찰청은	-6067
▁인정했습니다	-6068
DC	-6069
▁R	-6070
▁겹	-6071
▁꺾	-6072
▁델	-6073
▁맥	-6074
▁왜	-6075
▁웹	-6076
▁첩	-6077
가리	-6078
건설	-6079
검사	-6080
경은	-6081
경제	-6082
계획	-6083
구로	-6084
그룹	-6085
기록	-6086
단독	-6087
대도	-6088
되던	-6089
되며	-6090
둥성	-6091
둥이	-6092
등포	-6093
려다	-6094
르자	-6095
리트	-6096
말을	-6097
망을	-6098
미가	-6099
반은	-6100
받지	-6101
번에	-6102
법원	-6103
병이	-6104
세요	-6105
수교	-6106
연한	-6107
왔던	-6108
인에	-6109
제의	-6110
종의	-6111
진압	-6112
차선	-6113
참모	-6114
치기	-6115
피를	-6116
협력	-6117
히고	-6118
히지	-6119
▁IT	-6120
▁가동	-6121
▁가진	-6122
▁갑질	-6123
▁고급	-6124
▁고장	-6125
▁고통	-6126
▁공중	-6127
▁괴산	-6128
▁그녀	-6129
▁기획	-6130
▁김기	-6131
▁깊은	-6132
▁나아	-6133
▁나이	-6134
▁난곡	-6135
▁내달	-6136
▁내역	-6137
▁누출	-6138
▁다루	-6139
▁다르	-6140
▁당초	-6141
▁대대	-6142
▁됐다	-6143
▁두리	-6144
▁뒤덮	-6145
▁듯한	-6146
▁땅을	-6147
▁때도	-6148
▁라이	-6149
▁로마	-6150
▁마크	-6151
▁막고	-6152
▁만한	-6153
▁말고	-6154
▁모으	-6155
▁민정	-6156
▁밖에	-6157
▁반영	-6158
▁배포	-6159
▁북측	-6160
▁붙어	-6161
▁빌린	-6162
▁상륙	-6163
▁선관	-6164
▁선생	-6165
▁성남	-6166
▁송환	-6167
▁승무	-6168
▁시인	-6169
▁아주	-6170
▁안정	-6171
▁애플	-6172
▁여름	-6173
▁여수	-6174
▁연수	-6175
▁열릴	-6176
▁열흘	-6177
▁완료	-6178
▁원룸	-6179
▁위생	-6180
▁유독	-6181
▁의도	-6182
▁일상	-6183
▁입을	-6184
▁입주	-6185
▁재차	-6186
▁재학	-6187
▁점도	-6188
▁조롱	-6189
▁조선	-6190
▁조언	-6191
▁조항	-6192
▁주에	-6193
▁주저	-6194
▁즐기	-6195
▁지났	-6196
▁지명	-6197
▁직위	-6198
▁찍힌	-6199
▁총괄	-6200
▁하이	-6201
▁했을	-6202
▁행인	-6203
▁후속	-6204
▁후진	-6205
▁훌쩍	-6206
겼다고	-6207
경찰이	-6208
된다는	-6209
들까지	-6210
렸지만	-6211
복지법	-6212
사고가	-6213
에서만	-6214
으로도	-6215
차례에	-6216
▁USB	-6217
▁가해자	-6218
▁감염을	-6219
▁강북구	-6220
▁고무보	-6221
▁관심을	-6222
▁구조에	-6223
▁그것이	-6224
▁그러자	-6225
▁기간이	-6226
▁기준을	-6227
▁끔찍한	-6228
▁나왔다	-6229
▁내리는	-6230
▁노인이	-6231
▁대상자	-6232
▁덕분에	-6233
▁도착해	-6234
▁돌려보	-6235
▁마린온	-6236
▁마음에	-6237
▁명에게	-6238
▁무장한	-6239
▁범죄수	-6240
▁범죄에	-6241
▁보이고	-6242
▁부분이	-6243
▁북한의	-6244
▁불가피	-6245
▁불만을	-6246
▁비디오	-6247
▁상당히	-6248
▁상처가	-6249
▁상태는	-6250
▁새벽에	-6251
▁생중계	-6252
▁생활을	-6253
▁소환해	-6254
▁손으로	-6255
▁수업을	-6256
▁시간은	-6257
▁신분증	-6258
▁신호등	-6259
▁쏟아져	-6260
▁아들의	-6261
▁아이들	-6262
▁안산시	-6263
▁없다며	-6264
▁여기에	-6265
▁여부에	-6266
▁역주행	-6267
▁영등포	-6268
▁요구를	-6269
▁위치를	-6270
▁위협을	-6271
▁유치원	-6272
▁음란물	-6273
▁의혹과	-6274
▁이것이	-6275
▁인용해	-6276
▁인원이	-6277
▁잇달아	-6278
▁자체가	-6279
▁작성한	-6280
▁재활용	-6281
▁전국의	-6282
▁접촉을	-6283
▁조사도	-6284
▁종로구	-6285
▁주장이	-6286
▁진압에	-6287
▁체포영	-6288
▁출석해	-6289
▁충돌한	-6290
▁취지의	-6291
▁커다란	-6292
▁태도를	-6293
▁판단해	-6294
▁폭행과	-6295
▁하기도	-6296
▁행각을	-6297
▁행사를	-6298
▁협박해	-6299
▁홍콩의	-6300
▁확인돼	-6301
▁확인을	-6302
▁휘둘러	-6303
경찰청은	-6304
줬습니다	-6305
켰습니다	-6306
하더라도	-6307
▁2007	-6308
▁가족들이	-6309
▁거리에서	-6310
▁거짓말을	-6311
▁게시판에	-6312
▁경찰들이	-6313
▁과태료를	-6314
▁교회에서	-6315
▁대구에서	-6316
▁도시에서	-6317
▁마스크가	-6318
▁명예훼손	-6319
▁문형욱은	-6320
▁비밀경호	-6321
▁사상자가	-6322
▁서울남부	-6323
▁손해배상	-6324
▁수법으로	-6325
▁시민들은	-6326
▁식당에서	-6327
▁신상공개	-6328
▁쓰레기가	-6329
▁아파트에	-6330
▁요구하며	-6331
▁위해서는	-6332
▁이라면서	-6333
▁이어졌고	-6334
▁인정하고	-6335
▁일입니다	-6336
▁자전거를	-6337
▁전화번호	-6338
▁조주빈과	-6339
▁죄송하다	-6340
▁주민등록	-6341
▁주장하는	-6342
▁주장하며	-6343
▁중국으로	-6344
▁직원들은	-6345
▁착용하지	-6346
▁특수상해	-6347
▁피해자와	-6348
▁할머니는	-6349
▁형사처벌	-6350
버렸습니다	-6351
▁방역당국은	-6352
▁빠졌습니다	-6353
▁설명입니다	-6354
▁소방당국이	-6355
▁소셜미디어	-6356
▁송치했다고	-6357
▁아르바이트	-6358
▁알려지면서	-6359
▁전문가들은	-6360
▁전자발찌를	-6361
▁진단검사를	-6362
▁행정명령을	-6363
▁행정안전부	-6364
▁고소했습니다	-6365
▁기소했습니다	-6366
▁들어왔습니다	-6367
▁사과했습니다	-6368
▁사회관계망서비스	-6369
▁국립과학수사연구원	-6370
▁E	-6371
▁굴	-6372
▁꼼	-6373
▁꽃	-6374
▁꽤	-6375
▁닥	-6376
▁뿜	-6377
▁섞	-6378
▁읽	-6379
▁핼	-6380
개혁	-6381
국을	-6382
권이	-6383
노샤	-6384
대상	-6385
데요	-6386
동부	-6387
리도	-6388
린다	-6389
만에	-6390
만희	-6391
무장	-6392
보험	-6393
부처	-6394
분의	-6395
서부	-6396
스콘	-6397
아서	-6398
약품	-6399
와는	-6400
유로	-6401
재가	-6402
점은	-6403
정의	-6404
책을	-6405
철도	-6406
취소	-6407
탠든	-6408
트로	-6409
판매	-6410
해질	-6411
회에	-6412
희석	-6413
힌두	-6414
900	-6415
▁41	-6416
▁77	-6417
▁78	-6418
▁가려	-6419
▁강아	-6420
▁강정	-6421
▁강훈	-6422
▁거다	-6423
▁거칠	-6424
▁겨냥	-6425
▁경합	-6426
▁고정	-6427
▁골절	-6428
▁과도	-6429
▁그럴	-6430
▁글로	-6431
▁글이	-6432
▁기재	-6433
▁기지	-6434
▁남겨	-6435
▁내놓	-6436
▁넘나	-6437
▁놓여	-6438
▁늦게	-6439
▁대답	-6440
▁대행	-6441
▁동기	-6442
▁동안	-6443
▁됐고	-6444
▁되어	-6445
▁되찾	-6446
▁떠난	-6447
▁마셨	-6448
▁먹지	-6449
▁명백	-6450
▁무거	-6451
▁밀어	-6452
▁바꾸	-6453
▁바꿨	-6454
▁발화	-6455
▁발효	-6456
▁배후	-6457
▁버려	-6458
▁보석	-6459
▁보유	-6460
▁부품	-6461
▁불량	-6462
▁비대	-6463
▁비례	-6464
▁비틀	-6465
▁뿌리	-6466
▁산하	-6467
▁상임	-6468
▁새끼	-6469
▁설비	-6470
▁성실	-6471
▁세운	-6472
▁소음	-6473
▁소중	-6474
▁손목	-6475
▁수단	-6476
▁수를	-6477
▁숨져	-6478
▁스티	-6479
▁시각	-6480
▁시는	-6481
▁심폐	-6482
▁않게	-6483
▁애도	-6484
▁야구	-6485
▁양은	-6486
▁어긴	-6487
▁엔진	-6488
▁연말	-6489
▁연설	-6490
▁워낙	-6491
▁유모	-6492
▁유언	-6493
▁이끌	-6494
▁이모	-6495
▁이자	-6496
▁이재	-6497
▁자제	-6498
▁자진	-6499
▁장군	-6500
▁장도	-6501
▁장착	-6502
▁재발	-6503
▁재직	-6504
▁적도	-6505
▁전산	-6506
▁정류	-6507
▁제설	-6508
▁제압	-6509
▁종사	-6510
▁중간	-6511
▁지연	-6512
▁질주	-6513
▁최신	-6514
▁추석	-6515
▁취약	-6516
▁취임	-6517
▁치아	-6518
▁침범	-6519
▁토론	-6520
▁투숙	-6521
▁파면	-6522
▁팔을	-6523
▁펜실	-6524
▁프리	-6525
▁해고	-6526
▁행렬	-6527
▁현관	-6528
▁혐오	-6529
▁휘둘	-6530
개월간	-6531
단계로	-6532
되거나	-6533
문에서	-6534
범죄의	-6535
본부를	-6536
부분이	-6537
센터를	-6538
았다가	-6539
월에도	-6540
이라며	-6541
인에게	-6542
점으로	-6543
천에서	-6544
통합당	-6545
해달라	-6546
행위에	-6547
▁가벼운	-6548
▁가이드	-6549
▁가족과	-6550
▁가족은	-6551
▁간호사	-6552
▁갈수록	-6553
▁격리를	-6554
▁결과에	-6555
▁경우는	-6556
▁고위공	-6557
▁고인의	-6558
▁구조된	-6559
▁구조를	-6560
▁그들은	-6561
▁기능을	-6562
▁남학생	-6563
▁내용에	-6564
▁늘어나	-6565
▁다쳤고	-6566
▁대법원	-6567
▁대상은	-6568
▁도로는	-6569
▁도주한	-6570
▁도착할	-6571
▁돌아온	-6572
▁드러난	-6573
▁들어서	-6574
▁마련된	-6575
▁마련해	-6576
▁마피아	-6577
▁명의로	-6578
▁모자를	-6579
▁못했고	-6580
▁무너져	-6581
▁받았다	-6582
▁방법을	-6583
▁범행은	-6584
▁보내고	-6585
▁보내는	-6586
▁보내지	-6587
▁불기소	-6588
▁붙잡혀	-6589
▁사람과	-6590
▁서류를	-6591
▁수색에	-6592
▁스탠든	-6593
▁스트레	-6594
▁시민을	-6595
▁쌍둥이	-6596
▁아기는	-6597
▁아기의	-6598
▁아들과	-6599
▁아들은	-6600
▁어두운	-6601
▁여기서	-6602
▁여행용	-6603
▁연루된	-6604
▁영상에	-6605
▁예배에	-6606
▁움직임	-6607
▁원칙을	-6608
▁위스콘	-6609
▁위치한	-6610
▁유서를	-6611
▁유증상	-6612
▁이끄는	-6613
▁이들에	-6614
▁이만희	-6615
▁입국해	-6616
▁입장이	-6617
▁전에도	-6618
▁전해진	-6619
▁전화로	-6620
▁접근해	-6621
▁정치적	-6622
▁조사와	-6623
▁종업원	-6624
▁준수사	-6625
▁줄줄이	-6626
▁중대한	-6627
▁중환자	-6628
▁집중호	-6629
▁짓눌려	-6630
▁착용한	-6631
▁최희석	-6632
▁추적해	-6633
▁충분히	-6634
▁커노샤	-6635
▁톈안먼	-6636
▁투표를	-6637
▁파악에	-6638
▁파티를	-6639
▁폭발이	-6640
▁하나로	-6641
▁한국대	-6642
▁한국전	-6643
▁행방을	-6644
▁혐의와	-6645
▁호랑이	-6646
▁홈페이	-6647
▁화장품	-6648
▁회장이	-6649
▁훼손한	-6650
▁흉기에	-6651
수사대는	-6652
스트리아	-6653
자산운용	-6654
▁가능성은	-6655
▁경찰관을	-6656
▁관리사무	-6657
▁교민들은	-6658
▁국가인권	-6659
▁국회의원	-6660
▁근무하던	-6661
▁나섰는데	-6662
▁높아지고	-6663
▁대통령과	-6664
▁대화방을	-6665
▁도심에서	-6666
▁동영상을	-6667
▁면허취소	-6668
▁모니터링	-6669
▁무더기로	-6670
▁무엇보다	-6671
▁박사방을	-6672
▁벌금형을	-6673
▁범죄단체	-6674
▁블레이크	-6675
▁사람에게	-6676
▁서울시장	-6677
▁선수들은	-6678
▁섰습니다	-6679
▁성폭행을	-6680
▁슈퍼마켓	-6681
▁승용차에	-6682
▁안전관리	-6683
▁어머니는	-6684
▁어업지도	-6685
▁없었다는	-6686
▁용의자로	-6687
▁이춘재가	-6688
▁조주빈의	-6689
▁중요하다	-6690
▁청와대가	-6691
▁카카오톡	-6692
▁통화에서	-6693
▁펜실베이	-6694
▁피고인의	-6695
▁확진자의	-6696
▁계획이라고	-6697
▁공개적으로	-6698
▁공직선거법	-6699
▁김포공항에	-6700
▁높였습니다	-6701
▁미네소타주	-6702
▁바이러스가	-6703
▁사람들에게	-6704
▁어린이보호	-6705
▁전국적으로	-6706
▁투표용지를	-6707
▁필요하다는	-6708
▁현장입니다	-6709
▁휴대전화에	-6710
▁결정했습니다	-6711
▁기록했습니다	-6712
▁라임자산운용	-6713
▁아니었습니다	-6714
▁워싱턴포스트	-6715
▁이뤄졌습니다	-6716
▁출석했습니다	-6717
▁통보했습니다	-6718
▁상황이었습니다	-6719
▁지능범죄수사대는	-6720
67	-6721
▁낼	-6722
▁닉	-6723
▁샌	-6724
▁왼	-6725
▁잊	-6726
▁혁	-6727
▁히	-6728
가포	-6729
갔다	-6730
구르	-6731
기념	-6732
낙연	-6733
내기	-6734
돼야	-6735
드의	-6736
라웨	-6737
러윈	-6738
리그	-6739
모델	-6740
미로	-6741
발니	-6742
백만	-6743
봉현	-6744
비와	-6745
사항	-6746
산업	-6747
서로	-6748
셔츠	-6749
소생	-6750
수산	-6751
스키	-6752
스타	-6753
시킬	-6754
식은	-6755
심의	-6756
안이	-6757
오지	-6758
의로	-6759
인멸	-6760
일보	-6761
자금	-6762
작용	-6763
점검	-6764
조를	-6765
지사	-6766
진모	-6767
째인	-6768
차이	-6769
쳤고	-6770
초를	-6771
초섬	-6772
총리	-6773
층과	-6774
치가	-6775
팀이	-6776
파제	-6777
하나	-6778
함이	-6779
항쟁	-6780
했기	-6781
화나	-6782
회원	-6783
▁61	-6784
▁94	-6785
▁UA	-6786
▁가입	-6787
▁강사	-6788
▁거절	-6789
▁건의	-6790
▁걷던	-6791
▁것만	-6792
▁경력	-6793
▁계산	-6794
▁고가	-6795
▁고지	-6796
▁골프	-6797
▁공군	-6798
▁공권	-6799
▁공백	-6800
▁광고	-6801
▁교량	-6802
▁구호	-6803
▁국과	-6804
▁금전	-6805
▁기도	-6806
▁기상	-6807
▁기업	-6808
▁길게	-6809
▁꾸려	-6810
▁내보	-6811
▁노후	-6812
▁놀라	-6813
▁닉네	-6814
▁담임	-6815
▁담합	-6816
▁답답	-6817
▁당신	-6818
▁당해	-6819
▁대거	-6820
▁대우	-6821
▁대회	-6822
▁도는	-6823
▁되돌	-6824
▁뒤를	-6825
▁따져	-6826
▁딸은	-6827
▁마침	-6828
▁매수	-6829
▁모녀	-6830
▁모레	-6831
▁묻자	-6832
▁박상	-6833
▁반출	-6834
▁받던	-6835
▁방법	-6836
▁방콕	-6837
▁방호	-6838
▁벌써	-6839
▁벌일	-6840
▁벨라	-6841
▁보좌	-6842
▁보통	-6843
▁복구	-6844
▁본다	-6845
▁부따	-6846
▁분열	-6847
▁분향	-6848
▁빨간	-6849
▁산소	-6850
▁성과	-6851
▁수급	-6852
▁수련	-6853
▁신발	-6854
▁신축	-6855
▁실질	-6856
▁실험	-6857
▁실현	-6858
▁앓고	-6859
▁앞둔	-6860
▁야생	-6861
▁어깨	-6862
▁언제	-6863
▁얻어	-6864
▁업계	-6865
▁없게	-6866
▁여당	-6867
▁오리	-6868
▁옥상	-6869
▁옮긴	-6870
▁왕복	-6871
▁운용	-6872
▁유대	-6873
▁유류	-6874
▁유인	-6875
▁익명	-6876
▁인용	-6877
▁일한	-6878
▁잔혹	-6879
▁장성	-6880
▁전반	-6881
▁전치	-6882
▁절대	-6883
▁점점	-6884
▁정면	-6885
▁정비	-6886
▁정작	-6887
▁조심	-6888
▁좋지	-6889
▁주범	-6890
▁증오	-6891
▁참모	-6892
▁찾을	-6893
▁철회	-6894
▁터져	-6895
▁통합	-6896
▁포기	-6897
▁표결	-6898
▁피를	-6899
▁필기	-6900
▁하얀	-6901
▁회삿	-6902
▁회장	-6903
▁흘러	-6904
가지로	-6905
공사가	-6906
단체는	-6907
당에서	-6908
부에서	-6909
생활을	-6910
역으로	-6911
였다는	-6912
으로서	-6913
인들이	-6914
자들과	-6915
통신이	-6916
▁250	-6917
▁UBC	-6918
▁감염자	-6919
▁강화된	-6920
▁개혁을	-6921
▁거래를	-6922
▁거주지	-6923
▁골자로	-6924
▁공직자	-6925
▁교수는	-6926
▁구매한	-6927
▁국민을	-6928
▁국민이	-6929
▁규모가	-6930
▁그만큼	-6931
▁근거가	-6932
▁기술을	-6933
▁나들목	-6934
▁나발니	-6935
▁남성에	-6936
▁내부에	-6937
▁내용과	-6938
▁노트북	-6939
▁당하는	-6940
▁뒤에는	-6941
▁드러내	-6942
▁때리고	-6943
▁때리는	-6944
▁마약류	-6945
▁말까지	-6946
▁말부터	-6947
▁면서도	-6948
▁모습도	-6949
▁모습은	-6950
▁목사는	-6951
▁몰랐다	-6952
▁무너진	-6953
▁문제의	-6954
▁미국에	-6955
▁받았던	-6956
▁발표한	-6957
▁밝히기	-6958
▁방송을	-6959
▁벌금형	-6960
▁별도의	-6961
▁보니까	-6962
▁보행자	-6963
▁부족한	-6964
▁분석을	-6965
▁불꽃이	-6966
▁비공개	-6967
▁사고와	-6968
▁사기를	-6969
▁사이로	-6970
▁서둘러	-6971
▁서울고	-6972
▁선수의	-6973
▁소독제	-6974
▁송파구	-6975
▁수갑을	-6976
▁수사로	-6977
▁수십억	-6978
▁수위가	-6979
▁수준인	-6980
▁시민의	-6981
▁시신의	-6982
▁시장과	-6983
▁싱가포	-6984
▁아내가	-6985
▁않아서	-6986
▁약탈과	-6987
▁엄청난	-6988
▁업체의	-6989
▁여론이	-6990
▁연예인	-6991
▁염두에	-6992
▁영상은	-6993
▁옆으로	-6994
▁외출한	-6995
▁요구에	-6996
▁용기를	-6997
▁우려해	-6998
▁원으로	-6999
▁원인은	-7000
▁원칙에	-7001
▁위해서	-7002
▁위험에	-7003
▁유전자	-7004
▁음모론	-7005
▁의료계	-7006
▁의무를	-7007
▁의미로	-7008
▁의정부	-7009
▁이낙연	-7010
▁이동해	-7011
▁이상한	-7012
▁이후에	-7013
▁인원은	-7014
▁자금을	-7015
▁자신도	-7016
▁장관과	-7017
▁장도연	-7018
▁저희가	-7019
▁전화가	-7020
▁접수돼	-7021
▁정책을	-7022
▁정확히	-7023
▁제주도	-7024
▁제한속	-7025
▁죄질이	-7026
▁주민의	-7027
▁주진모	-7028
▁죽음을	-7029
▁증세를	-7030
▁진행한	-7031
▁찌그러	-7032
▁차들이	-7033
▁착수한	-7034
▁참고인	-7035
▁창문을	-7036
▁찾아와	-7037
▁총리가	-7038
▁최소화	-7039
▁충격에	-7040
▁탈북자	-7041
▁탈출한	-7042
▁통과한	-7043
▁통행을	-7044
▁통행이	-7045
▁특별한	-7046
▁포렌식	-7047
▁폭력에	-7048
▁폭행이	-7049
▁할아버	-7050
▁핼러윈	-7051
▁행정대	-7052
▁협박한	-7053
▁화장실	-7054
▁회의를	-7055
▁휴대폰	-7056
▁흘리며	-7057
▁가족에게	-7058
▁감염자가	-7059
▁강화하는	-7060
▁건물에서	-7061
▁경기도는	-7062
▁경찰청과	-7063
▁공무원과	-7064
▁국민연금	-7065
▁국토교통	-7066
▁그런데도	-7067
▁남양주시	-7068
▁뉴욕에서	-7069
▁대표적인	-7070
▁드라이브	-7071
▁문자메시	-7072
▁민주노총	-7073
▁방법으로	-7074
▁보여주는	-7075
▁부인하는	-7076
▁부추기는	-7077
▁불법으로	-7078
▁살인사건	-7079
▁삼성전자	-7080
▁성추행한	-7081
▁소방대원	-7082
▁심폐소생	-7083
▁아이들은	-7084
▁알려지지	-7085
▁앞부분이	-7086
▁양성평등	-7087
▁언론들은	-7088
▁영향으로	-7089
▁오후부터	-7090
▁운전대를	-7091
▁위스콘신	-7092
▁인지하고	-7093
▁조수석에	-7094
▁주먹으로	-7095
▁증거인멸	-7096
▁직원에게	-7097
▁집행정지	-7098
▁차량에서	-7099
▁처음에는	-7100
▁촉구하는	-7101
▁피고인은	-7102
▁피의자는	-7103
▁피해자인	-7104
▁필기시험	-7105
▁할머니를	-7106
▁해외에서	-7107
▁화장실에	-7108
해졌습니다	-7109
▁겪었습니다	-7110
▁경찰관들이	-7111
▁교도소에서	-7112
▁구속했다고	-7113
▁내용입니다	-7114
▁넘었습니다	-7115
▁마찬가지로	-7116
▁미래통합당	-7117
▁사례입니다	-7118
▁스쿨존에서	-7119
▁알렸습니다	-7120
▁오스트리아	-7121
▁입건했다고	-7122
▁잡았습니다	-7123
▁잡혔습니다	-7124
▁적었습니다	-7125
▁투표소에서	-7126
▁확인됐다고	-7127
▁등장했습니다	-7128
▁분위기입니다	-7129
▁비난했습니다	-7130
▁사라졌습니다	-7131
▁예고했습니다	-7132
▁자수했습니다	-7133
▁정부서울청사에서	-7134
▁국립과학수사연구원에	-7135
▁W	-7136
▁넉	-7137
▁댐	-7138
▁멸	-7139
▁뭐	-7140
▁빅	-7141
▁센	-7142
▁셋	-7143
▁습	-7144
▁엽	-7145
▁옛	-7146
▁윗	-7147
▁젠	-7148
▁틈	-7149
▁핸	-7150
경이	-7151
광역	-7152
금속	-7153
느라	-7154
라델	-7155
로가	-7156
로로	-7157
로와	-7158
마를	-7159
마을	-7160
만여	-7161
명만	-7162
모빌	-7163
문과	-7164
문은	-7165
밀한	-7166
발전	-7167
버그	-7168
병은	-7169
부도	-7170
불명	-7171
사한	-7172
상담	-7173
석이	-7174
수에	-7175
시효	-7176
식도	-7177
심이	-7178
액을	-7179
오모	-7180
워드	-7181
워크	-7182
이던	-7183
인민	-7184
일까	-7185
일은	-7186
있던	-7187
재를	-7188
저우	-7189
접촉	-7190
져야	-7191
조합	-7192
종을	-7193
죄를	-7194
주년	-7195
주를	-7196
청에	-7197
추지	-7198
타운	-7199
특정	-7200
폭행	-7201
후보	-7202
IBS	-7203
▁가구	-7204
▁개설	-7205
▁견디	-7206
▁결제	-7207
▁곧장	-7208
▁골라	-7209
▁공감	-7210
▁공지	-7211
▁공천	-7212
▁과제	-7213
▁교수	-7214
▁급격	-7215
▁김여	-7216
▁김유	-7217
▁나갈	-7218
▁날인	-7219
▁낮은	-7220
▁내내	-7221
▁느꼈	-7222
▁달간	-7223
▁대면	-7224
▁독극	-7225
▁동급	-7226
▁동래	-7227
▁뒤쫓	-7228
▁때만	-7229
▁레저	-7230
▁로스	-7231
▁마라	-7232
▁마사	-7233
▁말도	-7234
▁명과	-7235
▁모바	-7236
▁문이	-7237
▁밀착	-7238
▁반입	-7239
▁밤새	-7240
▁버지	-7241
▁분실	-7242
▁블로	-7243
▁비리	-7244
▁빨래	-7245
▁사마	-7246
▁사재	-7247
▁사체	-7248
▁상조	-7249
▁서서	-7250
▁서초	-7251
▁서핑	-7252
▁설득	-7253
▁성주	-7254
▁세우	-7255
▁소연	-7256
▁소장	-7257
▁속도	-7258
▁수면	-7259
▁수송	-7260
▁수요	-7261
▁스프	-7262
▁슬픔	-7263
▁시의	-7264
▁싣고	-7265
▁실태	-7266
▁쌓아	-7267
▁쓰는	-7268
▁안나	-7269
▁앤드	-7270
▁없던	-7271
▁여객	-7272
▁연행	-7273
▁외곽	-7274
▁외치	-7275
▁용납	-7276
▁우산	-7277
▁원대	-7278
▁웡은	-7279
▁유입	-7280
▁은평	-7281
▁이광	-7282
▁인적	-7283
▁인질	-7284
▁일행	-7285
▁잡는	-7286
▁장난	-7287
▁재수	-7288
▁절실	-7289
▁정기	-7290
▁정오	-7291
▁정인	-7292
▁제목	-7293
▁제약	-7294
▁제품	-7295
▁주력	-7296
▁중증	-7297
▁지낸	-7298
▁직업	-7299
▁진열	-7300
▁찍어	-7301
▁찔러	-7302
▁차명	-7303
▁차벽	-7304
▁창원	-7305
▁청사	-7306
▁체크	-7307
▁초대	-7308
▁총파	-7309
▁추후	-7310
▁축소	-7311
▁층간	-7312
▁콘크	-7313
▁쿠바	-7314
▁타스	-7315
▁팔아	-7316
▁포순	-7317
▁풍선	-7318
▁하남	-7319
▁하명	-7320
▁하원	-7321
▁한밤	-7322
▁해병	-7323
▁현실	-7324
▁형을	-7325
▁화를	-7326
▁휴가	-7327
▁흙탕	-7328
▁흡연	-7329
▁힌두	-7330
가에서	-7331
개월의	-7332
까지는	-7333
느냐는	-7334
는데도	-7335
단체가	-7336
데이트	-7337
됐으나	-7338
되었다	-7339
명까지	-7340
스트라	-7341
시간에	-7342
운동을	-7343
으려고	-7344
이지만	-7345
익스프	-7346
일에도	-7347
하더니	-7348
하려다	-7349
하려던	-7350
하자는	-7351
한다며	-7352
▁UAE	-7353
▁가방을	-7354
▁감독과	-7355
▁강정호	-7356
▁개입한	-7357
▁거칠게	-7358
▁건물은	-7359
▁건물을	-7360
▁게시판	-7361
▁격리된	-7362
▁결정에	-7363
▁결정이	-7364
▁경상을	-7365
▁경제적	-7366
▁계좌를	-7367
▁고교생	-7368
▁고발할	-7369
▁고양시	-7370
▁공공의	-7371
▁공공장	-7372
▁공화당	-7373
▁관계를	-7374
▁관여한	-7375
▁교사가	-7376
▁교회를	-7377
▁구급대	-7378
▁권리를	-7379
▁귀금속	-7380
▁근무한	-7381
▁글로벌	-7382
▁기간에	-7383
▁기승을	-7384
▁김봉현	-7385
▁깃발을	-7386
▁나오면	-7387
▁남편이	-7388
▁논란을	-7389
▁뇌물을	-7390
▁누군지	-7391
▁다단계	-7392
▁당국과	-7393
▁대체로	-7394
▁대표의	-7395
▁돌아와	-7396
▁동생이	-7397
▁뒤따라	-7398
▁드러났	-7399
▁딸에게	-7400
▁마리가	-7401
▁마음이	-7402
▁만들고	-7403
▁명백한	-7404
▁못하게	-7405
▁무게를	-7406
▁무관용	-7407
▁무기한	-7408
▁물리적	-7409
▁받으면	-7410
▁밝히는	-7411
▁방역을	-7412
▁버스에	-7413
▁번호를	-7414
▁벌금에	-7415
▁범인은	-7416
▁범인을	-7417
▁범죄로	-7418
▁범행이	-7419
▁법안을	-7420
▁법원의	-7421
▁벨라루	-7422
▁보시는	-7423
▁보육교	-7424
▁보호를	-7425
▁부모가	-7426
▁분류돼	-7427
▁불특정	-7428
▁사고의	-7429
▁사무실	-7430
▁사실과	-7431
▁사실로	-7432
▁사항을	-7433
▁상반기	-7434
▁생명에	-7435
▁소지품	-7436
▁손가락	-7437
▁수칙을	-7438
▁순찰을	-7439
▁시기에	-7440
▁시비를	-7441
▁시설을	-7442
▁신고는	-7443
▁쏟아진	-7444
▁않다고	-7445
▁알아볼	-7446
▁양부모	-7447
▁언론이	-7448
▁엄격한	-7449
▁엄중한	-7450
▁업무에	-7451
▁업체가	-7452
▁에스코	-7453
▁올라가	-7454
▁올리는	-7455
▁유족이	-7456
▁음식점	-7457
▁의뢰한	-7458
▁의원을	-7459
▁이동한	-7460
▁이름이	-7461
▁이번엔	-7462
▁이상을	-7463
▁이용할	-7464
▁인물로	-7465
▁장소를	-7466
▁정치권	-7467
▁제보가	-7468
▁조직이	-7469
▁주거지	-7470
▁주방위	-7471
▁주에서	-7472
▁중국에	-7473
▁지금도	-7474
▁지점에	-7475
▁창고에	-7476
▁처벌할	-7477
▁초부터	-7478
▁출입을	-7479
▁커피숍	-7480
▁쿠오모	-7481
▁트럭과	-7482
▁포스터	-7483
▁폭력이	-7484
▁풀려난	-7485
▁필라델	-7486
▁학교에	-7487
▁협의를	-7488
▁호흡기	-7489
▁회삿돈	-7490
가중처벌	-7491
구역으로	-7492
모빌리티	-7493
사고수습	-7494
위원회의	-7495
지입니다	-7496
폴리머스	-7497
▁2009	-7498
▁2012	-7499
▁2021	-7500
▁강력하게	-7501
▁개정안이	-7502
▁거부하는	-7503
▁것이라며	-7504
▁과잉진압	-7505
▁관계자가	-7506
▁금융기관	-7507
▁금지하고	-7508
▁대부분의	-7509
▁대화방에	-7510
▁데이터를	-7511
▁민주당이	-7512
▁민주주의	-7513
▁발생하는	-7514
▁발생했다	-7515
▁벌어지는	-7516
▁본회의를	-7517
▁부근에서	-7518
▁불법행위	-7519
▁사이에서	-7520
▁생각한다	-7521
▁생활치료	-7522
▁서울행정	-7523
▁셈입니다	-7524
▁소연평도	-7525
▁수사하는	-7526
▁시위대에	-7527
▁신고했고	-7528
▁싱가포르	-7529
▁아니라는	-7530
▁안에서는	-7531
▁않겠다고	-7532
▁우레탄폼	-7533
▁우편투표	-7534
▁운전자인	-7535
▁이뤄지고	-7536
▁일대에서	-7537
▁장소에서	-7538
▁전국에서	-7539
▁전문가는	-7540
▁제공하는	-7541
▁조두순을	-7542
▁조두순의	-7543
▁중앙재난	-7544
▁지속해서	-7545
▁질문에는	-7546
▁추진하고	-7547
▁콘크리트	-7548
▁통행금지	-7549
▁폭행하고	-7550
▁학생들은	-7551
▁한가운데	-7552
▁할머니와	-7553
▁해당하는	-7554
▁해양경찰	-7555
▁화물차를	-7556
▁확산으로	-7557
▁확인되면	-7558
부고속도로	-7559
어졌습니다	-7560
▁가드레일을	-7561
▁공무원들이	-7562
▁관계자들의	-7563
▁교통사고가	-7564
▁국가정보원	-7565
▁국무총리는	-7566
▁국민의힘은	-7567
▁나갔습니다	-7568
▁달했습니다	-7569
▁말았습니다	-7570
▁미성년자인	-7571
▁보호관찰관	-7572
▁사이버안전	-7573
▁아동복지법	-7574
▁아동청소년	-7575
▁압수수색을	-7576
▁요청했지만	-7577
▁일각에서는	-7578
▁자가격리자	-7579
▁재산피해가	-7580
▁전동킥보드	-7581
▁조주빈에게	-7582
▁지속적으로	-7583
▁처음입니다	-7584
▁캘리포니아	-7585
▁페이스북에	-7586
▁필라델피아	-7587
▁향했습니다	-7588
▁휴대전화로	-7589
▁경찰인재개발	-7590
▁드러냈습니다	-7591
▁분석했습니다	-7592
▁빚어졌습니다	-7593
▁스타모빌리티	-7594
▁올라왔습니다	-7595
▁적용했습니다	-7596
▁제기됐습니다	-7597
▁제기했습니다	-7598
▁중단됐습니다	-7599
▁중앙사고수습	-7600
▁청구했습니다	-7601
▁추락했습니다	-7602
▁출동했습니다	-7603
▁털어놨습니다	-7604
▁휘둘렀습니다	-7605
▁국방과학연구소	-7606
30	-7607
kg	-7608
mm	-7609
▁떴	-7610
▁맹	-7611
▁빙	-7612
▁섰	-7613
▁셀	-7614
▁옵	-7615
▁잭	-7616
▁첨	-7617
▁칭	-7618
▁킹	-7619
▁푸	-7620
▁흩	-7621
감은	-7622
개로	-7623
곳이	-7624
공급	-7625
구조	-7626
권은	-7627
기사	-7628
나가	-7629
냈고	-7630
년째	-7631
더특	-7632
드라	-7633
듯이	-7634
뜨린	-7635
락을	-7636
렀고	-7637
려면	-7638
루트	-7639
마저	-7640
만원	-7641
문서	-7642
바다	-7643
발의	-7644
버린	-7645
베르	-7646
보도	-7647
비로	-7648
상태	-7649
선의	-7650
아요	-7651
액은	-7652
앤젤	-7653
어야	-7654
었을	-7655
여만	-7656
요한	-7657
워서	-7658
웠던	-7659
웨이	-7660
위의	-7661
유기	-7662
임스	-7663
저기	-7664
주기	-7665
증명	-7666
직한	-7667
진구	-7668
질환	-7669
집에	-7670
처리	-7671
체계	-7672
체류	-7673
추고	-7674
침해	-7675
터리	-7676
투본	-7677
투쟁	-7678
트코	-7679
팀의	-7680
포폴	-7681
풀이	-7682
프를	-7683
항공	-7684
▁71	-7685
▁72	-7686
▁88	-7687
▁99	-7688
▁가고	-7689
▁가중	-7690
▁가한	-7691
▁간의	-7692
▁갈아	-7693
▁감안	-7694
▁개가	-7695
▁객관	-7696
▁걷어	-7697
▁것인	-7698
▁겪는	-7699
▁경호	-7700
▁공영	-7701
▁공채	-7702
▁관해	-7703
▁광장	-7704
▁구멍	-7705
▁구축	-7706
▁궁금	-7707
▁그랬	-7708
▁근절	-7709
▁기밀	-7710
▁김해	-7711
▁남동	-7712
▁노숙	-7713
▁녹취	-7714
▁녹화	-7715
▁놓은	-7716
▁누워	-7717
▁눈이	-7718
▁다름	-7719
▁달이	-7720
▁당부	-7721
▁대량	-7722
▁대유	-7723
▁도운	-7724
▁도움	-7725
▁동상	-7726
▁동이	-7727
▁되면	-7728
▁로비	-7729
▁말해	-7730
▁멍이	-7731
▁메르	-7732
▁메이	-7733
▁모를	-7734
▁모아	-7735
▁무겁	-7736
▁민경	-7737
▁민원	-7738
▁바깥	-7739
▁발동	-7740
▁밥을	-7741
▁배가	-7742
▁배수	-7743
▁번의	-7744
▁법사	-7745
▁벽을	-7746
▁변화	-7747
▁보완	-7748
▁복역	-7749
▁본토	-7750
▁부린	-7751
▁부수	-7752
▁부여	-7753
▁분야	-7754
▁불복	-7755
▁비춰	-7756
▁사형	-7757
▁상승	-7758
▁상정	-7759
▁서면	-7760
▁선출	-7761
▁소상	-7762
▁손상	-7763
▁수달	-7764
▁수배	-7765
▁수술	-7766
▁수업	-7767
▁순천	-7768
▁쉼터	-7769
▁스루	-7770
▁승리	-7771
▁승인	-7772
▁시키	-7773
▁신빙	-7774
▁싶은	-7775
▁아찔	-7776
▁안고	-7777
▁안동	-7778
▁앉은	-7779
▁앞선	-7780
▁애국	-7781
▁양손	-7782
▁없음	-7783
▁엉뚱	-7784
▁연합	-7785
▁옆에	-7786
▁예측	-7787
▁오랫	-7788
▁옵티	-7789
▁왔다	-7790
▁왜곡	-7791
▁원어	-7792
▁유기	-7793
▁유엔	-7794
▁유행	-7795
▁이슈	-7796
▁이종	-7797
▁이주	-7798
▁이중	-7799
▁인상	-7800
▁일관	-7801
▁일리	-7802
▁일선	-7803
▁일제	-7804
▁입힌	-7805
▁작전	-7806
▁잠겨	-7807
▁잠을	-7808
▁잡은	-7809
▁저는	-7810
▁전송	-7811
▁정서	-7812
▁제거	-7813
▁조기	-7814
▁조성	-7815
▁조합	-7816
▁조현	-7817
▁존슨	-7818
▁좋아	-7819
▁주점	-7820
▁중계	-7821
▁중독	-7822
▁지폐	-7823
▁진짜	-7824
▁질식	-7825
▁집권	-7826
▁집안	-7827
▁짚어	-7828
▁차장	-7829
▁취득	-7830
▁키우	-7831
▁통계	-7832
▁페이	-7833
▁펜스	-7834
▁포털	-7835
▁폭로	-7836
▁피소	-7837
▁하와	-7838
▁함정	-7839
▁항상	-7840
▁현황	-7841
▁흡입	-7842
고양이	-7843
국에서	-7844
길에서	-7845
당하는	-7846
듭니다	-7847
분가량	-7848
사고를	-7849
식으로	-7850
었다가	-7851
이어서	-7852
작업을	-7853
조사에	-7854
지검은	-7855
직원을	-7856
하고자	-7857
하기는	-7858
▁120	-7859
▁180	-7860
▁900	-7861
▁가격이	-7862
▁가족을	-7863
▁갈등을	-7864
▁개인형	-7865
▁개혁의	-7866
▁객실에	-7867
▁거세게	-7868
▁게시글	-7869
▁경찰로	-7870
▁계기가	-7871
▁계정을	-7872
▁공항에	-7873
▁관악구	-7874
▁교회는	-7875
▁구조대	-7876
▁구호를	-7877
▁국내로	-7878
▁국정감	-7879
▁귀국한	-7880
▁규모는	-7881
▁규모로	-7882
▁규정에	-7883
▁그들의	-7884
▁그러다	-7885
▁기록한	-7886
▁끝까지	-7887
▁끝나면	-7888
▁나서는	-7889
▁나왔고	-7890
▁나이트	-7891
▁남기고	-7892
▁내부를	-7893
▁내역을	-7894
▁넘어져	-7895
▁뉴욕주	-7896
▁단체의	-7897
▁담배를	-7898
▁답변을	-7899
▁당연히	-7900
▁대국민	-7901
▁됐는데	-7902
▁들어있	-7903
▁들었다	-7904
▁들이닥	-7905
▁마포구	-7906
▁메시지	-7907
▁모바일	-7908
▁모이는	-7909
▁문구가	-7910
▁미국이	-7911
▁방식을	-7912
▁방해한	-7913
▁방향을	-7914
▁버스가	-7915
▁번째로	-7916
▁벌어져	-7917
▁범위를	-7918
▁보건소	-7919
▁보건용	-7920
▁부리고	-7921
▁부분을	-7922
▁비트코	-7923
▁빼돌린	-7924
▁사례도	-7925
▁사용해	-7926
▁상담을	-7927
▁생각을	-7928
▁선고한	-7929
▁소년이	-7930
▁소방차	-7931
▁소재를	-7932
▁손님이	-7933
▁수리온	-7934
▁수초섬	-7935
▁숫자가	-7936
▁스파링	-7937
▁스페셜	-7938
▁시비가	-7939
▁시설에	-7940
▁시작해	-7941
▁시행된	-7942
▁신고된	-7943
▁신속히	-7944
▁신호가	-7945
▁아니고	-7946
▁아버지	-7947
▁아이언	-7948
▁안조로	-7949
▁않다는	-7950
▁않아도	-7951
▁얘기를	-7952
▁언론과	-7953
▁엄벌을	-7954
▁업체를	-7955
▁없으며	-7956
▁열차가	-7957
▁외교관	-7958
▁외교부	-7959
▁우려로	-7960
▁우리의	-7961
▁운동을	-7962
▁운영진	-7963
▁원장은	-7964
▁월북한	-7965
▁유사한	-7966
▁유족의	-7967
▁의견이	-7968
▁의미가	-7969
▁의사는	-7970
▁이뤄질	-7971
▁이름과	-7972
▁이어가	-7973
▁인사를	-7974
▁인터폴	-7975
▁입건된	-7976
▁장성규	-7977
▁장치를	-7978
▁재수사	-7979
▁재심을	-7980
▁전화해	-7981
▁점에서	-7982
▁정신과	-7983
▁제공한	-7984
▁제기된	-7985
▁제안을	-7986
▁제작한	-7987
▁젠더특	-7988
▁조사해	-7989
▁조치는	-7990
▁조치도	-7991
▁죽음에	-7992
▁중단을	-7993
▁증세가	-7994
▁증언이	-7995
▁지인의	-7996
▁지적도	-7997
▁직원과	-7998
▁진상규	-7999
▁진술이	-8000
▁진입한	-8001
▁차례에	-8002
▁책임이	-8003
▁청주시	-8004
▁추적한	-8005
▁출신의	-8006
▁출연해	-8007
▁충분한	-8008
▁측정을	-8009
▁커지자	-8010
▁코뼈가	-8011
▁크기의	-8012
▁크레인	-8013
▁클럽을	-8014
▁통보를	-8015
▁통화한	-8016
▁특정해	-8017
▁파출소	-8018
▁퍼지고	-8019
▁포항시	-8020
▁폭언과	-8021
▁폭언을	-8022
▁표현의	-8023
▁필요해	-8024
▁했으나	-8025
▁허가를	-8026
▁협박을	-8027
▁형체를	-8028
▁활용해	-8029
됐는데요	-8030
앤젤레스	-8031
장입니다	-8032
췄습니다	-8033
▁2010	-8034
▁JIBS	-8035
▁개정안에	-8036
▁검찰개혁	-8037
▁경비원이	-8038
▁경찰서에	-8039
▁경찰차를	-8040
▁경찰청에	-8041
▁공소장에	-8042
▁광주에서	-8043
▁국내에서	-8044
▁꺼졌지만	-8045
▁나섰지만	-8046
▁담당하는	-8047
▁대구시는	-8048
▁뒷좌석에	-8049
▁들이받아	-8050
▁로드리게	-8051
▁마리화나	-8052
▁모두에게	-8053
▁무기징역	-8054
▁무릎으로	-8055
▁민정비서	-8056
▁받았다고	-8057
▁벌어지고	-8058
▁본격적인	-8059
▁사람들도	-8060
▁산사태가	-8061
▁소식은요	-8062
▁수원지법	-8063
▁수준으로	-8064
▁시민들을	-8065
▁시작했고	-8066
▁시장에게	-8067
▁신속대응	-8068
▁안전하게	-8069
▁않겠다는	-8070
▁않았는데	-8071
▁앞으로도	-8072
▁야산에서	-8073
▁어렵다고	-8074
▁억울함을	-8075
▁에스코베	-8076
▁오랫동안	-8077
▁옵티머스	-8078
▁위원장은	-8079
▁이릅니다	-8080
▁인천에서	-8081
▁입건하고	-8082
▁잇따르자	-8083
▁있는데도	-8084
▁자신들의	-8085
▁자치경찰	-8086
▁제기되고	-8087
▁조사하는	-8088
▁조주빈을	-8089
▁직원들과	-8090
▁진압으로	-8091
▁트레일러	-8092
▁프로포폴	-8093
▁필요성을	-8094
▁하겠다는	-8095
▁하명수사	-8096
▁현수막을	-8097
▁확보하는	-8098
▁회원들이	-8099
리겠습니다	-8100
▁걸렸습니다	-8101
▁교차로에서	-8102
▁길거리에서	-8103
▁만났습니다	-8104
▁물었습니다	-8105
▁방침이라고	-8106
▁사라집니다	-8107
▁사실관계를	-8108
▁소방당국에	-8109
▁아이들에게	-8110
▁온라인에서	-8111
▁운전자들이	-8112
▁유치장에서	-8113
▁인명피해가	-8114
▁잃었습니다	-8115
▁전수조사를	-8116
▁조직적으로	-8117
▁주차장에서	-8118
▁집중호우로	-8119
▁피해자들의	-8120
▁필요합니다	-8121
▁학부모들이	-8122
▁현장에서는	-8123
▁혐의입니다	-8124
▁휴대전화의	-8125
▁넘어섰습니다	-8126
▁대피했습니다	-8127
▁도로교통법상	-8128
▁돌아왔습니다	-8129
▁로스앤젤레스	-8130
▁심폐소생술을	-8131
▁우려했습니다	-8132
▁이어갔습니다	-8133
▁조치했습니다	-8134
▁중앙재난안전	-8135
▁캘리포니아주	-8136
▁텔레그램에서	-8137
▁통과했습니다	-8138
▁파손됐습니다	-8139
▁내용이었습니다	-8140
▁서울지방경찰청은	-8141
21	-8142
35	-8143
▁갚	-8144
▁괜	-8145
▁끄	-8146
▁래	-8147
▁렌	-8148
▁링	-8149
▁맛	-8150
▁봄	-8151
▁색	-8152
▁쌀	-8153
▁잉	-8154
▁첸	-8155
▁텅	-8156
▁텍	-8157
▁혹	-8158
감시	-8159
개정	-8160
고에	-8161
교총	-8162
구나	-8163
기기	-8164
나마	-8165
남의	-8166
년여	-8167
니를	-8168
대인	-8169
두환	-8170
듬해	-8171
려보	-8172
류가	-8173
률을	-8174
름을	-8175
림이	-8176
림픽	-8177
모를	-8178
미널	-8179
반도	-8180
반을	-8181
배가	-8182
배기	-8183
보에	-8184
사령	-8185
살포	-8186
서의	-8187
수자	-8188
순영	-8189
술한	-8190
시께	-8191
야구	-8192
업자	-8193
에야	-8194
율이	-8195
은행	-8196
을까	-8197
음식	-8198
음에	-8199
음이	-8200
이노	-8201
이렌	-8202
이버	-8203
제에	-8204
주차	-8205
준비	-8206
지게	-8207
지구	-8208
지컬	-8209
차와	-8210
처분	-8211
천억	-8212
청과	-8213
청이	-8214
체인	-8215
취를	-8216
치상	-8217
침입	-8218
토미	-8219
특별	-8220
판이	-8221
평가	-8222
프로	-8223
학과	-8224
함마	-8225
합의	-8226
홀딩	-8227
화할	-8228
▁68	-8229
▁69	-8230
▁79	-8231
▁가만	-8232
▁가출	-8233
▁갑작	-8234
▁개별	-8235
▁거제	-8236
▁건넨	-8237
▁건조	-8238
▁걸고	-8239
▁걸친	-8240
▁겨울	-8241
▁겪은	-8242
▁견인	-8243
▁결탁	-8244
▁경영	-8245
▁고객	-8246
▁고도	-8247
▁고열	-8248
▁곳을	-8249
▁공부	-8250
▁공안	-8251
▁공용	-8252
▁과격	-8253
▁관내	-8254
▁관측	-8255
▁광산	-8256
▁교란	-8257
▁구미	-8258
▁구분	-8259
▁구상	-8260
▁깨물	-8261
▁꾸준	-8262
▁끼어	-8263
▁나체	-8264
▁낙하	-8265
▁난동	-8266
▁날려	-8267
▁납품	-8268
▁내는	-8269
▁노사	-8270
▁노스	-8271
▁뇌물	-8272
▁누르	-8273
▁누설	-8274
▁눈치	-8275
▁담화	-8276
▁대다	-8277
▁대를	-8278
▁도난	-8279
▁도둑	-8280
▁되자	-8281
▁둘째	-8282
▁따뜻	-8283
▁막는	-8284
▁맞는	-8285
▁맞서	-8286
▁먹는	-8287
▁멸종	-8288
▁명씩	-8289
▁모양	-8290
▁목이	-8291
▁무마	-8292
▁무산	-8293
▁무소	-8294
▁무언	-8295
▁묻지	-8296
▁물론	-8297
▁바짝	-8298
▁반경	-8299
▁발을	-8300
▁밤에	-8301
▁방범	-8302
▁방에	-8303
▁배를	-8304
▁법에	-8305
▁변을	-8306
▁봐도	-8307
▁부른	-8308
▁부처	-8309
▁북구	-8310
▁분쟁	-8311
▁브룩	-8312
▁비극	-8313
▁삶을	-8314
▁상고	-8315
▁상처	-8316
▁생계	-8317
▁서민	-8318
▁서쪽	-8319
▁선을	-8320
▁센터	-8321
▁소리	-8322
▁손잡	-8323
▁수험	-8324
▁쉬지	-8325
▁스미	-8326
▁신부	-8327
▁실은	-8328
▁쌓인	-8329
▁안양	-8330
▁알리	-8331
▁알지	-8332
▁얻은	-8333
▁여긴	-8334
▁연일	-8335
▁오지	-8336
▁왕실	-8337
▁우울	-8338
▁우월	-8339
▁우파	-8340
▁유혈	-8341
▁이라	-8342
▁인공	-8343
▁인멸	-8344
▁인테	-8345
▁일시	-8346
▁일치	-8347
▁있으	-8348
▁있죠	-8349
▁자경	-8350
▁잠정	-8351
▁잡지	-8352
▁적색	-8353
▁적어	-8354
▁전후	-8355
▁절단	-8356
▁접경	-8357
▁정경	-8358
▁조각	-8359
▁조례	-8360
▁주한	-8361
▁진실	-8362
▁철근	-8363
▁체계	-8364
▁최다	-8365
▁추세	-8366
▁출생	-8367
▁친모	-8368
▁침몰	-8369
▁카드	-8370
▁커진	-8371
▁커플	-8372
▁크지	-8373
▁타살	-8374
▁탐지	-8375
▁터뜨	-8376
▁터키	-8377
▁테슬	-8378
▁텍사	-8379
▁토지	-8380
▁트윗	-8381
▁파키	-8382
▁편지	-8383
▁폐지	-8384
▁포장	-8385
▁폭파	-8386
▁표류	-8387
▁피싱	-8388
▁피할	-8389
▁한꺼	-8390
▁한쪽	-8391
▁함께	-8392
▁합리	-8393
▁해임	-8394
▁헌병	-8395
▁헬멧	-8396
▁헬스	-8397
▁회수	-8398
갔지만	-8399
객들은	-8400
곱미터	-8401
관으로	-8402
기관은	-8403
년까지	-8404
는지를	-8405
니까요	-8406
단계를	-8407
라웨어	-8408
라이나	-8409
리고는	-8410
모델링	-8411
밀하게	-8412
법원은	-8413
베이션	-8414
사실을	-8415
스에서	-8416
어지고	-8417
었다며	-8418
용으로	-8419
준다는	-8420
집행에	-8421
카르타	-8422
푸르나	-8423
한다면	-8424
했다면	-8425
▁130	-8426
▁140	-8427
▁160	-8428
▁KBC	-8429
▁가스가	-8430
▁가져온	-8431
▁간단한	-8432
▁감독은	-8433
▁감사를	-8434
▁거리에	-8435
▁건너던	-8436
▁건물로	-8437
▁건수는	-8438
▁건축물	-8439
▁검찰로	-8440
▁게시물	-8441
▁격렬한	-8442
▁결정될	-8443
▁계정에	-8444
▁공개를	-8445
▁공개할	-8446
▁공모해	-8447
▁공소권	-8448
▁관용차	-8449
▁교육을	-8450
▁국내에	-8451
▁국토부	-8452
▁금지를	-8453
▁급기야	-8454
▁급속히	-8455
▁기소돼	-8456
▁김씨는	-8457
▁나타난	-8458
▁남녀가	-8459
▁남편은	-8460
▁내리고	-8461
▁네팔인	-8462
▁노력을	-8463
▁논란에	-8464
▁달라는	-8465
▁대리기	-8466
▁데리고	-8467
▁도망치	-8468
▁돈으로	-8469
▁동상이	-8470
▁된다는	-8471
▁두기가	-8472
▁둔기로	-8473
▁드론을	-8474
▁떠내려	-8475
▁뛰어넘	-8476
▁만일의	-8477
▁만취한	-8478
▁말하는	-8479
▁매체에	-8480
▁면책특	-8481
▁명단에	-8482
▁무함마	-8483
▁무허가	-8484
▁물품을	-8485
▁뮤지컬	-8486
▁미국인	-8487
▁받아야	-8488
▁받으며	-8489
▁방송이	-8490
▁방안도	-8491
▁방치한	-8492
▁배수로	-8493
▁벌이는	-8494
▁범죄인	-8495
▁법안소	-8496
▁법안이	-8497
▁보도한	-8498
▁부모를	-8499
▁분노가	-8500
▁분명히	-8501
▁불길은	-8502
▁불안해	-8503
▁불어난	-8504
▁불편을	-8505
▁비닐봉	-8506
▁비무장	-8507
▁비틀거	-8508
▁뿜어져	-8509
▁사람만	-8510
▁사용된	-8511
▁사인을	-8512
▁사정을	-8513
▁사태의	-8514
▁사회가	-8515
▁상당한	-8516
▁상태인	-8517
▁새롭게	-8518
▁설치돼	-8519
▁성보호	-8520
▁소리가	-8521
▁송치된	-8522
▁송치할	-8523
▁수사한	-8524
▁수술을	-8525
▁수위를	-8526
▁승객이	-8527
▁시위로	-8528
▁식사를	-8529
▁심리로	-8530
▁싶다는	-8531
▁아동이	-8532
▁아찔한	-8533
▁않기로	-8534
▁않을까	-8535
▁알코올	-8536
▁어렵게	-8537
▁없도록	-8538
▁엉뚱한	-8539
▁에토미	-8540
▁여성도	-8541
▁여의도	-8542
▁예정된	-8543
▁오리건	-8544
▁올리고	-8545
▁올해는	-8546
▁와중에	-8547
▁요양원	-8548
▁용도로	-8549
▁용산구	-8550
▁우려를	-8551
▁월북을	-8552
▁월요일	-8553
▁위기를	-8554
▁위기에	-8555
▁위안부	-8556
▁유명한	-8557
▁유언비	-8558
▁의뢰할	-8559
▁의원의	-8560
▁이곳은	-8561
▁이광철	-8562
▁이동할	-8563
▁이듬해	-8564
▁이탈한	-8565
▁인스타	-8566
▁일요일	-8567
▁있으니	-8568
▁자체를	-8569
▁잘못을	-8570
▁재산을	-8571
▁적어도	-8572
▁전두환	-8573
▁전력이	-8574
▁전원이	-8575
▁전체가	-8576
▁절차가	-8577
▁접수한	-8578
▁제목의	-8579
▁제조공	-8580
▁제주항	-8581
▁조직을	-8582
▁주의를	-8583
▁중국을	-8584
▁지나간	-8585
▁지명수	-8586
▁지하차	-8587
▁집회의	-8588
▁책임자	-8589
▁처리를	-8590
▁체포돼	-8591
▁총으로	-8592
▁추돌한	-8593
▁추적에	-8594
▁충격이	-8595
▁치러진	-8596
▁태어난	-8597
▁테러가	-8598
▁테러리	-8599
▁포순이	-8600
▁폭행해	-8601
▁피하지	-8602
▁하겠다	-8603
▁하기로	-8604
▁하루에	-8605
▁학대로	-8606
▁학대한	-8607
▁한다며	-8608
▁항공편	-8609
▁해마다	-8610
▁행적을	-8611
▁허술한	-8612
▁혼란이	-8613
▁확산에	-8614
▁확진된	-8615
▁희생자	-8616
리케이션	-8617
받았다고	-8618
시간가량	-8619
프라데시	-8620
해지면서	-8621
▁1980	-8622
▁1999	-8623
▁가해자가	-8624
▁가해자를	-8625
▁감사하다	-8626
▁갔습니다	-8627
▁것인데요	-8628
▁경찰관과	-8629
▁경찰관은	-8630
▁고용노동	-8631
▁공간에서	-8632
▁공무원은	-8633
▁공무원의	-8634
▁공유하는	-8635
▁공항에서	-8636
▁과태료가	-8637
▁국가안보	-8638
▁국민들의	-8639
▁그리고는	-8640
▁극단주의	-8641
▁금융감독	-8642
▁기다리던	-8643
▁노동자가	-8644
▁단계에서	-8645
▁달아나는	-8646
▁대부분은	-8647
▁대상자는	-8648
▁델라웨어	-8649
▁동물보호	-8650
▁뒤따르던	-8651
▁리모델링	-8652
▁마스크와	-8653
▁마찬가지	-8654
▁말다툼을	-8655
▁머리채를	-8656
▁목소리도	-8657
▁못하도록	-8658
▁물론이고	-8659
▁물류센터	-8660
▁미추홀구	-8661
▁발견하지	-8662
▁발생하고	-8663
▁방역수칙	-8664
▁범죄수익	-8665
▁법무장관	-8666
▁보고서를	-8667
▁부동산시	-8668
▁부인하고	-8669
▁부총리는	-8670
▁불법체류	-8671
▁사용하는	-8672
▁사용하지	-8673
▁사이트를	-8674
▁서울에서	-8675
▁선고받은	-8676
▁선수들이	-8677
▁성범죄자	-8678
▁소지하고	-8679
▁시설에서	-8680
▁시작되는	-8681
▁신분증을	-8682
▁신속하게	-8683
▁실제로는	-8684
▁썼습니다	-8685
▁쏟아지고	-8686
▁아파트를	-8687
▁안타까운	-8688
▁열겠다고	-8689
▁영장전담	-8690
▁외교부는	-8691
▁운전자와	-8692
▁울산시장	-8693
▁움직임을	-8694
▁유대교회	-8695
▁유료회원	-8696
▁의붓아버	-8697
▁인천지법	-8698
▁일반음식	-8699
▁입장료를	-8700
▁자카르타	-8701
▁전역으로	-8702
▁점입니다	-8703
▁정책담당	-8704
▁조주빈은	-8705
▁주민센터	-8706
▁주지사는	-8707
▁지방선거	-8708
▁지역으로	-8709
▁직원들의	-8710
▁차량들이	-8711
▁차량으로	-8712
▁착용하고	-8713
▁찾았다가	-8714
▁통제하고	-8715
▁파악하는	-8716
▁파키스탄	-8717
▁피고인이	-8718
▁한꺼번에	-8719
▁합동으로	-8720
▁해양수산	-8721
▁화염병을	-8722
▁확인하지	-8723
명으로부터	-8724
이노베이션	-8725
▁가능합니다	-8726
▁고위공직자	-8727
▁관계자들을	-8728
▁국가공무원	-8729
▁기자회견을	-8730
▁나이트클럽	-8731
▁다가구주택	-8732
▁대통령에게	-8733
▁뒤였습니다	-8734
▁들어갑니다	-8735
▁발견됐는데	-8736
▁발생했다고	-8737
▁방역지침을	-8738
▁비닐하우스	-8739
▁서울경찰청	-8740
▁신천지교회	-8741
▁안나푸르나	-8742
▁역학조사를	-8743
▁영상입니다	-8744
▁의도적으로	-8745
▁인스타그램	-8746
▁저질렀다고	-8747
▁정규직으로	-8748
▁주목됩니다	-8749
▁준수사항을	-8750
▁지역에서는	-8751
▁직원들에게	-8752
▁집단감염이	-8753
▁초등학생을	-8754
▁텔레그램에	-8755
▁플로이드를	-8756
▁해양경찰청	-8757
▁확산하면서	-8758
▁경부고속도로	-8759
▁대공수사권을	-8760
▁돌진했습니다	-8761
▁들이받습니다	-8762
▁떨어졌습니다	-8763
▁범죄단체조직	-8764
▁사회복무요원	-8765
▁성폭력범죄의	-8766
▁스페셜에서는	-8767
▁쏟아졌습니다	-8768
▁애플리케이션	-8769
▁에토미데이트	-8770
▁전하겠습니다	-8771
▁평가했습니다	-8772
▁폐쇄됐습니다	-8773
▁피해자들에게	-8774
▁확정됐습니다	-8775
49	-8776
MW	-8777
▁Y	-8778
▁값	-8779
▁낀	-8780
▁낡	-8781
▁뺨	-8782
▁뼈	-8783
▁싫	-8784
▁윌	-8785
▁젖	-8786
▁찼	-8787
▁캄	-8788
▁큽	-8789
▁톨	-8790
▁햄	-8791
▁험	-8792
▁헝	-8793
▁혀	-8794
▁혜	-8795
가구	-8796
개에	-8797
개입	-8798
게소	-8799
경기	-8800
고요	-8801
관실	-8802
광장	-8803
국의	-8804
군에	-8805
금과	-8806
깝게	-8807
끼로	-8808
나요	-8809
다운	-8810
단과	-8811
돌이	-8812
동생	-8813
들고	-8814
들만	-8815
라를	-8816
란색	-8817
료품	-8818
류를	-8819
리퍼	-8820
마크	-8821
만이	-8822
만한	-8823
매를	-8824
면에	-8825
면의	-8826
명씩	-8827
명인	-8828
미콘	-8829
방역	-8830
범은	-8831
벽이	-8832
보지	-8833
복합	-8834
분한	-8835
산나	-8836
산이	-8837
상품	-8838
선수	-8839
선한	-8840
소인	-8841
소한	-8842
수레	-8843
수욕	-8844
순찰	-8845
순환	-8846
스주	-8847
시다	-8848
식에	-8849
신고	-8850
심과	-8851
씨도	-8852
연맹	-8853
운드	-8854
월쯤	-8855
율은	-8856
을지	-8857
읍의	-8858
의회	-8859
인당	-8860
일리	-8861
장비	-8862
장인	-8863
재와	-8864
저리	-8865
전한	-8866
제네	-8867
조트	-8868
줄을	-8869
중심	-8870
지노	-8871
지던	-8872
째를	-8873
착용	-8874
책임	-8875
쳐서	-8876
추는	-8877
치의	-8878
크를	-8879
타르	-8880
탄에	-8881
탄이	-8882
통제	-8883
티즌	-8884
피어	-8885
하니	-8886
하듯	-8887
하에	-8888
해경	-8889
해튼	-8890
형은	-8891
화탄	-8892
회전	-8893
TBC	-8894
▁64	-8895
▁81	-8896
▁87	-8897
▁95	-8898
▁가라	-8899
▁가량	-8900
▁가린	-8901
▁간격	-8902
▁간담	-8903
▁강북	-8904
▁개념	-8905
▁개시	-8906
▁개학	-8907
▁검출	-8908
▁것일	-8909
▁격화	-8910
▁결코	-8911
▁경마	-8912
▁계량	-8913
▁계양	-8914
▁공산	-8915
▁공원	-8916
▁구타	-8917
▁군산	-8918
▁그간	-8919
▁그을	-8920
▁급진	-8921
▁기강	-8922
▁기절	-8923
▁김재	-8924
▁깔린	-8925
▁끌려	-8926
▁남의	-8927
▁납치	-8928
▁노무	-8929
▁다들	-8930
▁다뤄	-8931
▁단호	-8932
▁답안	-8933
▁당정	-8934
▁대부	-8935
▁대사	-8936
▁데는	-8937
▁독려	-8938
▁돌연	-8939
▁동일	-8940
▁동조	-8941
▁됐던	-8942
▁두절	-8943
▁떠났	-8944
▁마당	-8945
▁마땅	-8946
▁마틴	-8947
▁맞지	-8948
▁매매	-8949
▁멀리	-8950
▁메모	-8951
▁명시	-8952
▁모친	-8953
▁모터	-8954
▁못할	-8955
▁무인	-8956
▁물건	-8957
▁미곡	-8958
▁미터	-8959
▁미혼	-8960
▁민족	-8961
▁밀반	-8962
▁밀접	-8963
▁박탈	-8964
▁받자	-8965
▁발급	-8966
▁발길	-8967
▁발원	-8968
▁발포	-8969
▁배임	-8970
▁배회	-8971
▁버튼	-8972
▁버티	-8973
▁보강	-8974
▁복원	-8975
▁봐야	-8976
▁부의	-8977
▁부천	-8978
▁불분	-8979
▁불붙	-8980
▁불빛	-8981
▁불쾌	-8982
▁불필	-8983
▁불허	-8984
▁붙은	-8985
▁빈과	-8986
▁빨라	-8987
▁사정	-8988
▁상세	-8989
▁상어	-8990
▁상자	-8991
▁샤를	-8992
▁서비	-8993
▁선발	-8994
▁선배	-8995
▁선임	-8996
▁성당	-8997
▁소명	-8998
▁수능	-8999
▁수법	-9000
▁수억	-9001
▁수칙	-9002
▁술자	-9003
▁승강	-9004
▁시범	-9005
▁시즌	-9006
▁식별	-9007
▁실체	-9008
▁심상	-9009
▁싸움	-9010
▁악플	-9011
▁안무	-9012
▁안이	-9013
▁알렉	-9014
▁암호	-9015
▁야외	-9016
▁양을	-9017
▁에브	-9018
▁여고	-9019
▁여럿	-9020
▁열려	-9021
▁영어	-9022
▁영하	-9023
▁오해	-9024
▁완주	-9025
▁우선	-9026
▁원과	-9027
▁원씩	-9028
▁원정	-9029
▁유령	-9030
▁유서	-9031
▁유예	-9032
▁유해	-9033
▁은닉	-9034
▁이걸	-9035
▁인간	-9036
▁인접	-9037
▁일로	-9038
▁일방	-9039
▁일용	-9040
▁잃어	-9041
▁임용	-9042
▁입에	-9043
▁자랑	-9044
▁자율	-9045
▁자해	-9046
▁잔디	-9047
▁장항	-9048
▁잭슨	-9049
▁저유	-9050
▁전력	-9051
▁전통	-9052
▁점에	-9053
▁정례	-9054
▁제과	-9055
▁조달	-9056
▁졸업	-9057
▁좁은	-9058
▁주관	-9059
▁죽어	-9060
▁지구	-9061
▁진범	-9062
▁쫓고	-9063
▁찍혔	-9064
▁차림	-9065
▁찾고	-9066
▁철원	-9067
▁청문	-9068
▁청산	-9069
▁청탁	-9070
▁체납	-9071
▁축하	-9072
▁치명	-9073
▁치킨	-9074
▁크고	-9075
▁통영	-9076
▁투쟁	-9077
▁특이	-9078
▁파괴	-9079
▁파는	-9080
▁퍼부	-9081
▁페트	-9082
▁폭스	-9083
▁피격	-9084
▁피신	-9085
▁피우	-9086
▁필로	-9087
▁학살	-9088
▁한글	-9089
▁한류	-9090
▁합격	-9091
▁합법	-9092
▁합성	-9093
▁해온	-9094
▁해주	-9095
▁형편	-9096
▁혼잡	-9097
개월에	-9098
계획을	-9099
관에서	-9100
당하자	-9101
명했다	-9102
받아야	-9103
방송을	-9104
시설은	-9105
심사를	-9106
에게서	-9107
여명이	-9108
오면서	-9109
인디아	-9110
장비를	-9111
차로를	-9112
폭력이	-9113
하라며	-9114
협의회	-9115
힙니다	-9116
▁145	-9117
▁197	-9118
▁350	-9119
▁BBC	-9120
▁BMW	-9121
▁ITC	-9122
▁같은데	-9123
▁거리로	-9124
▁건강이	-9125
▁검체를	-9126
▁경위가	-9127
▁경적을	-9128
▁계획을	-9129
▁고강도	-9130
▁고발된	-9131
▁고발이	-9132
▁고소인	-9133
▁공급이	-9134
▁공사현	-9135
▁공소장	-9136
▁공정한	-9137
▁과정이	-9138
▁관제요	-9139
▁교육부	-9140
▁교육생	-9141
▁교인이	-9142
▁권총을	-9143
▁규정이	-9144
▁근무를	-9145
▁급격히	-9146
▁기록이	-9147
▁기회를	-9148
▁김기영	-9149
▁김포시	-9150
▁남편을	-9151
▁넘어간	-9152
▁넘어뜨	-9153
▁넘어섰	-9154
▁넘어진	-9155
▁네티즌	-9156
▁눈길을	-9157
▁눈사태	-9158
▁늘었다	-9159
▁닉네임	-9160
▁대검찰	-9161
▁대구시	-9162
▁대표이	-9163
▁대화명	-9164
▁던지며	-9165
▁독극물	-9166
▁돌아갈	-9167
▁돌진해	-9168
▁동상을	-9169
▁동승자	-9170
▁된다고	-9171
▁두려움	-9172
▁두려워	-9173
▁드러낸	-9174
▁레미콘	-9175
▁만드는	-9176
▁많게는	-9177
▁말라는	-9178
▁말씀을	-9179
▁맨해튼	-9180
▁면밀히	-9181
▁모으고	-9182
▁모임을	-9183
▁목사의	-9184
▁몸싸움	-9185
▁묻지마	-9186
▁미안해	-9187
▁미착용	-9188
▁민간인	-9189
▁민원을	-9190
▁바람이	-9191
▁바이킹	-9192
▁박상학	-9193
▁받고도	-9194
▁받기도	-9195
▁밤부터	-9196
▁방송된	-9197
▁번화가	-9198
▁벌였고	-9199
▁별개로	-9200
▁보트가	-9201
▁부딪혀	-9202
▁부작용	-9203
▁부정확	-9204
▁부제로	-9205
▁부평구	-9206
▁북한에	-9207
▁불만이	-9208
▁비율은	-9209
▁비행기	-9210
▁빨간색	-9211
▁사과를	-9212
▁살피고	-9213
▁생활이	-9214
▁선고를	-9215
▁선박이	-9216
▁성교육	-9217
▁성향의	-9218
▁세상에	-9219
▁소녀는	-9220
▁소상공	-9221
▁손수레	-9222
▁수사의	-9223
▁수치를	-9224
▁시설로	-9225
▁시위도	-9226
▁식료품	-9227
▁신문은	-9228
▁신체적	-9229
▁실수를	-9230
▁아내를	-9231
▁아내의	-9232
▁아닌지	-9233
▁안산의	-9234
▁안팎의	-9235
▁않았을	-9236
▁않지만	-9237
▁앤드루	-9238
▁양천구	-9239
▁어려움	-9240
▁언론을	-9241
▁얼굴과	-9242
▁없어서	-9243
▁여부가	-9244
▁연락처	-9245
▁연설을	-9246
▁영장이	-9247
▁옆에서	-9248
▁외에는	-9249
▁운동가	-9250
▁운영을	-9251
▁운전석	-9252
▁원에서	-9253
▁위반과	-9254
▁유기한	-9255
▁음성이	-9256
▁음식을	-9257
▁의견도	-9258
▁의무가	-9259
▁의혹도	-9260
▁이곳을	-9261
▁인권을	-9262
▁인근을	-9263
▁인력과	-9264
▁인력이	-9265
▁인물이	-9266
▁일대를	-9267
▁일으킨	-9268
▁임순영	-9269
▁입원한	-9270
▁입증할	-9271
▁있을지	-9272
▁자녀를	-9273
▁잡아당	-9274
▁전달한	-9275
▁점검을	-9276
▁조처를	-9277
▁조치로	-9278
▁종류의	-9279
▁주민들	-9280
▁주소를	-9281
▁주시죠	-9282
▁주장에	-9283
▁주차돼	-9284
▁증가한	-9285
▁지르며	-9286
▁지원금	-9287
▁지인과	-9288
▁지인이	-9289
▁지정할	-9290
▁직무를	-9291
▁진단을	-9292
▁진술에	-9293
▁진화에	-9294
▁차례나	-9295
▁차별에	-9296
▁차선을	-9297
▁참석해	-9298
▁청구할	-9299
▁청장은	-9300
▁체온을	-9301
▁초과해	-9302
▁초점을	-9303
▁촬영된	-9304
▁촬영을	-9305
▁최신종	-9306
▁최초로	-9307
▁추가돼	-9308
▁출석한	-9309
▁출입국	-9310
▁출입명	-9311
▁충돌해	-9312
▁측에서	-9313
▁층간소	-9314
▁큽니다	-9315
▁키우는	-9316
▁키피어	-9317
▁테이블	-9318
▁퇴근길	-9319
▁투약한	-9320
▁투입돼	-9321
▁투입된	-9322
▁티셔츠	-9323
▁판단이	-9324
▁폭발과	-9325
▁폭우로	-9326
▁폭행에	-9327
▁피하기	-9328
▁피해도	-9329
▁하도록	-9330
▁하원의	-9331
▁학생을	-9332
▁행동이	-9333
▁허위로	-9334
▁협의해	-9335
▁협조해	-9336
▁호소한	-9337
▁호소해	-9338
▁홍콩에	-9339
▁화재는	-9340
▁활용한	-9341
▁횡령한	-9342
▁후보로	-9343
▁후원금	-9344
▁휩쓸려	-9345
들입니다	-9346
발적으로	-9347
병원으로	-9348
이었다고	-9349
적입니다	-9350
졌는데요	-9351
집행방해	-9352
터널에서	-9353
▁2000	-9354
▁2011	-9355
▁가해자는	-9356
▁감염병의	-9357
▁강화하고	-9358
▁건축물대	-9359
▁경기도가	-9360
▁경기도의	-9361
▁고소장이	-9362
▁공판에서	-9363
▁관계부처	-9364
▁교육부는	-9365
▁구속하고	-9366
▁기다리고	-9367
▁나서면서	-9368
▁나섭니다	-9369
▁나타나는	-9370
▁냉동창고	-9371
▁다가오자	-9372
▁다급하게	-9373
▁당했다며	-9374
▁대상에서	-9375
▁드러나고	-9376
▁마을에서	-9377
▁말했다고	-9378
▁몸싸움을	-9379
▁반발하고	-9380
▁받았다는	-9381
▁밝혀지지	-9382
▁범인으로	-9383
▁법조계에	-9384
▁베이루트	-9385
▁변호인은	-9386
▁북한으로	-9387
▁브레이크	-9388
▁비판하는	-9389
▁사건까지	-9390
▁사망으로	-9391
▁사망했다	-9392
▁사이트에	-9393
▁살펴보고	-9394
▁서울북부	-9395
▁선거개입	-9396
▁선고받고	-9397
▁선고하고	-9398
▁설치하고	-9399
▁성보호에	-9400
▁소송에서	-9401
▁수사에서	-9402
▁시달리다	-9403
▁쓰레기로	-9404
▁아버지의	-9405
▁양성으로	-9406
▁어린이를	-9407
▁엄정하게	-9408
▁여성들을	-9409
▁여성으로	-9410
▁영상물을	-9411
▁영상으로	-9412
▁오전부터	-9413
▁요구하고	-9414
▁요청했고	-9415
▁운영하고	-9416
▁운전자의	-9417
▁음성으로	-9418
▁의료진이	-9419
▁이번에도	-9420
▁이야기가	-9421
▁이어지자	-9422
▁이춘재는	-9423
▁인테리어	-9424
▁입주민이	-9425
▁장도연은	-9426
▁적발되면	-9427
▁정보통신	-9428
▁정상적인	-9429
▁제주에서	-9430
▁제한하는	-9431
▁조직으로	-9432
▁주민들을	-9433
▁지명수배	-9434
▁지자체가	-9435
▁지켜지지	-9436
▁직원들을	-9437
▁집행인력	-9438
▁집회에서	-9439
▁차단하는	-9440
▁창고에서	-9441
▁처벌받을	-9442
▁처벌하고	-9443
▁처벌하는	-9444
▁청소년의	-9445
▁청원경찰	-9446
▁최근에는	-9447
▁출입문을	-9448
▁취재진이	-9449
▁트위터를	-9450
▁퍼지면서	-9451
▁폭행당한	-9452
▁학교에서	-9453
▁학생들을	-9454
▁한국전력	-9455
▁한익스프	-9456
▁현장으로	-9457
▁호소하는	-9458
▁확산세가	-9459
▁확진자인	-9460
▁후보자는	-9461
▁거뒀습니다	-9462
▁경찰서에서	-9463
▁그렇습니다	-9464
▁끝났습니다	-9465
▁남겼습니다	-9466
▁대상입니다	-9467
▁대응하겠다	-9468
▁도로교통법	-9469
▁맞았습니다	-9470
▁미성년자를	-9471
▁받아들이지	-9472
▁부하직원을	-9473
▁붙었습니다	-9474
▁상대적으로	-9475
▁선고했다고	-9476
▁실시간으로	-9477
▁아동학대에	-9478
▁어떻습니까	-9479
▁원칙적으로	-9480
▁이례적으로	-9481
▁집무실에서	-9482
▁참가자들은	-9483
▁참고인으로	-9484
▁찾았습니다	-9485
▁퍼졌습니다	-9486
▁학생들에게	-9487
▁한국대사관	-9488
▁한복판에서	-9489
▁홈페이지에	-9490
▁것이었습니다	-9491
▁동의했습니다	-9492
▁명령했습니다	-9493
▁부딪쳤습니다	-9494
▁소개했습니다	-9495
▁속출했습니다	-9496
▁저질렀습니다	-9497
▁제안했습니다	-9498
▁질병관리본부	-9499
▁통제됐습니다	-9500
▁투입했습니다	-9501
▁펜실베이니아	-9502
▁사랑제일교회를	-9503
▁시작하겠습니다	-9504
▁어린이보호구역	-9505
▁영장실질심사를	-9506
▁서울지방경찰청에	-9507
▁압수수색했습니다	-9508
▁경기남부지방경찰청	-9509
▁국립과학수사연구원은	-9510
20	-9511
24	-9512
61	-9513
99	-9514
▁故	-9515
▁낯	-9516
▁덩	-9517
▁득	-9518
▁뚜	-9519
▁램	-9520
▁몽	-9521
▁삽	-9522
▁섀	-9523
▁쏠	-9524
▁쐈	-9525
▁엇	-9526
▁좀	-9527
▁춤	-9528
▁킬	-9529
▁튕	-9530
▁힐	-9531
가스	-9532
강립	-9533
객을	-9534
검찰	-9535
경비	-9536
곳의	-9537
구니	-9538
국회	-9539
근혜	-9540
남은	-9541
냄새	-9542
냈다	-9543
노이	-9544
능력	-9545
당할	-9546
대기	-9547
대리	-9548
대포	-9549
대회	-9550
더미	-9551
드랴	-9552
등급	-9553
렀다	-9554
롬굴	-9555
리면	-9556
리의	-9557
림을	-9558
매장	-9559
메이	-9560
목에	-9561
미야	-9562
박한	-9563
반에	-9564
백평	-9565
범위	-9566
병과	-9567
보자	-9568
분리	-9569
비오	-9570
사실	-9571
살을	-9572
생아	-9573
셔야	-9574
스티	-9575
시민	-9576
신을	-9577
심에	-9578
심은	-9579
아야	-9580
어질	-9581
여를	-9582
역에	-9583
열한	-9584
오다	-9585
웠다	-9586
위생	-9587
유를	-9588
유히	-9589
재해	-9590
적한	-9591
절도	-9592
점과	-9593
정당	-9594
정책	-9595
조선	-9596
조에	-9597
지다	-9598
집을	-9599
짜고	-9600
째로	-9601
책이	-9602
척과	-9603
청사	-9604
쳤다	-9605
초가	-9606
카를	-9607
캐롤	-9608
커녕	-9609
크스	-9610
타워	-9611
태세	-9612
터스	-9613
트는	-9614
펀드	-9615
평양	-9616
프체	-9617
혐의	-9618
협조	-9619
호흡	-9620
화로	-9621
환경	-9622
100	-9623
800	-9624
▁76	-9625
▁84	-9626
▁85	-9627
▁89	-9628
▁DC	-9629
▁GP	-9630
▁가루	-9631
▁가리	-9632
▁가치	-9633
▁갇힌	-9634
▁갖춰	-9635
▁개그	-9636
▁거소	-9637
▁거실	-9638
▁건널	-9639
▁건넸	-9640
▁건이	-9641
▁걷는	-9642
▁걸음	-9643
▁검증	-9644
▁격려	-9645
▁결심	-9646
▁경관	-9647
▁경보	-9648
▁경상	-9649
▁경주	-9650
▁곡성	-9651
▁곡예	-9652
▁곤란	-9653
▁공고	-9654
▁공주	-9655
▁과다	-9656
▁과천	-9657
▁괜찮	-9658
▁교환	-9659
▁구한	-9660
▁군부	-9661
▁그로	-9662
▁그에	-9663
▁기기	-9664
▁기동	-9665
▁기습	-9666
▁기적	-9667
▁김천	-9668
▁깃발	-9669
▁나를	-9670
▁나면	-9671
▁나쁜	-9672
▁날린	-9673
▁낡은	-9674
▁남구	-9675
▁났고	-9676
▁났다	-9677
▁내걸	-9678
▁널리	-9679
▁농장	-9680
▁높게	-9681
▁눌러	-9682
▁뉴저	-9683
▁다운	-9684
▁달성	-9685
▁담겼	-9686
▁담고	-9687
▁담아	-9688
▁대목	-9689
▁대여	-9690
▁더는	-9691
▁더미	-9692
▁덮친	-9693
▁돌발	-9694
▁돌입	-9695
▁돌파	-9696
▁동반	-9697
▁동창	-9698
▁두드	-9699
▁뒤편	-9700
▁들통	-9701
▁딸과	-9702
▁떠오	-9703
▁리얼	-9704
▁리치	-9705
▁막걸	-9706
▁만료	-9707
▁많지	-9708
▁말라	-9709
▁말로	-9710
▁명절	-9711
▁명칭	-9712
▁모더	-9713
▁모의	-9714
▁모자	-9715
▁몸이	-9716
▁무렵	-9717
▁무색	-9718
▁문건	-9719
▁문구	-9720
▁묻는	-9721
▁물려	-9722
▁미용	-9723
▁미칠	-9724
▁민감	-9725
▁민중	-9726
▁믿고	-9727
▁밀캠	-9728
▁바로	-9729
▁밝힐	-9730
▁밟고	-9731
▁방류	-9732
▁백두	-9733
▁버섯	-9734
▁번도	-9735
▁법령	-9736
▁법리	-9737
▁법의	-9738
▁병력	-9739
▁보낼	-9740
▁보상	-9741
▁복직	-9742
▁본부	-9743
▁분당	-9744
▁분량	-9745
▁빚이	-9746
▁뿌려	-9747
▁사립	-9748
▁사항	-9749
▁상관	-9750
▁상급	-9751
▁상온	-9752
▁상원	-9753
▁상주	-9754
▁상향	-9755
▁생겨	-9756
▁생겼	-9757
▁생일	-9758
▁생필	-9759
▁서진	-9760
▁석방	-9761
▁선원	-9762
▁성격	-9763
▁성능	-9764
▁성산	-9765
▁세무	-9766
▁소견	-9767
▁소화	-9768
▁속아	-9769
▁수위	-9770
▁스위	-9771
▁스카	-9772
▁승합	-9773
▁시기	-9774
▁신설	-9775
▁신성	-9776
▁신천	-9777
▁실내	-9778
▁실수	-9779
▁실업	-9780
▁씨앗	-9781
▁아까	-9782
▁아름	-9783
▁안개	-9784
▁안다	-9785
▁안면	-9786
▁안을	-9787
▁알았	-9788
▁압도	-9789
▁앞뒤	-9790
▁애틀	-9791
▁약을	-9792
▁어쩌	-9793
▁영산	-9794
▁예년	-9795
▁옮겼	-9796
▁외제	-9797
▁용서	-9798
▁용역	-9799
▁용접	-9800
▁우발	-9801
▁운반	-9802
▁울타	-9803
▁유공	-9804
▁유실	-9805
▁육박	-9806
▁응답	-9807
▁응시	-9808
▁응원	-9809
▁의류	-9810
▁이관	-9811
▁이기	-9812
▁이메	-9813
▁이별	-9814
▁이수	-9815
▁인부	-9816
▁인원	-9817
▁인화	-9818
▁일명	-9819
▁일삼	-9820
▁일일	-9821
▁일체	-9822
▁임대	-9823
▁잇는	-9824
▁자매	-9825
▁자영	-9826
▁재건	-9827
▁재검	-9828
▁재택	-9829
▁적절	-9830
▁전격	-9831
▁점이	-9832
▁점포	-9833
▁정원	-9834
▁제일	-9835
▁주식	-9836
▁줄곧	-9837
▁중개	-9838
▁증권	-9839
▁지리	-9840
▁지우	-9841
▁진심	-9842
▁집은	-9843
▁집이	-9844
▁짧은	-9845
▁찌른	-9846
▁찔려	-9847
▁차오	-9848
▁참작	-9849
▁처방	-9850
▁철조	-9851
▁쳐다	-9852
▁초래	-9853
▁치사	-9854
▁치워	-9855
▁친척	-9856
▁카테	-9857
▁칼리	-9858
▁캠퍼	-9859
▁캠페	-9860
▁쿠팡	-9861
▁크다	-9862
▁탔던	-9863
▁통학	-9864
▁퇴진	-9865
▁투기	-9866
▁튕겨	-9867
▁특성	-9868
▁특혜	-9869
▁파고	-9870
▁파업	-9871
▁퍼붓	-9872
▁펼쳐	-9873
▁폭주	-9874
▁표명	-9875
▁풀이	-9876
▁품귀	-9877
▁피자	-9878
▁한두	-9879
▁한정	-9880
▁한창	-9881
▁할지	-9882
▁해군	-9883
▁행방	-9884
▁행태	-9885
▁허락	-9886
▁허벅	-9887
▁헌금	-9888
▁헌법	-9889
▁헌혈	-9890
▁혈액	-9891
▁협약	-9892
▁호남	-9893
▁호우	-9894
▁홍수	-9895
▁후이	-9896
▁훈육	-9897
▁흉기	-9898
▁희망	-9899
▁힘이	-9900
대들이	-9901
대학교	-9902
됐거나	-9903
되지는	-9904
등학교	-9905
리거나	-9906
면에서	-9907
명이나	-9908
버스를	-9909
별로는	-9910
봅니다	-9911
사항을	-9912
소방서	-9913
스크포	-9914
시간이	-9915
시켜야	-9916
아이가	-9917
업체를	-9918
였으나	-9919
왔다는	-9920
왔지만	-9921
인데도	-9922
자마자	-9923
장관은	-9924
장치를	-9925
정에서	-9926
제네카	-9927
조사가	-9928
주의를	-9929
준비생	-9930
줍니다	-9931
지구대	-9932
지사는	-9933
청에서	-9934
총으로	-9935
팻말을	-9936
하지도	-9937
학년생	-9938
할머니	-9939
행으로	-9940
협회가	-9941
협회는	-9942
활동을	-9943
회의에	-9944
▁450	-9945
▁가격을	-9946
▁가라앉	-9947
▁가만히	-9948
▁감독이	-9949
▁갓길에	-9950
▁강동구	-9951
▁강서구	-9952
▁같다는	-9953
▁거부한	-9954
▁거주자	-9955
▁건설사	-9956
▁걸리는	-9957
▁검사와	-9958
▁게시한	-9959
▁결론을	-9960
▁계속된	-9961
▁곧이어	-9962
▁공격헬	-9963
▁공사를	-9964
▁과도한	-9965
▁관광객	-9966
▁괴롭힘	-9967
▁교사는	-9968
▁교회에	-9969
▁구조해	-9970
▁국회가	-9971
▁국회에	-9972
▁군부대	-9973
▁권고를	-9974
▁규명을	-9975
▁금은방	-9976
▁기간을	-9977
▁기관을	-9978
▁기관이	-9979
▁기다려	-9980
▁기부금	-9981
▁김강립	-9982
▁김백평	-9983
▁김유성	-9984
▁꾸준히	-9985
▁끝나지	-9986
▁나란히	-9987
▁나서야	-9988
▁남자친	-9989
▁내렸고	-9990
▁내면서	-9991
▁넘도록	-9992
▁뉴스에	-9993
▁다녀간	-9994
▁다량의	-9995
▁다리가	-9996
▁다치지	-9997
▁다툼이	-9998
▁단서가	-9999
▁담당한	-10000
▁대사가	-10001
▁대출규	-10002
▁대피해	-10003
▁돌고래	-10004
▁동급생	-10005
▁동물이	-10006
▁동생의	-10007
▁동일한	-10008
▁되풀이	-10009
▁뒷돈을	-10010
▁드롬굴	-10011
▁따뜻한	-10012
▁똑같은	-10013
▁레이더	-10014
▁레이싱	-10015
▁마라톤	-10016
▁마이클	-10017
▁매달려	-10018
▁머물고	-10019
▁멈추지	-10020
▁면담을	-10021
▁모두를	-10022
▁몰다가	-10023
▁무소속	-10024
▁물대포	-10025
▁미국은	-10026
▁민스크	-10027
▁박근혜	-10028
▁반부터	-10029
▁반중국	-10030
▁받도록	-10031
▁발표된	-10032
▁방문자	-10033
▁방송에	-10034
▁방파제	-10035
▁배제할	-10036
▁번이나	-10037
▁벌이던	-10038
▁법조계	-10039
▁벗어난	-10040
▁보안법	-10041
▁보트를	-10042
▁부딪혔	-10043
▁부모와	-10044
▁부부의	-10045
▁부분에	-10046
▁부수고	-10047
▁부위를	-10048
▁부인이	-10049
▁부장검	-10050
▁부적절	-10051
▁분석이	-10052
▁붙잡고	-10053
▁붙잡은	-10054
▁블로그	-10055
▁비난이	-10056
▁빌미로	-10057
▁사드기	-10058
▁사우디	-10059
▁사재기	-10060
▁사진에	-10061
▁사회의	-10062
▁살배기	-10063
▁상대방	-10064
▁상황과	-10065
▁생각이	-10066
▁생각해	-10067
▁생전에	-10068
▁서울로	-10069
▁서울에	-10070
▁서해안	-10071
▁선거에	-10072
▁성인이	-10073
▁세워져	-10074
▁소견을	-10075
▁소비자	-10076
▁속이고	-10077
▁손목을	-10078
▁솔직한	-10079
▁수감자	-10080
▁수사관	-10081
▁수사해	-10082
▁수시로	-10083
▁수십만	-10084
▁수원시	-10085
▁숫자는	-10086
▁스미싱	-10087
▁스토킹	-10088
▁승객의	-10089
▁승리를	-10090
▁시민과	-10091
▁시민들	-10092
▁시민은	-10093
▁시위와	-10094
▁시위의	-10095
▁식당과	-10096
▁신고할	-10097
▁신생아	-10098
▁신체를	-10099
▁싶다고	-10100
▁아빠가	-10101
▁아이와	-10102
▁양상을	-10103
▁얼굴에	-10104
▁역량을	-10105
▁연결해	-10106
▁연락해	-10107
▁연세대	-10108
▁영상물	-10109
▁올림픽	-10110
▁옮겨진	-10111
▁요청이	-10112
▁우한에	-10113
▁운동처	-10114
▁운행을	-10115
▁원까지	-10116
▁원하는	-10117
▁웨이보	-10118
▁위구르	-10119
▁위험을	-10120
▁유류품	-10121
▁유리를	-10122
▁유유히	-10123
▁유일한	-10124
▁유출한	-10125
▁유포된	-10126
▁음주측	-10127
▁의붓아	-10128
▁의원과	-10129
▁이어져	-10130
▁이용구	-10131
▁이종필	-10132
▁이해가	-10133
▁이후인	-10134
▁인구가	-10135
▁인원을	-10136
▁인정해	-10137
▁일용직	-10138
▁일하고	-10139
▁입건한	-10140
▁있느냐	-10141
▁자녀가	-10142
▁자리에	-10143
▁자신과	-10144
▁잡히지	-10145
▁장비가	-10146
▁장소는	-10147
▁재확산	-10148
▁전날인	-10149
▁전복된	-10150
▁전체의	-10151
▁접촉해	-10152
▁정권의	-10153
▁정부를	-10154
▁제주에	-10155
▁조수석	-10156
▁주머니	-10157
▁주위를	-10158
▁주인을	-10159
▁주장도	-10160
▁주차장	-10161
▁주택이	-10162
▁중국과	-10163
▁중이며	-10164
▁중인데	-10165
▁증거로	-10166
▁지나지	-10167
▁지내던	-10168
▁지원에	-10169
▁지인을	-10170
▁지침에	-10171
▁진술도	-10172
▁진압을	-10173
▁집회와	-10174
▁쪽에서	-10175
▁쫓아가	-10176
▁차원의	-10177
▁참석자	-10178
▁첩보를	-10179
▁청구한	-10180
▁체벌을	-10181
▁추적이	-10182
▁추행한	-10183
▁출소한	-10184
▁커지는	-10185
▁쿠드랴	-10186
▁크다고	-10187
▁태평양	-10188
▁탱크로	-10189
▁통신은	-10190
▁통신이	-10191
▁통제가	-10192
▁통째로	-10193
▁파악할	-10194
▁판단에	-10195
▁판정이	-10196
▁폐지를	-10197
▁포착된	-10198
▁폭력과	-10199
▁프랑크	-10200
▁피터스	-10201
▁하와이	-10202
▁학생은	-10203
▁한류경	-10204
▁한밤중	-10205
▁한참을	-10206
▁행진을	-10207
▁허점이	-10208
▁형기를	-10209
▁형제가	-10210
▁회사가	-10211
▁회사의	-10212
▁후보의	-10213
▁후보자	-10214
▁흑인의	-10215
건입니다	-10216
교육청은	-10217
렸는데요	-10218
사법경찰	-10219
소방재난	-10220
시쯤에는	-10221
씨로부터	-10222
요원으로	-10223
위원회에	-10224
일부터는	-10225
하자마자	-10226
▁JTBC	-10227
▁가족들은	-10228
▁가혹행위	-10229
▁강제수사	-10230
▁강행하는	-10231
▁거부하며	-10232
▁거소투표	-10233
▁경찰까지	-10234
▁고향으로	-10235
▁공개되지	-10236
▁공동주택	-10237
▁공수처장	-10238
▁관리하는	-10239
▁광주광역	-10240
▁교도소를	-10241
▁교통안전	-10242
▁국정원의	-10243
▁국회에서	-10244
▁근무했던	-10245
▁내부에서	-10246
▁높습니다	-10247
▁단체들은	-10248
▁당선인의	-10249
▁대법원은	-10250
▁대부분이	-10251
▁돌아다니	-10252
▁들어가는	-10253
▁뜻입니다	-10254
▁리원량은	-10255
▁마스크나	-10256
▁말했지만	-10257
▁명령에도	-10258
▁민주항쟁	-10259
▁밀입국한	-10260
▁반려동물	-10261
▁받았으나	-10262
▁발견됐고	-10263
▁발생하면	-10264
▁방문판매	-10265
▁방위군이	-10266
▁번지면서	-10267
▁범죄조직	-10268
▁법무법인	-10269
▁부모들은	-10270
▁부통령은	-10271
▁분위기는	-10272
▁불필요한	-10273
▁비례대표	-10274
▁비행기를	-10275
▁빈과일보	-10276
▁사무실에	-10277
▁사실관계	-10278
▁사회복지	-10279
▁상태라고	-10280
▁서울구치	-10281
▁선거운동	-10282
▁성적으로	-10283
▁소중하다	-10284
▁순찰차를	-10285
▁시민단체	-10286
▁시스템을	-10287
▁신빙성이	-10288
▁신천지예	-10289
▁씨로부터	-10290
▁아스트라	-10291
▁않으면서	-10292
▁앞으로는	-10293
▁어려움이	-10294
▁여기저기	-10295
▁연쇄살인	-10296
▁였습니다	-10297
▁외부에서	-10298
▁유모차를	-10299
▁유지하고	-10300
▁응급실로	-10301
▁의료진과	-10302
▁의혹으로	-10303
▁이동통신	-10304
▁이용하는	-10305
▁인권침해	-10306
▁인천시는	-10307
▁인터넷을	-10308
▁인터뷰를	-10309
▁일산화탄	-10310
▁일이라고	-10311
▁있다면서	-10312
▁장갑차를	-10313
▁전국인민	-10314
▁전화금융	-10315
▁접경지역	-10316
▁접촉자로	-10317
▁중고거래	-10318
▁중이었던	-10319
▁증가하고	-10320
▁지급하지	-10321
▁지나가던	-10322
▁지자체의	-10323
▁직원으로	-10324
▁징역형을	-10325
▁찌그러진	-10326
▁참여하는	-10327
▁천추스의	-10328
▁최루탄을	-10329
▁친구들과	-10330
▁크레인이	-10331
▁크리스마	-10332
▁태스크포	-10333
▁통일부는	-10334
▁파악되지	-10335
▁판단하고	-10336
▁폐쇄하고	-10337
▁학원강사	-10338
▁합동감식	-10339
▁화물차에	-10340
▁확보하고	-10341
▁확진자와	-10342
▁회사에서	-10343
▁횡단보도	-10344
▁흙탕물이	-10345
캐롤라이나	-10346
▁걸었습니다	-10347
▁경찰관들은	-10348
▁관계자들은	-10349
▁교통사고로	-10350
▁그었습니다	-10351
▁금융감독원	-10352
▁달아납니다	-10353
▁대한체육회	-10354
▁도로입니다	-10355
▁떨어집니다	-10356
▁민식이법을	-10357
▁발생했다는	-10358
▁방조했다는	-10359
▁번졌습니다	-10360
▁보건당국이	-10361
▁보건복지부	-10362
▁부동산시장	-10363
▁부산시장이	-10364
▁블랙박스를	-10365
▁비밀경호국	-10366
▁사망했다고	-10367
▁서울역에서	-10368
▁선거운동을	-10369
▁선별진료소	-10370
▁선수들에게	-10371
▁시민들에게	-10372
▁아랑곳하지	-10373
▁안타까움을	-10374
▁어업지도선	-10375
▁오토바이가	-10376
▁옮겼습니다	-10377
▁인종차별적	-10378
▁중이었는데	-10379
▁지하철에서	-10380
▁찍혔습니다	-10381
▁챙겼습니다	-10382
▁커뮤니티에	-10383
▁쿠드랴프체	-10384
▁포착됐지만	-10385
▁포털사이트	-10386
▁표했습니다	-10387
▁풀이됩니다	-10388
▁플로이드는	-10389
▁해양수산부	-10390
▁확인됐는데	-10391
▁확인합니다	-10392
▁휴대전화가	-10393
가중처벌법상	-10394
▁감염됐습니다	-10395
▁거부했습니다	-10396
▁검토하겠다고	-10397
▁고속도로에서	-10398
▁국민연금공단	-10399
▁뉴욕타임스는	-10400
▁늘어났습니다	-10401
▁돌아갔습니다	-10402
▁반박했습니다	-10403
▁반발했습니다	-10404
▁부딪혔습니다	-10405
▁생활치료센터	-10406
▁설치했습니다	-10407
▁쓰러졌습니다	-10408
▁역학조사에서	-10409
▁이야기인데요	-10410
▁정리했습니다	-10411
▁주문했습니다	-10412
▁처분했습니다	-10413
▁폭행했습니다	-10414
▁필리버스터가	-10415
▁홍콩보안법은	-10416
▁확진됐습니다	-10417
▁사랑제일교회에	-10418
▁아스트라제네카	-10419
▁중앙사고수습본부	-10420
12	-10421
25	-10422
62	-10423
80	-10424
▁O	-10425
▁까	-10426
▁껴	-10427
▁낭	-10428
▁널	-10429
▁놔	-10430
▁늑	-10431
▁룸	-10432
▁맺	-10433
▁몬	-10434
▁붉	-10435
▁앰	-10436
▁엎	-10437
▁을	-10438
▁짙	-10439
▁톰	-10440
▁틀	-10441
▁폼	-10442
가로	-10443
감과	-10444
겠죠	-10445
겨진	-10446
고도	-10447
국인	-10448
군데	-10449
궁화	-10450
권과	-10451
기부	-10452
나다	-10453
냐고	-10454
냐는	-10455
니메	-10456
단지	-10457
당해	-10458
대출	-10459
대행	-10460
도박	-10461
도체	-10462
도피	-10463
동포	-10464
됨에	-10465
뒀던	-10466
든지	-10467
라우	-10468
랜타	-10469
랫폼	-10470
렴도	-10471
렸을	-10472
로워	-10473
로의	-10474
르주	-10475
를린	-10476
마리	-10477
마침	-10478
많은	-10479
말로	-10480
먼드	-10481
멘트	-10482
모임	-10483
문화	-10484
바닥	-10485
반의	-10486
배에	-10487
밴드	-10488
버거	-10489
범이	-10490
벤투	-10491
보와	-10492
불케	-10493
비뉴	-10494
비는	-10495
산면	-10496
살이	-10497
서만	-10498
석희	-10499
선과	-10500
성리	-10501
셴코	-10502
소득	-10503
속한	-10504
수라	-10505
수석	-10506
숙한	-10507
스카	-10508
스팩	-10509
시도	-10510
시스	-10511
시티	-10512
신문	-10513
어내	-10514
억여	-10515
오기	-10516
용품	-10517
운이	-10518
워스	-10519
월과	-10520
위와	-10521
윤리	-10522
으러	-10523
일로	-10524
자고	-10525
작업	-10526
재판	-10527
절차	-10528
정권	-10529
종인	-10530
주인	-10531
중독	-10532
줘야	-10533
지면	-10534
지어	-10535
지폐	-10536
지휘	-10537
진은	-10538
찌민	-10539
차량	-10540
천명	-10541
천의	-10542
철호	-10543
철희	-10544
청문	-10545
청을	-10546
청의	-10547
측근	-10548
쿠버	-10549
킨스	-10550
통과	-10551
트럭	-10552
트륨	-10553
파출	-10554
패를	-10555
퍼드	-10556
풍속	-10557
프턴	-10558
하셨	-10559
하우	-10560
함에	-10561
700	-10562
▁08	-10563
▁67	-10564
▁73	-10565
▁96	-10566
▁ID	-10567
▁LP	-10568
▁가기	-10569
▁가르	-10570
▁가며	-10571
▁간이	-10572
▁간주	-10573
▁감수	-10574
▁개통	-10575
▁검문	-10576
▁격상	-10577
▁견제	-10578
▁고박	-10579
▁고사	-10580
▁고속	-10581
▁고조	-10582
▁곳도	-10583
▁공인	-10584
▁구걸	-10585
▁구마	-10586
▁구직	-10587
▁군데	-10588
▁권익	-10589
▁규칙	-10590
▁그리	-10591
▁금품	-10592
▁기원	-10593
▁기피	-10594
▁김용	-10595
▁김현	-10596
▁깜빡	-10597
▁끊고	-10598
▁끝났	-10599
▁낙태	-10600
▁난폭	-10601
▁남매	-10602
▁남지	-10603
▁남측	-10604
▁났을	-10605
▁낳은	-10606
▁내비	-10607
▁내야	-10608
▁냄새	-10609
▁넘고	-10610
▁노상	-10611
▁논현	-10612
▁높다	-10613
▁눈길	-10614
▁눌려	-10615
▁뉴델	-10616
▁늑장	-10617
▁달린	-10618
▁당직	-10619
▁대립	-10620
▁대성	-10621
▁대에	-10622
▁대의	-10623
▁던져	-10624
▁던진	-10625
▁도전	-10626
▁돈은	-10627
▁동포	-10628
▁되기	-10629
▁드는	-10630
▁득표	-10631
▁딸의	-10632
▁때와	-10633
▁뚜렷	-10634
▁뜨거	-10635
▁루카	-10636
▁리버	-10637
▁만났	-10638
▁많았	-10639
▁망가	-10640
▁맡긴	-10641
▁멈췄	-10642
▁명인	-10643
▁명품	-10644
▁몸통	-10645
▁묘사	-10646
▁묻힌	-10647
▁물속	-10648
▁뭔가	-10649
▁미술	-10650
▁미흡	-10651
▁민생	-10652
▁믿을	-10653
▁방배	-10654
▁방어	-10655
▁방을	-10656
▁배에	-10657
▁배정	-10658
▁벗은	-10659
▁벽돌	-10660
▁복도	-10661
▁복부	-10662
▁부르	-10663
▁부지	-10664
▁북단	-10665
▁분들	-10666
▁불응	-10667
▁불행	-10668
▁비로	-10669
▁비바	-10670
▁비어	-10671
▁비하	-10672
▁빌려	-10673
▁빚은	-10674
▁빠뜨	-10675
▁뺨을	-10676
▁뿐만	-10677
▁사장	-10678
▁사채	-10679
▁산후	-10680
▁상상	-10681
▁상의	-10682
▁상호	-10683
▁생길	-10684
▁섀도	-10685
▁서방	-10686
▁서식	-10687
▁선전	-10688
▁설날	-10689
▁설정	-10690
▁성난	-10691
▁성동	-10692
▁성별	-10693
▁세대	-10694
▁세로	-10695
▁세상	-10696
▁소나	-10697
▁소멸	-10698
▁소집	-10699
▁소청	-10700
▁수여	-10701
▁숙인	-10702
▁순직	-10703
▁스리	-10704
▁시세	-10705
▁시커	-10706
▁식사	-10707
▁실정	-10708
▁실효	-10709
▁쓰인	-10710
▁아닐	-10711
▁아베	-10712
▁악의	-10713
▁안성	-10714
▁안쪽	-10715
▁않기	-10716
▁암살	-10717
▁앞을	-10718
▁애를	-10719
▁야권	-10720
▁약식	-10721
▁양쪽	-10722
▁어쩔	-10723
▁억제	-10724
▁언니	-10725
▁엄중	-10726
▁에워	-10727
▁연금	-10728
▁연대	-10729
▁연령	-10730
▁연미	-10731
▁열지	-10732
▁염소	-10733
▁영문	-10734
▁영통	-10735
▁예를	-10736
▁오브	-10737
▁오프	-10738
▁옹호	-10739
▁왔던	-10740
▁외도	-10741
▁외면	-10742
▁왼쪽	-10743
▁요금	-10744
▁우정	-10745
▁원격	-10746
▁원고	-10747
▁월세	-10748
▁웹툰	-10749
▁위즈	-10750
▁위헌	-10751
▁유력	-10752
▁유일	-10753
▁육아	-10754
▁윤창	-10755
▁의학	-10756
▁이득	-10757
▁이러	-10758
▁이리	-10759
▁이익	-10760
▁인민	-10761
▁인생	-10762
▁인후	-10763
▁일면	-10764
▁일찍	-10765
▁임상	-10766
▁잉글	-10767
▁잊을	-10768
▁자고	-10769
▁자국	-10770
▁자아	-10771
▁잠긴	-10772
▁잡힌	-10773
▁장마	-10774
▁잦아	-10775
▁재무	-10776
▁재소	-10777
▁재정	-10778
▁저렴	-10779
▁전형	-10780
▁제발	-10781
▁조짐	-10782
▁종암	-10783
▁좌파	-10784
▁주간	-10785
▁주기	-10786
▁주방	-10787
▁증세	-10788
▁지문	-10789
▁지불	-10790
▁지칭	-10791
▁집결	-10792
▁징후	-10793
▁착각	-10794
▁철수	-10795
▁첫째	-10796
▁첸펑	-10797
▁최악	-10798
▁추징	-10799
▁출혈	-10800
▁측과	-10801
▁콜로	-10802
▁크루	-10803
▁큰아	-10804
▁탈레	-10805
▁탈퇴	-10806
▁터라	-10807
▁통금	-10808
▁투여	-10809
▁특가	-10810
▁패널	-10811
▁페어	-10812
▁편성	-10813
▁평범	-10814
▁포르	-10815
▁표시	-10816
▁품고	-10817
▁피살	-10818
▁하산	-10819
▁하차	-10820
▁해소	-10821
▁행복	-10822
▁현대	-10823
▁협회	-10824
▁형이	-10825
▁활발	-10826
▁활약	-10827
▁후배	-10828
▁후에	-10829
가량이	-10830
갔다가	-10831
기관의	-10832
년에는	-10833
는지도	-10834
다시피	-10835
단체의	-10836
단체인	-10837
달라며	-10838
동물을	-10839
된다며	-10840
들면서	-10841
등급을	-10842
디어를	-10843
레스는	-10844
로미터	-10845
록체인	-10846
리다가	-10847
명령에	-10848
방으로	-10849
번방을	-10850
베르토	-10851
변에서	-10852
본부가	-10853
브리핑	-10854
사들이	-10855
선으로	-10856
손으로	-10857
수사를	-10858
시스트	-10859
시하는	-10860
신고를	-10861
어머니	-10862
억원을	-10863
었는지	-10864
으려는	-10865
의약품	-10866
이면서	-10867
자료를	-10868
조사는	-10869
집행을	-10870
집행이	-10871
처에서	-10872
카미야	-10873
코로나	-10874
하세요	-10875
하자고	-10876
해지고	-10877
했거나	-10878
행각을	-10879
홀딩스	-10880
화학은	-10881
▁110	-10882
▁190	-10883
▁194	-10884
▁230	-10885
▁241	-10886
▁270	-10887
▁CBS	-10888
▁PCC	-10889
▁가로수	-10890
▁가로채	-10891
▁가슴을	-10892
▁간부가	-10893
▁강남의	-10894
▁강아지	-10895
▁강화군	-10896
▁강화도	-10897
▁같네요	-10898
▁같다고	-10899
▁개정된	-10900
▁개혁과	-10901
▁거리가	-10902
▁건물의	-10903
▁검토할	-10904
▁검토해	-10905
▁결정적	-10906
▁경위에	-10907
▁계좌로	-10908
▁공격이	-10909
▁공격한	-10910
▁공사가	-10911
▁공장에	-10912
▁공장은	-10913
▁공포에	-10914
▁관련자	-10915
▁광둥성	-10916
▁광범위	-10917
▁괴산군	-10918
▁교민을	-10919
▁교회가	-10920
▁교회와	-10921
▁구급차	-10922
▁구로구	-10923
▁구체적	-10924
▁국가의	-10925
▁국장은	-10926
▁규모를	-10927
▁규제가	-10928
▁그나마	-10929
▁근처를	-10930
▁금지한	-10931
▁기관과	-10932
▁기관에	-10933
▁기부한	-10934
▁기술이	-10935
▁기침을	-10936
▁기획재	-10937
▁김여정	-10938
▁김재련	-10939
▁김태훈	-10940
▁끝나는	-10941
▁나섰고	-10942
▁나오자	-10943
▁난간에	-10944
▁난간을	-10945
▁난항을	-10946
▁남편과	-10947
▁내리막	-10948
▁내리지	-10949
▁노리는	-10950
▁노출돼	-10951
▁논란은	-10952
▁뉴저지	-10953
▁늘면서	-10954
▁늘어난	-10955
▁다루는	-10956
▁다시는	-10957
▁다음은	-10958
▁다이버	-10959
▁대구의	-10960
▁대다수	-10961
▁대도시	-10962
▁대사는	-10963
▁대상을	-10964
▁대응이	-10965
▁대책이	-10966
▁댓글에	-10967
▁데려다	-10968
▁도구를	-10969
▁동대문	-10970
▁동생을	-10971
▁동원한	-10972
▁되는데	-10973
▁되돌아	-10974
▁두리안	-10975
▁등록된	-10976
▁등장한	-10977
▁따라야	-10978
▁때마침	-10979
▁떨어뜨	-10980
▁마이삭	-10981
▁마크롱	-10982
▁막걸리	-10983
▁많다고	-10984
▁많다는	-10985
▁많았고	-10986
▁말하며	-10987
▁말하지	-10988
▁매체는	-10989
▁머무는	-10990
▁머물렀	-10991
▁명령이	-10992
▁명확히	-10993
▁모더나	-10994
▁모두가	-10995
▁모터보	-10996
▁목사와	-10997
▁목요일	-10998
▁무고한	-10999
▁무궁화	-11000
▁문제에	-11001
▁물건이	-11002
▁미혼모	-11003
▁민경초	-11004
▁밖에서	-11005
▁반대편	-11006
▁반도체	-11007
▁반응이	-11008
▁밝혔다	-11009
▁밤늦게	-11010
▁방법이	-11011
▁방불케	-11012
▁배치해	-11013
▁백두산	-11014
▁백신이	-11015
▁번지고	-11016
▁범죄는	-11017
▁베를린	-11018
▁보고를	-11019
▁보도를	-11020
▁복지부	-11021
▁본인도	-11022
▁봉쇄령	-11023
▁봤다고	-11024
▁부당한	-11025
▁부딪히	-11026
▁부르며	-11027
▁부분은	-11028
▁부인한	-11029
▁분들이	-11030
▁분명한	-11031
▁불거진	-11032
▁비난을	-11033
▁비판도	-11034
▁빼앗아	-11035
▁사건도	-11036
▁사고도	-11037
▁사마귀	-11038
▁사살된	-11039
▁사안이	-11040
▁사연을	-11041
▁사용을	-11042
▁사유로	-11043
▁사유를	-11044
▁사이렌	-11045
▁사정은	-11046
▁사회를	-11047
▁사회에	-11048
▁산둥성	-11049
▁살펴보	-11050
▁상원의	-11051
▁상의를	-11052
▁상태였	-11053
▁상품권	-11054
▁새마을	-11055
▁생명과	-11056
▁생명을	-11057
▁서울과	-11058
▁선거인	-11059
▁선거일	-11060
▁선고가	-11061
▁설치를	-11062
▁설치할	-11063
▁손석희	-11064
▁송철호	-11065
▁수많은	-11066
▁수익을	-11067
▁숨기고	-11068
▁스페인	-11069
▁스프링	-11070
▁슬리퍼	-11071
▁시간당	-11072
▁시작될	-11073
▁시행될	-11074
▁시행령	-11075
▁식중독	-11076
▁신고해	-11077
▁신병을	-11078
▁신분이	-11079
▁신분인	-11080
▁실수로	-11081
▁싸움을	-11082
▁아동은	-11083
▁아수라	-11084
▁아침에	-11085
▁않거나	-11086
▁알리고	-11087
▁암호화	-11088
▁애니메	-11089
▁어제도	-11090
▁억울한	-11091
▁엄격히	-11092
▁엄마의	-11093
▁없는데	-11094
▁여기고	-11095
▁여부와	-11096
▁여성에	-11097
▁여행을	-11098
▁연관된	-11099
▁연이어	-11100
▁연평도	-11101
▁엿새째	-11102
▁오른쪽	-11103
▁오전에	-11104
▁왔다는	-11105
▁요구할	-11106
▁요청에	-11107
▁우려도	-11108
▁우한의	-11109
▁운영에	-11110
▁운영해	-11111
▁운행이	-11112
▁원심을	-11113
▁원인에	-11114
▁위반해	-11115
▁위중한	-11116
▁위협한	-11117
▁유명인	-11118
▁유벤투	-11119
▁유족과	-11120
▁유포해	-11121
▁의암호	-11122
▁의지를	-11123
▁이것은	-11124
▁이기야	-11125
▁이르게	-11126
▁이름의	-11127
▁이송된	-11128
▁이유에	-11129
▁이익을	-11130
▁이제는	-11131
▁이틀째	-11132
▁이후의	-11133
▁일반인	-11134
▁일어날	-11135
▁일인데	-11136
▁일일이	-11137
▁일종의	-11138
▁입수한	-11139
▁있는가	-11140
▁있음을	-11141
▁자백한	-11142
▁자세히	-11143
▁자택을	-11144
▁작성된	-11145
▁잠수교	-11146
▁장소에	-11147
▁장항준	-11148
▁재검토	-11149
▁쟁점은	-11150
▁저질러	-11151
▁전과가	-11152
▁전남편	-11153
▁전역에	-11154
▁전체에	-11155
▁점검한	-11156
▁정경두	-11157
▁정의를	-11158
▁제이콥	-11159
▁조기에	-11160
▁조속히	-11161
▁조지아	-11162
▁존재를	-11163
▁좀처럼	-11164
▁좋겠다	-11165
▁좌회전	-11166
▁주고받	-11167
▁주민과	-11168
▁주민을	-11169
▁주인과	-11170
▁주저앉	-11171
▁준비한	-11172
▁줄지어	-11173
▁중상해	-11174
▁중앙선	-11175
▁중태에	-11176
▁지나치	-11177
▁지내고	-11178
▁지역은	-11179
▁지원이	-11180
▁지장은	-11181
▁지점은	-11182
▁지켜야	-11183
▁지키고	-11184
▁지휘관	-11185
▁직원들	-11186
▁착취한	-11187
▁참사가	-11188
▁참사를	-11189
▁찾아온	-11190
▁채취해	-11191
▁처하게	-11192
▁청약에	-11193
▁체계를	-11194
▁체포에	-11195
▁초기에	-11196
▁총리의	-11197
▁총선을	-11198
▁최소한	-11199
▁최측근	-11200
▁추락해	-11201
▁출근길	-11202
▁출신인	-11203
▁충돌은	-11204
▁치료가	-11205
▁친구를	-11206
▁타임스	-11207
▁탑승객	-11208
▁탑승한	-11209
▁탔다가	-11210
▁털어놓	-11211
▁토요일	-11212
▁통제를	-11213
▁특성상	-11214
▁파악된	-11215
▁퍼뜨린	-11216
▁평가를	-11217
▁평택의	-11218
▁평화의	-11219
▁폐쇄된	-11220
▁폭우가	-11221
▁프레스	-11222
▁플랫폼	-11223
▁핀란드	-11224
▁필로폰	-11225
▁하나가	-11226
▁하나씩	-11227
▁하려고	-11228
▁학교의	-11229
▁한계가	-11230
▁한국에	-11231
▁한국여	-11232
▁함부로	-11233
▁합의에	-11234
▁해경에	-11235
▁해경이	-11236
▁해산시	-11237
▁해외에	-11238
▁해제된	-11239
▁했다며	-11240
▁했으며	-11241
▁행인이	-11242
▁향하던	-11243
▁헝가리	-11244
▁협력해	-11245
▁형제는	-11246
▁호찌민	-11247
▁화성시	-11248
▁화염병	-11249
▁확보에	-11250
▁확산이	-11251
▁환자와	-11252
▁회의가	-11253
▁회장의	-11254
▁훼손된	-11255
▁휩싸인	-11256
▁흔적은	-11257
▁힘들어	-11258
공항에서	-11259
국민투쟁	-11260
산나트륨	-11261
시쯤부터	-11262
자로부터	-11263
중입니다	-11264
해집니다	-11265
▁1987	-11266
▁간호사가	-11267
▁감식에서	-11268
▁거론하며	-11269
▁거부하고	-11270
▁거주지를	-11271
▁건강보험	-11272
▁검색어를	-11273
▁검찰청법	-11274
▁경찰서를	-11275
▁경찰이나	-11276
▁경찰차가	-11277
▁경찰청장	-11278
▁고무보트	-11279
▁고소당한	-11280
▁공개하는	-11281
▁공개하며	-11282
▁공범으로	-11283
▁공소시효	-11284
▁공수처법	-11285
▁과학수사	-11286
▁관계자를	-11287
▁관심사와	-11288
▁교민들을	-11289
▁교인들이	-11290
▁구간에서	-11291
▁구조됐고	-11292
▁국무부는	-11293
▁귀금속을	-11294
▁기사에게	-11295
▁긴장감이	-11296
▁긴장하고	-11297
▁나눔의집	-11298
▁나왔는데	-11299
▁나타나고	-11300
▁난방비를	-11301
▁남부연합	-11302
▁내리면서	-11303
▁넘겨받은	-11304
▁늘어나는	-11305
▁다하겠다	-11306
▁단독보도	-11307
▁단체들이	-11308
▁당사자의	-11309
▁당했다는	-11310
▁대구시가	-11311
▁대기하던	-11312
▁대대적인	-11313
▁대선에서	-11314
▁도착하기	-11315
▁동부구치	-11316
▁둘러싸고	-11317
▁들어갔고	-11318
▁들이받는	-11319
▁떨어지는	-11320
▁루카셴코	-11321
▁만들어진	-11322
▁메시지가	-11323
▁면허정지	-11324
▁몸싸움이	-11325
▁문형욱이	-11326
▁미국으로	-11327
▁미끄러져	-11328
▁받았으며	-11329
▁발원지인	-11330
▁밝혔지만	-11331
▁배경으로	-11332
▁범인도피	-11333
▁법률대리	-11334
▁법무부가	-11335
▁법정구속	-11336
▁베트남인	-11337
▁보이는데	-11338
▁보이지만	-11339
▁부당하게	-11340
▁부부에게	-11341
▁부산시장	-11342
▁부산지법	-11343
▁불안감을	-11344
▁비밀번호	-11345
▁빌라에서	-11346
▁사다리차	-11347
▁사망하는	-11348
▁사상자를	-11349
▁산사태로	-11350
▁상징하는	-11351
▁설명했다	-11352
▁설치하는	-11353
▁수도권에	-11354
▁순찰차가	-11355
▁숨졌는데	-11356
▁스타이렌	-11357
▁승용차와	-11358
▁시달리는	-11359
▁시스템이	-11360
▁신용카드	-11361
▁신천지가	-11362
▁실랑이가	-11363
▁실종자의	-11364
▁아름다운	-11365
▁아이들과	-11366
▁아이스팩	-11367
▁아프리카	-11368
▁안타깝게	-11369
▁않는다며	-11370
▁않았다며	-11371
▁알면서도	-11372
▁알아보는	-11373
▁애틀랜타	-11374
▁어머니의	-11375
▁언급하며	-11376
▁없다면서	-11377
▁여성단체	-11378
▁여성들의	-11379
▁여자친구	-11380
▁열립니다	-11381
▁영국에서	-11382
▁예비후보	-11383
▁예정대로	-11384
▁온라인에	-11385
▁외할머니	-11386
▁운전기사	-11387
▁운전하는	-11388
▁운전하던	-11389
▁원어치를	-11390
▁웨이하이	-11391
▁위구르족	-11392
▁위원장의	-11393
▁위조지폐	-11394
▁음란물을	-11395
▁의사당에	-11396
▁이동금지	-11397
▁인사청문	-11398
▁일면식도	-11399
▁일부개정	-11400
▁일어나고	-11401
▁있는지를	-11402
▁자신들이	-11403
▁장관에게	-11404
▁재판부에	-11405
▁전공의와	-11406
▁전달받은	-11407
▁전달하는	-11408
▁전산개발	-11409
▁전세기가	-11410
▁전자장치	-11411
▁전주에서	-11412
▁점검하고	-11413
▁접수하고	-11414
▁정신건강	-11415
▁제곱미터	-11416
▁제한하고	-11417
▁조명했다	-11418
▁조직적인	-11419
▁존재하지	-11420
▁종교시설	-11421
▁종로구는	-11422
▁주고받은	-11423
▁중앙분리	-11424
▁지도부는	-11425
▁지속적인	-11426
▁지원하는	-11427
▁지자체는	-11428
▁직접적인	-11429
▁집중하고	-11430
▁징역이나	-11431
▁참가자가	-11432
▁천추스가	-11433
▁철도경찰	-11434
▁청와대에	-11435
▁체포되는	-11436
▁첸펑레이	-11437
▁총격으로	-11438
▁최고위원	-11439
▁최신종은	-11440
▁춘천시청	-11441
▁충격적인	-11442
▁취재진의	-11443
▁카메라에	-11444
▁컸습니다	-11445
▁킥보드가	-11446
▁토지거래	-11447
▁투자금을	-11448
▁특별조사	-11449
▁특정하고	-11450
▁평가하는	-11451
▁폭행하는	-11452
▁필요성이	-11453
▁하겠다고	-11454
▁해변에서	-11455
▁해운대구	-11456
▁허용하는	-11457
▁협조하지	-11458
▁홍콩에서	-11459
▁확보하지	-11460
▁확인됐고	-11461
▁확인해야	-11462
▁확진자를	-11463
▁환자들을	-11464
▁활용하는	-11465
연했습니다	-11466
원으로부터	-11467
위원회에서	-11468
프라데시주	-11469
▁가정폭력이	-11470
▁간담회에서	-11471
▁검찰총장의	-11472
▁공개하기로	-11473
▁관련자들을	-11474
▁관리사무소	-11475
▁국민의힘이	-11476
▁금지됩니다	-11477
▁꼽았습니다	-11478
▁달렸습니다	-11479
▁동물보호법	-11480
▁들여다보고	-11481
▁면책특권을	-11482
▁모았습니다	-11483
▁바이러스에	-11484
▁버지니아주	-11485
▁베이징에서	-11486
▁본격적으로	-11487
▁비서실장을	-11488
▁상황에서도	-11489
▁생겼습니다	-11490
▁서대문구의	-11491
▁소방관들이	-11492
▁수도권에서	-11493
▁수준입니다	-11494
▁신고했지만	-11495
▁신상정보를	-11496
▁신청했다고	-11497
▁씨였습니다	-11498
▁애니메이션	-11499
▁에스카미야	-11500
▁영국에서는	-11501
▁오토바이에	-11502
▁올림픽대로	-11503
▁운동처방사	-11504
▁워싱턴에서	-11505
▁유가족들은	-11506
▁의무화하는	-11507
▁이뤄집니다	-11508
▁이송됐지만	-11509
▁이어지면서	-11510
▁인정하느냐	-11511
▁자전거도로	-11512
▁자체적으로	-11513
▁정보통신망	-11514
▁정상적으로	-11515
▁주민들에게	-11516
▁출동했는데	-11517
▁측으로부터	-11518
▁치솟습니다	-11519
▁커졌습니다	-11520
▁크리스마스	-11521
▁텔레그램을	-11522
▁플로리다주	-11523
▁화장실에서	-11524
▁화학물질을	-11525
▁휴대전화는	-11526
소방재난본부	-11527
해양경찰서는	-11528
▁경찰관들에게	-11529
▁광역수사대는	-11530
▁구조대원들이	-11531
▁구조했습니다	-11532
▁구형했습니다	-11533
▁권고했습니다	-11534
▁기각됐습니다	-11535
▁높아졌습니다	-11536
▁도주했습니다	-11537
▁로이터통신은	-11538
▁매몰됐습니다	-11539
▁보건복지부는	-11540
▁부산경찰청에	-11541
▁서울남부지검	-11542
▁선언했습니다	-11543
▁시도했습니다	-11544
▁신천지예수교	-11545
▁아동청소년성	-11546
▁어린이집에서	-11547
▁음주운전으로	-11548
▁이동했습니다	-11549
▁입건됐습니다	-11550
▁전국인민대표	-11551
▁전기난로에서	-11552
▁제출했습니다	-11553
▁증가했습니다	-11554
▁증언했습니다	-11555
▁추가됐습니다	-11556
▁추돌했습니다	-11557
▁토로했습니다	-11558
▁투입됐습니다	-11559
▁한익스프레스	-11560
▁항의했습니다	-11561
▁해제했습니다	-11562
▁확정했습니다	-11563
▁마무리됐습니다	-11564
▁사랑제일교회는	-11565
▁사이버안전과는	-11566
▁살펴보겠습니다	-11567
▁업무개시명령을	-11568
▁전해드리겠습니다	-11569
▁고위공직자범죄수사	-11570
▁국가공무원인재개발	-11571
▁중앙재난안전대책본부	-11572
▁특정범죄가중처벌법상	-11573
10	-11574
13	-11575
26	-11576
27	-11577
60	-11578
AA	-11579
QR	-11580
SN	-11581
▁끈	-11582
▁끓	-11583
▁닦	-11584
▁딱	-11585
▁딴	-11586
▁랜	-11587
▁렉	-11588
▁멜	-11589
▁뭘	-11590
▁벚	-11591
▁섭	-11592
▁솟	-11593
▁씁	-11594
▁앙	-11595
▁앨	-11596
▁쥐	-11597
▁즈	-11598
▁캡	-11599
▁켠	-11600
▁쾌	-11601
▁톤	-11602
▁펑	-11603
▁폴	-11604
▁핏	-11605
갔을	-11606
검열	-11607
것도	-11608
결을	-11609
결제	-11610
경보	-11611
곳과	-11612
공조	-11613
과도	-11614
관광	-11615
교사	-11616
구급	-11617
군요	-11618
권도	-11619
권익	-11620
극을	-11621
기독	-11622
나를	-11623
나이	-11624
나치	-11625
남을	-11626
냈던	-11627
는가	-11628
님이	-11629
다니	-11630
대사	-11631
대호	-11632
댕이	-11633
들며	-11634
등이	-11635
라노	-11636
라마	-11637
라윳	-11638
랐던	-11639
래도	-11640
려가	-11641
려서	-11642
려한	-11643
령안	-11644
례를	-11645
로에	-11646
류에	-11647
리려	-11648
리먼	-11649
리주	-11650
만을	-11651
만큼	-11652
모토	-11653
병의	-11654
부르	-11655
부부	-11656
분기	-11657
비탈	-11658
빌딩	-11659
빨리	-11660
사일	-11661
사카	-11662
산물	-11663
상자	-11664
서와	-11665
선은	-11666
세종	-11667
수부	-11668
수칙	-11669
식품	-11670
악한	-11671
애슬	-11672
액의	-11673
약의	-11674
여분	-11675
영동	-11676
예요	-11677
우가	-11678
우기	-11679
운하	-11680
웠고	-11681
율을	-11682
은닉	-11683
익태	-11684
자나	-11685
쟁이	-11686
정거	-11687
정차	-11688
제도	-11689
제품	-11690
조건	-11691
주로	-11692
준다	-11693
즈니	-11694
증이	-11695
지수	-11696
지요	-11697
지하	-11698
진에	-11699
집회	-11700
척이	-11701
천히	-11702
철인	-11703
총장	-11704
출을	-11705
출혈	-11706
콥터	-11707
클러	-11708
클린	-11709
타고	-11710
트의	-11711
파가	-11712
파킹	-11713
펌프	-11714
품과	-11715
프의	-11716
해드	-11717
해에	-11718
행동	-11719
행에	-11720
호영	-11721
훈련	-11722
300	-11723
600	-11724
▁00	-11725
▁66	-11726
▁KF	-11727
▁QR	-11728
▁SL	-11729
▁TF	-11730
▁TV	-11731
▁YG	-11732
▁가깝	-11733
▁가와	-11734
▁간접	-11735
▁갇혔	-11736
▁갔다	-11737
▁거기	-11738
▁건에	-11739
▁걷고	-11740
▁게재	-11741
▁경각	-11742
▁경광	-11743
▁계도	-11744
▁고수	-11745
▁공판	-11746
▁과열	-11747
▁관객	-11748
▁관람	-11749
▁관세	-11750
▁교내	-11751
▁교정	-11752
▁구의	-11753
▁구입	-11754
▁구치	-11755
▁국감	-11756
▁국외	-11757
▁국화	-11758
▁군경	-11759
▁군에	-11760
▁군주	-11761
▁굴착	-11762
▁권유	-11763
▁귀를	-11764
▁그걸	-11765
▁그곳	-11766
▁그래	-11767
▁그럼	-11768
▁그려	-11769
▁그린	-11770
▁근본	-11771
▁금고	-11772
▁금광	-11773
▁기저	-11774
▁기차	-11775
▁깔려	-11776
▁깨진	-11777
▁꺼진	-11778
▁끄고	-11779
▁끝이	-11780
▁나눴	-11781
▁나도	-11782
▁낚시	-11783
▁낚아	-11784
▁날짜	-11785
▁남원	-11786
▁남쪽	-11787
▁남한	-11788
▁낮아	-11789
▁내던	-11790
▁내동	-11791
▁내며	-11792
▁너머	-11793
▁넓은	-11794
▁년간	-11795
▁논문	-11796
▁높여	-11797
▁누락	-11798
▁느껴	-11799
▁늦어	-11800
▁다수	-11801
▁다짐	-11802
▁단기	-11803
▁대외	-11804
▁도매	-11805
▁돕기	-11806
▁돕는	-11807
▁됐을	-11808
▁뒤엉	-11809
▁드나	-11810
▁들끓	-11811
▁등기	-11812
▁디아	-11813
▁따돌	-11814
▁땅굴	-11815
▁때가	-11816
▁떠올	-11817
▁라면	-11818
▁라파	-11819
▁래퍼	-11820
▁렌터	-11821
▁리튼	-11822
▁마두	-11823
▁막막	-11824
▁많고	-11825
▁매주	-11826
▁메인	-11827
▁모은	-11828
▁몸캠	-11829
▁무고	-11830
▁무력	-11831
▁묵묵	-11832
▁묶인	-11833
▁물게	-11834
▁미주	-11835
▁밀녹	-11836
▁밀양	-11837
▁밀집	-11838
▁밀쳐	-11839
▁바닷	-11840
▁바지	-11841
▁반문	-11842
▁발각	-11843
▁밝은	-11844
▁방공	-11845
▁방청	-11846
▁번만	-11847
▁범칙	-11848
▁법이	-11849
▁벗고	-11850
▁벚꽃	-11851
▁베네	-11852
▁변이	-11853
▁별거	-11854
▁별장	-11855
▁병행	-11856
▁봤을	-11857
▁북항	-11858
▁분주	-11859
▁불명	-11860
▁불태	-11861
▁붙여	-11862
▁브랜	-11863
▁블룸	-11864
▁비위	-11865
▁빗길	-11866
▁뿌린	-11867
▁사들	-11868
▁사러	-11869
▁사직	-11870
▁사촌	-11871
▁사후	-11872
▁산림	-11873
▁상하	-11874
▁생기	-11875
▁생존	-11876
▁샤피	-11877
▁섞여	-11878
▁설리	-11879
▁성립	-11880
▁성명	-11881
▁세게	-11882
▁소극	-11883
▁속인	-11884
▁속한	-11885
▁손자	-11886
▁쇼크	-11887
▁수석	-11888
▁수수	-11889
▁수신	-11890
▁숨긴	-11891
▁숨어	-11892
▁스크	-11893
▁스팸	-11894
▁시켜	-11895
▁시크	-11896
▁시한	-11897
▁식약	-11898
▁식의	-11899
▁신병	-11900
▁신은	-11901
▁신장	-11902
▁신혼	-11903
▁실버	-11904
▁심해	-11905
▁써야	-11906
▁씨로	-11907
▁아마	-11908
▁악마	-11909
▁안마	-11910
▁약국	-11911
▁양모	-11912
▁어겨	-11913
▁어땠	-11914
▁어이	-11915
▁엇갈	-11916
▁엎드	-11917
▁에는	-11918
▁여겨	-11919
▁여권	-11920
▁역무	-11921
▁연제	-11922
▁열람	-11923
▁열쇠	-11924
▁열이	-11925
▁영로	-11926
▁영웅	-11927
▁예하	-11928
▁오르	-11929
▁오염	-11930
▁오이	-11931
▁옥외	-11932
▁올바	-11933
▁완강	-11934
▁완치	-11935
▁요격	-11936
▁울음	-11937
▁원동	-11938
▁원심	-11939
▁원장	-11940
▁원천	-11941
▁원치	-11942
▁웨브	-11943
▁위대	-11944
▁위축	-11945
▁위태	-11946
▁유상	-11947
▁유심	-11948
▁유혹	-11949
▁의존	-11950
▁이끈	-11951
▁이명	-11952
▁이외	-11953
▁인구	-11954
▁인기	-11955
▁인수	-11956
▁입지	-11957
▁입항	-11958
▁자루	-11959
▁자초	-11960
▁잔인	-11961
▁잠든	-11962
▁장모	-11963
▁재고	-11964
▁재외	-11965
▁재임	-11966
▁저도	-11967
▁저하	-11968
▁적시	-11969
▁전개	-11970
▁전무	-11971
▁전봇	-11972
▁전비	-11973
▁전원	-11974
▁전학	-11975
▁전한	-11976
▁절규	-11977
▁절벽	-11978
▁접한	-11979
▁제재	-11980
▁조서	-11981
▁조형	-11982
▁존중	-11983
▁종식	-11984
▁좋겠	-11985
▁주가	-11986
▁주체	-11987
▁줄여	-11988
▁중징	-11989
▁증인	-11990
▁지날	-11991
▁지붕	-11992
▁지옥	-11993
▁지출	-11994
▁직격	-11995
▁직권	-11996
▁진돗	-11997
▁질서	-11998
▁질타	-11999
▁질환	-12000
▁짐작	-12001
▁짙은	-12002
▁차는	-12003
▁착륙	-12004
▁참수	-12005
▁참지	-12006
▁참혹	-12007
▁창립	-12008
▁창틀	-12009
▁채혈	-12010
▁처참	-12011
▁철제	-12012
▁청소	-12013
▁초소	-12014
▁최우	-12015
▁최장	-12016
▁최전	-12017
▁추측	-12018
▁취하	-12019
▁칠레	-12020
▁침착	-12021
▁캄보	-12022
▁캠핑	-12023
▁캡처	-12024
▁켜고	-12025
▁콜럼	-12026
▁큰불	-12027
▁큰샘	-12028
▁타운	-12029
▁탄압	-12030
▁탈락	-12031
▁투명	-12032
▁트리	-12033
▁틈을	-12034
▁파라	-12035
▁파열	-12036
▁편도	-12037
▁피로	-12038
▁하수	-12039
▁하청	-12040
▁한진	-12041
▁핸드	-12042
▁행적	-12043
▁행주	-12044
▁허난	-12045
▁형법	-12046
▁형성	-12047
▁형평	-12048
▁혜택	-12049
▁호프	-12050
▁황당	-12051
▁회계	-12052
▁회전	-12053
▁휘발	-12054
가량의	-12055
갔다는	-12056
거리를	-12057
검사는	-12058
공사는	-12059
깁니다	-12060
꽁초를	-12061
년여간	-12062
단으로	-12063
대책을	-12064
되도록	-12065
라인에	-12066
렸다가	-12067
로서는	-12068
머니를	-12069
문으로	-12070
받았던	-12071
방망이	-12072
밴드를	-12073
버스가	-12074
병원의	-12075
불명의	-12076
사기를	-12077
사진을	-12078
산에서	-12079
살짜리	-12080
서에서	-12081
성폭력	-12082
속도는	-12083
수도권	-12084
시간의	-12085
시키고	-12086
시키기	-12087
실까지	-12088
었으나	-12089
영장을	-12090
오더니	-12091
웁니다	-12092
원들은	-12093
웠다고	-12094
으로써	-12095
이라도	-12096
이트를	-12097
입구역	-12098
자라고	-12099
자리에	-12100
장치가	-12101
졌는지	-12102
졌다가	-12103
종협회	-12104
지거나	-12105
질적인	-12106
집에서	-12107
차례나	-12108
천여만	-12109
층으로	-12110
치거나	-12111
트럼프	-12112
파대학	-12113
페이지	-12114
하고는	-12115
하느라	-12116
해주는	-12117
화하고	-12118
회장은	-12119
▁123	-12120
▁IDS	-12121
▁LPG	-12122
▁가슴에	-12123
▁가슴이	-12124
▁갈등은	-12125
▁감독을	-12126
▁감독의	-12127
▁감식에	-12128
▁감식이	-12129
▁감염경	-12130
▁강도가	-12131
▁같아요	-12132
▁개그맨	-12133
▁개정을	-12134
▁거대한	-12135
▁거래소	-12136
▁거예요	-12137
▁거쳐야	-12138
▁걱정이	-12139
▁건물과	-12140
▁걸어서	-12141
▁검토를	-12142
▁것이고	-12143
▁격리돼	-12144
▁격리에	-12145
▁견디지	-12146
▁결정한	-12147
▁경고를	-12148
▁경기를	-12149
▁경력이	-12150
▁경비함	-12151
▁경찰정	-12152
▁고유민	-12153
▁곳곳을	-12154
▁공권력	-12155
▁공유한	-12156
▁공장의	-12157
▁공조해	-12158
▁관리가	-12159
▁관행이	-12160
▁교회의	-12161
▁구속해	-12162
▁구조물	-12163
▁구하는	-12164
▁국가가	-12165
▁국과수	-12166
▁국내선	-12167
▁국투본	-12168
▁규정도	-12169
▁규제를	-12170
▁그것을	-12171
▁그녀를	-12172
▁그에게	-12173
▁근무자	-12174
▁글에서	-12175
▁금지된	-12176
▁기간제	-12177
▁기관의	-12178
▁기사는	-12179
▁기지국	-12180
▁기회가	-12181
▁긴밀히	-12182
▁김정은	-12183
▁꺼졌고	-12184
▁나누는	-12185
▁나서고	-12186
▁나와서	-12187
▁나이지	-12188
▁날씨에	-12189
▁남아있	-12190
▁남영동	-12191
▁내부가	-12192
▁내사에	-12193
▁노력이	-12194
▁노무현	-12195
▁녹취파	-12196
▁높다고	-12197
▁높이기	-12198
▁높이는	-12199
▁다르게	-12200
▁다중이	-12201
▁다투다	-12202
▁단속이	-12203
▁단체를	-12204
▁단체에	-12205
▁담임목	-12206
▁당하고	-12207
▁당했다	-12208
▁대구에	-12209
▁대응할	-12210
▁대장은	-12211
▁대전의	-12212
▁대피한	-12213
▁대학교	-12214
▁대학별	-12215
▁댓글이	-12216
▁던지는	-12217
▁덜미를	-12218
▁데려가	-12219
▁도망친	-12220
▁도용해	-12221
▁돌아간	-12222
▁동작구	-12223
▁동해시	-12224
▁되는지	-12225
▁되면서	-12226
▁되지만	-12227
▁두고도	-12228
▁드린다	-12229
▁들어갈	-12230
▁때부터	-12231
▁뜯어낸	-12232
▁렉스프	-12233
▁마사지	-12234
▁마을에	-12235
▁막대한	-12236
▁많은데	-12237
▁말씀드	-12238
▁매몰된	-12239
▁매장을	-12240
▁머리카	-12241
▁머물러	-12242
▁면허가	-12243
▁멸종위	-12244
▁모스크	-12245
▁모이지	-12246
▁목숨도	-12247
▁목적의	-12248
▁목줄을	-12249
▁몰랐던	-12250
▁몰려든	-12251
▁몰리는	-12252
▁무리한	-12253
▁무시한	-12254
▁무정부	-12255
▁무조건	-12256
▁무혐의	-12257
▁문구를	-12258
▁미국과	-12259
▁미국을	-12260
▁미치는	-12261
▁민원이	-12262
▁밀라노	-12263
▁밀치고	-12264
▁바이퍼	-12265
▁반발이	-12266
▁밤에는	-12267
▁방문객	-12268
▁방에서	-12269
▁방치된	-12270
▁방화로	-12271
▁버려진	-12272
▁버스와	-12273
▁범죄의	-12274
▁베리먼	-12275
▁병력이	-12276
▁보복을	-12277
▁보여줬	-12278
▁보트는	-12279
▁본인의	-12280
▁본회의	-12281
▁봤다는	-12282
▁부부를	-12283
▁부주의	-12284
▁부총리	-12285
▁분류된	-12286
▁분위기	-12287
▁불길과	-12288
▁불안감	-12289
▁불안을	-12290
▁붙이고	-12291
▁비대면	-12292
▁비상이	-12293
▁비서의	-12294
▁비용은	-12295
▁비율이	-12296
▁비협조	-12297
▁빗길에	-12298
▁사기꾼	-12299
▁사라져	-12300
▁사랑채	-12301
▁사례로	-12302
▁사생활	-12303
▁사연이	-12304
▁사용할	-12305
▁사유가	-12306
▁사이가	-12307
▁사정이	-12308
▁사진은	-12309
▁사칭한	-12310
▁사형을	-12311
▁사흘간	-12312
▁산불이	-12313
▁산비탈	-12314
▁상태라	-12315
▁상태에	-12316
▁서핑을	-12317
▁선수는	-12318
▁설치가	-12319
▁섭니다	-12320
▁성과를	-12321
▁성남시	-12322
▁세력과	-12323
▁세우고	-12324
▁세인트	-12325
▁소규모	-12326
▁소녀상	-12327
▁소방에	-12328
▁소속인	-12329
▁소식도	-12330
▁소원을	-12331
▁소지가	-12332
▁소홀히	-12333
▁손님을	-12334
▁수거해	-12335
▁수백억	-12336
▁수법이	-12337
▁수사팀	-12338
▁수사할	-12339
▁수색은	-12340
▁수험생	-12341
▁스위스	-12342
▁스크루	-12343
▁시내를	-12344
▁시내의	-12345
▁시설이	-12346
▁시중에	-12347
▁시행에	-12348
▁시험을	-12349
▁식당에	-12350
▁신고도	-12351
▁신고에	-12352
▁신뢰를	-12353
▁신상이	-12354
▁심경을	-12355
▁심문을	-12356
▁심상치	-12357
▁싸우고	-12358
▁쏟아부	-12359
▁아니며	-12360
▁안익태	-12361
▁안전벨	-12362
▁안정을	-12363
▁야당의	-12364
▁약탈이	-12365
▁양육비	-12366
▁어디로	-12367
▁엄마와	-12368
▁업소는	-12369
▁업소를	-12370
▁없는지	-12371
▁없이도	-12372
▁여고생	-12373
▁영상도	-12374
▁오후에	-12375
▁완차이	-12376
▁요건을	-12377
▁요청할	-12378
▁용납할	-12379
▁우리나	-12380
▁우체통	-12381
▁우타르	-12382
▁우한을	-12383
▁원하지	-12384
▁위력에	-12385
▁위원회	-12386
▁위치추	-12387
▁유죄로	-12388
▁유통된	-12389
▁유통한	-12390
▁유흥업	-12391
▁윤창호	-12392
▁응급처	-12393
▁의도를	-12394
▁의료법	-12395
▁의문을	-12396
▁의미를	-12397
▁이같은	-12398
▁이내에	-12399
▁이동원	-12400
▁이들도	-12401
▁이라크	-12402
▁이로써	-12403
▁이뤄져	-12404
▁이송돼	-12405
▁이씨는	-12406
▁이어갈	-12407
▁이재명	-12408
▁이철희	-12409
▁이틀간	-12410
▁인도에	-12411
▁인도와	-12412
▁인식을	-12413
▁인적이	-12414
▁인지한	-12415
▁일본의	-12416
▁일으킬	-12417
▁일했던	-12418
▁입국을	-12419
▁입원해	-12420
▁입장료	-12421
▁있었을	-12422
▁자택에	-12423
▁작업장	-12424
▁잔인한	-12425
▁잘못이	-12426
▁장관을	-12427
▁장소로	-12428
▁장착된	-12429
▁장치가	-12430
▁재건축	-12431
▁재학생	-12432
▁저렇게	-12433
▁저장된	-12434
▁저지르	-12435
▁적법한	-12436
▁적용된	-12437
▁전단이	-12438
▁전하고	-12439
▁접근한	-12440
▁접촉이	-12441
▁정관계	-12442
▁정책의	-12443
▁정치인	-12444
▁정황도	-12445
▁제과점	-12446
▁제동목	-12447
▁제작해	-12448
▁조금씩	-12449
▁조비오	-12450
▁조작을	-12451
▁주인은	-12452
▁주인이	-12453
▁주재한	-12454
▁주택가	-12455
▁주호영	-12456
▁준비가	-12457
▁줄어든	-12458
▁중심을	-12459
▁중에도	-12460
▁증상은	-12461
▁지반이	-12462
▁지방의	-12463
▁지켜보	-12464
▁직업을	-12465
▁진실을	-12466
▁질환을	-12467
▁집단휴	-12468
▁집행할	-12469
▁집회로	-12470
▁차관은	-12471
▁차명진	-12472
▁차이리	-12473
▁참석을	-12474
▁처리가	-12475
▁처벌도	-12476
▁천천히	-12477
▁청년이	-12478
▁청렴도	-12479
▁청약통	-12480
▁청원은	-12481
▁총격에	-12482
▁총리와	-12483
▁촬영해	-12484
▁최근에	-12485
▁최악의	-12486
▁춘천지	-12487
▁출입이	-12488
▁취소된	-12489
▁취소될	-12490
▁취약계	-12491
▁치솟고	-12492
▁치열한	-12493
▁침입한	-12494
▁카스트	-12495
▁캐나다	-12496
▁클럽과	-12497
▁타격을	-12498
▁탈출해	-12499
▁택시가	-12500
▁택시에	-12501
▁통일부	-12502
▁트럭에	-12503
▁트럭은	-12504
▁특별히	-12505
▁특보는	-12506
▁파업에	-12507
▁편지가	-12508
▁평택시	-12509
▁포돌이	-12510
▁포르쉐	-12511
▁폭동을	-12512
▁폭발로	-12513
▁폭발물	-12514
▁폭발한	-12515
▁표현을	-12516
▁표현이	-12517
▁필요할	-12518
▁하나인	-12519
▁하천이	-12520
▁학대에	-12521
▁학생의	-12522
▁합의를	-12523
▁항의를	-12524
▁해달라	-12525
▁해명을	-12526
▁해외로	-12527
▁해킹한	-12528
▁햄버거	-12529
▁했는지	-12530
▁행동에	-12531
▁행동은	-12532
▁행사가	-12533
▁행정관	-12534
▁헌법상	-12535
▁현장의	-12536
▁현황을	-12537
▁협회는	-12538
▁형법상	-12539
▁호흡곤	-12540
▁화재현	-12541
▁화제의	-12542
▁확산의	-12543
▁확산한	-12544
▁확실히	-12545
▁황운하	-12546
▁회사는	-12547
▁후보는	-12548
▁후에도	-12549
▁흑인이	-12550
▁흔적을	-12551
▁희생된	-12552
▁힘들다	-12553
구역에서	-12554
당했다고	-12555
들에게도	-12556
만으로도	-12557
선거관리	-12558
성의전화	-12559
였는데요	-12560
월부터는	-12561
장에서는	-12562
지방해양	-12563
하는데요	-12564
▁가와사키	-12565
▁가운데는	-12566
▁가족들의	-12567
▁강력범죄	-12568
▁강정호는	-12569
▁거짓으로	-12570
▁게시물을	-12571
▁경기에서	-12572
▁경비원과	-12573
▁경찰서로	-12574
▁계정으로	-12575
▁고양이가	-12576
▁과실치사	-12577
▁관계자도	-12578
▁관할하는	-12579
▁국방장관	-12580
▁국정원이	-12581
▁군사경찰	-12582
▁그때마다	-12583
▁그럼에도	-12584
▁그렇다면	-12585
▁근로자가	-12586
▁기관에서	-12587
▁기다리는	-12588
▁기자회견	-12589
▁나섰다가	-12590
▁나오는데	-12591
▁나왔다는	-12592
▁나왔지만	-12593
▁나타나지	-12594
▁남성들은	-12595
▁남성으로	-12596
▁내동댕이	-12597
▁내렸다고	-12598
▁넘기면서	-12599
▁넘나드는	-12600
▁누구보다	-12601
▁다쳤다고	-12602
▁다쳤지만	-12603
▁다치지는	-12604
▁다투다가	-12605
▁달아나던	-12606
▁대변인이	-12607
▁대부분을	-12608
▁대상자가	-12609
▁대응반은	-12610
▁대통령에	-12611
▁대한철인	-12612
▁덮칩니다	-12613
▁돌아가고	-12614
▁돌아가는	-12615
▁돌아오지	-12616
▁동영상이	-12617
▁동원해서	-12618
▁드러나지	-12619
▁들어오는	-12620
▁들어오면	-12621
▁등지에서	-12622
▁마스크도	-12623
▁마스크로	-12624
▁명이라고	-12625
▁못했다는	-12626
▁미시간주	-12627
▁밀입국자	-12628
▁반발하며	-12629
▁반쯤에는	-12630
▁발레파킹	-12631
▁발생했고	-12632
▁밝혔는데	-12633
▁방사청의	-12634
▁방호복을	-12635
▁배제하지	-12636
▁벌입니다	-12637
▁범행으로	-12638
▁법정으로	-12639
▁벨라루스	-12640
▁보였다고	-12641
▁보호하고	-12642
▁보호하는	-12643
▁봉쇄령이	-12644
▁부딪히는	-12645
▁부러지는	-12646
▁부사장과	-12647
▁부산진구	-12648
▁부통령이	-12649
▁북한에서	-12650
▁불가능한	-12651
▁불안감이	-12652
▁브리핑을	-12653
▁블룸버그	-12654
▁비수도권	-12655
▁빠져나간	-12656
▁빠져나와	-12657
▁사람들로	-12658
▁사망사고	-12659
▁사망자도	-12660
▁사망자의	-12661
▁사망했고	-12662
▁삭제하는	-12663
▁살인미수	-12664
▁상품권을	-12665
▁새벽부터	-12666
▁서귀포시	-12667
▁서울고법	-12668
▁서울교총	-12669
▁서울시의	-12670
▁서진건설	-12671
▁성매매를	-12672
▁성범죄에	-12673
▁성착취물	-12674
▁성희롱을	-12675
▁세계에서	-12676
▁손님들이	-12677
▁수단으로	-12678
▁수련병원	-12679
▁수익금을	-12680
▁순찰차는	-12681
▁숨졌다고	-12682
▁신고하지	-12683
▁신도들이	-12684
▁신천지와	-12685
▁신청했고	-12686
▁실종자를	-12687
▁심각하게	-12688
▁쓰레기를	-12689
▁아무것도	-12690
▁아버지를	-12691
▁아버지와	-12692
▁아시아계	-12693
▁아이에게	-12694
▁안전하고	-12695
▁알베르토	-12696
▁알아보기	-12697
▁암호화폐	-12698
▁앞서가던	-12699
▁양육비를	-12700
▁어렵다는	-12701
▁어제부터	-12702
▁업소에서	-12703
▁연결해서	-12704
▁연설에서	-12705
▁영상에는	-12706
▁오리건주	-12707
▁오프라인	-12708
▁올라오고	-12709
▁요양보호	-12710
▁요원들이	-12711
▁요원에게	-12712
▁우려하고	-12713
▁우월주의	-12714
▁우한중심	-12715
▁운영하며	-12716
▁원룸에서	-12717
▁위반하면	-12718
▁위협하는	-12719
▁유권자가	-12720
▁유치장에	-12721
▁의원들은	-12722
▁의원들이	-12723
▁이동장치	-12724
▁이뤄지는	-12725
▁이리저리	-12726
▁이용자는	-12727
▁인정하는	-12728
▁일본에서	-12729
▁일자리를	-12730
▁입구에서	-12731
▁있겠지만	-12732
▁잉글랜드	-12733
▁자살미수	-12734
▁작동하지	-12735
▁잔혹하게	-12736
▁전국으로	-12737
▁전단살포	-12738
▁정부세종	-12739
▁제작하고	-12740
▁제조업체	-12741
▁조직원이	-12742
▁좋아하는	-12743
▁주거지를	-12744
▁주력하고	-12745
▁주차장을	-12746
▁중앙방역	-12747
▁증명서를	-12748
▁지나가는	-12749
▁지인에게	-12750
▁지적장애	-12751
▁지지하는	-12752
▁지켜봐야	-12753
▁지하주차	-12754
▁직무유기	-12755
▁진술서를	-12756
▁진심으로	-12757
▁진행되는	-12758
▁징역형에	-12759
▁착용해야	-12760
▁참석했던	-12761
▁청원인은	-12762
▁촬영하고	-12763
▁출석하지	-12764
▁캄보디아	-12765
▁코로나가	-12766
▁킥보드는	-12767
▁태국에서	-12768
▁테러리즘	-12769
▁투표용지	-12770
▁트위터는	-12771
▁특별단속	-12772
▁특수절도	-12773
▁파악하기	-12774
▁파주에서	-12775
▁파출소에	-12776
▁편의점에	-12777
▁평택시의	-12778
▁표정으로	-12779
▁학생들의	-12780
▁한국에서	-12781
▁한국인이	-12782
▁해달라고	-12783
▁현금으로	-12784
▁현수막이	-12785
▁현행법상	-12786
▁혐의로도	-12787
▁협박하는	-12788
▁형사소송	-12789
▁호랑이는	-12790
▁호소하고	-12791
▁호소하며	-12792
▁확대하고	-12793
▁확인됐다	-12794
▁활용하고	-12795
▁희생자가	-12796
▁희생자를	-12797
들었습니다	-12798
성폭력상담	-12799
했었습니다	-12800
▁가상화폐로	-12801
▁가했습니다	-12802
▁가혹행위를	-12803
▁감시카메라	-12804
▁거리두기가	-12805
▁게시판에는	-12806
▁경제적으로	-12807
▁교통사고를	-12808
▁구명조끼를	-12809
▁국회에서는	-12810
▁그쳤습니다	-12811
▁기획재정부	-12812
▁끊겼습니다	-12813
▁끊었습니다	-12814
▁나이지리아	-12815
▁내부에서는	-12816
▁넘어집니다	-12817
▁노동자들이	-12818
▁뉴욕타임스	-12819
▁달아났다가	-12820
▁담았습니다	-12821
▁대공수사권	-12822
▁대중교통을	-12823
▁대화방에서	-12824
▁돌진합니다	-12825
▁드러나면서	-12826
▁러시아에서	-12827
▁맞은편에서	-12828
▁몰래카메라	-12829
▁무기징역을	-12830
▁방역당국이	-12831
▁벌어집니다	-12832
▁법안소위를	-12833
▁변했습니다	-12834
▁보건당국의	-12835
▁빚어지기도	-12836
▁뻔했습니다	-12837
▁사거리에서	-12838
▁사무실에서	-12839
▁사이트에서	-12840
▁상고심에서	-12841
▁상태였는데	-12842
▁서울시장이	-12843
▁성착취물을	-12844
▁세웠습니다	-12845
▁소식인데요	-12846
▁수사기관에	-12847
▁수치입니다	-12848
▁스프링클러	-12849
▁신종코로나	-12850
▁실정입니다	-12851
▁아동학대로	-12852
▁여자친구가	-12853
▁여자친구를	-12854
▁연결합니다	-12855
▁온라인으로	-12856
▁외쳤습니다	-12857
▁운전자에게	-12858
▁원내대표는	-12859
▁음주운전이	-12860
▁인도에서는	-12861
▁인물입니다	-12862
▁일었습니다	-12863
▁입주민에게	-12864
▁제기됩니다	-12865
▁주차장으로	-12866
▁중국에서는	-12867
▁지역에서도	-12868
▁진행합니다	-12869
▁철도경찰은	-12870
▁청와대에서	-12871
▁체포됐다고	-12872
▁추정되는데	-12873
▁취업준비생	-12874
▁취재진에게	-12875
▁취지입니다	-12876
▁칼리파대학	-12877
▁프랑스에서	-12878
고속도로에서	-12879
▁강행했습니다	-12880
▁공무집행방해	-12881
▁금지했습니다	-12882
▁나타냈습니다	-12883
▁다가왔습니다	-12884
▁답변했습니다	-12885
▁대응하겠다고	-12886
▁들어봤습니다	-12887
▁로드리게스는	-12888
▁마련했습니다	-12889
▁목격됐습니다	-12890
▁문자메시지를	-12891
▁발의했습니다	-12892
▁방문했습니다	-12893
▁삭제했습니다	-12894
▁서울행정법원	-12895
▁선고됐습니다	-12896
▁성공했습니다	-12897
▁시인했습니다	-12898
▁아동학대치사	-12899
▁위해서입니다	-12900
▁이유였습니다	-12901
▁인정하면서도	-12902
▁임시생활시설	-12903
▁적용됐습니다	-12904
▁전달했습니다	-12905
▁중환자실에서	-12906
▁지하철역에서	-12907
▁취소했습니다	-12908
▁텔레그램으로	-12909
▁토지거래허가	-12910
▁표시했습니다	-12911
▁프랑스에서는	-12912
▁피해자로부터	-12913
▁합의했습니다	-12914
▁허용했습니다	-12915
▁휩싸였습니다	-12916
▁감염병예방법에	-12917
▁개인정보보호법	-12918
▁받아들였습니다	-12919
▁서울중앙지검에	-12920
▁서울중앙지법은	-12921
▁아동보호기관은	-12922
▁인도네시아에서	-12923
▁전국인민대표대	-12924
▁쿠드랴프체프는	-12925
▁한국여성의전화	-12926
▁혈중알코올농도	-12927
▁긴급체포했습니다	-12928
▁미니애폴리스에서	-12929
▁정부세종청사에서	-12930
▁아동보호전문기관은	-12931
▁고위공직자범죄수사처	-12932
▁국립과학수사연구원이	-12933
14	-12934
16	-12935
34	-12936
38	-12937
64	-12938
68	-12939
75	-12940
98	-12941
BA	-12942
BI	-12943
BO	-12944
OC	-12945
▁c	-12946
▁갱	-12947
▁겉	-12948
▁껐	-12949
▁넥	-12950
▁덴	-12951
▁땐	-12952
▁뜬	-12953
▁란	-12954
▁멋	-12955
▁멘	-12956
▁뺀	-12957
▁샀	-12958
▁셰	-12959
▁쇳	-12960
▁씻	-12961
▁앗	-12962
▁옌	-12963
▁웬	-12964
▁컬	-12965
▁켄	-12966
값을	-12967
갔던	-12968
개와	-12969
건물	-12970
검역	-12971
검은	-12972
격에	-12973
결과	-12974
겼고	-12975
공동	-12976
공화	-12977
관도	-12978
괄적	-12979
광욕	-12980
교를	-12981
금고	-12982
금의	-12983
급인	-12984
급히	-12985
긴급	-12986
께서	-12987
나지	-12988
남도	-12989
내지	-12990
년과	-12991
노조	-12992
다리	-12993
다못	-12994
단원	-12995
당은	-12996
대고	-12997
대지	-12998
더라	-12999
동과	-13000
두는	-13001
디언	-13002
라야	-13003
라지	-13004
람이	-13005
랐다	-13006
력도	-13007
로도	-13008
록을	-13009
롭지	-13010
루투	-13011
르담	-13012
르텔	-13013
리언	-13014
리엄	-13015
마취	-13016
머리	-13017
명민	-13018
모독	-13019
무부	-13020
무사	-13021
문의	-13022
민석	-13023
밀란	-13024
바마	-13025
받게	-13026
받던	-13027
발이	-13028
방지	-13029
백을	-13030
버른	-13031
범을	-13032
법률	-13033
병기	-13034
보려	-13035
보좌	-13036
본은	-13037
봉쇄	-13038
부족	-13039
북읍	-13040
비한	-13041
뿌연	-13042
쁘다	-13043
사단	-13044
사슬	-13045
상가	-13046
상아	-13047
상현	-13048
새를	-13049
생한	-13050
서비	-13051
석방	-13052
성은	-13053
세탁	-13054
소리	-13055
손괴	-13056
수거	-13057
수면	-13058
슈빌	-13059
스와	-13060
스탱	-13061
시나	-13062
시술	-13063
심사	-13064
쓰고	-13065
씨로	-13066
아가	-13067
아간	-13068
았을	-13069
애나	-13070
양육	-13071
업무	-13072
역과	-13073
연소	-13074
오바	-13075
옥순	-13076
용히	-13077
운영	-13078
울루	-13079
으셨	-13080
은호	-13081
읍에	-13082
의가	-13083
이프	-13084
인원	-13085
일쯤	-13086
임대	-13087
입원	-13088
자동	-13089
자연	-13090
자유	-13091
작년	-13092
장사	-13093
재단	-13094
적부	-13095
젓이	-13096
조가	-13097
조는	-13098
중개	-13099
증과	-13100
지스	-13101
지한	-13102
진탕	-13103
질러	-13104
창룡	-13105
처에	-13106
천군	-13107
총괄	-13108
축구	-13109
출해	-13110
취가	-13111
층의	-13112
층이	-13113
치며	-13114
카인	-13115
커로	-13116
터키	-13117
테러	-13118
테인	-13119
톤급	-13120
투자	-13121
특례	-13122
티가	-13123
파에	-13124
평을	-13125
폐된	-13126
프트	-13127
하구	-13128
하되	-13129
한석	-13130
해방	-13131
해선	-13132
행사	-13133
향이	-13134
헌법	-13135
혁명	-13136
혁신	-13137
형사	-13138
홀에	-13139
화강	-13140
화장	-13141
휘란	-13142
400	-13143
▁82	-13144
▁AC	-13145
▁PD	-13146
▁가끔	-13147
▁가난	-13148
▁가다	-13149
▁가면	-13150
▁가볍	-13151
▁가시	-13152
▁가야	-13153
▁가을	-13154
▁가죽	-13155
▁가질	-13156
▁가파	-13157
▁간에	-13158
▁갈비	-13159
▁감압	-13160
▁감옥	-13161
▁감치	-13162
▁갓난	-13163
▁강수	-13164
▁강의	-13165
▁개성	-13166
▁개연	-13167
▁거친	-13168
▁건을	-13169
▁것뿐	-13170
▁격벽	-13171
▁격인	-13172
▁경과	-13173
▁경련	-13174
▁경사	-13175
▁계모	-13176
▁계부	-13177
▁계신	-13178
▁고니	-13179
▁고마	-13180
▁고문	-13181
▁고심	-13182
▁공언	-13183
▁공제	-13184
▁공해	-13185
▁공황	-13186
▁과장	-13187
▁광진	-13188
▁교토	-13189
▁구해	-13190
▁국경	-13191
▁국도	-13192
▁권투	-13193
▁귀성	-13194
▁그다	-13195
▁그해	-13196
▁극복	-13197
▁글은	-13198
▁기독	-13199
▁기름	-13200
▁김남	-13201
▁김원	-13202
▁김진	-13203
▁까다	-13204
▁껴안	-13205
▁꼼꼼	-13206
▁꿇고	-13207
▁꿇기	-13208
▁꿇은	-13209
▁꿈을	-13210
▁끝날	-13211
▁끼워	-13212
▁나기	-13213
▁나빠	-13214
▁나자	-13215
▁남해	-13216
▁납득	-13217
▁낮에	-13218
▁낯선	-13219
▁내건	-13220
▁내게	-13221
▁내놨	-13222
▁내다	-13223
▁내렸	-13224
▁넘을	-13225
▁노린	-13226
▁노선	-13227
▁느슨	-13228
▁다녔	-13229
▁다닌	-13230
▁다량	-13231
▁다자	-13232
▁다툰	-13233
▁단정	-13234
▁단축	-13235
▁달래	-13236
▁달여	-13237
▁답을	-13238
▁당내	-13239
▁당황	-13240
▁대략	-13241
▁대열	-13242
▁대포	-13243
▁도를	-13244
▁도서	-13245
▁도용	-13246
▁도쿄	-13247
▁독직	-13248
▁돌봄	-13249
▁돌을	-13250
▁돌이	-13251
▁동맥	-13252
▁동성	-13253
▁동종	-13254
▁뒷돈	-13255
▁들러	-13256
▁들을	-13257
▁등산	-13258
▁또래	-13259
▁띄워	-13260
▁리어	-13261
▁마감	-13262
▁마비	-13263
▁막대	-13264
▁막은	-13265
▁말은	-13266
▁맞춘	-13267
▁맡고	-13268
▁매커	-13269
▁먹어	-13270
▁멈춘	-13271
▁멍과	-13272
▁면세	-13273
▁면제	-13274
▁모는	-13275
▁목에	-13276
▁몰린	-13277
▁무능	-13278
▁무효	-13279
▁문서	-13280
▁묻고	-13281
▁묻혀	-13282
▁물질	-13283
▁미루	-13284
▁미셸	-13285
▁바뀐	-13286
▁박정	-13287
▁박지	-13288
▁반인	-13289
▁받침	-13290
▁발뺌	-13291
▁발신	-13292
▁발이	-13293
▁발현	-13294
▁밤을	-13295
▁배출	-13296
▁배틀	-13297
▁범위	-13298
▁베나	-13299
▁변명	-13300
▁병무	-13301
▁병사	-13302
▁병상	-13303
▁보급	-13304
▁보신	-13305
▁복합	-13306
▁볼록	-13307
▁볼리	-13308
▁부목	-13309
▁북적	-13310
▁분산	-13311
▁분을	-13312
▁불륜	-13313
▁붙인	-13314
▁비관	-13315
▁빅토	-13316
▁빚고	-13317
▁뽑는	-13318
▁사냥	-13319
▁사적	-13320
▁사죄	-13321
▁사주	-13322
▁사찰	-13323
▁살려	-13324
▁삼아	-13325
▁삼엄	-13326
▁상류	-13327
▁상파	-13328
▁서천	-13329
▁선보	-13330
▁선포	-13331
▁성북	-13332
▁세제	-13333
▁셋째	-13334
▁소란	-13335
▁소아	-13336
▁소통	-13337
▁쇼빈	-13338
▁수갑	-13339
▁수년	-13340
▁수직	-13341
▁순경	-13342
▁숨은	-13343
▁시골	-13344
▁시긴	-13345
▁시대	-13346
▁시뮬	-13347
▁시에	-13348
▁시외	-13349
▁실어	-13350
▁실탄	-13351
▁심문	-13352
▁싶어	-13353
▁싶지	-13354
▁쏘며	-13355
▁아던	-13356
▁아셈	-13357
▁아크	-13358
▁안과	-13359
▁안녕	-13360
▁안치	-13361
▁앞당	-13362
▁양도	-13363
▁양옆	-13364
▁어떤	-13365
▁어르	-13366
▁어미	-13367
▁어울	-13368
▁어지	-13369
▁에어	-13370
▁여경	-13371
▁여유	-13372
▁여전	-13373
▁역설	-13374
▁연간	-13375
▁연계	-13376
▁연내	-13377
▁연안	-13378
▁연출	-13379
▁예술	-13380
▁예치	-13381
▁오가	-13382
▁오산	-13383
▁오인	-13384
▁옮길	-13385
▁옷이	-13386
▁와서	-13387
▁용도	-13388
▁운송	-13389
▁울고	-13390
▁원활	-13391
▁유관	-13392
▁유세	-13393
▁윤형	-13394
▁음독	-13395
▁의대	-13396
▁의장	-13397
▁이겨	-13398
▁이다	-13399
▁이럴	-13400
▁이륜	-13401
▁이면	-13402
▁이민	-13403
▁익산	-13404
▁일탈	-13405
▁잃을	-13406
▁임실	-13407
▁임원	-13408
▁임차	-13409
▁입는	-13410
▁자극	-13411
▁자원	-13412
▁자행	-13413
▁잔고	-13414
▁잠금	-13415
▁장롱	-13416
▁장외	-13417
▁재단	-13418
▁재킷	-13419
▁저축	-13420
▁전부	-13421
▁전시	-13422
▁점과	-13423
▁점심	-13424
▁점은	-13425
▁점차	-13426
▁정문	-13427
▁정정	-13428
▁정착	-13429
▁정한	-13430
▁제습	-13431
▁제자	-13432
▁제전	-13433
▁조도	-13434
▁종류	-13435
▁주둔	-13436
▁주를	-13437
▁주무	-13438
▁주상	-13439
▁주석	-13440
▁주역	-13441
▁죽인	-13442
▁줄이	-13443
▁중재	-13444
▁지른	-13445
▁지스	-13446
▁진동	-13447
▁진전	-13448
▁진해	-13449
▁질렀	-13450
▁쪽에	-13451
▁차고	-13452
▁채우	-13453
▁채워	-13454
▁처할	-13455
▁철골	-13456
▁철폐	-13457
▁청도	-13458
▁초당	-13459
▁초량	-13460
▁초반	-13461
▁촉법	-13462
▁총책	-13463
▁추운	-13464
▁출마	-13465
▁출처	-13466
▁춤을	-13467
▁충전	-13468
▁취급	-13469
▁취할	-13470
▁측도	-13471
▁치과	-13472
▁치르	-13473
▁치마	-13474
▁치매	-13475
▁치밀	-13476
▁치어	-13477
▁친인	-13478
▁친중	-13479
▁카고	-13480
▁커질	-13481
▁코너	-13482
▁콜롬	-13483
▁큰일	-13484
▁키워	-13485
▁타는	-13486
▁타던	-13487
▁탈취	-13488
▁테니	-13489
▁토사	-13490
▁통역	-13491
▁퇴학	-13492
▁투신	-13493
▁특검	-13494
▁파기	-13495
▁판사	-13496
▁팔당	-13497
▁팔찌	-13498
▁패소	-13499
▁펀드	-13500
▁펌프	-13501
▁표출	-13502
▁풀고	-13503
▁프루	-13504
▁피난	-13505
▁피부	-13506
▁피워	-13507
▁피켓	-13508
▁하락	-13509
▁하러	-13510
▁하류	-13511
▁학내	-13512
▁한일	-13513
▁헤엄	-13514
▁헤이	-13515
▁혀를	-13516
▁혁명	-13517
▁협상	-13518
▁형식	-13519
▁형은	-13520
▁호송	-13521
▁홍대	-13522
▁확신	-13523
▁환매	-13524
▁환불	-13525
▁회고	-13526
▁회식	-13527
▁후송	-13528
▁훈훈	-13529
▁훌륭	-13530
▁휴업	-13531
가구가	-13532
갔는데	-13533
거리가	-13534
거리는	-13535
공단이	-13536
관리법	-13537
국장은	-13538
금으로	-13539
금지를	-13540
금지법	-13541
기관이	-13542
기관인	-13543
기록을	-13544
나들목	-13545
냅니다	-13546
널리즘	-13547
년에도	-13548
년에서	-13549
노동자	-13550
당국이	-13551
대에서	-13552
댑니다	-13553
더미가	-13554
도까지	-13555
됐는지	-13556
되는지	-13557
뒀다고	-13558
드린다	-13559
드에서	-13560
들과의	-13561
들에겐	-13562
라이언	-13563
레이션	-13564
력발전	-13565
렸다며	-13566
르기도	-13567
리더니	-13568
리스트	-13569
명민호	-13570
민들이	-13571
백여만	-13572
버리고	-13573
번이나	-13574
법원에	-13575
보건소	-13576
본부에	-13577
부르크	-13578
분까지	-13579
블리카	-13580
사무소	-13581
성교회	-13582
센터로	-13583
수사팀	-13584
수욕장	-13585
스코이	-13586
시장이	-13587
시키지	-13588
신고가	-13589
애슬론	-13590
야말로	-13591
에서야	-13592
에서의	-13593
역까지	-13594
원들의	-13595
음으로	-13596
이기도	-13597
인지는	-13598
일간의	-13599
자금을	-13600
장까지	-13601
장비에	-13602
재들이	-13603
정보를	-13604
정부질	-13605
주년을	-13606
지지는	-13607
직에서	-13608
질환을	-13609
짜고짜	-13610
천만원	-13611
층부터	-13612
카운티	-13613
터미널	-13614
통신과	-13615
트워크	-13616
하기를	-13617
해서도	-13618
했느냐	-13619
호에서	-13620
환자가	-13621
▁000	-13622
▁108	-13623
▁126	-13624
▁367	-13625
▁CJB	-13626
▁FBI	-13627
▁JTV	-13628
▁KBO	-13629
▁NBA	-13630
▁가까워	-13631
▁가입한	-13632
▁가정을	-13633
▁가평군	-13634
▁각자의	-13635
▁간호조	-13636
▁갈등과	-13637
▁감사의	-13638
▁감염돼	-13639
▁감염의	-13640
▁감정을	-13641
▁감추지	-13642
▁갔다가	-13643
▁강경한	-13644
▁강은호	-13645
▁강조한	-13646
▁강화를	-13647
▁강화한	-13648
▁개발한	-13649
▁개인의	-13650
▁개인적	-13651
▁개혁에	-13652
▁거래가	-13653
▁거액의	-13654
▁건강을	-13655
▁검문을	-13656
▁검사에	-13657
▁검사의	-13658
▁겨냥한	-13659
▁결론이	-13660
▁경우에	-13661
▁경위도	-13662
▁계약을	-13663
▁계양구	-13664
▁고려할	-13665
▁고열과	-13666
▁고위험	-13667
▁고의가	-13668
▁고인이	-13669
▁고한석	-13670
▁공간을	-13671
▁공개가	-13672
▁공공부	-13673
▁공급을	-13674
▁공급한	-13675
▁공문을	-13676
▁공범인	-13677
▁공사장	-13678
▁공소사	-13679
▁공원에	-13680
▁공장이	-13681
▁공판에	-13682
▁과실이	-13683
▁과학적	-13684
▁관계가	-13685
▁관리할	-13686
▁교민들	-13687
▁교민이	-13688
▁교사를	-13689
▁교수가	-13690
▁교직원	-13691
▁교통이	-13692
▁구간을	-13693
▁구멍이	-13694
▁구성해	-13695
▁구하지	-13696
▁국가를	-13697
▁국경을	-13698
▁국내외	-13699
▁국민들	-13700
▁국회를	-13701
▁군인이	-13702
▁군주제	-13703
▁권한이	-13704
▁귀국을	-13705
▁그러고	-13706
▁그제야	-13707
▁그치지	-13708
▁글에는	-13709
▁금액은	-13710
▁기관은	-13711
▁기소의	-13712
▁길가에	-13713
▁김기현	-13714
▁김창룡	-13715
▁김휘란	-13716
▁꼬리를	-13717
▁꼽히는	-13718
▁나가는	-13719
▁나갔고	-13720
▁나면서	-13721
▁나무에	-13722
▁나섰다	-13723
▁낚아채	-13724
▁난방비	-13725
▁남매는	-13726
▁남성도	-13727
▁남자는	-13728
▁내각이	-13729
▁내놓고	-13730
▁내세운	-13731
▁내슈빌	-13732
▁냈다고	-13733
▁넘어가	-13734
▁노래를	-13735
▁노력에	-13736
▁노리고	-13737
▁노사전	-13738
▁논의가	-13739
▁논의를	-13740
▁뇌진탕	-13741
▁누구도	-13742
▁누르고	-13743
▁눈치채	-13744
▁뉴델리	-13745
▁늘어서	-13746
▁늘었고	-13747
▁다니던	-13748
▁다리에	-13749
▁다치고	-13750
▁단순히	-13751
▁단체로	-13752
▁담화를	-13753
▁답하지	-13754
▁당시의	-13755
▁당첨된	-13756
▁당했던	-13757
▁대가를	-13758
▁대공분	-13759
▁대법관	-13760
▁대성당	-13761
▁대우를	-13762
▁대표적	-13763
▁대피를	-13764
▁댓글은	-13765
▁데스탱	-13766
▁도로로	-13767
▁도시를	-13768
▁독립을	-13769
▁돌보지	-13770
▁동기를	-13771
▁동북부	-13772
▁동행한	-13773
▁된다며	-13774
▁뒤부터	-13775
▁뒤쫓고	-13776
▁들어선	-13777
▁들에게	-13778
▁등지에	-13779
▁디아브	-13780
▁때보다	-13781
▁똑같이	-13782
▁뛰어가	-13783
▁뛰어내	-13784
▁뜻으로	-13785
▁라디오	-13786
▁라면서	-13787
▁레지던	-13788
▁로비를	-13789
▁리조트	-13790
▁마리를	-13791
▁마이크	-13792
▁마침내	-13793
▁만약의	-13794
▁맞아도	-13795
▁멈춰서	-13796
▁메르스	-13797
▁멜버른	-13798
▁며칠째	-13799
▁면허를	-13800
▁명복을	-13801
▁명부를	-13802
▁명소인	-13803
▁명의를	-13804
▁모른다	-13805
▁모였고	-13806
▁모자와	-13807
▁모텔에	-13808
▁목표로	-13809
▁무거운	-13810
▁무겁게	-13811
▁무관한	-13812
▁무기를	-13813
▁무료로	-13814
▁문제도	-13815
▁물어야	-13816
▁물질이	-13817
▁미끼로	-13818
▁미디어	-13819
▁밀어붙	-13820
▁밀폐된	-13821
▁바라보	-13822
▁박지원	-13823
▁반기를	-13824
▁반발해	-13825
▁반장은	-13826
▁받다가	-13827
▁발언에	-13828
▁발표할	-13829
▁밝혀진	-13830
▁밝히고	-13831
▁방법은	-13832
▁방송은	-13833
▁방식에	-13834
▁방안이	-13835
▁방역에	-13836
▁방조한	-13837
▁방화가	-13838
▁배경이	-13839
▁배치된	-13840
▁배터리	-13841
▁배후를	-13842
▁백상아	-13843
▁백신은	-13844
▁버스나	-13845
▁버젓이	-13846
▁범인의	-13847
▁범죄와	-13848
▁범행한	-13849
▁변화가	-13850
▁병사가	-13851
▁보고한	-13852
▁보면서	-13853
▁보안요	-13854
▁보였다	-13855
▁보장을	-13856
▁복수의	-13857
▁복장을	-13858
▁본인은	-13859
▁봉변을	-13860
▁부과할	-13861
▁부본부	-13862
▁부서져	-13863
▁부서진	-13864
▁부착한	-13865
▁부패한	-13866
▁북구의	-13867
▁북동부	-13868
▁북한과	-13869
▁북한은	-13870
▁분만에	-13871
▁분통을	-13872
▁불길에	-13873
▁불안이	-13874
▁불이나	-13875
▁불편한	-13876
▁브랜던	-13877
▁블루투	-13878
▁비밀을	-13879
▁비사카	-13880
▁비서로	-13881
▁비아이	-13882
▁비추는	-13883
▁빗물이	-13884
▁빼앗은	-13885
▁사고에	-13886
▁사망과	-13887
▁사용이	-13888
▁사진도	-13889
▁사체를	-13890
▁사퇴를	-13891
▁사표를	-13892
▁사하구	-13893
▁산으로	-13894
▁살인을	-13895
▁살해된	-13896
▁상당을	-13897
▁상온에	-13898
▁상자를	-13899
▁생각에	-13900
▁생각한	-13901
▁생방송	-13902
▁샤를리	-13903
▁샤피룰	-13904
▁서초구	-13905
▁선고될	-13906
▁선관위	-13907
▁선생님	-13908
▁선수로	-13909
▁설리번	-13910
▁성관계	-13911
▁세계에	-13912
▁세워진	-13913
▁소년의	-13914
▁소방과	-13915
▁소성리	-13916
▁소유한	-13917
▁소장을	-13918
▁속도가	-13919
▁수감돼	-13920
▁수년간	-13921
▁수단을	-13922
▁수문을	-13923
▁수배를	-13924
▁수백만	-13925
▁수상히	-13926
▁수습을	-13927
▁수요가	-13928
▁수요일	-13929
▁수위는	-13930
▁수입이	-13931
▁수치인	-13932
▁스카이	-13933
▁스티븐	-13934
▁스파이	-13935
▁승객과	-13936
▁시도가	-13937
▁시멘트	-13938
▁시점과	-13939
▁시점에	-13940
▁신도가	-13941
▁신청해	-13942
▁실거래	-13943
▁실시할	-13944
▁심문이	-13945
▁아내는	-13946
▁아래에	-13947
▁아무리	-13948
▁아산과	-13949
▁아오바	-13950
▁아이폰	-13951
▁악용해	-13952
▁악취가	-13953
▁악플에	-13954
▁안드라	-13955
▁안전모	-13956
▁않다가	-13957
▁알렉산	-13958
▁알려줬	-13959
▁알렸고	-13960
▁앗아간	-13961
▁앞까지	-13962
▁앞뒤로	-13963
▁애도를	-13964
▁약속을	-13965
▁약속한	-13966
▁양주시	-13967
▁양측의	-13968
▁어기는	-13969
▁어깨를	-13970
▁어디에	-13971
▁언급한	-13972
▁언론사	-13973
▁엄마를	-13974
▁업소가	-13975
▁업주는	-13976
▁없었을	-13977
▁엔진룸	-13978
▁여동생	-13979
▁여론의	-13980
▁여지가	-13981
▁연달아	-13982
▁연대의	-13983
▁연미정	-13984
▁연휴를	-13985
▁영국에	-13986
▁영향이	-13987
▁예방을	-13988
▁오가리	-13989
▁오래된	-13990
▁오류가	-13991
▁오바마	-13992
▁올라타	-13993
▁올바른	-13994
▁외력에	-13995
▁외부로	-13996
▁외부에	-13997
▁외신에	-13998
▁외출을	-13999
▁외치며	-14000
▁요구해	-14001
▁요원이	-14002
▁용인시	-14003
▁우체국	-14004
▁우한시	-14005
▁운영할	-14006
▁운전해	-14007
▁움직일	-14008
▁원인과	-14009
▁위반이	-14010
▁위협이	-14011
▁윌리엄	-14012
▁유발할	-14013
▁유상봉	-14014
▁유세를	-14015
▁유인한	-14016
▁유죄를	-14017
▁유형의	-14018
▁유혹에	-14019
▁육아휴	-14020
▁윤상현	-14021
▁은평구	-14022
▁의도가	-14023
▁의문의	-14024
▁의심해	-14025
▁의약품	-14026
▁의지가	-14027
▁이것도	-14028
▁이동을	-14029
▁이메일	-14030
▁이명박	-14031
▁이모젠	-14032
▁이밖에	-14033
▁이용객	-14034
▁이웃집	-14035
▁이유도	-14036
▁이하로	-14037
▁이해할	-14038
▁익명의	-14039
▁인도로	-14040
▁인정될	-14041
▁인정할	-14042
▁인후통	-14043
▁일광욕	-14044
▁일당은	-14045
▁일대는	-14046
▁일반에	-14047
▁입구에	-14048
▁입었고	-14049
▁잇따른	-14050
▁자료는	-14051
▁자영업	-14052
▁자제를	-14053
▁자취를	-14054
▁작년에	-14055
▁작업과	-14056
▁작업은	-14057
▁잔혹한	-14058
▁잠적한	-14059
▁장갑차	-14060
▁장관에	-14061
▁장대호	-14062
▁장애물	-14063
▁재작년	-14064
▁재판은	-14065
▁저렴한	-14066
▁적게는	-14067
▁적발해	-14068
▁적용을	-14069
▁적용한	-14070
▁전국을	-14071
▁전보다	-14072
▁전제로	-14073
▁전주시	-14074
▁전투식	-14075
▁절차는	-14076
▁점검에	-14077
▁정도는	-14078
▁정면충	-14079
▁정부도	-14080
▁정상화	-14081
▁정체가	-14082
▁정체를	-14083
▁정황은	-14084
▁제기돼	-14085
▁제도를	-14086
▁제도적	-14087
▁조건부	-14088
▁조르고	-14089
▁조시는	-14090
▁조용히	-14091
▁조작해	-14092
▁조직적	-14093
▁죄명을	-14094
▁주간지	-14095
▁주겠다	-14096
▁주말인	-14097
▁주목을	-14098
▁주소로	-14099
▁주소지	-14100
▁주옥순	-14101
▁주유소	-14102
▁주장과	-14103
▁주지사	-14104
▁주택에	-14105
▁중으로	-14106
▁중이라	-14107
▁즐기던	-14108
▁증거는	-14109
▁증거도	-14110
▁증거물	-14111
▁지리산	-14112
▁지시에	-14113
▁지원도	-14114
▁지원할	-14115
▁지원해	-14116
▁지점을	-14117
▁지정돼	-14118
▁지켜본	-14119
▁직후인	-14120
▁진로를	-14121
▁진입이	-14122
▁진입해	-14123
▁진행해	-14124
▁질문을	-14125
▁집중할	-14126
▁집회는	-14127
▁차량도	-14128
▁차로를	-14129
▁참다못	-14130
▁참혹한	-14131
▁창문에	-14132
▁채팅방	-14133
▁처방이	-14134
▁처벌과	-14135
▁처벌법	-14136
▁처벌에	-14137
▁처분은	-14138
▁처분이	-14139
▁천막을	-14140
▁첫날인	-14141
▁청구된	-14142
▁청년은	-14143
▁청북읍	-14144
▁청산가	-14145
▁청원이	-14146
▁총학생	-14147
▁최연소	-14148
▁추정할	-14149
▁취재를	-14150
▁치료비	-14151
▁친구가	-14152
▁친모는	-14153
▁친분이	-14154
▁침수돼	-14155
▁카드를	-14156
▁카르텔	-14157
▁카지노	-14158
▁캠퍼스	-14159
▁커피를	-14160
▁켄터키	-14161
▁크루즈	-14162
▁키우던	-14163
▁태도로	-14164
▁태화강	-14165
▁택시로	-14166
▁테러로	-14167
▁테러를	-14168
▁테슬라	-14169
▁테이프	-14170
▁톨스는	-14171
▁통신사	-14172
▁통제에	-14173
▁통화를	-14174
▁투숙객	-14175
▁투자를	-14176
▁트라이	-14177
▁특보가	-14178
▁파견해	-14179
▁파란색	-14180
▁파악이	-14181
▁파주시	-14182
▁파편이	-14183
▁판매자	-14184
▁팻말을	-14185
▁퍼지는	-14186
▁페트병	-14187
▁평범한	-14188
▁포괄적	-14189
▁포인트	-14190
▁포천시	-14191
▁폭행의	-14192
▁폴란드	-14193
▁풀려났	-14194
▁프라이	-14195
▁프리랜	-14196
▁프리미	-14197
▁피하려	-14198
▁하늘로	-14199
▁하라고	-14200
▁하얀색	-14201
▁학교를	-14202
▁한국을	-14203
▁한반도	-14204
▁합의가	-14205
▁해경의	-14206
▁했다가	-14207
▁했다면	-14208
▁행사한	-14209
▁행적이	-14210
▁향하는	-14211
▁헬기가	-14212
▁현상이	-14213
▁현지인	-14214
▁혐의의	-14215
▁형제를	-14216
▁형태의	-14217
▁형평성	-14218
▁혼란을	-14219
▁화면을	-14220
▁화재와	-14221
▁화제를	-14222
▁확실한	-14223
▁환자도	-14224
▁회의에	-14225
▁효과가	-14226
▁후보를	-14227
▁훈련을	-14228
▁휴가를	-14229
▁휴가철	-14230
▁희뿌연	-14231
▁힘으로	-14232
고등학교	-14233
기술정보	-14234
려보지만	-14235
방위사령	-14236
범죄처벌	-14237
보안법을	-14238
안전보건	-14239
었는데요	-14240
오릅니다	-14241
으면서도	-14242
자입니다	-14243
저널리즘	-14244
전문매체	-14245
주의보가	-14246
증명서를	-14247
지방법원	-14248
태세검열	-14249
파트남의	-14250
하기에는	-14251
▁1967	-14252
▁1989	-14253
▁2003	-14254
▁2004	-14255
▁2006	-14256
▁가능하다	-14257
▁가로막고	-14258
▁가로세로	-14259
▁가로질러	-14260
▁가짜뉴스	-14261
▁감염자는	-14262
▁강서구의	-14263
▁개천절인	-14264
▁건네받은	-14265
▁경각심을	-14266
▁경광등을	-14267
▁경우에도	-14268
▁경주시는	-14269
▁경찰들은	-14270
▁경찰보다	-14271
▁경찰에는	-14272
▁고민하고	-14273
▁고발하고	-14274
▁고양이를	-14275
▁공무원을	-14276
▁공식적인	-14277
▁공영방송	-14278
▁공익근무	-14279
▁공중에서	-14280
▁관계장관	-14281
▁관련해서	-14282
▁관리들은	-14283
▁관리하고	-14284
▁관용차를	-14285
▁광범위한	-14286
▁교도소에	-14287
▁구마모토	-14288
▁국가수사	-14289
▁국민권익	-14290
▁국민들이	-14291
▁국제공조	-14292
▁글입니다	-14293
▁금은방에	-14294
▁기상청은	-14295
▁길고양이	-14296
▁껐습니다	-14297
▁나갑니다	-14298
▁나오기도	-14299
▁나타났다	-14300
▁난폭운전	-14301
▁남부교도	-14302
▁남성들이	-14303
▁내용으로	-14304
▁내일부터	-14305
▁넘습니다	-14306
▁넘어서는	-14307
▁넘어섰다	-14308
▁노트북과	-14309
▁논의하고	-14310
▁누군가가	-14311
▁누군가의	-14312
▁누리꾼은	-14313
▁늘어나고	-14314
▁다중이용	-14315
▁다짜고짜	-14316
▁단독주택	-14317
▁당시에는	-14318
▁당시에도	-14319
▁대상자로	-14320
▁대응하는	-14321
▁대정부질	-14322
▁대통령도	-14323
▁대표에게	-14324
▁대표이사	-14325
▁대피하지	-14326
▁대형마트	-14327
▁대화방인	-14328
▁도와달라	-14329
▁도착하는	-14330
▁독직폭행	-14331
▁돈스코이	-14332
▁돌아가지	-14333
▁동료에게	-14334
▁동안에도	-14335
▁들어가지	-14336
▁들여다볼	-14337
▁디지털포	-14338
▁떴습니다	-14339
▁마무리할	-14340
▁만들어서	-14341
▁머리카락	-14342
▁멸종위기	-14343
▁모른다고	-14344
▁모른다는	-14345
▁모텔에서	-14346
▁몰리면서	-14347
▁무함마드	-14348
▁문제점을	-14349
▁바이든은	-14350
▁받았다며	-14351
▁발령하고	-14352
▁밝혔다고	-14353
▁방역지침	-14354
▁방위사업	-14355
▁배수로를	-14356
▁벌금형에	-14357
▁범위에서	-14358
▁법적으로	-14359
▁변호사가	-14360
▁변호사와	-14361
▁변호인이	-14362
▁보도자료	-14363
▁보여주며	-14364
▁보이기도	-14365
▁보호기관	-14366
▁볼리비아	-14367
▁부산시는	-14368
▁부의함을	-14369
▁부장판사	-14370
▁부정적인	-14371
▁부정확한	-14372
▁부족하다	-14373
▁부평구의	-14374
▁부활절을	-14375
▁북측에서	-14376
▁분리수거	-14377
▁불량하다	-14378
▁불분명한	-14379
▁비난하는	-14380
▁비난하며	-14381
▁비상등을	-14382
▁비트코인	-14383
▁빠져나가	-14384
▁사건사고	-14385
▁사건에서	-14386
▁사람들에	-14387
▁사랑하는	-14388
▁사망하고	-14389
▁사무실을	-14390
▁사용하고	-14391
▁상당수는	-14392
▁상태인데	-14393
▁상파울루	-14394
▁상황이라	-14395
▁상황인데	-14396
▁새벽까지	-14397
▁생활시설	-14398
▁서비스를	-14399
▁서울서부	-14400
▁서울시에	-14401
▁선관위는	-14402
▁선수들의	-14403
▁성명에서	-14404
▁성실하게	-14405
▁소녀상이	-14406
▁소속으로	-14407
▁속출하고	-14408
▁수도권을	-14409
▁수사력을	-14410
▁수색하고	-14411
▁수행하는	-14412
▁숙박업소	-14413
▁스토크스	-14414
▁스트레스	-14415
▁승객들이	-14416
▁시간대에	-14417
▁시내버스	-14418
▁시내에서	-14419
▁시도하고	-14420
▁시작됐고	-14421
▁신고하고	-14422
▁실랑이를	-14423
▁실시하고	-14424
▁실종자가	-14425
▁써달라고	-14426
▁쏟아지는	-14427
▁쓰레기통	-14428
▁아니냐고	-14429
▁아니었던	-14430
▁아무래도	-14431
▁아셈타워	-14432
▁아직까지	-14433
▁악의적인	-14434
▁안마시술	-14435
▁안전수칙	-14436
▁안정적인	-14437
▁않았으며	-14438
▁야생동물	-14439
▁어디까지	-14440
▁엄마부대	-14441
▁업무시간	-14442
▁업체에서	-14443
▁없었는지	-14444
▁여자아이	-14445
▁연락처를	-14446
▁연방의회	-14447
▁영로대교	-14448
▁영향력을	-14449
▁예정인데	-14450
▁오늘까지	-14451
▁오전까지	-14452
▁오후에는	-14453
▁옮겨졌고	-14454
▁옮겼지만	-14455
▁외국인이	-14456
▁요양원에	-14457
▁용의자의	-14458
▁우려하는	-14459
▁운영되고	-14460
▁운영하던	-14461
▁운전하다	-14462
▁움직임이	-14463
▁원가량을	-14464
▁위반하는	-14465
▁위치추적	-14466
▁유도하는	-14467
▁유족에게	-14468
▁유통업체	-14469
▁유튜버가	-14470
▁유튜브에	-14471
▁유포하고	-14472
▁유포하는	-14473
▁유학생이	-14474
▁응급조치	-14475
▁의뢰했고	-14476
▁의료진을	-14477
▁의식불명	-14478
▁의심하고	-14479
▁이동하는	-14480
▁이름으로	-14481
▁이상이면	-14482
▁이슬람권	-14483
▁이야기는	-14484
▁이야기에	-14485
▁이춘재의	-14486
▁이행하지	-14487
▁인정하지	-14488
▁일리노이	-14489
▁일리이나	-14490
▁일어나지	-14491
▁임시국회	-14492
▁입주민의	-14493
▁있습니까	-14494
▁있었다면	-14495
▁있었으며	-14496
▁장성규가	-14497
▁장성규는	-14498
▁장항준은	-14499
▁저항하는	-14500
▁저항하며	-14501
▁적용하는	-14502
▁전세기로	-14503
▁전자발찌	-14504
▁접근금지	-14505
▁접촉자는	-14506
▁정식으로	-14507
▁정신질환	-14508
▁정인이가	-14509
▁정확하게	-14510
▁제출하지	-14511
▁제출했다	-14512
▁조사하기	-14513
▁조사했고	-14514
▁종합하면	-14515
▁준비하고	-14516
▁줄었지만	-14517
▁중심가에	-14518
▁중이어서	-14519
▁지나치게	-14520
▁지방정부	-14521
▁지스카르	-14522
▁지자체에	-14523
▁지켜보는	-14524
▁지하철을	-14525
▁직격탄을	-14526
▁진단서를	-14527
▁차단하기	-14528
▁차선에서	-14529
▁참여하지	-14530
▁찼습니다	-14531
▁처음부터	-14532
▁체육시설	-14533
▁체포되고	-14534
▁촉법소년	-14535
▁총괄하는	-14536
▁촬영물을	-14537
▁추궁하자	-14538
▁추락하는	-14539
▁출동하는	-14540
▁출입구를	-14541
▁친구들이	-14542
▁코로나에	-14543
▁콜럼버스	-14544
▁클럽에서	-14545
▁태안으로	-14546
▁터널에서	-14547
▁텍사스주	-14548
▁통합당은	-14549
▁투입됐던	-14550
▁투입되는	-14551
▁투표소를	-14552
▁투표소에	-14553
▁특별공급	-14554
▁특수단은	-14555
▁티셔츠를	-14556
▁편의점을	-14557
▁편지에는	-14558
▁평화적인	-14559
▁폐기물을	-14560
▁포함되지	-14561
▁폭행으로	-14562
▁프로야구	-14563
▁피의자를	-14564
▁피해액은	-14565
▁피해자만	-14566
▁피해자에	-14567
▁한국으로	-14568
▁할머니의	-14569
▁합동참모	-14570
▁합리적인	-14571
▁해외입국	-14572
▁현지에서	-14573
▁혐의점이	-14574
▁협박까지	-14575
▁호흡곤란	-14576
▁홈페이지	-14577
▁홍천에서	-14578
▁화염방사	-14579
▁확정하는	-14580
▁활용되고	-14581
▁회견에서	-14582
▁후보에게	-14583
▁후원금을	-14584
▁흑인들이	-14585
▁힘들었던	-14586
대책본부는	-14587
브리핑에서	-14588
의약품안전	-14589
있었습니다	-14590
▁가해자들을	-14591
▁가해자들이	-14592
▁감염보호법	-14593
▁감췄습니다	-14594
▁강화하기로	-14595
▁검찰총장은	-14596
▁경찰공무원	-14597
▁경찰관들의	-14598
▁경찰로부터	-14599
▁고등학생을	-14600
▁고발했다고	-14601
▁곳곳에서는	-14602
▁공개하라는	-14603
▁공무원들을	-14604
▁과정에서도	-14605
▁관계자들과	-14606
▁관계자에게	-14607
▁광화문광장	-14608
▁국무회의를	-14609
▁규모입니다	-14610
▁나타납니다	-14611
▁남았습니다	-14612
▁내달립니다	-14613
▁냉장고에서	-14614
▁노동자들은	-14615
▁놀이터에서	-14616
▁누군가에게	-14617
▁대대적으로	-14618
▁대법원에서	-14619
▁대북전단을	-14620
▁동래경찰서	-14621
▁들어갔다가	-14622
▁마쳤습니다	-14623
▁막혔습니다	-14624
▁메웠습니다	-14625
▁바꿨습니다	-14626
▁발견됐다고	-14627
▁버렸습니다	-14628
▁보건소에서	-14629
▁보겠습니다	-14630
▁보시다시피	-14631
▁부본부장은	-14632
▁부장판사가	-14633
▁불구속기소	-14634
▁비틀거리며	-14635
▁빚었습니다	-14636
▁빠져나가는	-14637
▁빠져나오지	-14638
▁사이에서는	-14639
▁사전투표를	-14640
▁사회적으로	-14641
▁새마을금고	-14642
▁생활계획을	-14643
▁수사기관이	-14644
▁수사본부를	-14645
▁스트레스가	-14646
▁시뮬레이션	-14647
▁시작됐는데	-14648
▁시작됐다는	-14649
▁신고했는데	-14650
▁신청했지만	-14651
▁실종됐다가	-14652
▁안조로프는	-14653
▁압수수색해	-14654
▁어렵습니다	-14655
▁어린이집에	-14656
▁어젯밤부터	-14657
▁에스코베도	-14658
▁여자아이가	-14659
▁예정이었던	-14660
▁올라왔는데	-14661
▁올랐습니다	-14662
▁요양원에서	-14663
▁요청했다고	-14664
▁우리나라에	-14665
▁운영합니다	-14666
▁위스콘신주	-14667
▁유벤투스는	-14668
▁응급조치를	-14669
▁의료진들이	-14670
▁의료행위를	-14671
▁의무적으로	-14672
▁의붓어머니	-14673
▁이뤄졌는데	-14674
▁이뤄졌다고	-14675
▁이어집니다	-14676
▁인사청문회	-14677
▁인종차별을	-14678
▁인터넷으로	-14679
▁잇따르면서	-14680
▁있었는데요	-14681
▁전화번호를	-14682
▁정체불명의	-14683
▁제외하고는	-14684
▁제한속도를	-14685
▁조치입니다	-14686
▁죄송합니다	-14687
▁주장하면서	-14688
▁주장했는데	-14689
▁주장했지만	-14690
▁중국인들이	-14691
▁중대하다고	-14692
▁중요하다고	-14693
▁지금까지는	-14694
▁지난해보다	-14695
▁지지자들은	-14696
▁지지자들의	-14697
▁진상규명을	-14698
▁진입합니다	-14699
▁집단휴진에	-14700
▁참석자들은	-14701
▁체포영장을	-14702
▁추진하기로	-14703
▁출동했지만	-14704
▁탈북민단체	-14705
▁택시기사가	-14706
▁택시기사를	-14707
▁택시기사의	-14708
▁택했습니다	-14709
▁투입됩니다	-14710
▁페이스북은	-14711
▁편의점에서	-14712
▁편의점으로	-14713
▁피고인들이	-14714
▁합동감식을	-14715
▁호소했지만	-14716
▁확진자들이	-14717
▁희생자들의	-14718
기술정보통신	-14719
▁건강보험공단	-14720
▁계속됐습니다	-14721
▁고등학생들을	-14722
▁과잉진압으로	-14723
▁국가정보원법	-14724
▁국무회의에서	-14725
▁귀가했습니다	-14726
▁급증했습니다	-14727
▁논의했습니다	-14728
▁동참했습니다	-14729
▁들이받으면서	-14730
▁렉스프레스는	-14731
▁목격했습니다	-14732
▁무산됐습니다	-14733
▁무정부주의자	-14734
▁미뤄졌습니다	-14735
▁반복했습니다	-14736
▁발령했습니다	-14737
▁보이스피싱에	-14738
▁보이스피싱을	-14739
▁부산경찰청은	-14740
▁빠져나옵니다	-14741
▁용산경찰서는	-14742
▁일으켰습니다	-14743
▁적발했습니다	-14744
▁전복됐습니다	-14745
▁전비태세검열	-14746
▁전화금융사기	-14747
▁중앙선거관리	-14748
▁진화됐습니다	-14749
▁차지했습니다	-14750
▁참석했습니다	-14751
▁트라이애슬론	-14752
▁퍼부었습니다	-14753
▁포틀랜드에서	-14754
▁행정대집행에	-14755
▁행정안전부와	-14756
▁현지시간으로	-14757
폴리머스인디아	-14758
▁국가인권위원회	-14759
▁노스캐롤라이나	-14760
▁데이터저널리즘	-14761
▁돌려보냈습니다	-14762
▁범죄단체조직죄	-14763
▁비사카파트남의	-14764
▁빠져나갔습니다	-14765
▁식품의약품안전	-14766
▁한국성폭력상담	-14767
▁경북지방경찰청은	-14768
▁과학기술정보통신	-14769
▁임시생활시설에서	-14770
▁혈중알코올농도가	-14771
▁국민연금공단에서도	-14772
▁사회관계망서비스에	-14773
▁토지거래허가구역으로	-14774
▁사우스차이나모닝포스트는	-14775
17	-14776
18	-14777
31	-14778
33	-14779
54	-14780
94	-14781
HK	-14782
th	-14783
▁X	-14784
▁h	-14785
▁s	-14786
▁굶	-14787
▁균	-14788
▁긍	-14789
▁깡	-14790
▁꼴	-14791
▁꽉	-14792
▁둥	-14793
▁람	-14794
▁롤	-14795
▁롬	-14796
▁르	-14797
▁맘	-14798
▁멧	-14799
▁밧	-14800
▁밴	-14801
▁벼	-14802
▁빵	-14803
▁뻗	-14804
▁숲	-14805
▁십	-14806
▁씌	-14807
▁옴	-14808
▁웰	-14809
▁쪼	-14810
▁챌	-14811
▁캔	-14812
▁팩	-14813
▁펠	-14814
▁헐	-14815
▁홧	-14816
가의	-14817
가정	-14818
각이	-14819
감치	-14820
거부	-14821
거주	-14822
겨져	-14823
결근	-14824
계는	-14825
계좌	-14826
곳도	-14827
공정	-14828
과이	-14829
관인	-14830
구도	-14831
국장	-14832
군인	-14833
권법	-14834
그로	-14835
극이	-14836
글을	-14837
금액	-14838
기구	-14839
기동	-14840
기물	-14841
기인	-14842
기준	-14843
길래	-14844
길로	-14845
김에	-14846
꿎은	-14847
나게	-14848
나리	-14849
남동	-14850
남용	-14851
내용	-14852
냈을	-14853
널티	-14854
넣은	-14855
네스	-14856
년도	-14857
놀이	-14858
는다	-14859
늦은	-14860
니발	-14861
니얼	-14862
닝썬	-14863
다드	-14864
다오	-14865
다페	-14866
단히	-14867
대만	-14868
대화	-14869
더맨	-14870
데타	-14871
독한	-14872
동도	-14873
동호	-14874
되게	-14875
드가	-14876
드로	-14877
드위	-14878
들지	-14879
등한	-14880
디스	-14881
라기	-14882
라섬	-14883
렀던	-14884
룻밤	-14885
리조	-14886
리크	-14887
리한	-14888
릭터	-14889
만은	-14890
망은	-14891
먹는	-14892
메룬	-14893
모집	-14894
무니	-14895
미더	-14896
미향	-14897
바를	-14898
바탕	-14899
받침	-14900
발로	-14901
발언	-14902
방울	-14903
방의	-14904
배나	-14905
버트	-14906
벤션	-14907
별한	-14908
봉사	-14909
봤다	-14910
부한	-14911
불로	-14912
뷸런	-14913
브러	-14914
사추	-14915
산지	-14916
살과	-14917
서쪽	-14918
설에	-14919
설팅	-14920
성구	-14921
세츠	-14922
세한	-14923
셔널	-14924
셔서	-14925
속이	-14926
수급	-14927
수당	-14928
수엘	-14929
수와	-14930
수용	-14931
수행	-14932
슴지	-14933
시성	-14934
시오	-14935
시청	-14936
실은	-14937
실장	-14938
싸고	-14939
아웃	-14940
야는	-14941
야당	-14942
야범	-14943
약에	-14944
양강	-14945
에겐	-14946
여름	-14947
여성	-14948
연락	-14949
연의	-14950
예트	-14951
온이	-14952
와와	-14953
용접	-14954
우며	-14955
원생	-14956
유와	-14957
율로	-14958
음과	-14959
의사	-14960
이면	-14961
인구	-14962
인조	-14963
일인	-14964
장균	-14965
장판	-14966
재로	-14967
쟁을	-14968
점에	-14969
정과	-14970
정도	-14971
정한	-14972
조원	-14973
종결	-14974
준수	-14975
중을	-14976
증금	-14977
지나	-14978
지정	-14979
진단	-14980
진의	-14981
진이	-14982
진핑	-14983
진화	-14984
질도	-14985
집트	-14986
징가	-14987
차장	-14988
차적	-14989
참여	-14990
채용	-14991
천동	-14992
천을	-14993
청장	-14994
쳐나	-14995
출석	-14996
충격	-14997
치로	-14998
칩을	-14999
카로	-15000
코니	-15001
탄절	-15002
터먼	-15003
톨릭	-15004
퇴근	-15005
퇴한	-15006
트리	-15007
티아	-15008
파를	-15009
파원	-15010
파티	-15011
포먼	-15012
플루	-15013
하냐	-15014
하놉	-15015
하시	-15016
하여	-15017
학대	-15018
한국	-15019
합한	-15020
항에	-15021
해로	-15022
해져	-15023
했단	-15024
행선	-15025
현석	-15026
호에	-15027
화칼	-15028
회관	-15029
회담	-15030
회장	-15031
후이	-15032
▁86	-15033
▁93	-15034
▁EU	-15035
▁IS	-15036
▁PM	-15037
▁가용	-15038
▁가택	-15039
▁각국	-15040
▁간판	-15041
▁갈색	-15042
▁감기	-15043
▁감상	-15044
▁감성	-15045
▁강등	-15046
▁강변	-15047
▁강압	-15048
▁개방	-15049
▁개원	-15050
▁거죠	-15051
▁거행	-15052
▁건넌	-15053
▁경인	-15054
▁계곡	-15055
▁고래	-15056
▁고물	-15057
▁고생	-15058
▁고액	-15059
▁공구	-15060
▁공약	-15061
▁공업	-15062
▁공을	-15063
▁과목	-15064
▁관공	-15065
▁관영	-15066
▁관찰	-15067
▁교권	-15068
▁교원	-15069
▁교직	-15070
▁교황	-15071
▁구단	-15072
▁구두	-15073
▁구석	-15074
▁구역	-15075
▁굳이	-15076
▁궁전	-15077
▁권역	-15078
▁그게	-15079
▁그림	-15080
▁그친	-15081
▁극히	-15082
▁근교	-15083
▁글도	-15084
▁글쓴	-15085
▁금감	-15086
▁금강	-15087
▁금남	-15088
▁금세	-15089
▁금속	-15090
▁금천	-15091
▁급습	-15092
▁긍정	-15093
▁기반	-15094
▁기숙	-15095
▁기해	-15096
▁길로	-15097
▁김모	-15098
▁김문	-15099
▁김민	-15100
▁깨달	-15101
▁꼬집	-15102
▁나눈	-15103
▁나뒹	-15104
▁나름	-15105
▁낙인	-15106
▁낚싯	-15107
▁난다	-15108
▁날씨	-15109
▁남기	-15110
▁남용	-15111
▁내란	-15112
▁내면	-15113
▁내뱉	-15114
▁내사	-15115
▁내외	-15116
▁내정	-15117
▁냈다	-15118
▁넣고	-15119
▁노이	-15120
▁논리	-15121
▁농경	-15122
▁농담	-15123
▁누나	-15124
▁누운	-15125
▁느낌	-15126
▁늘리	-15127
▁능력	-15128
▁능욕	-15129
▁니진	-15130
▁다각	-15131
▁다닐	-15132
▁다락	-15133
▁다뤘	-15134
▁다해	-15135
▁닥터	-15136
▁달할	-15137
▁담보	-15138
▁담양	-15139
▁당연	-15140
▁당혹	-15141
▁대문	-15142
▁대원	-15143
▁대조	-15144
▁덮쳐	-15145
▁도달	-15146
▁도우	-15147
▁돈도	-15148
▁돈만	-15149
▁돕고	-15150
▁동남	-15151
▁돼서	-15152
▁두렵	-15153
▁드문	-15154
▁듣게	-15155
▁듣지	-15156
▁들려	-15157
▁디자	-15158
▁따가	-15159
▁떠날	-15160
▁떠넘	-15161
▁떠밀	-15162
▁떼어	-15163
▁뜻밖	-15164
▁뜻에	-15165
▁뜻의	-15166
▁라스	-15167
▁리듬	-15168
▁리포	-15169
▁마도	-15170
▁마산	-15171
▁막말	-15172
▁막지	-15173
▁만성	-15174
▁만의	-15175
▁말리	-15176
▁말할	-15177
▁맞다	-15178
▁맞물	-15179
▁맞았	-15180
▁맞이	-15181
▁맞추	-15182
▁맡아	-15183
▁매단	-15184
▁매진	-15185
▁먹은	-15186
▁먹을	-15187
▁메릴	-15188
▁멧돼	-15189
▁면역	-15190
▁면적	-15191
▁면접	-15192
▁모독	-15193
▁모래	-15194
▁몰라	-15195
▁묘지	-15196
▁무릅	-15197
▁무분	-15198
▁무빙	-15199
▁무서	-15200
▁묶어	-15201
▁물은	-15202
▁미숙	-15203
▁미온	-15204
▁미치	-15205
▁미화	-15206
▁민사	-15207
▁밀고	-15208
▁밀항	-15209
▁밑에	-15210
▁바꾼	-15211
▁바란	-15212
▁바퀴	-15213
▁박종	-15214
▁반환	-15215
▁받으	-15216
▁발걸	-15217
▁발달	-15218
▁발주	-15219
▁발행	-15220
▁발휘	-15221
▁방글	-15222
▁방금	-15223
▁방면	-15224
▁방재	-15225
▁배당	-15226
▁백화	-15227
▁뱀에	-15228
▁번에	-15229
▁번진	-15230
▁번쩍	-15231
▁범람	-15232
▁벽에	-15233
▁별로	-15234
▁병에	-15235
▁보궐	-15236
▁보류	-15237
▁보셨	-15238
▁복사	-15239
▁복잡	-15240
▁본사	-15241
▁부순	-15242
▁부위	-15243
▁부유	-15244
▁북남	-15245
▁북미	-15246
▁분담	-15247
▁불려	-15248
▁불미	-15249
▁붉은	-15250
▁브루	-15251
▁비워	-15252
▁빈곤	-15253
▁빙빙	-15254
▁빠짐	-15255
▁빼내	-15256
▁사귀	-15257
▁사령	-15258
▁사매	-15259
▁사임	-15260
▁산성	-15261
▁산타	-15262
▁삶은	-15263
▁삼술	-15264
▁상시	-15265
▁서게	-15266
▁서던	-15267
▁서명	-15268
▁서성	-15269
▁서욱	-15270
▁선불	-15271
▁선입	-15272
▁선체	-15273
▁선행	-15274
▁설계	-15275
▁설문	-15276
▁성소	-15277
▁세금	-15278
▁세부	-15279
▁세입	-15280
▁세페	-15281
▁소득	-15282
▁소용	-15283
▁소위	-15284
▁속보	-15285
▁손녀	-15286
▁쇳덩	-15287
▁수금	-15288
▁수당	-15289
▁수라	-15290
▁수류	-15291
▁수립	-15292
▁수주	-15293
▁순차	-15294
▁숨기	-15295
▁숨질	-15296
▁쉬고	-15297
▁스피	-15298
▁승마	-15299
▁시가	-15300
▁시급	-15301
▁시선	-15302
▁시켰	-15303
▁시흥	-15304
▁신년	-15305
▁신인	-15306
▁신임	-15307
▁실장	-15308
▁실행	-15309
▁실형	-15310
▁싫어	-15311
▁심부	-15312
▁쌍방	-15313
▁써서	-15314
▁쏘는	-15315
▁쓰게	-15316
▁쓰기	-15317
▁쓰여	-15318
▁아슬	-15319
▁아질	-15320
▁아픈	-15321
▁악몽	-15322
▁악수	-15323
▁안경	-15324
▁안승	-15325
▁안의	-15326
▁안장	-15327
▁알림	-15328
▁앞장	-15329
▁애로	-15330
▁애타	-15331
▁앱과	-15332
▁앱은	-15333
▁양국	-15334
▁어쨌	-15335
▁언어	-15336
▁에이	-15337
▁연소	-15338
▁연습	-15339
▁연신	-15340
▁연희	-15341
▁열상	-15342
▁영동	-15343
▁옆집	-15344
▁예약	-15345
▁예의	-15346
▁오고	-15347
▁오기	-15348
▁오를	-15349
▁오케	-15350
▁오픈	-15351
▁옥살	-15352
▁온갖	-15353
▁와치	-15354
▁와해	-15355
▁완산	-15356
▁완성	-15357
▁왕비	-15358
▁왕정	-15359
▁외벽	-15360
▁외상	-15361
▁외장	-15362
▁욕을	-15363
▁용돈	-15364
▁우익	-15365
▁우측	-15366
▁우트	-15367
▁원료	-15368
▁위력	-15369
▁유산	-15370
▁유의	-15371
▁유착	-15372
▁유타	-15373
▁유턴	-15374
▁육성	-15375
▁윤성	-15376
▁은색	-15377
▁응징	-15378
▁의항	-15379
▁이념	-15380
▁이런	-15381
▁이륙	-15382
▁이벤	-15383
▁이순	-15384
▁이승	-15385
▁이첩	-15386
▁이체	-15387
▁인과	-15388
▁인위	-15389
▁일찌	-15390
▁일컫	-15391
▁일환	-15392
▁잃게	-15393
▁임무	-15394
▁임의	-15395
▁입감	-15396
▁입게	-15397
▁있겠	-15398
▁자기	-15399
▁자는	-15400
▁자던	-15401
▁자릿	-15402
▁자청	-15403
▁자폭	-15404
▁자필	-15405
▁작용	-15406
▁잔뜩	-15407
▁잔을	-15408
▁잠실	-15409
▁잡혔	-15410
▁장수	-15411
▁장악	-15412
▁장안	-15413
▁잦은	-15414
▁재생	-15415
▁적대	-15416
▁전당	-15417
▁전례	-15418
▁전매	-15419
▁전용	-15420
▁전지	-15421
▁전쯤	-15422
▁점유	-15423
▁정복	-15424
▁제때	-15425
▁져야	-15426
▁조율	-15427
▁조장	-15428
▁졸라	-15429
▁종이	-15430
▁죄책	-15431
▁주뉴	-15432
▁주축	-15433
▁중립	-15434
▁중소	-15435
▁중지	-15436
▁중형	-15437
▁즐긴	-15438
▁지게	-15439
▁지경	-15440
▁지니	-15441
▁지사	-15442
▁지은	-15443
▁지체	-15444
▁직선	-15445
▁직진	-15446
▁진보	-15447
▁진원	-15448
▁진출	-15449
▁진흙	-15450
▁질산	-15451
▁집과	-15452
▁집의	-15453
▁짧게	-15454
▁찢어	-15455
▁차관	-15456
▁차려	-15457
▁차올	-15458
▁차와	-15459
▁착신	-15460
▁책을	-15461
▁챌린	-15462
▁처우	-15463
▁처한	-15464
▁천만	-15465
▁철책	-15466
▁첨단	-15467
▁첩보	-15468
▁청주	-15469
▁청취	-15470
▁초동	-15471
▁초인	-15472
▁총영	-15473
▁추억	-15474
▁출장	-15475
▁충청	-15476
▁취객	-15477
▁치인	-15478
▁칠곡	-15479
▁칭찬	-15480
▁카렌	-15481
▁캠프	-15482
▁켜져	-15483
▁코끼	-15484
▁탄원	-15485
▁탐정	-15486
▁태도	-15487
▁통고	-15488
▁통장	-15489
▁퇴선	-15490
▁투척	-15491
▁특사	-15492
▁파묻	-15493
▁팬티	-15494
▁퍼트	-15495
▁페르	-15496
▁펠로	-15497
▁평생	-15498
▁포승	-15499
▁포옹	-15500
▁포위	-15501
▁포토	-15502
▁폭탄	-15503
▁푸는	-15504
▁품은	-15505
▁풍자	-15506
▁프레	-15507
▁프린	-15508
▁피어	-15509
▁피한	-15510
▁하객	-15511
▁하시	-15512
▁학보	-15513
▁한층	-15514
▁한파	-15515
▁한해	-15516
▁합류	-15517
▁항원	-15518
▁해열	-15519
▁행안	-15520
▁현상	-15521
▁현안	-15522
▁현충	-15523
▁호전	-15524
▁화백	-15525
▁화순	-15526
▁환송	-15527
▁회색	-15528
▁회피	-15529
▁훈계	-15530
▁휴게	-15531
▁흐른	-15532
가구에	-15533
거리에	-15534
검사가	-15535
견으로	-15536
공급을	-15537
공사와	-15538
공에서	-15539
관리단	-15540
교사는	-15541
급여를	-15542
기간을	-15543
기한을	-15544
까지도	-15545
까지만	-15546
나이티	-15547
는다고	-15548
단체에	-15549
더라면	-15550
됐다며	-15551
되었고	-15552
되지만	-15553
된다면	-15554
드위치	-15555
디아라	-15556
라운드	-15557
라인을	-15558
라지오	-15559
랐다고	-15560
류협력	-15561
르에서	-15562
리겠다	-15563
리조나	-15564
리콥터	-15565
마리를	-15566
마이어	-15567
만명을	-15568
명이고	-15569
물질을	-15570
물질인	-15571
미드의	-15572
바다로	-15573
받았고	-15574
받았다	-15575
베이거	-15576
변인은	-15577
병으로	-15578
보겠다	-15579
봤더니	-15580
비디오	-15581
뿐만이	-15582
사고로	-15583
사태로	-15584
사회를	-15585
산시의	-15586
석에서	-15587
세력이	-15588
소리가	-15589
소리로	-15590
스럽다	-15591
시간도	-15592
시간을	-15593
시장은	-15594
시켰고	-15595
시험을	-15596
신도시	-15597
실장은	-15598
앞에서	-15599
었더니	-15600
연합회	-15601
였는지	-15602
였으며	-15603
왔으나	-15604
웠는데	-15605
위구르	-15606
위원장	-15607
으려면	-15608
이네요	-15609
이동의	-15610
인가요	-15611
인력과	-15612
인지뢰	-15613
일에야	-15614
입니까	-15615
있다가	-15616
있었고	-15617
자동차	-15618
자들에	-15619
자로서	-15620
잖아요	-15621
장구를	-15622
재판을	-15623
적이며	-15624
적이지	-15625
점검을	-15626
정부는	-15627
졌다며	-15628
졌다면	-15629
졌으나	-15630
조치에	-15631
주간의	-15632
주기를	-15633
증상이	-15634
지도록	-15635
지법은	-15636
지역에	-15637
집행은	-15638
책으로	-15639
체계를	-15640
쳤다고	-15641
쳤다는	-15642
초소를	-15643
총장은	-15644
춥니다	-15645
카드를	-15646
텔레콤	-15647
톱으로	-15648
판사는	-15649
팔찌를	-15650
편으로	-15651
하고도	-15652
하기에	-15653
하야범	-15654
하였다	-15655
하이오	-15656
해지자	-15657
행위가	-15658
행위로	-15659
혁신처	-15660
화하는	-15661
휴게소	-15662
▁011	-15663
▁101	-15664
▁114	-15665
▁115	-15666
▁137	-15667
▁168	-15668
▁173	-15669
▁187	-15670
▁195	-15671
▁220	-15672
▁232	-15673
▁360	-15674
▁570	-15675
▁GPS	-15676
▁NBC	-15677
▁PCR	-15678
▁ROC	-15679
▁가구는	-15680
▁가로등	-15681
▁가리지	-15682
▁가석방	-15683
▁가톨릭	-15684
▁가파른	-15685
▁간격을	-15686
▁간식을	-15687
▁감찰에	-15688
▁감찰을	-15689
▁갓난아	-15690
▁갔다는	-15691
▁강도는	-15692
▁강민석	-15693
▁강행한	-15694
▁강행할	-15695
▁강훈은	-15696
▁갖추지	-15697
▁같고요	-15698
▁개선을	-15699
▁개인이	-15700
▁객관적	-15701
▁거듭된	-15702
▁거래는	-15703
▁거래한	-15704
▁거리의	-15705
▁거액을	-15706
▁거치지	-15707
▁걱정을	-15708
▁건강에	-15709
▁건데요	-15710
▁걸려온	-15711
▁걸리지	-15712
▁검거에	-15713
▁검거한	-15714
▁검거해	-15715
▁검사한	-15716
▁검역을	-15717
▁검찰도	-15718
▁검토한	-15719
▁것이란	-15720
▁게임을	-15721
▁겨냥해	-15722
▁격리병	-15723
▁견디다	-15724
▁견인차	-15725
▁경기장	-15726
▁경로로	-15727
▁경북의	-15728
▁경험을	-15729
▁경험이	-15730
▁계량기	-15731
▁계산대	-15732
▁계획이	-15733
▁고립된	-15734
▁고성을	-15735
▁고소장	-15736
▁고인은	-15737
▁고인을	-15738
▁골목을	-15739
▁곳곳의	-15740
▁곳곳이	-15741
▁공간이	-15742
▁공백을	-15743
▁공범을	-15744
▁공사에	-15745
▁공연이	-15746
▁과거에	-15747
▁관계로	-15748
▁관계에	-15749
▁관련성	-15750
▁관사를	-15751
▁광산구	-15752
▁광장에	-15753
▁광저우	-15754
▁광주의	-15755
▁괴로워	-15756
▁교사의	-15757
▁교육청	-15758
▁교인은	-15759
▁구간은	-15760
▁구상권	-15761
▁구속돼	-15762
▁구속한	-15763
▁구조돼	-15764
▁구하고	-15765
▁구호가	-15766
▁군산의	-15767
▁군에게	-15768
▁군에서	-15769
▁굴착기	-15770
▁규명에	-15771
▁규모와	-15772
▁규정된	-15773
▁규정한	-15774
▁그것도	-15775
▁그곳에	-15776
▁그랬다	-15777
▁그러한	-15778
▁그만두	-15779
▁그사이	-15780
▁그중에	-15781
▁근거를	-15782
▁금액만	-15783
▁금액이	-15784
▁급정거	-15785
▁급증한	-15786
▁기강을	-15787
▁기기에	-15788
▁기사에	-15789
▁기사의	-15790
▁기소할	-15791
▁기존에	-15792
▁기존의	-15793
▁기준이	-15794
▁긴장이	-15795
▁길목에	-15796
▁김용균	-15797
▁김원웅	-15798
▁김진태	-15799
▁깔리는	-15800
▁깨물어	-15801
▁꺼리는	-15802
▁끌어모	-15803
▁끝나고	-15804
▁나가고	-15805
▁나눠주	-15806
▁나라로	-15807
▁나서지	-15808
▁나오기	-15809
▁나이는	-15810
▁낙하산	-15811
▁난곡은	-15812
▁난관에	-15813
▁날씨가	-15814
▁날치기	-15815
▁남동구	-15816
▁났다는	-15817
▁내국인	-15818
▁내놓은	-15819
▁내려온	-15820
▁내려져	-15821
▁내렸다	-15822
▁내리자	-15823
▁내부로	-15824
▁내세워	-15825
▁넘기고	-15826
▁넘어선	-15827
▁넘었고	-15828
▁넘으면	-15829
▁노인은	-15830
▁논현동	-15831
▁놀이기	-15832
▁높이고	-15833
▁놔두고	-15834
▁누르기	-15835
▁누출이	-15836
▁느끼는	-15837
▁늘리는	-15838
▁다가온	-15839
▁다급한	-15840
▁다급히	-15841
▁다니며	-15842
▁다자녀	-15843
▁다치는	-15844
▁다툼을	-15845
▁단위로	-15846
▁달라진	-15847
▁달러를	-15848
▁달려와	-15849
▁달부터	-15850
▁당하지	-15851
▁대놓고	-15852
▁대니얼	-15853
▁대마초	-15854
▁대상에	-15855
▁대선을	-15856
▁대유행	-15857
▁대응도	-15858
▁대응해	-15859
▁대처가	-15860
▁대출을	-15861
▁대표를	-15862
▁던지고	-15863
▁덴마크	-15864
▁도로와	-15865
▁도리어	-15866
▁도시락	-15867
▁도용한	-15868
▁도피한	-15869
▁돌진한	-15870
▁동기는	-15871
▁동물을	-15872
▁동선이	-15873
▁되기도	-15874
▁된다면	-15875
▁뒷받침	-15876
▁들어보	-15877
▁들었고	-15878
▁들이마	-15879
▁등교를	-15880
▁등기가	-15881
▁등록을	-15882
▁등에게	-15883
▁따라가	-15884
▁때렸다	-15885
▁때처럼	-15886
▁떠나서	-15887
▁뛰어나	-15888
▁뜨거운	-15889
▁로버트	-15890
▁로비에	-15891
▁마련에	-15892
▁마련을	-15893
▁마련이	-15894
▁마련한	-15895
▁마을을	-15896
▁마음먹	-15897
▁마치는	-15898
▁막아서	-15899
▁만나서	-15900
▁말하고	-15901
▁맛디아	-15902
▁맡았던	-15903
▁머리가	-15904
▁먹이는	-15905
▁멈춰선	-15906
▁메르켈	-15907
▁메이슨	-15908
▁면세점	-15909
▁면허도	-15910
▁명의의	-15911
▁명칭을	-15912
▁명확한	-15913
▁모녀가	-15914
▁모세의	-15915
▁모양새	-15916
▁모양의	-15917
▁모여서	-15918
▁목사를	-15919
▁목적이	-15920
▁무단횡	-15921
▁무등록	-15922
▁무장을	-15923
▁무정차	-15924
▁무제한	-15925
▁무징가	-15926
▁무책임	-15927
▁물건은	-15928
▁물살이	-15929
▁물어본	-15930
▁물질을	-15931
▁미사를	-15932
▁밀착감	-15933
▁바로잡	-15934
▁바리케	-15935
▁박사는	-15936
▁밖에도	-15937
▁받아낸	-15938
▁받아서	-15939
▁발견될	-15940
▁발언이	-15941
▁발코니	-15942
▁밝혀져	-15943
▁방배동	-15944
▁방범용	-15945
▁방위군	-15946
▁방치돼	-15947
▁배경을	-15948
▁배달을	-15949
▁백신의	-15950
▁버닝썬	-15951
▁버섯을	-15952
▁번지는	-15953
▁벌이며	-15954
▁범칙금	-15955
▁범투본	-15956
▁법률을	-15957
▁벗어날	-15958
▁벗어났	-15959
▁변에서	-15960
▁병상을	-15961
▁병실로	-15962
▁병원과	-15963
▁병원이	-15964
▁보고서	-15965
▁보고타	-15966
▁보내야	-15967
▁보도는	-15968
▁보도와	-15969
▁보시면	-15970
▁보시죠	-15971
▁보여준	-15972
▁보였던	-15973
▁보좌관	-15974
▁보증금	-15975
▁보험사	-15976
▁복역한	-15977
▁본격화	-15978
▁봉투를	-15979
▁부근을	-15980
▁부다페	-15981
▁부당이	-15982
▁부르는	-15983
▁부리다	-15984
▁부사장	-15985
▁부시는	-15986
▁부족을	-15987
▁부족해	-15988
▁부탁해	-15989
▁북한군	-15990
▁분노를	-15991
▁분노한	-15992
▁불붙은	-15993
▁불시에	-15994
▁불출석	-15995
▁불쾌한	-15996
▁불편이	-15997
▁비난과	-15998
▁비중이	-15999
▁빼돌려	-16000
▁사격을	-16001
▁사기가	-16002
▁사기와	-16003
▁사들인	-16004
▁사랑을	-16005
▁사랑의	-16006
▁사려고	-16007
▁사문서	-16008
▁사실에	-16009
▁사안의	-16010
▁사업에	-16011
▁사업자	-16012
▁사이인	-16013
▁사장님	-16014
▁사태는	-16015
▁사회는	-16016
▁사흘째	-16017
▁산에서	-16018
▁살피지	-16019
▁상가에	-16020
▁상병이	-16021
▁상세히	-16022
▁상수도	-16023
▁상어의	-16024
▁상태의	-16025
▁상해를	-16026
▁상해와	-16027
▁상황실	-16028
▁생각도	-16029
▁생각할	-16030
▁생명도	-16031
▁생명은	-16032
▁서면을	-16033
▁서슴지	-16034
▁서울청	-16035
▁서장이	-16036
▁서해를	-16037
▁서해어	-16038
▁선박에	-16039
▁선수단	-16040
▁선수와	-16041
▁선처를	-16042
▁선출할	-16043
▁설명을	-16044
▁설비는	-16045
▁성차별	-16046
▁성탄절	-16047
▁세력을	-16048
▁세심한	-16049
▁세종시	-16050
▁소녀가	-16051
▁소년을	-16052
▁소식에	-16053
▁소재가	-16054
▁소지한	-16055
▁소환할	-16056
▁손님과	-16057
▁손님은	-16058
▁송금한	-16059
▁송병기	-16060
▁송환을	-16061
▁수개월	-16062
▁수방사	-16063
▁수색해	-16064
▁수영구	-16065
▁수용할	-16066
▁수준에	-16067
▁수집해	-16068
▁숙박업	-16069
▁순경은	-16070
▁스리랑	-16071
▁슬픔에	-16072
▁승객을	-16073
▁승무원	-16074
▁시달려	-16075
▁시선을	-16076
▁시설인	-16077
▁시신과	-16078
▁시인한	-16079
▁시점이	-16080
▁시진핑	-16081
▁시커먼	-16082
▁시키는	-16083
▁시한부	-16084
▁시험지	-16085
▁식당을	-16086
▁식약처	-16087
▁신도는	-16088
▁신발을	-16089
▁신발이	-16090
▁신변을	-16091
▁신부를	-16092
▁신체에	-16093
▁실랑이	-16094
▁실버맨	-16095
▁실시한	-16096
▁실장은	-16097
▁실체를	-16098
▁실태를	-16099
▁싶더니	-16100
▁싸움이	-16101
▁쓰라고	-16102
▁아닌가	-16103
▁아무르	-16104
▁아산의	-16105
▁아이돌	-16106
▁아직은	-16107
▁아크릴	-16108
▁악화로	-16109
▁안경을	-16110
▁않겠다	-16111
▁알려준	-16112
▁알리는	-16113
▁알선한	-16114
▁알아본	-16115
▁알아차	-16116
▁암호를	-16117
▁압수한	-16118
▁앞차를	-16119
▁애꿎은	-16120
▁애도와	-16121
▁앰뷸런	-16122
▁양손을	-16123
▁양해를	-16124
▁양현석	-16125
▁어디서	-16126
▁어르신	-16127
▁얼굴로	-16128
▁엄정한	-16129
▁업무와	-16130
▁업주가	-16131
▁없애고	-16132
▁없으나	-16133
▁없으면	-16134
▁여객기	-16135
▁여당이	-16136
▁여러분	-16137
▁역부족	-16138
▁연구소	-16139
▁연락도	-16140
▁연락한	-16141
▁연루돼	-16142
▁예정인	-16143
▁오른팔	-16144
▁온몸에	-16145
▁올라와	-16146
▁올렸던	-16147
▁외국에	-16148
▁요격미	-16149
▁요구가	-16150
▁용서를	-16151
▁우산을	-16152
▁운전사	-16153
▁운행한	-16154
▁울산의	-16155
▁울음고	-16156
▁울음을	-16157
▁원동기	-16158
▁원장을	-16159
▁원하면	-16160
▁위반에	-16161
▁위법한	-16162
▁유권자	-16163
▁유대교	-16164
▁유독가	-16165
▁유인해	-16166
▁유지할	-16167
▁유포자	-16168
▁윤미향	-16169
▁음란한	-16170
▁응급실	-16171
▁의뢰를	-16172
▁의사와	-16173
▁의심한	-16174
▁의혹은	-16175
▁이동식	-16176
▁이득을	-16177
▁이들과	-16178
▁이륜차	-16179
▁이르고	-16180
▁이별을	-16181
▁이보다	-16182
▁이사를	-16183
▁이상은	-16184
▁이상인	-16185
▁이씨의	-16186
▁이웃의	-16187
▁이자를	-16188
▁이재용	-16189
▁이집트	-16190
▁인간의	-16191
▁인권이	-16192
▁인력은	-16193
▁인물은	-16194
▁인물을	-16195
▁인물인	-16196
▁인사는	-16197
▁인질로	-16198
▁인파로	-16199
▁일기도	-16200
▁일당에	-16201
▁일들이	-16202
▁일상을	-16203
▁일으켜	-16204
▁일인지	-16205
▁일제히	-16206
▁일체의	-16207
▁일하게	-16208
▁임동호	-16209
▁임무를	-16210
▁임시로	-16211
▁입국자	-16212
▁입국할	-16213
▁입금한	-16214
▁입주한	-16215
▁있거나	-16216
▁있기는	-16217
▁있다면	-16218
▁있어도	-16219
▁있을까	-16220
▁자녀의	-16221
▁자료가	-16222
▁자정쯤	-16223
▁자치구	-16224
▁작성해	-16225
▁작업도	-16226
▁잡아끈	-16227
▁장기화	-16228
▁장난감	-16229
▁장면은	-16230
▁장비와	-16231
▁재개를	-16232
▁재개할	-16233
▁재범을	-16234
▁재산은	-16235
▁재산이	-16236
▁재선에	-16237
▁저유소	-16238
▁전망이	-16239
▁전신에	-16240
▁전염병	-16241
▁전원을	-16242
▁전인대	-16243
▁전주로	-16244
▁전주의	-16245
▁전체를	-16246
▁전파가	-16247
▁전환된	-16248
▁전환한	-16249
▁절반에	-16250
▁절반을	-16251
▁접근을	-16252
▁접종을	-16253
▁정도를	-16254
▁정도에	-16255
▁정리해	-16256
▁정무직	-16257
▁정문에	-16258
▁정보위	-16259
▁정차해	-16260
▁정하는	-16261
▁정황에	-16262
▁제습기	-16263
▁제이컵	-16264
▁제출할	-16265
▁제한된	-16266
▁제한을	-16267
▁제한한	-16268
▁제한할	-16269
▁조금만	-16270
▁조도혜	-16271
▁조사는	-16272
▁조속한	-16273
▁조용한	-16274
▁조직은	-16275
▁조치한	-16276
▁조항이	-16277
▁조회한	-16278
▁주어진	-16279
▁주장해	-16280
▁주제로	-16281
▁주체가	-16282
▁주체를	-16283
▁준다는	-16284
▁준비를	-16285
▁줄이기	-16286
▁중국어	-16287
▁중국은	-16288
▁중단된	-16289
▁중대본	-16290
▁중범죄	-16291
▁즐기는	-16292
▁증가할	-16293
▁증언을	-16294
▁지나면	-16295
▁지르고	-16296
▁지목돼	-16297
▁지문을	-16298
▁지역구	-16299
▁지우장	-16300
▁지위를	-16301
▁지적을	-16302
▁지정해	-16303
▁지키기	-16304
▁직원인	-16305
▁직장에	-16306
▁직전에	-16307
▁직후에	-16308
▁진술은	-16309
▁진열돼	-16310
▁진입을	-16311
▁진천의	-16312
▁질서를	-16313
▁집무실	-16314
▁집어던	-16315
▁집중된	-16316
▁집행을	-16317
▁징후를	-16318
▁차관이	-16319
▁차단을	-16320
▁차벽을	-16321
▁차이는	-16322
▁착수해	-16323
▁참가한	-16324
▁창원시	-16325
▁찾아간	-16326
▁찾아내	-16327
▁찾아볼	-16328
▁채무가	-16329
▁채취를	-16330
▁처리장	-16331
▁처음이	-16332
▁처해질	-16333
▁철회를	-16334
▁청년을	-16335
▁청년의	-16336
▁체포가	-16337
▁초등생	-16338
▁총력을	-16339
▁총장의	-16340
▁최우선	-16341
▁추도식	-16342
▁추돌해	-16343
▁추락한	-16344
▁추진해	-16345
▁출국한	-16346
▁출근한	-16347
▁출범을	-16348
▁출석할	-16349
▁출소할	-16350
▁출퇴근	-16351
▁충돌을	-16352
▁충돌할	-16353
▁취소한	-16354
▁취재한	-16355
▁측근인	-16356
▁치명적	-16357
▁치와와	-16358
▁친구는	-16359
▁침해할	-16360
▁카니발	-16361
▁카메룬	-16362
▁캐릭터	-16363
▁캠페인	-16364
▁커플은	-16365
▁코리아	-16366
▁쿠데타	-16367
▁탐정은	-16368
▁탑승이	-16369
▁탑승할	-16370
▁태국인	-16371
▁태도가	-16372
▁태안군	-16373
▁태풍이	-16374
▁터무니	-16375
▁터미널	-16376
▁테일러	-16377
▁토지를	-16378
▁통고를	-16379
▁통신에	-16380
▁통제된	-16381
▁통제할	-16382
▁퇴원을	-16383
▁투표에	-16384
▁트레이	-16385
▁특정이	-16386
▁특파원	-16387
▁특혜를	-16388
▁티하놉	-16389
▁파손된	-16390
▁파업을	-16391
▁파장이	-16392
▁판결이	-16393
▁판단할	-16394
▁팔당댐	-16395
▁패스트	-16396
▁퍼붓고	-16397
▁퍼포먼	-16398
▁펜션을	-16399
▁포장마	-16400
▁포천의	-16401
▁폭동이	-16402
▁폭우에	-16403
▁폴리스	-16404
▁폼페이	-16405
▁표결에	-16406
▁품으로	-16407
▁풍등을	-16408
▁피고발	-16409
▁피고소	-16410
▁피해로	-16411
▁피해액	-16412
▁필요로	-16413
▁하나둘	-16414
▁하려는	-16415
▁하룻밤	-16416
▁하이난	-16417
▁학교가	-16418
▁학교와	-16419
▁학대해	-16420
▁학생과	-16421
▁학원에	-16422
▁한국계	-16423
▁한국의	-16424
▁한글날	-16425
▁한바탕	-16426
▁한적한	-16427
▁한차례	-16428
▁합의금	-16429
▁합참의	-16430
▁항의해	-16431
▁해경과	-16432
▁해리스	-16433
▁해병대	-16434
▁해석이	-16435
▁해수부	-16436
▁핸드폰	-16437
▁했느냐	-16438
▁행렬을	-16439
▁행세를	-16440
▁행패를	-16441
▁허난성	-16442
▁협박과	-16443
▁협박성	-16444
▁협의한	-16445
▁형량이	-16446
▁호텔을	-16447
▁홀로워	-16448
▁홍보한	-16449
▁홍콩이	-16450
▁화물용	-16451
▁확보할	-16452
▁확인과	-16453
▁확인될	-16454
▁확정된	-16455
▁확진돼	-16456
▁환자로	-16457
▁활동가	-16458
▁활동한	-16459
▁황급히	-16460
▁황메이	-16461
▁회원을	-16462
▁회장과	-16463
▁회장을	-16464
▁효과를	-16465
▁후원을	-16466
▁훈련은	-16467
▁훌륭한	-16468
▁휴게소	-16469
▁흐름을	-16470
▁흔들어	-16471
▁흔적도	-16472
▁흡입해	-16473
▁흩어져	-16474
경제범죄	-16475
곳입니다	-16476
기까지는	-16477
뤘습니다	-16478
번방에서	-16479
범죄조사	-16480
보건소는	-16481
보겠다는	-16482
보호법상	-16483
분쯤부터	-16484
블록체인	-16485
사로부터	-16486
사추세츠	-16487
시스템을	-16488
안보정보	-16489
안전공사	-16490
업체에서	-16491
운전치사	-16492
이었다는	-16493
적으로는	-16494
조정관은	-16495
차로에서	-16496
천만원을	-16497
프로그램	-16498
한다면서	-16499
해수욕장	-16500
했다면서	-16501
협의회는	-16502
▁1985	-16503
▁1988	-16504
▁2001	-16505
▁2002	-16506
▁2022	-16507
▁가로수를	-16508
▁가정에서	-16509
▁감독에게	-16510
▁감식단은	-16511
▁감안하면	-16512
▁감염됐을	-16513
▁같은데요	-16514
▁객실에서	-16515
▁거래소를	-16516
▁거부권을	-16517
▁거주자는	-16518
▁걸렸다고	-16519
▁검거하는	-16520
▁검토하는	-16521
▁게시물에	-16522
▁격렬하게	-16523
▁격리되는	-16524
▁결정으로	-16525
▁겹치면서	-16526
▁경찰관에	-16527
▁경찰서는	-16528
▁계좌번호	-16529
▁계획하에	-16530
▁고발장을	-16531
▁고소했고	-16532
▁고양시의	-16533
▁고질적인	-16534
▁골목길을	-16535
▁골절상을	-16536
▁공격으로	-16537
▁공무원도	-16538
▁공소장을	-16539
▁공유하고	-16540
▁공인중개	-16541
▁공황장애	-16542
▁관계자에	-16543
▁관련성이	-16544
▁광주시민	-16545
▁교권보호	-16546
▁교도소로	-16547
▁구로사키	-16548
▁구속적부	-16549
▁구역에서	-16550
▁구조대에	-16551
▁구조대원	-16552
▁구조물이	-16553
▁구했지만	-16554
▁국무총리	-16555
▁국방기술	-16556
▁국정감사	-16557
▁귀가조치	-16558
▁규탄하는	-16559
▁그곳에서	-16560
▁글로벌호	-16561
▁기다리다	-16562
▁기대한다	-16563
▁기부금품	-16564
▁기술협력	-16565
▁기원하는	-16566
▁긴급사태	-16567
▁끌어내려	-16568
▁나가겠다	-16569
▁나갔다가	-16570
▁나발니가	-16571
▁나왔다가	-16572
▁남자아이	-16573
▁넘나들며	-16574
▁노동자와	-16575
▁니진스키	-16576
▁다릅니다	-16577
▁단독으로	-16578
▁단속하고	-16579
▁달려들어	-16580
▁달아나다	-16581
▁답답함을	-16582
▁답안지를	-16583
▁대구지역	-16584
▁대마초를	-16585
▁대비하고	-16586
▁대인지뢰	-16587
▁던집니다	-16588
▁도망가는	-16589
▁도움으로	-16590
▁도주하다	-16591
▁돌아다닌	-16592
▁돌아보고	-16593
▁동료들은	-16594
▁동행했던	-16595
▁드러났고	-16596
▁드러내지	-16597
▁들어가서	-16598
▁등에서는	-16599
▁뛰어넘는	-16600
▁라파예트	-16601
▁리얼리티	-16602
▁리원량의	-16603
▁리원량이	-16604
▁리치먼드	-16605
▁마스크는	-16606
▁마피아의	-16607
▁말입니다	-16608
▁머물러야	-16609
▁메신저로	-16610
▁멕시코가	-16611
▁명성교회	-16612
▁모스크바	-16613
▁못한다는	-16614
▁못했다며	-16615
▁못했지만	-16616
▁무너지는	-16617
▁무단결근	-16618
▁무면허로	-16619
▁무빙워크	-16620
▁무언가를	-16621
▁물었지만	-16622
▁미국인이	-16623
▁미끄러진	-16624
▁민간인이	-16625
▁밀입국을	-16626
▁박사방에	-16627
▁반대하고	-16628
▁반복되고	-16629
▁반성하는	-16630
▁발견되면	-16631
▁발견하기	-16632
▁발생하자	-16633
▁발열이나	-16634
▁밝히면서	-16635
▁방사청은	-16636
▁방위군은	-16637
▁방지하기	-16638
▁방침이며	-16639
▁방해하는	-16640
▁배치하고	-16641
▁버지니아	-16642
▁벌어졌고	-16643
▁법정형이	-16644
▁베네수엘	-16645
▁병원에는	-16646
▁보관하고	-16647
▁보관하던	-16648
▁보궐선거	-16649
▁보냈다고	-16650
▁보석으로	-16651
▁보인다는	-16652
▁보행로를	-16653
▁복귀하지	-16654
▁복지부는	-16655
▁복지시설	-16656
▁본국으로	-16657
▁부과하는	-16658
▁부러지고	-16659
▁부르면서	-16660
▁부사장은	-16661
▁부산지검	-16662
▁부상자가	-16663
▁분노하고	-16664
▁분리하는	-16665
▁분석하고	-16666
▁분위기를	-16667
▁불거지자	-16668
▁브루클린	-16669
▁브룩스는	-16670
▁비공개로	-16671
▁비관하는	-16672
▁빅토리아	-16673
▁빠짐없이	-16674
▁사라지는	-16675
▁사람들과	-16676
▁사람으로	-16677
▁사망했을	-16678
▁사생활을	-16679
▁사용했던	-16680
▁사이트가	-16681
▁사진이나	-16682
▁상관없이	-16683
▁상인들도	-16684
▁상태였고	-16685
▁상태였다	-16686
▁샌드위치	-16687
▁생각하고	-16688
▁생각하는	-16689
▁생필품을	-16690
▁생활하고	-16691
▁서대문구	-16692
▁서방파제	-16693
▁선수에게	-16694
▁설치했다	-16695
▁성폭행범	-16696
▁세계보건	-16697
▁소멸시효	-16698
▁소상공인	-16699
▁소지품이	-16700
▁손님들은	-16701
▁손수레를	-16702
▁손잡이에	-16703
▁수사하기	-16704
▁수정헌법	-16705
▁수집하고	-16706
▁술자리를	-16707
▁스탠든은	-16708
▁스파링을	-16709
▁스프레이	-16710
▁승용차로	-16711
▁승합차를	-16712
▁시간까지	-16713
▁시작했다	-16714
▁시절부터	-16715
▁시행되면	-16716
▁신고자는	-16717
▁신고하는	-16718
▁신성모독	-16719
▁신천지는	-16720
▁신호대기	-16721
▁신호등이	-16722
▁실종자는	-16723
▁실질적인	-16724
▁씨입니다	-16725
▁아니어서	-16726
▁아니었다	-16727
▁아이디로	-16728
▁아침부터	-16729
▁안내하는	-16730
▁안된다는	-16731
▁안산단원	-16732
▁안전결제	-16733
▁알려지자	-16734
▁애국순찰	-16735
▁애리조나	-16736
▁약식기소	-16737
▁어린이는	-16738
▁어제보다	-16739
▁억울하다	-16740
▁엄격하게	-16741
▁업무에서	-16742
▁없었는데	-16743
▁여기에는	-16744
▁여성들은	-16745
▁여성아동	-16746
▁연관성이	-16747
▁열어놓고	-16748
▁열어두고	-16749
▁예상보다	-16750
▁예의주시	-16751
▁오하이오	-16752
▁옥살이를	-16753
▁올려놓고	-16754
▁올렸다는	-16755
▁외교관의	-16756
▁외국으로	-16757
▁외신들이	-16758
▁외치기도	-16759
▁요청했다	-16760
▁용역업체	-16761
▁우려되는	-16762
▁우발적인	-16763
▁운영자인	-16764
▁운전사는	-16765
▁운전자에	-16766
▁위생건강	-16767
▁위원회는	-16768
▁위협하고	-16769
▁유나이티	-16770
▁유리창이	-16771
▁유심칩을	-16772
▁유언비어	-16773
▁유일하게	-16774
▁유족들이	-16775
▁유지하는	-16776
▁유흥시설	-16777
▁음성메시	-16778
▁의사들은	-16779
▁의원에게	-16780
▁이동하고	-16781
▁이뤄졌고	-16782
▁이미지를	-16783
▁이사장은	-16784
▁이상하게	-16785
▁이슬람교	-16786
▁이용하고	-16787
▁이용하던	-16788
▁이유에서	-16789
▁이후에는	-16790
▁인권위는	-16791
▁인재개발	-16792
▁일어나는	-16793
▁일으키는	-16794
▁일주일간	-16795
▁일주일이	-16796
▁일찌감치	-16797
▁있는지도	-16798
▁있었다며	-16799
▁있음에도	-16800
▁자동으로	-16801
▁자료들을	-16802
▁자율주행	-16803
▁잡았지만	-16804
▁장례식을	-16805
▁재수사가	-16806
▁재외동포	-16807
▁저지르고	-16808
▁저축은행	-16809
▁저항하다	-16810
▁적발됐고	-16811
▁적법절차	-16812
▁전까지는	-16813
▁전날까지	-16814
▁전달했다	-16815
▁전문가와	-16816
▁전반적인	-16817
▁전세기는	-16818
▁전세기를	-16819
▁전주지법	-16820
▁전환자가	-16821
▁접촉하지	-16822
▁접촉했던	-16823
▁정면으로	-16824
▁정면충돌	-16825
▁정무수석	-16826
▁정부에서	-16827
▁정인이의	-16828
▁정치자금	-16829
▁제기했고	-16830
▁제한되는	-16831
▁제한속도	-16832
▁조정하는	-16833
▁조직원은	-16834
▁조치에도	-16835
▁주거침입	-16836
▁주방위군	-16837
▁주변에는	-16838
▁주변으로	-16839
▁주상복합	-16840
▁준비하는	-16841
▁준수하지	-16842
▁중앙지검	-16843
▁중에서는	-16844
▁즉각적인	-16845
▁증가하는	-16846
▁증인으로	-16847
▁지났지만	-16848
▁지역별로	-16849
▁지원하고	-16850
▁지원하기	-16851
▁지적하는	-16852
▁지정하는	-16853
▁지하차도	-16854
▁지하철역	-16855
▁진행하는	-16856
▁차량까지	-16857
▁차량에는	-16858
▁차림으로	-16859
▁참다못한	-16860
▁처리하는	-16861
▁처참하게	-16862
▁청구했고	-16863
▁청와대는	-16864
▁초기부터	-16865
▁초인종을	-16866
▁총격사건	-16867
▁총선에서	-16868
▁총파업에	-16869
▁총회장은	-16870
▁총회장이	-16871
▁추도식은	-16872
▁추돌하는	-16873
▁추모하고	-16874
▁추정되고	-16875
▁추진하는	-16876
▁춘천지법	-16877
▁출동했던	-16878
▁출입문이	-16879
▁취소하고	-16880
▁취재진에	-16881
▁취재진은	-16882
▁측정하는	-16883
▁카운티의	-16884
▁카테라는	-16885
▁카페에서	-16886
▁커피숍을	-16887
▁콜롬비아	-16888
▁키피어피	-16889
▁타이어를	-16890
▁태안에서	-16891
▁탱크로리	-16892
▁털어놓은	-16893
▁테러조직	-16894
▁테러지원	-16895
▁통일부가	-16896
▁통합당이	-16897
▁투입하는	-16898
▁특례법상	-16899
▁파라과이	-16900
▁파악조차	-16901
▁파악하지	-16902
▁파악했다	-16903
▁판단되면	-16904
▁판단했다	-16905
▁평소보다	-16906
▁평화로운	-16907
▁포돌이와	-16908
▁폭스뉴스	-16909
▁폭행하기	-16910
▁프로축구	-16911
▁프리랜서	-16912
▁필요하기	-16913
▁하루에만	-16914
▁하산하던	-16915
▁하청업체	-16916
▁한강공원	-16917
▁한국철도	-16918
▁한인타운	-16919
▁합동조사	-16920
▁합의안에	-16921
▁항공기가	-16922
▁항공안전	-16923
▁해열제를	-16924
▁행정복지	-16925
▁행정지도	-16926
▁허벅지를	-16927
▁허위사실	-16928
▁현장투표	-16929
▁협박하고	-16930
▁형사사건	-16931
▁형사사법	-16932
▁형사합의	-16933
▁호송차에	-16934
▁홍보하고	-16935
▁확산되고	-16936
▁확진자도	-16937
▁활동하고	-16938
▁활발하게	-16939
▁휘두르며	-16940
▁힌두스탄	-16941
대책본부에	-16942
디아라비아	-16943
▁가능하다는	-16944
▁가능하지만	-16945
▁감사합니다	-16946
▁감시장비에	-16947
▁갑작스럽게	-16948
▁강제수사에	-16949
▁강제추행한	-16950
▁개천절에도	-16951
▁거리두기를	-16952
▁거부하거나	-16953
▁건넸습니다	-16954
▁경기지사는	-16955
▁고무보트가	-16956
▁고발하기로	-16957
▁고소했지만	-16958
▁고속도로에	-16959
▁고용노동부	-16960
▁고용하기로	-16961
▁공공기관이	-16962
▁공공장소에	-16963
▁공사장에서	-16964
▁공소시효가	-16965
▁공식적으로	-16966
▁관련자들의	-16967
▁관제요원의	-16968
▁광화문에서	-16969
▁교통사고도	-16970
▁구마모토현	-16971
▁국민들에게	-16972
▁국민청원이	-16973
▁국방장관이	-16974
▁군사경찰은	-16975
▁기소했다고	-16976
▁꺼냈습니다	-16977
▁나타났다고	-16978
▁내리막길을	-16979
▁놓였습니다	-16980
▁다가갑니다	-16981
▁다세대주택	-16982
▁대검찰청은	-16983
▁대도시에서	-16984
▁대한민국은	-16985
▁도시에서는	-16986
▁도주했다가	-16987
▁들어갔다고	-16988
▁들어옵니다	-16989
▁뛰었습니다	-16990
▁라스베이거	-16991
▁막아섭니다	-16992
▁맡았습니다	-16993
▁무너지면서	-16994
▁무함마드를	-16995
▁민식이법이	-16996
▁민주노총은	-16997
▁박사방에서	-16998
▁반복적으로	-16999
▁방식입니다	-17000
▁방역당국에	-17001
▁백악관에서	-17002
▁벌어졌다고	-17003
▁벌어지기도	-17004
▁범죄수익을	-17005
▁베란다에서	-17006
▁보건당국에	-17007
▁보육교사가	-17008
▁보호시설로	-17009
▁부과됩니다	-17010
▁부다페스트	-17011
▁부딪히면서	-17012
▁부산시장의	-17013
▁부족하다며	-17014
▁불법체류자	-17015
▁붙잡혔다고	-17016
▁브랜던버그	-17017
▁블랙리스트	-17018
▁블레이크가	-17019
▁비정규직의	-17020
▁사드기지에	-17021
▁사라졌는데	-17022
▁사망사고가	-17023
▁사이버수사	-17024
▁상습적으로	-17025
▁상황이었다	-17026
▁서울고검은	-17027
▁설치했다고	-17028
▁성공했다고	-17029
▁소방관들은	-17030
▁소중하다는	-17031
▁손해배상을	-17032
▁수색했지만	-17033
▁수술실에서	-17034
▁수준이었던	-17035
▁스파이더맨	-17036
▁시내버스를	-17037
▁시작했다는	-17038
▁신장위구르	-17039
▁실종됐다는	-17040
▁아동학대를	-17041
▁아르미드의	-17042
▁아수라장이	-17043
▁안전관리에	-17044
▁안전장비를	-17045
▁알려졌으며	-17046
▁약해지면서	-17047
▁양천경찰서	-17048
▁여기저기서	-17049
▁여성청소년	-17050
▁오토바이와	-17051
▁옮겨졌는데	-17052
▁요구했다고	-17053
▁요구했지만	-17054
▁용의자들을	-17055
▁우레탄폼을	-17056
▁우려됩니다	-17057
▁우리나라는	-17058
▁운전면허가	-17059
▁울산경찰청	-17060
▁원내대표가	-17061
▁유족들에게	-17062
▁유튜버들이	-17063
▁유흥업소에	-17064
▁음란사이트	-17065
▁음식점에서	-17066
▁의뢰했다고	-17067
▁의암댐에서	-17068
▁이용자들에	-17069
▁이탈리아의	-17070
▁인사혁신처	-17071
▁인적사항을	-17072
▁인정된다고	-17073
▁인천공항을	-17074
▁인터넷에서	-17075
▁일방적으로	-17076
▁일산화탄소	-17077
▁자발적으로	-17078
▁자연스럽게	-17079
▁작업장에서	-17080
▁잠금장치가	-17081
▁장소입니다	-17082
▁재산피해를	-17083
▁적절했는지	-17084
▁전기난로와	-17085
▁전화번호로	-17086
▁정도였는데	-17087
▁정도입니다	-17088
▁정류장에서	-17089
▁제곱미터를	-17090
▁조사했는데	-17091
▁조주빈과는	-17092
▁주뉴질랜드	-17093
▁주장했다고	-17094
▁주택가에서	-17095
▁중단하기로	-17096
▁지구대에서	-17097
▁지나갑니다	-17098
▁지난해에는	-17099
▁지났습니다	-17100
▁지역별로는	-17101
▁지지한다는	-17102
▁진행됩니다	-17103
▁진행하면서	-17104
▁집행유예를	-17105
▁차장검사를	-17106
▁참가자들을	-17107
▁참석자들을	-17108
▁청소년들이	-17109
▁추세입니다	-17110
▁추정된다고	-17111
▁출소합니다	-17112
▁출입명부를	-17113
▁충남교육청	-17114
▁키피어피를	-17115
▁타이완으로	-17116
▁택시기사는	-17117
▁트위터에서	-17118
▁판단입니다	-17119
▁페이스북을	-17120
▁포함됩니다	-17121
▁폭발적으로	-17122
▁프로포폴을	-17123
▁학부모들은	-17124
▁해당한다고	-17125
▁해운대구의	-17126
▁현장조사를	-17127
▁확인했는데	-17128
▁확인했다고	-17129
▁확인했지만	-17130
▁횡단보도로	-17131
▁횡단보도에	-17132
▁휴대전화와	-17133
들이었습니다	-17134
범죄조사부는	-17135
블록체인그룹	-17136
순환고속도로	-17137
지방경찰청에	-17138
특별사법경찰	-17139
▁가중처벌하는	-17140
▁강화됐습니다	-17141
▁고립됐습니다	-17142
▁고발됐습니다	-17143
▁공사현장에서	-17144
▁구급대원들이	-17145
▁내놓았습니다	-17146
▁내비쳤습니다	-17147
▁넘어졌습니다	-17148
▁다녀왔습니다	-17149
▁담겨있습니다	-17150
▁대외안보정보	-17151
▁대한민국에서	-17152
▁도착하자마자	-17153
▁동원됐습니다	-17154
▁디지털포렌식	-17155
▁로이터통신에	-17156
▁마포경찰서는	-17157
▁만들었습니다	-17158
▁문재인하야범	-17159
▁물러났습니다	-17160
▁미끄러지면서	-17161
▁밀입국자들이	-17162
▁받아들여지지	-17163
▁받아왔습니다	-17164
▁발동했습니다	-17165
▁배달됐습니다	-17166
▁배치됐습니다	-17167
▁범죄수익은닉	-17168
▁베란다에서는	-17169
▁보고했습니다	-17170
▁보호관찰관은	-17171
▁부연했습니다	-17172
▁북부경찰서에	-17173
▁북적였습니다	-17174
▁북항터널에서	-17175
▁분노했습니다	-17176
▁살해됐습니다	-17177
▁서부경찰서는	-17178
▁서울남부지법	-17179
▁서울북부지법	-17180
▁소셜미디어를	-17181
▁소셜미디어에	-17182
▁소환했습니다	-17183
▁송치됐습니다	-17184
▁수도권에서는	-17185
▁수습했습니다	-17186
▁시달렸습니다	-17187
▁쏟아냈습니다	-17188
▁아르바이트생	-17189
▁아질산나트륨	-17190
▁업무개시명령	-17191
▁엘리베이터를	-17192
▁엘리베이터에	-17193
▁오피스텔에서	-17194
▁위험운전치사	-17195
▁유출하겠다고	-17196
▁이탈리아에서	-17197
▁인계했습니다	-17198
▁자가격리자의	-17199
▁자백했습니다	-17200
▁잠적했습니다	-17201
▁장례식장에서	-17202
▁저항했습니다	-17203
▁전환했습니다	-17204
▁정보통신망법	-17205
▁정책담당관이	-17206
▁제시했습니다	-17207
▁조언했습니다	-17208
▁종암경찰서는	-17209
▁중단했습니다	-17210
▁지정했습니다	-17211
▁진단했습니다	-17212
▁집계했습니다	-17213
▁집단감염으로	-17214
▁차올랐습니다	-17215
▁참여했습니다	-17216
▁찾아냈습니다	-17217
▁찾아왔습니다	-17218
▁처벌하겠다고	-17219
▁추정됐습니다	-17220
▁추진하겠다고	-17221
▁탈옥했습니다	-17222
▁태스크포스는	-17223
▁특별수사단은	-17224
▁특별수사본부	-17225
▁특정경제범죄	-17226
▁특정했습니다	-17227
▁판시했습니다	-17228
▁판정됐습니다	-17229
▁포털사이트에	-17230
▁필리버스터에	-17231
▁학부모들에게	-17232
▁행정안전부에	-17233
▁홍수주의보가	-17234
▁확대했습니다	-17235
▁횡단보도에서	-17236
▁경기남부경찰청	-17237
▁공무원인재개발	-17238
▁단독보도입니다	-17239
▁대상이었습니다	-17240
▁더불어민주당은	-17241
▁마무리했습니다	-17242
▁말레이시아에서	-17243
▁모습이었습니다	-17244
▁사랑제일교회와	-17245
▁사우디아라비아	-17246
▁서울중앙지검은	-17247
▁서해안고속도로	-17248
▁영장실질심사에	-17249
▁인천국제공항에	-17250
▁자가격리자에게	-17251
▁정례브리핑에서	-17252
▁질병관리본부는	-17253
▁펜실베이니아주	-17254
▁데이터저널리즘팀	-17255
▁안드라프라데시주	-17256
▁전비태세검열단의	-17257
▁코로나바이러스가	-17258
▁아동보호전문기관의	-17259
▁아동보호전문기관이	-17260
▁인천국제공항공사가	-17261
▁문재인하야범국민투쟁	-17262
23	-17263
40	-17264
46	-17265
47	-17266
90	-17267
93	-17268
95	-17269
BD	-17270
CC	-17271
DF	-17272
GM	-17273
LL	-17274
NI	-17275
OO	-17276
SJ	-17277
SL	-17278
SV	-17279
tv	-17280
▁갠	-17281
▁굽	-17282
▁깼	-17283
▁꾀	-17284
▁꿰	-17285
▁낌	-17286
▁놨	-17287
▁떡	-17288
▁띠	-17289
▁렁	-17290
▁몫	-17291
▁뭄	-17292
▁뭉	-17293
▁밭	-17294
▁밸	-17295
▁벙	-17296
▁쁘	-17297
▁섹	-17298
▁셔	-17299
▁솜	-17300
▁썰	-17301
▁얀	-17302
▁얇	-17303
▁엮	-17304
▁율	-17305
▁죗	-17306
▁줍	-17307
▁쥔	-17308
▁짜	-17309
▁짝	-17310
▁촘	-17311
▁퀘	-17312
▁퀵	-17313
▁탕	-17314
▁탬	-17315
▁텃	-17316
▁펴	-17317
▁푼	-17318
▁획	-17319
▁힙	-17320
가니	-17321
가맹	-17322
가와	-17323
각한	-17324
간힘	-17325
갈아	-17326
갑질	-17327
강욱	-17328
개골	-17329
개나	-17330
개편	-17331
거든	-17332
거를	-17333
걸이	-17334
게도	-17335
견이	-17336
결된	-17337
겹게	-17338
겼다	-17339
고사	-17340
공격	-17341
공에	-17342
공장	-17343
구제	-17344
국가	-17345
귀가	-17346
규제	-17347
규칙	-17348
그가	-17349
금철	-17350
기압	-17351
꼴로	-17352
끄럽	-17353
난을	-17354
남기	-17355
내니	-17356
년생	-17357
니가	-17358
니지	-17359
다녔	-17360
다짐	-17361
당의	-17362
대천	-17363
더스	-17364
덩이	-17365
데다	-17366
데이	-17367
동굴	-17368
동형	-17369
돼서	-17370
됐기	-17371
둘이	-17372
드컵	-17373
들썩	-17374
들자	-17375
디에	-17376
딩카	-17377
라니	-17378
라주	-17379
랄리	-17380
람을	-17381
랏차	-17382
랐고	-17383
량과	-17384
량에	-17385
레인	-17386
력과	-17387
렸기	-17388
령도	-17389
로드	-17390
로만	-17391
로서	-17392
로스	-17393
록에	-17394
론을	-17395
류는	-17396
률은	-17397
률이	-17398
르다	-17399
르면	-17400
름이	-17401
리드	-17402
리섬	-17403
리즈	-17404
리프	-17405
링스	-17406
마삿	-17407
마에	-17408
막한	-17409
말릴	-17410
망에	-17411
맣게	-17412
매와	-17413
머신	-17414
먼트	-17415
멓게	-17416
면이	-17417
문제	-17418
물도	-17419
물들	-17420
물류	-17421
미와	-17422
미화	-17423
밀턴	-17424
바나	-17425
바드	-17426
바르	-17427
바지	-17428
반응	-17429
발과	-17430
발적	-17431
방향	-17432
밭교	-17433
배구	-17434
뱃길	-17435
버려	-17436
번을	-17437
번의	-17438
번이	-17439
벌리	-17440
변호	-17441
병도	-17442
부답	-17443
부동	-17444
부패	-17445
분들	-17446
분석	-17447
분여	-17448
분해	-17449
브를	-17450
쁨을	-17451
사퇴	-17452
사할	-17453
산과	-17454
살롱	-17455
살에	-17456
살의	-17457
상승	-17458
색을	-17459
설수	-17460
설이	-17461
성완	-17462
성전	-17463
세력	-17464
세트	-17465
셨다	-17466
소통	-17467
속을	-17468
수신	-17469
수출	-17470
슈미	-17471
슬렁	-17472
시라	-17473
시마	-17474
신청	-17475
신히	-17476
실명	-17477
심히	-17478
싸움	-17479
아를	-17480
아슬	-17481
아파	-17482
안과	-17483
안군	-17484
애의	-17485
얀토	-17486
얏트	-17487
어학	-17488
억원	-17489
언론	-17490
엔나	-17491
엔터	-17492
연대	-17493
연도	-17494
연성	-17495
오로	-17496
오를	-17497
오면	-17498
오브	-17499
왕리	-17500
외과	-17501
욕탕	-17502
우드	-17503
운송	-17504
워할	-17505
유관	-17506
유대	-17507
유산	-17508
유의	-17509
유포	-17510
으론	-17511
으신	-17512
음은	-17513
의와	-17514
이란	-17515
이은	-17516
인격	-17517
인식	-17518
일출	-17519
있고	-17520
자며	-17521
작이	-17522
작전	-17523
잔을	-17524
잡을	-17525
장구	-17526
장씩	-17527
장현	-17528
저자	-17529
전선	-17530
전용	-17531
정동	-17532
제보	-17533
제작	-17534
조각	-17535
조리	-17536
조의	-17537
종업	-17538
죄는	-17539
주와	-17540
죽을	-17541
줄로	-17542
중단	-17543
줬다	-17544
즈가	-17545
지부	-17546
진한	-17547
차도	-17548
찰과	-17549
채가	-17550
척을	-17551
천에	-17552
체도	-17553
체로	-17554
체적	-17555
초에	-17556
추가	-17557
츄방	-17558
측은	-17559
층은	-17560
치와	-17561
치한	-17562
치현	-17563
친타	-17564
카라	-17565
코의	-17566
퀘어	-17567
크가	-17568
키고	-17569
키는	-17570
킴이	-17571
택배	-17572
터를	-17573
턱을	-17574
텐츠	-17575
티나	-17576
팀과	-17577
파크	-17578
판결	-17579
팜은	-17580
패스	-17581
페라	-17582
편을	-17583
편의	-17584
폐쇄	-17585
폭풍	-17586
품질	-17587
프가	-17588
피트	-17589
하진	-17590
학력	-17591
학원	-17592
할까	-17593
함도	-17594
합동	-17595
해둔	-17596
헬기	-17597
협박	-17598
혜식	-17599
호진	-17600
호트	-17601
홍색	-17602
화와	-17603
화해	-17604
활동	-17605
황을	-17606
후군	-17607
휴가	-17608
히기	-17609
히자	-17610
힐은	-17611
119	-17612
960	-17613
AAS	-17614
OOP	-17615
VSN	-17616
▁05	-17617
▁91	-17618
▁98	-17619
▁BJ	-17620
▁II	-17621
▁IP	-17622
▁NC	-17623
▁US	-17624
▁WP	-17625
▁km	-17626
▁가두	-17627
▁가둬	-17628
▁가운	-17629
▁간토	-17630
▁감돌	-17631
▁감방	-17632
▁감싸	-17633
▁강구	-17634
▁강모	-17635
▁갖게	-17636
▁갖다	-17637
▁같아	-17638
▁개개	-17639
▁개에	-17640
▁객실	-17641
▁거면	-17642
▁거셌	-17643
▁거침	-17644
▁건넜	-17645
▁건립	-17646
▁검정	-17647
▁겨누	-17648
▁겪어	-17649
▁결빙	-17650
▁결여	-17651
▁결의	-17652
▁경례	-17653
▁경미	-17654
▁경선	-17655
▁경운	-17656
▁계시	-17657
▁계열	-17658
▁계통	-17659
▁고브	-17660
▁고성	-17661
▁고시	-17662
▁고작	-17663
▁고쳐	-17664
▁고흐	-17665
▁골드	-17666
▁곳의	-17667
▁공갈	-17668
▁공짜	-17669
▁공통	-17670
▁과반	-17671
▁광대	-17672
▁교반	-17673
▁교제	-17674
▁구글	-17675
▁구례	-17676
▁구리	-17677
▁구인	-17678
▁구할	-17679
▁군무	-17680
▁굳게	-17681
▁권총	-17682
▁균형	-17683
▁그건	-17684
▁그랜	-17685
▁그와	-17686
▁근육	-17687
▁글과	-17688
▁금괴	-17689
▁금이	-17690
▁급발	-17691
▁급여	-17692
▁기금	-17693
▁기내	-17694
▁기둥	-17695
▁기아	-17696
▁기어	-17697
▁기회	-17698
▁길랭	-17699
▁길어	-17700
▁김경	-17701
▁김수	-17702
▁김웅	-17703
▁깊이	-17704
▁깜박	-17705
▁깜짝	-17706
▁깨져	-17707
▁꺼낸	-17708
▁꺼져	-17709
▁꼬리	-17710
▁꼼짝	-17711
▁끊임	-17712
▁끓여	-17713
▁끼여	-17714
▁나주	-17715
▁난무	-17716
▁날에	-17717
▁날을	-17718
▁남단	-17719
▁남미	-17720
▁남방	-17721
▁납부	-17722
▁낳는	-17723
▁내릴	-17724
▁내무	-17725
▁내밀	-17726
▁내주	-17727
▁넘길	-17728
▁넣는	-17729
▁넣은	-17730
▁네가	-17731
▁노골	-17732
▁노르	-17733
▁농림	-17734
▁누드	-17735
▁뉴올	-17736
▁느낄	-17737
▁늘자	-17738
▁니스	-17739
▁니콜	-17740
▁다곤	-17741
▁다는	-17742
▁다를	-17743
▁다섯	-17744
▁다중	-17745
▁다할	-17746
▁달고	-17747
▁달에	-17748
▁당구	-17749
▁대고	-17750
▁대담	-17751
▁대도	-17752
▁대만	-17753
▁대수	-17754
▁대접	-17755
▁대필	-17756
▁더럽	-17757
▁더해	-17758
▁던지	-17759
▁덮어	-17760
▁데모	-17761
▁데우	-17762
▁데이	-17763
▁도구	-17764
▁도보	-17765
▁도울	-17766
▁돈줄	-17767
▁돌과	-17768
▁돌며	-17769
▁동굴	-17770
▁동을	-17771
▁동절	-17772
▁동호	-17773
▁돼지	-17774
▁두다	-17775
▁뒤면	-17776
▁뒤져	-17777
▁드물	-17778
▁든다	-17779
▁듣기	-17780
▁듣는	-17781
▁들렀	-17782
▁등재	-17783
▁땅에	-17784
▁때나	-17785
▁때를	-17786
▁똑같	-17787
▁뚫린	-17788
▁뜻도	-17789
▁라마	-17790
▁랜덤	-17791
▁레드	-17792
▁레푸	-17793
▁루서	-17794
▁루옹	-17795
▁마닐	-17796
▁마셔	-17797
▁마십	-17798
▁마켓	-17799
▁막힌	-17800
▁만기	-17801
▁만날	-17802
▁만져	-17803
▁만진	-17804
▁많기	-17805
▁말만	-17806
▁망명	-17807
▁망설	-17808
▁맞게	-17809
▁맞불	-17810
▁맞붙	-17811
▁매는	-17812
▁매석	-17813
▁매입	-17814
▁멀지	-17815
▁멈출	-17816
▁면죄	-17817
▁명부	-17818
▁명소	-17819
▁모금	-17820
▁모델	-17821
▁모디	-17822
▁모진	-17823
▁모형	-17824
▁몰다	-17825
▁몰두	-17826
▁몸무	-17827
▁무역	-17828
▁무자	-17829
▁무척	-17830
▁묶여	-17831
▁물고	-17832
▁뮤직	-17833
▁미수	-17834
▁밀러	-17835
▁밀수	-17836
▁바가	-17837
▁바비	-17838
▁바위	-17839
▁박스	-17840
▁밖을	-17841
▁발에	-17842
▁밝는	-17843
▁밟는	-17844
▁밟아	-17845
▁밟지	-17846
▁밤샘	-17847
▁방탄	-17848
▁배낭	-17849
▁배려	-17850
▁배운	-17851
▁배켈	-17852
▁뱉는	-17853
▁범퍼	-17854
▁법제	-17855
▁벨트	-17856
▁벽이	-17857
▁변론	-17858
▁변신	-17859
▁변한	-17860
▁병영	-17861
▁병을	-17862
▁병합	-17863
▁보디	-17864
▁보령	-17865
▁보일	-17866
▁보존	-17867
▁보충	-17868
▁복면	-17869
▁본관	-17870
▁본래	-17871
▁본안	-17872
▁봄의	-17873
▁부각	-17874
▁부임	-17875
▁부자	-17876
▁부합	-17877
▁부회	-17878
▁북동	-17879
▁북악	-17880
▁분간	-17881
▁분의	-17882
▁불시	-17883
▁불타	-17884
▁붙이	-17885
▁비자	-17886
▁비치	-17887
▁빗발	-17888
▁빼낸	-17889
▁뻔한	-17890
▁뽑혀	-17891
▁사내	-17892
▁사단	-17893
▁사명	-17894
▁사물	-17895
▁사서	-17896
▁사육	-17897
▁사자	-17898
▁사제	-17899
▁사천	-17900
▁사쿨	-17901
▁산부	-17902
▁산산	-17903
▁산악	-17904
▁산을	-17905
▁산지	-17906
▁산청	-17907
▁삼은	-17908
▁상계	-17909
▁상무	-17910
▁상반	-17911
▁상부	-17912
▁상식	-17913
▁상실	-17914
▁상응	-17915
▁상환	-17916
▁새해	-17917
▁색깔	-17918
▁선명	-17919
▁선장	-17920
▁선제	-17921
▁선착	-17922
▁선처	-17923
▁섭취	-17924
▁섰던	-17925
▁성경	-17926
▁성급	-17927
▁성분	-17928
▁성을	-17929
▁성조	-17930
▁성형	-17931
▁세법	-17932
▁섹시	-17933
▁셀카	-17934
▁셔츠	-17935
▁소실	-17936
▁소주	-17937
▁소책	-17938
▁소총	-17939
▁소파	-17940
▁속은	-17941
▁속을	-17942
▁손과	-17943
▁손이	-17944
▁솟구	-17945
▁송영	-17946
▁수강	-17947
▁수기	-17948
▁수령	-17949
▁수만	-17950
▁수의	-17951
▁수중	-17952
▁숨겼	-17953
▁숫자	-17954
▁스무	-17955
▁스캔	-17956
▁스튜	-17957
▁스펙	-17958
▁습격	-17959
▁승선	-17960
▁시계	-17961
▁시안	-17962
▁시야	-17963
▁시와	-17964
▁시중	-17965
▁신념	-17966
▁신랑	-17967
▁신일	-17968
▁신조	-17969
▁신중	-17970
▁신한	-17971
▁실외	-17972
▁심정	-17973
▁싸인	-17974
▁쏘고	-17975
▁쏘아	-17976
▁쓰촨	-17977
▁쓸려	-17978
▁씨다	-17979
▁아그	-17980
▁아꼈	-17981
▁아끼	-17982
▁아나	-17983
▁아랍	-17984
▁아랫	-17985
▁아스	-17986
▁아픔	-17987
▁안은	-17988
▁않던	-17989
▁알라	-17990
▁알레	-17991
▁알몸	-17992
▁앞세	-17993
▁액수	-17994
▁야신	-17995
▁야적	-17996
▁약한	-17997
▁양정	-17998
▁양평	-17999
▁어기	-18000
▁어길	-18001
▁어둠	-18002
▁어딘	-18003
▁어떡	-18004
▁어처	-18005
▁억압	-18006
▁얻을	-18007
▁얼어	-18008
▁엄단	-18009
▁업종	-18010
▁없지	-18011
▁여가	-18012
▁여부	-18013
▁여사	-18014
▁여주	-18015
▁역에	-18016
▁역전	-18017
▁역주	-18018
▁연맹	-18019
▁연산	-18020
▁연세	-18021
▁영광	-18022
▁영안	-18023
▁영양	-18024
▁영월	-18025
▁영유	-18026
▁옆을	-18027
▁예외	-18028
▁오간	-18029
▁오면	-18030
▁오성	-18031
▁오판	-18032
▁오한	-18033
▁옥탑	-18034
▁옷에	-18035
▁외동	-18036
▁외모	-18037
▁외무	-18038
▁욕심	-18039
▁우호	-18040
▁울려	-18041
▁울리	-18042
▁웃는	-18043
▁워커	-18044
▁원은	-18045
▁원주	-18046
▁월급	-18047
▁웡이	-18048
▁웰컴	-18049
▁위급	-18050
▁위례	-18051
▁위성	-18052
▁위중	-18053
▁위챗	-18054
▁유골	-18055
▁유괴	-18056
▁유니	-18057
▁유부	-18058
▁유용	-18059
▁윤중	-18060
▁윤태	-18061
▁응수	-18062
▁응한	-18063
▁의과	-18064
▁의자	-18065
▁의지	-18066
▁의협	-18067
▁이건	-18068
▁이더	-18069
▁이도	-18070
▁이둔	-18071
▁이때	-18072
▁이렇	-18073
▁이정	-18074
▁인국	-18075
▁인재	-18076
▁인턴	-18077
▁인형	-18078
▁일기	-18079
▁일에	-18080
▁일절	-18081
▁읽은	-18082
▁잃는	-18083
▁임산	-18084
▁입대	-18085
▁입시	-18086
▁있나	-18087
▁자갈	-18088
▁자꾸	-18089
▁자본	-18090
▁자회	-18091
▁작곡	-18092
▁잘라	-18093
▁잘린	-18094
▁잠그	-18095
▁잠이	-18096
▁잠자	-18097
▁잠잠	-18098
▁잡기	-18099
▁잡혀	-18100
▁잡힐	-18101
▁장교	-18102
▁장부	-18103
▁장재	-18104
▁재물	-18105
▁재배	-18106
▁저격	-18107
▁저런	-18108
▁저수	-18109
▁적잖	-18110
▁전가	-18111
▁전년	-18112
▁전라	-18113
▁전락	-18114
▁접안	-18115
▁정쟁	-18116
▁정찰	-18117
▁정해	-18118
▁제네	-18119
▁제법	-18120
▁조문	-18121
▁조씨	-18122
▁조타	-18123
▁존스	-18124
▁졸음	-18125
▁좁혀	-18126
▁종용	-18127
▁종일	-18128
▁좌석	-18129
▁죄인	-18130
▁주네	-18131
▁주니	-18132
▁주워	-18133
▁죽을	-18134
▁준공	-18135
▁준법	-18136
▁중점	-18137
▁줬다	-18138
▁쥐고	-18139
▁지배	-18140
▁지참	-18141
▁지킨	-18142
▁직계	-18143
▁직면	-18144
▁진지	-18145
▁집게	-18146
▁집기	-18147
▁짓고	-18148
▁쪽을	-18149
▁쫓은	-18150
▁찍게	-18151
▁차도	-18152
▁차우	-18153
▁차츰	-18154
▁착실	-18155
▁착한	-18156
▁찬반	-18157
▁찾던	-18158
▁채운	-18159
▁채증	-18160
▁채택	-18161
▁챙기	-18162
▁천명	-18163
▁청송	-18164
▁초강	-18165
▁초범	-18166
▁초선	-18167
▁촉진	-18168
▁총력	-18169
▁총장	-18170
▁최상	-18171
▁최하	-18172
▁춘성	-18173
▁출전	-18174
▁출제	-18175
▁충족	-18176
▁치는	-18177
▁치닫	-18178
▁친형	-18179
▁카일	-18180
▁칸은	-18181
▁칸의	-18182
▁칸이	-18183
▁칼럼	-18184
▁캐리	-18185
▁캠벨	-18186
▁컬리	-18187
▁컸던	-18188
▁코브	-18189
▁코인	-18190
▁코즈	-18191
▁퀘벡	-18192
▁크로	-18193
▁크림	-18194
▁키울	-18195
▁타당	-18196
▁타박	-18197
▁타워	-18198
▁태극	-18199
▁태우	-18200
▁텃밭	-18201
▁토해	-18202
▁통이	-18203
▁투계	-18204
▁특보	-18205
▁특전	-18206
▁특허	-18207
▁팀의	-18208
▁파멜	-18209
▁파산	-18210
▁파운	-18211
▁팔뚝	-18212
▁패륜	-18213
▁퍼진	-18214
▁편법	-18215
▁편이	-18216
▁편입	-18217
▁포트	-18218
▁폭도	-18219
▁폭이	-18220
▁폭죽	-18221
▁표절	-18222
▁프랜	-18223
▁플리	-18224
▁피가	-18225
▁피셔	-18226
▁피카	-18227
▁하드	-18228
▁하마	-18229
▁하소	-18230
▁하위	-18231
▁학습	-18232
[...]
