<pad>	0
<s>	0
</s>	0
<unk>	0
니다	-0
습니다	-1
▁이	-2
▁사	-3
▁있	-4
▁경	-5
▁대	-6
에서	-7
으로	-8
▁지	-9
했습니다	-10
▁수	-11
▁1	-12
▁전	-13
▁경찰	-14
▁2	-15
입니다	-16
▁보	-17
▁시	-18
▁확	-19
▁한	-20
▁가	-21
▁오	-22
▁조	-23
▁정	-24
하고	-25
▁것	-26
▁주	-27
다고	-28
▁공	-29
▁고	-30
▁있습니다	-31
▁아	-32
▁씨	-33
하는	-34
▁위	-35
▁의	-36
▁중	-37
▁부	-38
▁나	-39
▁자	-40
▁3	-41
▁신	-42
▁인	-43
▁기	-44
▁상	-45
▁관	-46
▁제	-47
▁일	-48
▁받	-49
▁서	-50
▁검	-51
▁내	-52
▁등	-53
▁지난	-54
▁않	-55
▁해	-56
▁유	-57
▁방	-58
▁발	-59
▁국	-60
▁여	-61
▁피	-62
▁어	-63
▁불	-64
▁마	-65
▁집	-66
▁구	-67
▁소	-68
▁진	-69
▁현	-70
다는	-71
됐습니다	-72
▁당	-73
까지	-74
▁확진	-75
▁A	-76
▁4	-77
▁밝	-78
▁안	-79
▁것으로	-80
▁차	-81
▁명	-82
▁없	-83
▁5	-84
는데	-85
▁추	-86
▁강	-87
들이	-88
혐의	-89
▁오늘	-90
▁그	-91
▁혐의	-92
▁원	-93
▁통	-94
▁서울	-95
▁다	-96
▁하	-97
▁수사	-98
▁교	-99
▁입	-100
합니다	-101
라고	-102
▁비	-103
▁최	-104
▁거	-105
▁피해	-106
혔습니다	-107
▁감	-108
▁도	-109
▁성	-110
▁코	-111
에게	-112
▁남	-113
부터	-114
▁조사	-115
지만	-116
면서	-117
▁경찰은	-118
▁김	-119
▁밝혔습니다	-120
▁있는	-121
▁미	-122
▁20	-123
▁선	-124
▁연	-125
로나	-126
▁코로나	-127
▁개	-128
▁만	-129
▁확진자	-130
▁말	-131
▁건	-132
▁재	-133
▁6	-134
▁계	-135
▁법	-136
▁모	-137
▁운	-138
▁예	-139
▁영	-140
▁대해	-141
▁직	-142
▁결	-143
▁뒤	-144
명이	-145
▁관련	-146
▁장	-147
▁확인	-148
▁문	-149
었습니다	-150
▁사건	-151
19	-152
▁무	-153
▁판	-154
▁대한	-155
들은	-156
▁동	-157
▁7	-158
▁행	-159
졌습니다	-160
▁10	-161
▁검찰	-162
▁처	-163
▁실	-164
▁사고	-165
▁학	-166
▁청	-167
▁알	-168
▁적	-169
▁특	-170
▁설	-171
에는	-172
▁반	-173
▁앞	-174
▁박	-175
▁들	-176
▁출	-177
▁범	-178
하기	-179
▁단	-180
▁분	-181
▁씨는	-182
▁달	-183
▁8	-184
▁취	-185
▁했습니다	-186
장을	-187
▁폭	-188
▁요	-189
▁과	-190
경찰	-191
▁보도	-192
▁우	-193
▁넘	-194
▁뉴	-195
▁민	-196
▁생	-197
▁숨	-198
▁등을	-199
▁위해	-200
운데	-201
▁상황	-202
았습니다	-203
▁광	-204
▁사람	-205
▁9	-206
▁가운데	-207
▁바	-208
▁감염	-209
▁남성	-210
▁노	-211
▁파	-212
▁두	-213
▁화	-214
▁사실	-215
▁혐의로	-216
▁접	-217
▁피해자	-218
▁벌	-219
▁발생	-220
사를	-221
적으로	-222
병원	-223
▁더	-224
하지	-225
▁업	-226
스크	-227
▁총	-228
는데요	-229
▁당시	-230
부는	-231
▁증	-232
▁올	-233
▁회	-234
들의	-235
▁시위	-236
했다고	-237
▁금	-238
▁많	-239
했다	-240
▁충	-241
하게	-242
▁열	-243
▁집회	-244
▁어제	-245
▁신고	-246
▁차량	-247
▁여성	-248
▁뉴스	-249
▁이어	-250
▁저	-251
▁후	-252
기도	-253
▁마스크	-254
▁경찰에	-255
▁못	-256
▁결과	-257
정을	-258
▁목	-259
▁현장	-260
대로	-261
▁살	-262
라는	-263
▁지역	-264
▁포	-265
자는	-266
▁의원	-267
▁참	-268
▁지금	-269
▁세	-270
적인	-271
▁구속	-272
▁같	-273
▁환	-274
▁물	-275
▁측	-276
▁들어	-277
명을	-278
▁진행	-279
▁외	-280
자가	-281
▁채	-282
▁추가	-283
▁작	-284
되는	-285
▁치	-286
▁점	-287
▁방역	-288
▁때	-289
▁음	-290
▁위반	-291
됩니다	-292
▁서울시	-293
▁경찰이	-294
장이	-295
들을	-296
▁30	-297
▁군	-298
▁배	-299
▁심	-300
▁곳	-301
▁통해	-302
▁받고	-303
에서는	-304
▁이후	-305
▁체	-306
에도	-307
▁운전	-308
▁경우	-309
통령	-310
했고	-311
▁겁	-312
▁있었	-313
격리	-314
▁문제	-315
▁투	-316
▁대통령	-317
▁내용	-318
▁불법	-319
▁정부	-320
▁부산	-321
도록	-322
▁늘	-323
▁역	-324
▁겁니다	-325
▁씨가	-326
▁할	-327
되고	-328
지고	-329
▁승	-330
▁직원	-331
서는	-332
▁대구	-333
▁확진자가	-334
다며	-335
▁병원	-336
장은	-337
▁보고	-338
▁해당	-339
▁재판	-340
▁운영	-341
▁201	-342
▁지난해	-343
▁알려	-344
▁담	-345
▁며	-346
▁새	-347
▁임	-348
▁드	-349
였습니다	-350
▁양	-351
▁발견	-352
▁영상	-353
▁걸	-354
▁매	-355
하겠	-356
▁권	-357
▁혐의를	-358
▁손	-359
▁속	-360
▁예정	-361
▁관계	-362
▁현재	-363
▁국민	-364
▁간	-365
▁최근	-366
▁초	-367
▁의혹	-368
▁하는	-369
▁지난달	-370
▁같은	-371
▁아니	-372
▁근	-373
시간	-374
▁설명	-375
▁오후	-376
사가	-377
거나	-378
▁상태	-379
▁착	-380
▁변	-381
▁아동	-382
▁필	-383
▁것이	-384
▁일부	-385
위원	-386
▁사망	-387
▁시작	-388
▁평	-389
▁제주	-390
기를	-391
▁자신	-392
▁규	-393
▁형	-394
▁하고	-395
▁트	-396
▁계속	-397
이나	-398
▁B	-399
▁조치	-400
▁돌	-401
▁본	-402
▁백	-403
▁산	-404
▁따	-405
▁송	-406
▁범죄	-407
▁11	-408
▁12	-409
났습니다	-410
▁논	-411
▁찾	-412
니까	-413
▁확산	-414
▁사회	-415
▁게	-416
▁협	-417
▁시민	-418
▁했	-419
▁미국	-420
▁호	-421
▁사이	-422
▁종	-423
▁오전	-424
▁앞서	-425
▁타	-426
▁스	-427
지는	-428
▁중국	-429
▁주장	-430
▁말했습니다	-431
▁홍	-432
▁맞	-433
▁막	-434
자를	-435
왔습니다	-436
▁합	-437
▁검사	-438
리를	-439
▁국회	-440
▁가능	-441
▁주민	-442
▁민주	-443
▁계획	-444
▁언	-445
인데	-446
▁휴	-447
▁50	-448
▁않은	-449
▁19	-450
▁받은	-451
▁되	-452
▁붙	-453
▁15	-454
▁40	-455
▁있다고	-456
▁허	-457
▁씨의	-458
▁약	-459
▁기소	-460
▁절	-461
▁과정	-462
▁관련해	-463
▁파악	-464
무원	-465
▁공개	-466
▁번	-467
명은	-468
라며	-469
시는	-470
▁없는	-471
▁광주	-472
▁대상	-473
국은	-474
▁않았	-475
▁북	-476
▁취재	-477
▁누	-478
리는	-479
▁명이	-480
▁입니다	-481
▁용	-482
▁천	-483
해야	-484
▁표	-485
렸습니다	-486
▁윤	-487
시설	-488
▁이용	-489
▁버	-490
▁온	-491
▁도로	-492
▁씨를	-493
▁폐	-494
에서도	-495
▁우려	-496
▁경기도	-497
▁수사를	-498
▁안전	-499
▁판정을	-500
▁고발	-501
▁받아	-502
▁C	-503
▁쓰	-504
▁관리	-505
▁이에	-506
▁설명했습니다	-507
▁소방	-508
▁어린	-509
▁이유	-510
▁데	-511
▁항	-512
▁작업	-513
▁합니다	-514
▁국가	-515
▁압	-516
▁선거	-517
들에게	-518
하기로	-519
렇게	-520
▁몰	-521
지를	-522
하며	-523
▁다시	-524
▁요구	-525
▁전국	-526
▁필요	-527
▁행정	-528
▁는	-529
▁방문	-530
▁않고	-531
▁위한	-532
이라고	-533
▁프	-534
단체	-535
▁체포	-536
▁식	-537
▁높	-538
▁드러	-539
▁범행	-540
▁난	-541
그램	-542
▁자가	-543
▁학생	-544
▁한국	-545
사는	-546
천지	-547
▁설치	-548
▁등의	-549
인이	-550
▁태	-551
위원회	-552
상을	-553
위를	-554
장의	-555
경찰청	-556
하면서	-557
▁된	-558
도로	-559
▁끝	-560
원이	-561
▁인근	-562
▁징	-563
▁전해	-564
▁직접	-565
했던	-566
▁있어	-567
▁특히	-568
▁철	-569
처럼	-570
▁판단	-571
▁나오	-572
▁공무원	-573
▁업무	-574
▁어린이	-575
수사	-576
▁금지	-577
▁교회	-578
으며	-579
▁숨진	-580
범죄	-581
▁진술	-582
▁처벌	-583
했지만	-584
▁긴	-585
센터	-586
▁지적	-587
하다	-588
▁정보	-589
▁확보	-590
▁줄	-591
기로	-592
▁접촉	-593
▁사용	-594
▁질	-595
▁가족	-596
▁있던	-597
자의	-598
▁활	-599
▁침	-600
원을	-601
▁단속	-602
료를	-603
▁요청	-604
▁보도합니다	-605
▁밀	-606
▁카	-607
▁크	-608
▁만에	-609
▁포함	-610
▁건물	-611
▁라고	-612
▁시간	-613
▁대응	-614
는지	-615
명의	-616
▁여러	-617
▁돈	-618
대가	-619
럼프	-620
▁붙잡	-621
▁이를	-622
명으로	-623
▁책	-624
▁자가격리	-625
▁보이	-626
▁한편	-627
▁시설	-628
▁이라고	-629
성이	-630
▁준	-631
▁보건	-632
▁후보	-633
했다는	-634
▁순	-635
보다	-636
▁트럼프	-637
에선	-638
추행	-639
▁확인됐습니다	-640
▁복	-641
리가	-642
▁생각	-643
▁업체	-644
▁엄	-645
▁신청	-646
▁신천지	-647
▁사례	-648
▁폭행	-649
겠습니다	-650
▁받았습니다	-651
▁적발	-652
▁과정에서	-653
▁밤	-654
▁남성이	-655
▁올해	-656
▁음주	-657
▁것을	-658
▁등에	-659
▁예정입니다	-660
인을	-661
▁홍콩	-662
▁S	-663
▁급	-664
기관	-665
원은	-666
▁수도	-667
▁경찰관	-668
▁날	-669
지방	-670
교회	-671
▁격리	-672
하겠다고	-673
▁거리	-674
▁고소	-675
▁받았	-676
▁검찰에	-677
▁18	-678
▁강화	-679
▁대표	-680
▁민주당	-681
▁토	-682
업체	-683
▁하루	-684
▁화재	-685
TV	-686
되지	-687
상이	-688
지역	-689
▁알려졌습니다	-690
기가	-691
▁결정	-692
▁않았습니다	-693
▁인천	-694
▁마스크를	-695
부를	-696
▁큰	-697
▁많은	-698
▁가장	-699
▁원을	-700
▁경찰과	-701
▁압수	-702
▁있고	-703
▁학교	-704
▁조사를	-705
▁친	-706
조사	-707
하면	-708
▁구조	-709
▁않는	-710
▁창	-711
▁경기	-712
▁때문	-713
▁처음	-714
▁정도	-715
▁이렇게	-716
▁잠	-717
물을	-718
▁13	-719
▁변호	-720
▁사업	-721
▁아직	-722
▁것은	-723
▁증거	-724
▁지원	-725
▁행위	-726
▁면	-727
▁이른	-728
▁구속영	-729
▁버스	-730
▁60	-731
▁연결	-732
이고	-733
▁있었습니다	-734
▁0	-735
이었	-736
▁발생한	-737
▁빠	-738
▁잘	-739
▁14	-740
▁17	-741
▁벌어	-742
▁측은	-743
▁먼	-744
학생	-745
▁25	-746
▁가해	-747
▁개정	-748
기에	-749
▁논란	-750
▁책임	-751
리고	-752
▁적용	-753
▁휴대	-754
▁인터	-755
▁장관	-756
▁추정	-757
▁사실을	-758
▁야	-759
▁교육	-760
▁골	-761
▁선고	-762
▁집단	-763
▁특별	-764
▁독	-765
▁전문	-766
▁제기	-767
이었습니다	-768
금을	-769
▁지하	-770
▁청와	-771
다가	-772
▁전화	-773
▁검사를	-774
▁탈	-775
도를	-776
식을	-777
▁먼저	-778
장에	-779
▁없이	-780
▁인정	-781
▁70	-782
▁위험	-783
하던	-784
▁나섰	-785
▁정치	-786
▁통제	-787
▁경찰의	-788
▁성추행	-789
▁방침	-790
▁시행	-791
▁이미	-792
▁옮	-793
르면	-794
▁아이	-795
▁이뤄	-796
개월	-797
인은	-798
해서	-799
▁새벽	-800
▁언론	-801
▁의심	-802
▁김경	-803
전화	-804
촬영	-805
학교	-806
▁주변	-807
머니	-808
의를	-809
주시	-810
▁국내	-811
▁입건	-812
▁접수	-813
▁계획입니다	-814
▁차례	-815
▁환자	-816
▁이들은	-817
▁농	-818
▁잡	-819
원에	-820
파트	-821
▁CC	-822
일부터	-823
▁분석	-824
▁판매	-825
▁CCTV	-826
▁커	-827
사고	-828
▁안녕	-829
▁사고가	-830
▁이른바	-831
▁텔	-832
성을	-833
▁집중	-834
▁텔레	-835
▁은	-836
▁부분	-837
▁성폭	-838
▁학대	-839
▁현지	-840
▁개인	-841
▁나타	-842
▁보호	-843
▁소속	-844
▁안녕하	-845
▁텔레그램	-846
▁완	-847
분쯤	-848
▁교통	-849
▁모습	-850
▁청와대	-851
▁노동	-852
▁아파트	-853
▁첫	-854
▁16	-855
▁확진자는	-856
▁휴대전화	-857
부분	-858
▁서울시는	-859
▁머	-860
▁이야	-861
▁검찰은	-862
▁있다는	-863
라인	-864
소를	-865
안을	-866
▁참석	-867
▁촬영	-868
▁아니라	-869
주의	-870
▁발표	-871
▁이번	-872
▁사건을	-873
▁생활	-874
▁보입니다	-875
바이	-876
▁제출	-877
▁찾아	-878
▁지금까지	-879
▁됐	-880
▁울	-881
▁불이	-882
▁자치	-883
력을	-884
령을	-885
서를	-886
▁등으로	-887
들과	-888
▁등이	-889
▁많이	-890
▁모든	-891
▁실종	-892
동을	-893
▁송치	-894
▁피의	-895
화문	-896
▁떨	-897
▁잇	-898
본부	-899
▁비판	-900
▁어려	-901
인데요	-902
▁병	-903
▁그러	-904
▁형사	-905
▁편	-906
▁그런	-907
▁만큼	-908
▁사태	-909
▁실제	-910
▁대부분	-911
보호	-912
▁경찰청	-913
▁자신의	-914
▁나왔습니다	-915
▁보도입니다	-916
▁검토	-917
당국은	-918
▁김경래	-919
▁사실이	-920
용차	-921
▁북한	-922
▁하지	-923
▁제대로	-924
권을	-925
원의	-926
한다	-927
▁수색	-928
▁최대	-929
데요	-930
▁내려	-931
▁일어	-932
▁따르면	-933
▁연락	-934
▁의견	-935
▁광화문	-936
시쯤	-937
▁긴급	-938
▁추가로	-939
▁별	-940
▁술	-941
계를	-942
▁마련	-943
▁박사	-944
▁국민의	-945
▁주장했습니다	-946
단을	-947
들에	-948
▁24	-949
▁법무	-950
▁사회적	-951
▁글	-952
▁흑	-953
▁강조	-954
▁처리	-955
백여	-956
관리	-957
▁만들	-958
장에서	-959
▁택	-960
▁점검	-961
▁출동	-962
지방경찰청	-963
▁전했습니다	-964
▁기간	-965
▁징역	-966
자들이	-967
▁갑	-968
▁길	-969
수색	-970
▁승용차	-971
▁피해를	-972
천만	-973
▁돈을	-974
대를	-975
사의	-976
자로	-977
▁21	-978
금지	-979
됐고	-980
선을	-981
▁검거	-982
▁사진	-983
▁신규	-984
▁의료	-985
명에	-986
▁경남	-987
▁있는데요	-988
정보	-989
차례	-990
▁그렇	-991
▁단체	-992
▁이제	-993
▁집회를	-994
▁압수수색	-995
도는	-996
들도	-997
▁당국	-998
▁시장	-999
▁대해서는	-1000
도가	-1001
서도	-1002
식이	-1003
하거나	-1004
▁정부는	-1005
▁눈	-1006
▁기록	-1007
▁떨어	-1008
▁사기	-1009
▁200	-1010
▁조사하고	-1011
▁될	-1012
안전	-1013
▁대화	-1014
구의	-1015
▁나온	-1016
▁넘겨	-1017
▁대전	-1018
▁상당	-1019
번방	-1020
씨는	-1021
▁교민	-1022
▁전체	-1023
▁중앙	-1024
▁숨졌습니다	-1025
▁퇴	-1026
세요	-1027
▁경북	-1028
▁정확	-1029
▁사람이	-1030
▁없었	-1031
▁유포	-1032
▁이상	-1033
▁관계자는	-1034
▁힘	-1035
기는	-1036
▁늘어	-1037
▁있을	-1038
▁흑인	-1039
▁수사에	-1040
▁때문입니다	-1041
▁삼	-1042
▁근무	-1043
▁이동	-1044
▁2018	-1045
▁또	-1046
주빈	-1047
▁강원	-1048
▁없다	-1049
▁절차	-1050
▁중인	-1051
▁조주빈	-1052
▁강제	-1053
▁아닌	-1054
▁향	-1055
▁경비	-1056
했는데	-1057
▁촉	-1058
까요	-1059
▁규모	-1060
▁사랑	-1061
▁예방	-1062
▁옮겨	-1063
▁착용	-1064
▁박사방	-1065
▁사건이	-1066
▁귀	-1067
▁메	-1068
▁클	-1069
▁대책	-1070
▁타고	-1071
▁투입	-1072
곳에서	-1073
▁황	-1074
으면	-1075
▁교수	-1076
▁보면	-1077
▁충북	-1078
▁참여	-1079
▁청구	-1080
▁해경	-1081
▁온라인	-1082
▁갈	-1083
▁맡	-1084
규모	-1085
부가	-1086
▁내용을	-1087
▁됐습니다	-1088
▁드러났습니다	-1089
▁디	-1090
▁애	-1091
업을	-1092
중앙	-1093
지가	-1094
지법	-1095
▁돌아	-1096
▁잇따	-1097
▁폭력	-1098
▁앞으로	-1099
▁답	-1100
문을	-1101
▁않아	-1102
▁진단	-1103
단계	-1104
▁넘어	-1105
▁명의	-1106
▁바이	-1107
겠다고	-1108
겼습니다	-1109
▁응	-1110
로부터	-1111
▁인터넷	-1112
▁놓	-1113
▁라	-1114
▁워	-1115
자에	-1116
훼손	-1117
▁입장	-1118
▁프로	-1119
▁전해졌습니다	-1120
▁기준	-1121
▁출입	-1122
명과	-1123
인의	-1124
▁격	-1125
일까지	-1126
쳤습니다	-1127
▁거래	-1128
▁유흥	-1129
▁정부가	-1130
▁떠	-1131
라도	-1132
▁받는	-1133
▁신도	-1134
▁주요	-1135
▁얼	-1136
지검	-1137
씨가	-1138
▁공사	-1139
▁공수	-1140
▁중심	-1141
▁크게	-1142
▁합동	-1143
동안	-1144
▁여부를	-1145
▁구속영장을	-1146
자와	-1147
제일	-1148
▁100	-1149
▁공수처	-1150
제일교회	-1151
▁나섰습니다	-1152
르고	-1153
▁제한	-1154
▁현장에서	-1155
비를	-1156
사건	-1157
▁대북	-1158
▁조직	-1159
▁처분	-1160
되면서	-1161
▁검찰이	-1162
소년	-1163
장과	-1164
천여	-1165
▁내부	-1166
▁올라	-1167
▁일이	-1168
▁지방	-1169
▁허위	-1170
냈습니다	-1171
▁방침입니다	-1172
러스	-1173
▁가짜	-1174
▁입국	-1175
▁지지	-1176
▁추진	-1177
▁호소	-1178
하도록	-1179
▁아동학	-1180
▁있는데	-1181
갔습니다	-1182
사에	-1183
▁투표	-1184
▁성범죄	-1185
경찰서는	-1186
▁중입니다	-1187
▁사랑제일교회	-1188
당국	-1189
▁희	-1190
하려	-1191
▁28	-1192
▁거부	-1193
▁담당	-1194
▁지나	-1195
▁해외	-1196
립니다	-1197
받은	-1198
▁역시	-1199
▁착취	-1200
지면서	-1201
▁병원으로	-1202
▁지시	-1203
▁폭발	-1204
▁봉	-1205
가는	-1206
건을	-1207
▁반대	-1208
▁어렵	-1209
▁추적	-1210
원에서	-1211
▁문제가	-1212
NS	-1213
하자	-1214
▁명을	-1215
▁재판부는	-1216
▁극	-1217
▁베	-1218
착취	-1219
치를	-1220
▁공소	-1221
▁내일	-1222
▁인사	-1223
▁통과	-1224
월부터	-1225
▁사고를	-1226
▁시위대	-1227
지털	-1228
▁거주	-1229
▁보안	-1230
▁디지털	-1231
▁입장을	-1232
▁도착	-1233
▁자체	-1234
습니까	-1235
▁씨에게	-1236
▁끊	-1237
▁낮	-1238
▁들이	-1239
▁자유	-1240
▁중단	-1241
▁폐쇄	-1242
하기도	-1243
▁됩니다	-1244
▁상황이	-1245
▁23	-1246
▁면서	-1247
▁사무	-1248
▁이름	-1249
▁일본	-1250
▁취재진	-1251
▁브	-1252
회의	-1253
▁나머	-1254
▁몸	-1255
▁월	-1256
번째	-1257
지지	-1258
태훈	-1259
▁29	-1260
▁나와	-1261
▁유통	-1262
▁임시	-1263
▁한다	-1264
▁SNS	-1265
▁논란이	-1266
▁오태훈	-1267
▁있지만	-1268
▁22	-1269
▁부인	-1270
하다고	-1271
▁나머지	-1272
▁이유로	-1273
▁정확한	-1274
▁늘었습니다	-1275
민주	-1276
소에	-1277
▁넘는	-1278
▁유출	-1279
▁집합	-1280
▁택시	-1281
됐다고	-1282
▁대규모	-1283
▁상대로	-1284
▁시위가	-1285
▁의혹을	-1286
▁27	-1287
▁가까	-1288
▁우한	-1289
▁일반	-1290
▁하나	-1291
한다고	-1292
▁성착취	-1293
교통	-1294
▁경제	-1295
▁시신	-1296
▁역학	-1297
▁이와	-1298
▁입원	-1299
▁적극	-1300
▁충돌	-1301
▁클럽	-1302
▁조치를	-1303
▁가능성이	-1304
▁서울중앙	-1305
▁플	-1306
▁강력	-1307
▁주말	-1308
보겠습니다	-1309
▁오는	-1310
옵니다	-1311
▁없다고	-1312
▁대상으로	-1313
▁항의	-1314
▁했다	-1315
▁협박	-1316
▁재판에	-1317
▁강조했습니다	-1318
▁n	-1319
▁덧	-1320
▁키	-1321
시아	-1322
운전	-1323
이지	-1324
▁음성	-1325
▁이하	-1326
▁딸	-1327
▁탄	-1328
▁터	-1329
▁기관	-1330
▁비서	-1331
▁살해	-1332
▁의뢰	-1333
▁집행	-1334
▁촉구	-1335
▁충남	-1336
▁특정	-1337
▁신고를	-1338
▁있도록	-1339
밖에	-1340
시가	-1341
▁국정	-1342
▁막기	-1343
▁법률	-1344
▁예배	-1345
▁전북	-1346
▁피고	-1347
▁감염병	-1348
▁영상을	-1349
▁악	-1350
▁공유	-1351
▁규정	-1352
▁주택	-1353
▁취소	-1354
한다는	-1355
▁있었던	-1356
▁빌	-1357
싱턴	-1358
이드	-1359
▁덧붙	-1360
▁말씀	-1361
▁새로	-1362
▁의무	-1363
▁차단	-1364
▁수도권	-1365
▁워싱턴	-1366
▁대해서도	-1367
▁아동학대	-1368
▁잃	-1369
▁죽	-1370
▁테	-1371
▁흉	-1372
겠다	-1373
▁대형	-1374
▁법안	-1375
▁살인	-1376
▁착수	-1377
▁우려가	-1378
▁의원은	-1379
▁취재했습니다	-1380
▁달아	-1381
▁소식	-1382
▁국민의힘	-1383
▁중심으로	-1384
▁너	-1385
▁빼	-1386
사와	-1387
▁나왔	-1388
▁씨에	-1389
▁유족	-1390
▁인권	-1391
▁해야	-1392
▁관계자	-1393
▁상황을	-1394
▁내렸습니다	-1395
▁보내	-1396
▁이틀	-1397
▁당국은	-1398
▁어린이집	-1399
▁안녕하세요	-1400
▁덧붙였습니다	-1401
▁보도했습니다	-1402
▁쉽	-1403
대표	-1404
더니	-1405
마다	-1406
청은	-1407
▁나서	-1408
▁수준	-1409
▁심각	-1410
▁예상	-1411
▁이날	-1412
▁출석	-1413
▁확대	-1414
▁운전자	-1415
명입니다	-1416
합당	-1417
▁승객	-1418
▁실시	-1419
▁법무부	-1420
지로	-1421
▁고려	-1422
▁사과	-1423
▁사전	-1424
▁시험	-1425
▁훼손	-1426
십니까	-1427
▁치료를	-1428
▁갖	-1429
▁뿐	-1430
랑스	-1431
자체	-1432
지원	-1433
▁누적	-1434
▁남성은	-1435
▁겪	-1436
▁챙	-1437
르는	-1438
▁넘게	-1439
▁최소	-1440
등학교	-1441
하다는	-1442
▁볼	-1443
제를	-1444
▁박원	-1445
▁부모	-1446
▁요양	-1447
▁이게	-1448
▁정황	-1449
▁그러면서	-1450
▁대통령이	-1451
▁붙잡혔습니다	-1452
▁낸	-1453
▁퍼	-1454
▁80	-1455
▁뉴욕	-1456
▁방송	-1457
▁번째	-1458
▁살펴	-1459
▁울산	-1460
▁유지	-1461
▁준비	-1462
▁해양	-1463
소에서	-1464
▁만들어	-1465
▁프랑스	-1466
자기	-1467
▁도심	-1468
▁마약	-1469
▁얼굴	-1470
▁치료	-1471
달라고	-1472
▁개정안	-1473
▁전문가	-1474
▁지자체	-1475
▁횡	-1476
가족	-1477
됐다	-1478
수가	-1479
아요	-1480
▁기존	-1481
▁씨와	-1482
▁외국	-1483
▁자세	-1484
▁활동	-1485
사에서	-1486
▁갑자기	-1487
▁범행을	-1488
했는데요	-1489
대책	-1490
▁근로	-1491
▁마을	-1492
▁밝혀	-1493
▁벌금	-1494
▁없어	-1495
▁플로	-1496
▁사이트	-1497
▁현장에	-1498
▁돼	-1499
▁팔	-1500
동산	-1501
▁걸쳐	-1502
▁목소	-1503
▁신상	-1504
▁제공	-1505
이라는	-1506
▁사례가	-1507
▁포함해	-1508
▁환자가	-1509
▁없습니다	-1510
▁발견됐습니다	-1511
▁리	-1512
고요	-1513
리아	-1514
스템	-1515
차로	-1516
▁살포	-1517
▁알고	-1518
▁용의	-1519
▁이들	-1520
▁감염이	-1521
▁피의자	-1522
▁싶	-1523
장실	-1524
▁동원	-1525
▁되는	-1526
▁통화	-1527
▁성폭행	-1528
▁지적했습니다	-1529
▁얘	-1530
가를	-1531
구역	-1532
법을	-1533
움을	-1534
이는	-1535
호를	-1536
▁반발	-1537
▁비상	-1538
▁시내	-1539
▁지켜	-1540
▁채용	-1541
▁최고	-1542
▁회견	-1543
▁박원순	-1544
▁청소년	-1545
▁석	-1546
▁좋	-1547
백만	-1548
불어	-1549
품을	-1550
▁보험	-1551
▁비롯	-1552
▁안에	-1553
▁외부	-1554
▁지정	-1555
▁더불어	-1556
▁여성이	-1557
▁피해가	-1558
▁한다고	-1559
▁2017	-1560
▁축	-1561
성년	-1562
실을	-1563
원과	-1564
칙을	-1565
▁나가	-1566
▁라는	-1567
▁민간	-1568
▁불안	-1569
▁언급	-1570
▁이사	-1571
▁그동안	-1572
▁미성년	-1573
▁사람은	-1574
두고	-1575
위는	-1576
이어	-1577
▁26	-1578
▁건강	-1579
▁공공	-1580
▁구성	-1581
▁논의	-1582
▁라며	-1583
▁무단	-1584
▁알아	-1585
▁저녁	-1586
▁제작	-1587
▁집계	-1588
됐지만	-1589
민주당	-1590
▁사고로	-1591
▁차량을	-1592
▁교통사고	-1593
▁않습니다	-1594
▁음주운전	-1595
공항	-1596
관계	-1597
관은	-1598
점을	-1599
▁국방	-1600
▁아버	-1601
▁열린	-1602
▁자료	-1603
▁지급	-1604
▁참가	-1605
▁발견된	-1606
▁대통령은	-1607
교육	-1608
▁골프	-1609
▁관광	-1610
▁대비	-1611
▁강원도	-1612
▁거리두	-1613
▁있다며	-1614
력이	-1615
리스	-1616
버스	-1617
선거	-1618
시장	-1619
▁밝혔	-1620
▁전남	-1621
▁환경	-1622
경찰서	-1623
▁나오고	-1624
▁부동산	-1625
▁작업을	-1626
▁차량이	-1627
▁피해자가	-1628
▁더불어민주당	-1629
▁묻	-1630
감염	-1631
회를	-1632
▁31	-1633
▁금융	-1634
▁너무	-1635
▁받지	-1636
▁이야기	-1637
▁것이라고	-1638
▁나옵니다	-1639
▁사람들이	-1640
▁프로그램	-1641
▁느	-1642
▁쏟	-1643
곳에	-1644
공개	-1645
관이	-1646
메라	-1647
무리	-1648
▁동료	-1649
▁자녀	-1650
▁작성	-1651
▁화물	-1652
▁시장의	-1653
▁현재까지	-1654
느냐	-1655
대에	-1656
성동	-1657
졌고	-1658
지에	-1659
▁신분	-1660
▁이같	-1661
▁최종	-1662
시키	-1663
▁경고	-1664
▁고위	-1665
▁또는	-1666
▁못한	-1667
▁예산	-1668
▁일당	-1669
▁협조	-1670
▁시위를	-1671
▁숙	-1672
▁찍	-1673
개발	-1674
법이	-1675
어요	-1676
인과	-1677
주일	-1678
통신	-1679
▁부정	-1680
▁이달	-1681
▁이송	-1682
▁이탈	-1683
▁플로이드	-1684
▁꺼	-1685
구속	-1686
연구	-1687
차를	-1688
▁과거	-1689
▁만나	-1690
▁미래	-1691
▁받을	-1692
▁밝히	-1693
▁오토	-1694
▁전달	-1695
▁제가	-1696
▁중요	-1697
▁최초	-1698
자들은	-1699
▁N	-1700
▁춘	-1701
▁공직	-1702
▁나눠	-1703
▁내고	-1704
▁등은	-1705
▁증가	-1706
▁바이든	-1707
▁이라며	-1708
▁것입니다	-1709
▁상황에서	-1710
▁오토바이	-1711
늦게	-1712
다면	-1713
대는	-1714
로를	-1715
법상	-1716
이던	-1717
정이	-1718
▁가지	-1719
▁구체	-1720
▁당일	-1721
▁대출	-1722
▁이태	-1723
▁자리	-1724
▁지휘	-1725
▁희생	-1726
속도로	-1727
집니다	-1728
▁것처럼	-1729
▁결과를	-1730
▁마무리	-1731
됐던	-1732
되면	-1733
면허	-1734
치는	-1735
▁국립	-1736
▁숨지	-1737
▁쏟아	-1738
▁야당	-1739
▁장애	-1740
▁저지	-1741
▁못하고	-1742
▁의원이	-1743
▁책임을	-1744
▁한다는	-1745
▁집합금지	-1746
▁꾸	-1747
▁로	-1748
▁빚	-1749
▁효	-1750
보는	-1751
수를	-1752
주는	-1753
▁다음	-1754
▁도주	-1755
▁신종	-1756
▁재난	-1757
▁측이	-1758
▁성폭력	-1759
▁신고가	-1760
▁실제로	-1761
▁자신이	-1762
▁정보를	-1763
봤습니다	-1764
▁못했습니다	-1765
▁함	-1766
도의	-1767
▁다녀	-1768
▁먹	-1769
▁억	-1770
▁옆	-1771
스로	-1772
천시	-1773
▁기사	-1774
▁대신	-1775
▁사안	-1776
▁시도	-1777
▁않을	-1778
▁인종	-1779
▁조작	-1780
년부터	-1781
시부터	-1782
인으로	-1783
▁권성동	-1784
▁앞두고	-1785
르게	-1786
▁보니	-1787
▁신속	-1788
▁열고	-1789
▁위협	-1790
▁자택	-1791
▁징계	-1792
▁특수	-1793
▁대화방	-1794
▁명령을	-1795
하겠다는	-1796
▁밖	-1797
명도	-1798
지막	-1799
▁불러	-1800
▁이재	-1801
▁인한	-1802
▁저희	-1803
▁불구속	-1804
km	-1805
▁앱	-1806
보를	-1807
피해	-1808
▁반복	-1809
▁보인	-1810
자들의	-1811
▁그대로	-1812
▁이용해	-1813
▁안녕하십니까	-1814
▁탑	-1815
▁페	-1816
요일	-1817
▁당선	-1818
▁대로	-1819
▁배치	-1820
▁불가	-1821
▁소재	-1822
▁아래	-1823
▁아무	-1824
▁접근	-1825
▁지키	-1826
▁평화	-1827
▁이들이	-1828
▁풀	-1829
▁헌	-1830
격을	-1831
비스	-1832
사태	-1833
인지	-1834
▁계약	-1835
▁명단	-1836
▁물류	-1837
▁발열	-1838
▁백신	-1839
▁부족	-1840
▁저는	-1841
▁직후	-1842
▁들이받	-1843
▁여성을	-1844
▁이태원	-1845
▁정부의	-1846
▁조사에서	-1847
부했습니다	-1848
둘러	-1849
조차	-1850
▁자동	-1851
▁지침	-1852
▁통행	-1853
▁판결	-1854
▁평소	-1855
▁하면	-1856
▁들어가	-1857
▁출동한	-1858
▁카메라	-1859
▁없었습니다	-1860
▁혼	-1861
년을	-1862
리핑	-1863
세가	-1864
이다	-1865
지자	-1866
▁방해	-1867
▁손님	-1868
▁수원	-1869
▁양성	-1870
▁영향	-1871
▁정리	-1872
▁폐기	-1873
▁사건의	-1874
▁숨지고	-1875
▁안에서	-1876
▁없다는	-1877
▁했다고	-1878
▁확산을	-1879
▁나타났습니다	-1880
▁와	-1881
보안	-1882
복지	-1883
스트	-1884
자치	-1885
젯밤	-1886
주민	-1887
했을	-1888
▁공정	-1889
▁기각	-1890
▁따른	-1891
▁아산	-1892
▁원의	-1893
▁질문	-1894
▁침수	-1895
▁행사	-1896
장으로	-1897
▁마지막	-1898
▁개인정보	-1899
▁발생했습니다	-1900
▁죄	-1901
적이	-1902
정부	-1903
행위	-1904
▁나선	-1905
▁백악	-1906
▁수는	-1907
▁인도	-1908
겠다는	-1909
▁떨어진	-1910
▁말합니다	-1911
▁자치경찰	-1912
▁뭐	-1913
▁쓴	-1914
▁흔	-1915
구를	-1916
기고	-1917
당한	-1918
소가	-1919
었고	-1920
▁고의	-1921
▁높은	-1922
▁명에	-1923
▁문을	-1924
▁불과	-1925
▁수가	-1926
▁역할	-1927
▁외교	-1928
▁철저	-1929
▁투자	-1930
원으로	-1931
▁사건은	-1932
▁어젯밤	-1933
▁증상이	-1934
▁조사됐습니다	-1935
형을	-1936
▁가로	-1937
▁개혁	-1938
▁말을	-1939
▁사는	-1940
▁소환	-1941
▁인명	-1942
▁전날	-1943
▁전담	-1944
▁전에	-1945
▁협의	-1946
했으며	-1947
▁했는데	-1948
▁쌓	-1949
레스	-1950
지도	-1951
▁감독	-1952
▁구간	-1953
▁삼성	-1954
▁그렇게	-1955
▁났습니다	-1956
▁잔	-1957
가량	-1958
군은	-1959
부모	-1960
사회	-1961
었다	-1962
이를	-1963
▁공범	-1964
▁발언	-1965
▁법정	-1966
▁비슷	-1967
▁소독	-1968
▁의사	-1969
▁전수	-1970
▁했고	-1971
▁확정	-1972
릅니다	-1973
▁내용이	-1974
▁문제는	-1975
▁부산시	-1976
▁상태로	-1977
▁현장을	-1978
랐습니다	-1979
▁소방당국은	-1980
▁괴	-1981
▁핵	-1982
곳을	-1983
이라	-1984
전문	-1985
처벌	-1986
▁강행	-1987
▁거짓	-1988
▁당한	-1989
▁도시	-1990
▁목숨	-1991
▁여의	-1992
▁음식	-1993
▁정의	-1994
▁차를	-1995
▁회사	-1996
▁법원은	-1997
▁어머니	-1998
▁오늘은	-1999
▁토대로	-2000
▁곧	-2001
▁뜻	-2002
부에	-2003
생활	-2004
없이	-2005
▁공동	-2006
▁공장	-2007
▁마음	-2008
▁명령	-2009
▁아침	-2010
▁영업	-2011
▁오피	-2012
했다며	-2013
▁가까이	-2014
▁경위를	-2015
▁사건에	-2016
▁자료를	-2017
▁조사할	-2018
▁확인하고	-2019
▁적발됐습니다	-2020
▁D	-2021
▁존	-2022
개를	-2023
거든	-2024
베이	-2025
청래	-2026
▁권한	-2027
▁대피	-2028
▁방식	-2029
▁상품	-2030
▁잘못	-2031
▁총선	-2032
▁통신	-2033
▁향해	-2034
자에게	-2035
▁정청래	-2036
▁서울중앙지검	-2037
▁훈	-2038
레이	-2039
사업	-2040
세를	-2041
씨를	-2042
씨의	-2043
▁매우	-2044
▁부서	-2045
▁빠져	-2046
▁선박	-2047
▁선별	-2048
▁속에	-2049
▁식당	-2050
▁앞에	-2051
▁여론	-2052
▁우리	-2053
▁집에	-2054
▁평가	-2055
▁가능성	-2056
바이러스	-2057
▁수사하고	-2058
▁다쳤습니다	-2059
▁에	-2060
가지	-2061
리지	-2062
미터	-2063
차가	-2064
▁선택	-2065
▁원내	-2066
▁유치	-2067
▁있기	-2068
▁장면	-2069
▁전혀	-2070
▁점을	-2071
▁제조	-2072
▁핵심	-2073
▁회원	-2074
▁대북전	-2075
▁수사가	-2076
▁행정명	-2077
▁의견으로	-2078
▁이어지고	-2079
▁집단감염	-2080
▁각	-2081
▁암	-2082
년간	-2083
임을	-2084
체를	-2085
▁45	-2086
▁구매	-2087
▁기다	-2088
▁달리	-2089
▁대가	-2090
▁두고	-2091
▁보관	-2092
▁일을	-2093
▁정상	-2094
▁정신	-2095
거든요	-2096
봅니다	-2097
▁했지만	-2098
▁곳곳에서	-2099
▁그렇습니다	-2100
▁갓	-2101
▁육	-2102
나는	-2103
입국	-2104
▁38	-2105
▁국제	-2106
▁그제	-2107
▁들고	-2108
▁등록	-2109
▁비난	-2110
▁안내	-2111
▁제외	-2112
▁중대	-2113
▁테러	-2114
▁평균	-2115
▁현행	-2116
▁회의	-2117
▁기소된	-2118
▁모습을	-2119
▁어려운	-2120
▁연락이	-2121
▁일주일	-2122
▁확인된	-2123
▁추정되는	-2124
00	-2125
▁굉	-2126
공사	-2127
구에	-2128
규직	-2129
기소	-2130
물이	-2131
스텔	-2132
신고	-2133
역을	-2134
자인	-2135
편집	-2136
▁강남	-2137
▁국무	-2138
▁끝에	-2139
▁문화	-2140
▁봉쇄	-2141
▁얘기	-2142
▁유튜	-2143
▁주차	-2144
▁진화	-2145
▁출신	-2146
▁조사에	-2147
▁영상편집	-2148
▁뒷	-2149
▁벽	-2150
▁휘	-2151
단은	-2152
▁관심	-2153
▁교사	-2154
▁되고	-2155
▁전세	-2156
▁전파	-2157
▁종교	-2158
▁천안	-2159
▁탑승	-2160
▁태국	-2161
▁해서	-2162
됐는데	-2163
본부는	-2164
▁벌이고	-2165
▁사실상	-2166
▁알려진	-2167
▁원인을	-2168
▁이처럼	-2169
▁집회에	-2170
▁혐의가	-2171
▁대통령의	-2172
▁피해자의	-2173
▁요청했습니다	-2174
▁견	-2175
▁납	-2176
보가	-2177
부와	-2178
으나	-2179
증을	-2180
행을	-2181
▁감시	-2182
▁건설	-2183
▁공식	-2184
▁보수	-2185
▁보여	-2186
▁영국	-2187
▁주목	-2188
▁진입	-2189
▁하던	-2190
자들을	-2191
▁국회의	-2192
▁대해선	-2193
▁백악관	-2194
▁시스템	-2195
▁시작된	-2196
▁업무를	-2197
▁의혹이	-2198
▁있는지	-2199
▁필요한	-2200
▁확보한	-2201
으로부터	-2202
▁옥	-2203
▁풍	-2204
다른	-2205
법에	-2206
치고	-2207
▁35	-2208
▁대선	-2209
▁밝힌	-2210
▁세계	-2211
▁절반	-2212
▁지도	-2213
▁표현	-2214
▁행동	-2215
▁횡령	-2216
▁경찰서	-2217
▁남성을	-2218
▁변호사	-2219
▁스스로	-2220
▁처벌을	-2221
▁쪽	-2222
군이	-2223
노동	-2224
랜드	-2225
문이	-2226
부의	-2227
사관	-2228
수는	-2229
처를	-2230
▁00	-2231
▁게시	-2232
▁명예	-2233
▁본격	-2234
▁사흘	-2235
▁수십	-2236
▁정책	-2237
▁중에	-2238
▁지속	-2239
건으로	-2240
▁관련한	-2241
▁의혹에	-2242
▁장관은	-2243
▁전화를	-2244
▁할머니	-2245
▁화장실	-2246
▁오피스텔	-2247
▁확진자와	-2248
▁멈	-2249
▁블	-2250
과의	-2251
남부	-2252
점이	-2253
제가	-2254
▁것도	-2255
▁대학	-2256
▁모여	-2257
▁생산	-2258
▁일대	-2259
▁진압	-2260
▁카드	-2261
▁활용	-2262
▁관련된	-2263
▁뒤늦게	-2264
▁보도에	-2265
▁비슷한	-2266
▁숨지게	-2267
▁위반한	-2268
▁자세한	-2269
▁연결합니다	-2270
▁녹	-2271
▁던	-2272
번호	-2273
운동	-2274
위에	-2275
▁경상	-2276
▁권고	-2277
▁늘고	-2278
▁단계	-2279
▁맞아	-2280
▁완전	-2281
▁전면	-2282
▁진상	-2283
▁합의	-2284
재개발	-2285
졌지만	-2286
▁결과가	-2287
▁등에서	-2288
▁보이는	-2289
▁이들의	-2290
▁전해드	-2291
▁학부모	-2292
▁구체적인	-2293
▁대북전단	-2294
▁병원에서	-2295
▁확진자의	-2296
▁코로나바이러스	-2297
▁콜	-2298
▁훔	-2299
별로	-2300
사법	-2301
위가	-2302
의회	-2303
장애	-2304
재인	-2305
중에	-2306
진우	-2307
▁글을	-2308
▁노인	-2309
▁무죄	-2310
▁사법	-2311
▁지인	-2312
역에서	-2313
월까지	-2314
잖아요	-2315
조사를	-2316
▁검찰의	-2317
▁새로운	-2318
▁아니냐	-2319
▁외국인	-2320
▁절차를	-2321
▁진단검	-2322
▁하는데	-2323
▁잇따르고	-2324
▁처음으로	-2325
▁비판했습니다	-2326
▁판단했습니다	-2327
▁끼	-2328
기와	-2329
대원	-2330
미애	-2331
정지	-2332
조치	-2333
화를	-2334
▁담긴	-2335
▁대기	-2336
▁머물	-2337
▁수용	-2338
▁유리	-2339
▁조정	-2340
▁지목	-2341
▁청주	-2342
▁친구	-2343
▁효과	-2344
장에게	-2345
▁119	-2346
▁문재인	-2347
▁보이스	-2348
▁검토하고	-2349
▁역학조사	-2350
▁원내대표	-2351
▁P	-2352
가요	-2353
나고	-2354
뉴스	-2355
방을	-2356
소는	-2357
▁근거	-2358
▁나눔	-2359
▁내린	-2360
▁만든	-2361
▁배달	-2362
▁벌인	-2363
▁상담	-2364
▁장기	-2365
다면서	-2366
▁비서실	-2367
▁시간이	-2368
▁여성의	-2369
▁연결해	-2370
▁이들을	-2371
▁이상의	-2372
▁일어난	-2373
▁접촉자	-2374
▁접촉한	-2375
▁추미애	-2376
▁대구시는	-2377
▁않았다고	-2378
▁피해자는	-2379
▁상태입니다	-2380
▁서울지방경찰청	-2381
되자	-2382
보건	-2383
보고	-2384
이가	-2385
▁군은	-2386
▁남북	-2387
▁남아	-2388
▁돌려	-2389
▁들여	-2390
▁법인	-2391
▁부장	-2392
▁소송	-2393
▁엄정	-2394
▁열어	-2395
▁이는	-2396
▁진정	-2397
▁했던	-2398
▁허가	-2399
▁현직	-2400
더라도	-2401
▁나눔의	-2402
▁지역의	-2403
▁행위를	-2404
▁운영하는	-2405
▁운전자는	-2406
▁자치단체	-2407
▁욕	-2408
▁움	-2409
간에	-2410
검찰	-2411
마트	-2412
사이	-2413
아버	-2414
이스	-2415
창고	-2416
춘재	-2417
학년	-2418
▁급증	-2419
▁높아	-2420
▁놓고	-2421
▁도입	-2422
▁명은	-2423
▁법적	-2424
▁분류	-2425
▁쓰러	-2426
▁전망	-2427
▁종합	-2428
▁청년	-2429
▁총격	-2430
▁허용	-2431
▁호텔	-2432
하겠다	-2433
▁수차례	-2434
▁유포한	-2435
▁진술을	-2436
▁커지고	-2437
▁확인한	-2438
▁같습니다	-2439
▁거리두기	-2440
▁선고했습니다	-2441
▁촉구했습니다	-2442
UV	-2443
▁빨	-2444
▁삭	-2445
▁홈	-2446
거래	-2447
량을	-2448
전을	-2449
청에	-2450
형욱	-2451
▁금액	-2452
▁부과	-2453
▁여기	-2454
▁키워	-2455
▁편의	-2456
▁포착	-2457
었다고	-2458
▁SUV	-2459
▁내용의	-2460
▁문형욱	-2461
▁방문한	-2462
▁벌어진	-2463
▁수밖에	-2464
▁영업을	-2465
▁이춘재	-2466
▁인터뷰	-2467
▁2015	-2468
▁계속되고	-2469
▁시민단체	-2470
▁확인되지	-2471
▁깨	-2472
▁끌	-2473
▁났	-2474
▁듣	-2475
▁듯	-2476
▁빈	-2477
의료	-2478
제로	-2479
제한	-2480
차도	-2481
피싱	-2482
▁결론	-2483
▁다양	-2484
▁더욱	-2485
▁둘러	-2486
▁방조	-2487
▁방지	-2488
▁원이	-2489
▁위법	-2490
▁전환	-2491
▁탈출	-2492
▁해결	-2493
갑니다	-2494
으면서	-2495
하라고	-2496
▁사람을	-2497
▁시장은	-2498
▁유가족	-2499
▁이상이	-2500
▁이하의	-2501
▁주진우	-2502
▁환자는	-2503
▁보이스피싱	-2504
▁구속됐습니다	-2505
▁벗	-2506
▁휠	-2507
감을	-2508
달라	-2509
어서	-2510
차별	-2511
▁고용	-2512
▁기본	-2513
▁대법	-2514
▁면허	-2515
▁민원	-2516
▁비용	-2517
▁선수	-2518
▁연구	-2519
▁장례	-2520
▁해상	-2521
등학생	-2522
법으로	-2523
통합당	-2524
했는지	-2525
▁심각한	-2526
▁입주민	-2527
▁있었고	-2528
▁정도로	-2529
▁확인해	-2530
▁미래통합당	-2531
▁들어갔습니다	-2532
▁K	-2533
▁네	-2534
▁팀	-2535
가고	-2536
과학	-2537
기한	-2538
리에	-2539
무를	-2540
소로	-2541
시의	-2542
판을	-2543
항을	-2544
▁가담	-2545
▁감사	-2546
▁개선	-2547
▁기업	-2548
▁되지	-2549
▁바람	-2550
▁백인	-2551
▁부실	-2552
▁상대	-2553
▁안타	-2554
▁올린	-2555
▁이해	-2556
▁주의	-2557
▁철거	-2558
▁추모	-2559
▁출발	-2560
보안법	-2561
▁문제를	-2562
▁브리핑	-2563
▁사실은	-2564
▁서비스	-2565
▁여성은	-2566
▁제주도	-2567
▁집에서	-2568
▁넘겨졌습니다	-2569
▁늦	-2570
▁왕	-2571
▁혈	-2572
려고	-2573
바로	-2574
았고	-2575
회가	-2576
▁개입	-2577
▁거쳐	-2578
▁광복	-2579
▁굉장	-2580
▁귀국	-2581
▁그것	-2582
▁등교	-2583
▁불길	-2584
▁비대	-2585
▁은행	-2586
▁인해	-2587
▁직장	-2588
▁질병	-2589
▁폭우	-2590
▁현금	-2591
▁202	-2592
▁300	-2593
▁목숨을	-2594
▁여기에	-2595
▁목소리가	-2596
▁시민들이	-2597
▁유흥시설	-2598
▁상황입니다	-2599
▁놀	-2600
니아	-2601
있는	-2602
자도	-2603
적을	-2604
▁감식	-2605
▁거듭	-2606
▁단순	-2607
▁달라	-2608
▁모두	-2609
▁무너	-2610
▁보낸	-2611
▁원에	-2612
▁위기	-2613
▁위원	-2614
▁의붓	-2615
▁인력	-2616
▁종로	-2617
▁통보	-2618
섭니다	-2619
▁않도록	-2620
▁않았고	-2621
▁시위대가	-2622
▁벌였습니다	-2623
▁입건했습니다	-2624
▁체포됐습니다	-2625
▁겨	-2626
▁깊	-2627
▁넣	-2628
▁둔	-2629
▁땅	-2630
▁레	-2631
▁헬	-2632
실에	-2633
이며	-2634
처가	-2635
▁모임	-2636
▁부검	-2637
▁위치	-2638
▁항공	-2639
▁해명	-2640
당국이	-2641
됐다는	-2642
층에서	-2643
▁건데요	-2644
▁남성의	-2645
▁민식이	-2646
▁않았다	-2647
▁여의도	-2648
▁역할을	-2649
▁완전히	-2650
▁재판을	-2651
▁경기도는	-2652
▁바이러스	-2653
▁방역당국은	-2654
▁고발했습니다	-2655
▁당부했습니다	-2656
▁벌어졌습니다	-2657
▁송치했습니다	-2658
▁익	-2659
결과	-2660
네요	-2661
드는	-2662
리기	-2663
였던	-2664
증상	-2665
짜리	-2666
▁갈등	-2667
▁뒤에	-2668
▁박찬	-2669
▁분위	-2670
▁순찰	-2671
▁술을	-2672
▁아내	-2673
▁운동	-2674
▁의결	-2675
▁충분	-2676
▁충청	-2677
▁해제	-2678
실에서	-2679
졌다고	-2680
▁굉장히	-2681
▁명단을	-2682
▁이라는	-2683
▁지하철	-2684
▁활동을	-2685
있습니다	-2686
▁초등학교	-2687
▁파악하고	-2688
▁넘겼습니다	-2689
▁요구했습니다	-2690
▁써	-2691
▁좌	-2692
▁품	-2693
석열	-2694
었던	-2695
지의	-2696
▁계좌	-2697
▁고통	-2698
▁누구	-2699
▁때는	-2700
▁목격	-2701
▁받게	-2702
▁방향	-2703
▁변경	-2704
▁보장	-2705
▁소개	-2706
▁아닙	-2707
▁재산	-2708
▁정말	-2709
▁정지	-2710
▁제보	-2711
▁춘천	-2712
▁속도를	-2713
▁유튜브	-2714
▁있었다	-2715
▁처분을	-2716
▁포함한	-2717
▁혐의에	-2718
▁국회에서	-2719
▁왔습니다	-2720
▁운전면허	-2721
▁이곳에서	-2722
▁시작했습니다	-2723
▁이어졌습니다	-2724
▁왔	-2725
리와	-2726
술을	-2727
시에	-2728
시켰	-2729
연합	-2730
예방	-2731
▁갓갓	-2732
▁곳은	-2733
▁공격	-2734
▁교인	-2735
▁나라	-2736
▁다니	-2737
▁당초	-2738
▁마찬	-2739
▁무엇	-2740
▁연쇄	-2741
▁움직	-2742
▁의미	-2743
▁의한	-2744
▁창원	-2745
▁가지고	-2746
▁경찰을	-2747
▁병원에	-2748
▁사이에	-2749
▁예배를	-2750
▁윤석열	-2751
▁조사가	-2752
▁통합당	-2753
됐는데요	-2754
▁서울시가	-2755
▁오늘부터	-2756
▁추정됩니다	-2757
▁뇌	-2758
▁펜	-2759
매매	-2760
였고	-2761
우고	-2762
▁그는	-2763
▁다행	-2764
▁단독	-2765
▁대변	-2766
▁메시	-2767
▁반면	-2768
▁부딪	-2769
▁분노	-2770
▁수험	-2771
▁어디	-2772
▁유해	-2773
▁이것	-2774
▁입고	-2775
▁침해	-2776
▁하천	-2777
사건건	-2778
▁국정원	-2779
▁나오는	-2780
▁방역수	-2781
▁오늘도	-2782
▁의료진	-2783
▁지난주	-2784
▁사사건건	-2785
▁이야기를	-2786
▁주민들은	-2787
▁입장입니다	-2788
▁파악됐습니다	-2789
▁L	-2790
▁즉	-2791
▁쫓	-2792
방에	-2793
방해	-2794
분을	-2795
선이	-2796
진료	-2797
▁PC	-2798
▁군사	-2799
▁노출	-2800
▁다가	-2801
▁반려	-2802
▁발부	-2803
▁여자	-2804
▁연관	-2805
▁영장	-2806
▁유료	-2807
▁입소	-2808
▁있지	-2809
▁추락	-2810
▁추천	-2811
▁출범	-2812
▁형태	-2813
주시죠	-2814
▁150	-2815
▁500	-2816
▁도로를	-2817
▁방안을	-2818
▁법원에	-2819
▁사건과	-2820
▁수칙을	-2821
▁업무상	-2822
▁있어서	-2823
▁타이어	-2824
▁확인할	-2825
▁회견을	-2826
▁운전자가	-2827
▁걱	-2828
▁닫	-2829
개혁	-2830
드를	-2831
비가	-2832
움이	-2833
음을	-2834
▁경위	-2835
▁고양	-2836
▁관할	-2837
▁기억	-2838
▁답변	-2839
▁매일	-2840
▁미리	-2841
▁발령	-2842
▁방안	-2843
▁부탁	-2844
▁여당	-2845
▁여야	-2846
▁원칙	-2847
▁전단	-2848
▁전주	-2849
▁조지	-2850
▁주로	-2851
▁지점	-2852
▁창고	-2853
▁한번	-2854
었는데	-2855
판정을	-2856
▁곧바로	-2857
▁단속을	-2858
▁의식을	-2859
▁적발된	-2860
▁했다는	-2861
▁요구하는	-2862
▁질병관리	-2863
▁갔	-2864
년이	-2865
대응	-2866
동의	-2867
되어	-2868
받아	-2869
봐야	-2870
실이	-2871
일이	-2872
주점	-2873
▁경로	-2874
▁곳이	-2875
▁극단	-2876
▁기자	-2877
▁기획	-2878
▁독감	-2879
▁동물	-2880
▁동영	-2881
▁맞은	-2882
▁병상	-2883
▁사유	-2884
▁쉽게	-2885
▁쉽지	-2886
▁신뢰	-2887
▁없고	-2888
▁일정	-2889
▁재심	-2890
▁회복	-2891
▁후원	-2892
▁경우가	-2893
▁대책을	-2894
▁비롯해	-2895
▁신고한	-2896
▁않으면	-2897
▁있고요	-2898
▁자동차	-2899
▁중학생	-2900
▁폭행을	-2901
▁폭행한	-2902
▁해경은	-2903
▁행위에	-2904
▁강제추행	-2905
▁공직선거	-2906
▁상태에서	-2907
▁벨	-2908
▁얻	-2909
견을	-2910
년에	-2911
된다	-2912
만에	-2913
시죠	-2914
트남	-2915
트를	-2916
▁내렸	-2917
▁무시	-2918
▁부당	-2919
▁비밀	-2920
▁사라	-2921
▁실태	-2922
▁쓰지	-2923
▁잠수	-2924
▁적이	-2925
▁침입	-2926
▁탈북	-2927
▁하다	-2928
공무원	-2929
이스북	-2930
▁구속된	-2931
▁근로자	-2932
▁밀입국	-2933
▁받았고	-2934
▁베트남	-2935
▁빠져나	-2936
▁성매매	-2937
▁영상이	-2938
▁유흥업	-2939
▁정황이	-2940
▁조치가	-2941
▁지적이	-2942
▁촬영한	-2943
들입니다	-2944
영입니다	-2945
해달라고	-2946
▁고속도로	-2947
▁페이스북	-2948
▁적극적으로	-2949
▁든	-2950
구는	-2951
롭게	-2952
리의	-2953
방송	-2954
배를	-2955
사무	-2956
수의	-2957
위터	-2958
해진	-2959
▁공모	-2960
▁내놓	-2961
▁라임	-2962
▁사우	-2963
▁연속	-2964
▁예고	-2965
▁운행	-2966
▁월북	-2967
▁인지	-2968
▁재개	-2969
▁절도	-2970
▁제시	-2971
▁주지	-2972
▁준수	-2973
▁추석	-2974
▁해산	-2975
▁홈페	-2976
지에서	-2977
했다가	-2978
▁경비원	-2979
▁경상남	-2980
▁광복절	-2981
▁다양한	-2982
▁당국이	-2983
▁수험생	-2984
▁이번에	-2985
▁직원이	-2986
▁질문에	-2987
▁트위터	-2988
▁편의점	-2989
▁구속영장	-2990
▁물류창고	-2991
▁사건으로	-2992
▁시민들의	-2993
▁인근에서	-2994
▁지역에서	-2995
▁확인했습니다	-2996
▁믿	-2997
건이	-2998
과는	-2999
군의	-3000
단이	-3001
어나	-3002
이터	-3003
▁36	-3004
▁49	-3005
▁근처	-3006
▁누군	-3007
▁독일	-3008
▁동의	-3009
▁문자	-3010
▁바꿔	-3011
▁방치	-3012
▁부담	-3013
▁사퇴	-3014
▁시청	-3015
▁압박	-3016
▁원래	-3017
▁인물	-3018
▁입은	-3019
▁있게	-3020
▁주거	-3021
▁직무	-3022
▁진천	-3023
이었던	-3024
▁경찰도	-3025
▁다행히	-3026
▁당국의	-3027
▁동원해	-3028
▁박찬형	-3029
▁발생해	-3030
▁보건소	-3031
▁살해한	-3032
▁영장을	-3033
▁의견을	-3034
▁이같은	-3035
▁이같이	-3036
▁작업이	-3037
▁적용해	-3038
▁중이던	-3039
▁증거를	-3040
▁택시기	-3041
▁혐의도	-3042
범죄수사	-3043
위원회는	-3044
▁2016	-3045
▁선별진료	-3046
▁의심되는	-3047
▁있었다고	-3048
▁피해자를	-3049
▁행정명령을	-3050
▁짚	-3051
망을	-3052
분이	-3053
주가	-3054
판매	-3055
▁가혹	-3056
▁간부	-3057
▁개를	-3058
▁개발	-3059
▁개천	-3060
▁공항	-3061
▁국토	-3062
▁권력	-3063
▁김포	-3064
▁나흘	-3065
▁남편	-3066
▁삭제	-3067
▁수백	-3068
▁약속	-3069
▁입금	-3070
▁전자	-3071
▁정당	-3072
▁청원	-3073
▁충격	-3074
▁가능한	-3075
▁국민청	-3076
▁규모의	-3077
▁저지른	-3078
▁접수된	-3079
▁도로에서	-3080
▁착수했습니다	-3081
▁쟁	-3082
건의	-3083
고를	-3084
관을	-3085
상현	-3086
스럽	-3087
시를	-3088
지와	-3089
▁34	-3090
▁갖고	-3091
▁구급	-3092
▁기능	-3093
▁달려	-3094
▁대중	-3095
▁보조	-3096
▁서로	-3097
▁송파	-3098
▁수감	-3099
▁수습	-3100
▁여행	-3101
▁위조	-3102
▁유럽	-3103
▁유상	-3104
▁이곳	-3105
▁자백	-3106
▁저질	-3107
▁진료	-3108
▁챙긴	-3109
▁취약	-3110
▁치안	-3111
▁토론	-3112
▁힘들	-3113
달라는	-3114
▁개천절	-3115
▁달라고	-3116
▁범죄가	-3117
▁부산의	-3118
▁시장이	-3119
▁피고인	-3120
섰습니다	-3121
▁승용차가	-3122
▁아닙니다	-3123
▁중이라고	-3124
▁진행하고	-3125
▁신청했습니다	-3126
▁집계됐습니다	-3127
▁낙	-3128
▁휩	-3129
기업	-3130
다시	-3131
디오	-3132
비서	-3133
▁37	-3134
▁가정	-3135
▁경계	-3136
▁나올	-3137
▁다쳐	-3138
▁두기	-3139
▁반쯤	-3140
▁방위	-3141
▁분야	-3142
▁불거	-3143
▁상임	-3144
▁소비	-3145
▁소유	-3146
▁소지	-3147
▁순간	-3148
▁신호	-3149
▁안심	-3150
▁약탈	-3151
▁엄마	-3152
▁연장	-3153
▁연휴	-3154
▁의암	-3155
▁이전	-3156
▁인용	-3157
▁재발	-3158
▁차별	-3159
▁협력	-3160
하라는	-3161
▁들어온	-3162
▁변호인	-3163
▁사진을	-3164
▁차량에	-3165
▁착용을	-3166
▁행위가	-3167
과학수사	-3168
놨습니다	-3169
중입니다	-3170
▁많습니다	-3171
▁수사기관	-3172
▁현지시간	-3173
▁압수수색을	-3174
▁전문가들은	-3175
▁국립과학수사	-3176
BC	-3177
▁뚫	-3178
▁러	-3179
▁패	-3180
거리	-3181
노총	-3182
대와	-3183
두순	-3184
량이	-3185
려는	-3186
령이	-3187
만큼	-3188
뿐만	-3189
상에	-3190
연히	-3191
였다	-3192
음이	-3193
익을	-3194
일을	-3195
점검	-3196
주택	-3197
치료	-3198
화폐	-3199
▁39	-3200
▁42	-3201
▁가게	-3202
▁군의	-3203
▁내리	-3204
▁드론	-3205
▁만취	-3206
▁매장	-3207
▁불편	-3208
▁빌려	-3209
▁산업	-3210
▁손해	-3211
▁술에	-3212
▁억울	-3213
▁엄중	-3214
▁유사	-3215
▁이천	-3216
▁접종	-3217
▁조선	-3218
▁즉각	-3219
▁항소	-3220
겠다며	-3221
되기도	-3222
▁가까운	-3223
▁고려해	-3224
▁러시아	-3225
▁모습이	-3226
▁물건을	-3227
▁시위에	-3228
▁영향을	-3229
▁우리가	-3230
▁운영자	-3231
▁의원님	-3232
▁정리해	-3233
▁조두순	-3234
▁집회가	-3235
▁지하차도	-3236
받았습니다	-3237
▁공직선거법	-3238
▁시작됐습니다	-3239
▁국립과학수사연구	-3240
▁닿	-3241
▁망	-3242
▁뿌	-3243
건에	-3244
관과	-3245
구가	-3246
대의	-3247
들로	-3248
보험	-3249
시각	-3250
시험	-3251
신저	-3252
주간	-3253
회는	-3254
▁가스	-3255
▁건데	-3256
▁것에	-3257
▁골목	-3258
▁날아	-3259
▁노래	-3260
▁면담	-3261
▁목적	-3262
▁몰래	-3263
▁무관	-3264
▁법원	-3265
▁서류	-3266
▁쓰고	-3267
▁욕설	-3268
▁정밀	-3269
심에서	-3270
▁경우도	-3271
▁대구시	-3272
▁대표는	-3273
▁범죄를	-3274
▁시설을	-3275
▁안전을	-3276
▁음식점	-3277
▁이유를	-3278
▁제출한	-3279
▁진행할	-3280
▁차량은	-3281
▁참석한	-3282
셨습니다	-3283
위원회를	-3284
▁인종차별	-3285
▁있었는지	-3286
▁전국적으로	-3287
▁상태였습니다	-3288
▁컴	-3289
권이	-3290
귀포	-3291
보니	-3292
어진	-3293
오는	-3294
일에	-3295
장도	-3296
졌다	-3297
▁90	-3298
▁가입	-3299
▁거죠	-3300
▁건의	-3301
▁겪고	-3302
▁공간	-3303
▁노조	-3304
▁대처	-3305
▁말이	-3306
▁물을	-3307
▁부상	-3308
▁신체	-3309
▁야간	-3310
▁외출	-3311
▁용인	-3312
▁이로	-3313
▁전광	-3314
▁제품	-3315
▁증언	-3316
▁차에	-3317
▁통한	-3318
▁폭언	-3319
▁한강	-3320
어머니	-3321
▁검사가	-3322
▁나오지	-3323
▁나타나	-3324
▁상당히	-3325
▁서귀포	-3326
▁스마트	-3327
▁시신을	-3328
▁신청을	-3329
▁의무화	-3330
▁경기남부	-3331
▁공수처법	-3332
▁민주당은	-3333
▁뛰	-3334
받고	-3335
이기	-3336
재난	-3337
주를	-3338
체가	-3339
치가	-3340
파로	-3341
▁것과	-3342
▁공급	-3343
▁길을	-3344
▁내년	-3345
▁많아	-3346
▁명확	-3347
▁반박	-3348
▁보육	-3349
▁복귀	-3350
▁불을	-3351
▁블랙	-3352
▁성북	-3353
▁손을	-3354
▁올려	-3355
▁원인	-3356
▁위안	-3357
▁응급	-3358
▁출국	-3359
▁출연	-3360
▁퇴원	-3361
에게는	-3362
에서만	-3363
하지만	-3364
▁결정을	-3365
▁명으로	-3366
▁받아들	-3367
▁상황에	-3368
▁이용한	-3369
▁저희가	-3370
▁가능성을	-3371
▁국회의원	-3372
▁냈습니다	-3373
▁주민들이	-3374
▁열었습니다	-3375
▁진단검사를	-3376
▁신고했습니다	-3377
▁쿠	-3378
게는	-3379
계가	-3380
나요	-3381
도에	-3382
사로	-3383
시고	-3384
질이	-3385
표를	-3386
환경	-3387
▁43	-3388
▁72	-3389
▁가득	-3390
▁기대	-3391
▁끝내	-3392
▁마친	-3393
▁매점	-3394
▁못해	-3395
▁쓰레	-3396
▁아예	-3397
▁유명	-3398
▁입법	-3399
▁제정	-3400
▁주도	-3401
▁중고	-3402
▁택배	-3403
▁필리	-3404
▁해안	-3405
었지만	-3406
일에는	-3407
조치를	-3408
▁199	-3409
▁감염된	-3410
▁곳에서	-3411
▁누군가	-3412
▁때까지	-3413
▁비롯한	-3414
▁생각이	-3415
▁서울의	-3416
▁있으며	-3417
▁정치적	-3418
▁중요한	-3419
▁최대한	-3420
▁흉기를	-3421
었는데요	-3422
▁이번에는	-3423
▁인명피해	-3424
▁있었지만	-3425
▁열렸습니다	-3426
▁서울중앙지법	-3427
▁쇼	-3428
▁탓	-3429
관의	-3430
금이	-3431
나라	-3432
대교	-3433
월에	-3434
유예	-3435
율은	-3436
함을	-3437
화가	-3438
▁47	-3439
▁고객	-3440
▁기념	-3441
▁대리	-3442
▁데다	-3443
▁도망	-3444
▁돌진	-3445
▁되면	-3446
▁뒤로	-3447
▁마포	-3448
▁몰랐	-3449
▁반영	-3450
▁반응	-3451
▁본인	-3452
▁서초	-3453
▁일자	-3454
▁자격	-3455
▁전라	-3456
▁정기	-3457
▁주고	-3458
▁주최	-3459
▁지능	-3460
▁진주	-3461
▁출근	-3462
▁탄핵	-3463
▁통일	-3464
▁특혜	-3465
시까지	-3466
였다고	-3467
이라며	-3468
이지만	-3469
▁강하게	-3470
▁검찰총	-3471
▁교차로	-3472
▁다음날	-3473
▁못하는	-3474
▁별다른	-3475
▁붙잡아	-3476
▁신원을	-3477
▁안타까	-3478
▁의사를	-3479
▁이번이	-3480
▁입국한	-3481
▁정규직	-3482
▁진술한	-3483
▁철저히	-3484
▁민주노총	-3485
▁어려움을	-3486
▁임시생활	-3487
▁진행되고	-3488
▁착취물을	-3489
든가	-3490
만간	-3491
산업	-3492
이자	-3493
인권	-3494
코올	-3495
특별	-3496
팀을	-3497
퓨터	-3498
▁32	-3499
▁간호	-3500
▁개최	-3501
▁고령	-3502
▁구청	-3503
▁기부	-3504
▁노력	-3505
▁등과	-3506
▁막아	-3507
▁몰려	-3508
▁분리	-3509
▁서해	-3510
▁수거	-3511
▁수상	-3512
▁식품	-3513
▁잃은	-3514
▁제도	-3515
▁체육	-3516
▁표시	-3517
▁해도	-3518
듭니다	-3519
회에서	-3520
▁112	-3521
▁198	-3522
▁법원이	-3523
▁불가능	-3524
▁설치된	-3525
▁인천시	-3526
▁자신을	-3527
▁조만간	-3528
▁지침을	-3529
▁충청북	-3530
▁컴퓨터	-3531
▁통해서	-3532
▁화물차	-3533
▁봤습니다	-3534
▁지방자치	-3535
▁홈페이지	-3536
▁감염병예방	-3537
▁발표했습니다	-3538
▁꼭	-3539
▁덮	-3540
▁졸	-3541
▁컨	-3542
▁털	-3543
공단	-3544
국제	-3545
기간	-3546
되며	-3547
아동	-3548
일과	-3549
진을	-3550
테이	-3551
▁33	-3552
▁가량	-3553
▁감찰	-3554
▁걸로	-3555
▁경쟁	-3556
▁곳에	-3557
▁과실	-3558
▁괴롭	-3559
▁김기	-3560
▁대면	-3561
▁등장	-3562
▁바뀌	-3563
▁번호	-3564
▁부적	-3565
▁상습	-3566
▁성남	-3567
▁수업	-3568
▁수집	-3569
▁심리	-3570
▁아들	-3571
▁입수	-3572
▁입증	-3573
▁저장	-3574
▁조성	-3575
▁종결	-3576
▁태풍	-3577
▁하며	-3578
▁헌법	-3579
▁현실	-3580
회의를	-3581
▁고위험	-3582
▁관광객	-3583
▁끊이지	-3584
▁넘겨진	-3585
▁언론에	-3586
▁일부를	-3587
▁직원을	-3588
▁처리를	-3589
▁고소장을	-3590
▁부산시는	-3591
▁시위대를	-3592
▁신상공개	-3593
▁묶	-3594
▁숫	-3595
▁싸	-3596
▁썼	-3597
▁앓	-3598
▁탐	-3599
감독	-3600
감이	-3601
교사	-3602
동이	-3603
든지	-3604
로는	-3605
았다	-3606
어야	-3607
예요	-3608
절한	-3609
했기	-3610
▁52	-3611
▁55	-3612
▁강요	-3613
▁강한	-3614
▁거창	-3615
▁교도	-3616
▁몸을	-3617
▁무기	-3618
▁발의	-3619
▁부대	-3620
▁수천	-3621
▁술집	-3622
▁영수	-3623
▁외에	-3624
▁자제	-3625
▁작은	-3626
▁전복	-3627
▁전용	-3628
▁전인	-3629
▁지내	-3630
▁직전	-3631
▁참고	-3632
▁총을	-3633
▁파손	-3634
▁해군	-3635
칩니다	-3636
▁강력한	-3637
▁대학생	-3638
▁메신저	-3639
▁사회복	-3640
▁아니다	-3641
▁위험이	-3642
▁이번엔	-3643
▁자체가	-3644
▁지금은	-3645
▁공무원이	-3646
▁민식이법	-3647
▁방문판매	-3648
▁사망자가	-3649
▁아동보호	-3650
▁집단감염이	-3651
▁봤	-3652
▁앉	-3653
▁줬	-3654
곳이	-3655
권은	-3656
단속	-3657
로가	-3658
서가	-3659
성에	-3660
시켜	-3661
재판	-3662
해온	-3663
허가	-3664
▁46	-3665
▁과태	-3666
▁내가	-3667
▁다친	-3668
▁대체	-3669
▁도박	-3670
▁모집	-3671
▁비가	-3672
▁연기	-3673
▁연루	-3674
▁연일	-3675
▁장비	-3676
▁재확	-3677
▁집을	-3678
▁짚어	-3679
▁취업	-3680
▁취한	-3681
▁측의	-3682
▁화면	-3683
▁훈련	-3684
명에게	-3685
지방법	-3686
하는데	-3687
▁가해자	-3688
▁대비해	-3689
▁대상이	-3690
▁방역을	-3691
▁빠르게	-3692
▁사람의	-3693
▁얼굴을	-3694
▁이뤄진	-3695
▁장관이	-3696
▁저질렀	-3697
▁전부터	-3698
▁조사한	-3699
▁주변에	-3700
▁중국인	-3701
▁콜센터	-3702
▁확보해	-3703
▁대중교통	-3704
▁방식으로	-3705
▁요양병원	-3706
▁자리에서	-3707
▁전해주시죠	-3708
▁휴대전화를	-3709
지방경찰청은	-3710
▁E	-3711
▁걷	-3712
▁냉	-3713
▁빗	-3714
▁흐	-3715
가던	-3716
개가	-3717
광역	-3718
도시	-3719
등록	-3720
만여	-3721
문화	-3722
박스	-3723
어들	-3724
에만	-3725
요원	-3726
질심	-3727
하라	-3728
▁48	-3729
▁51	-3730
▁가는	-3731
▁가져	-3732
▁격상	-3733
▁공권	-3734
▁끝난	-3735
▁당사	-3736
▁됐다	-3737
▁목포	-3738
▁반성	-3739
▁벌여	-3740
▁분명	-3741
▁비정	-3742
▁사칭	-3743
▁세종	-3744
▁시사	-3745
▁식사	-3746
▁암호	-3747
▁엄벌	-3748
▁연방	-3749
▁자연	-3750
▁작동	-3751
▁전원	-3752
▁증상	-3753
▁초기	-3754
▁현황	-3755
단계로	-3756
랍니다	-3757
차례에	-3758
▁그렇죠	-3759
▁기사를	-3760
▁동선을	-3761
▁문제로	-3762
▁받아야	-3763
▁생각을	-3764
▁숨지는	-3765
▁아무런	-3766
▁없도록	-3767
▁여파로	-3768
▁이재명	-3769
▁주장이	-3770
▁차량의	-3771
▁도로교통	-3772
▁미성년자	-3773
▁민주당이	-3774
▁이어지는	-3775
▁이탈리아	-3776
▁현지시각	-3777
▁보건당국은	-3778
▁입었습니다	-3779
▁진술했습니다	-3780
▁해명했습니다	-3781
▁댓	-3782
▁루	-3783
▁맨	-3784
▁첩	-3785
건은	-3786
라면	-3787
매석	-3788
보면	-3789
복을	-3790
성과	-3791
수산	-3792
전쟁	-3793
조정	-3794
주행	-3795
카드	-3796
한테	-3797
행정	-3798
▁개설	-3799
▁거제	-3800
▁검은	-3801
▁과잉	-3802
▁국과	-3803
▁긴장	-3804
▁댓글	-3805
▁박지	-3806
▁사상	-3807
▁상해	-3808
▁선정	-3809
▁설립	-3810
▁센터	-3811
▁수칙	-3812
▁여름	-3813
▁위에	-3814
▁음란	-3815
▁이내	-3816
▁일으	-3817
▁잠적	-3818
▁정세	-3819
▁제안	-3820
▁채널	-3821
▁총회	-3822
▁태안	-3823
▁판정	-3824
▁한글	-3825
▁호흡	-3826
시설을	-3827
시스템	-3828
하다가	-3829
▁같아요	-3830
▁국무총	-3831
▁국방부	-3832
▁기소의	-3833
▁내에서	-3834
▁노동자	-3835
▁다녀온	-3836
▁드러나	-3837
▁밖으로	-3838
▁부분이	-3839
▁사업을	-3840
▁사태가	-3841
▁선택을	-3842
▁운영한	-3843
▁의원의	-3844
▁일당이	-3845
▁잠수교	-3846
▁점검을	-3847
▁제외한	-3848
▁지원을	-3849
▁학교에	-3850
▁현행범	-3851
▁확진된	-3852
▁후원금	-3853
▁구속하고	-3854
▁넘습니다	-3855
▁매점매석	-3856
▁받습니다	-3857
▁조주빈의	-3858
▁지적장애	-3859
▁구속영장이	-3860
▁옮겨졌습니다	-3861
▁섬	-3862
개로	-3863
거돈	-3864
대문	-3865
대학	-3866
도와	-3867
마저	-3868
분의	-3869
소와	-3870
스는	-3871
씨와	-3872
치사	-3873
▁56	-3874
▁강훈	-3875
▁건너	-3876
▁공판	-3877
▁구축	-3878
▁그의	-3879
▁김남	-3880
▁남은	-3881
▁다쳤	-3882
▁담겨	-3883
▁마주	-3884
▁무장	-3885
▁밀수	-3886
▁보석	-3887
▁불만	-3888
▁상점	-3889
▁알게	-3890
▁유죄	-3891
▁이거	-3892
▁일상	-3893
▁찾기	-3894
▁파견	-3895
▁포장	-3896
▁하기	-3897
구에서	-3898
라면서	-3899
위에서	-3900
쪽으로	-3901
하다며	-3902
하려는	-3903
▁감식을	-3904
▁감염경	-3905
▁곳곳에	-3906
▁과정에	-3907
▁달아난	-3908
▁들어갔	-3909
▁비공개	-3910
▁실종자	-3911
▁오거돈	-3912
▁인천지	-3913
▁정세균	-3914
▁키워드	-3915
▁투입해	-3916
▁협조를	-3917
▁확인을	-3918
고속도로	-3919
위원회가	-3920
▁경찰청은	-3921
▁고등학교	-3922
▁곳입니다	-3923
▁스마트폰	-3924
▁행정안전	-3925
▁담겼습니다	-3926
▁예상됩니다	-3927
▁처음입니다	-3928
▁필요하다고	-3929
▁하겠습니다	-3930
▁확진판정을	-3931
▁경고했습니다	-3932
▁의뢰했습니다	-3933
▁닷	-3934
▁떼	-3935
▁똑	-3936
▁묵	-3937
▁밥	-3938
▁텐	-3939
▁흥	-3940
국회	-3941
내는	-3942
대한	-3943
리며	-3944
물에	-3945
뱅크	-3946
병을	-3947
분간	-3948
선에	-3949
스가	-3950
스러	-3951
약을	-3952
음에	-3953
집행	-3954
책을	-3955
해도	-3956
행이	-3957
▁65	-3958
▁CN	-3959
▁감소	-3960
▁검색	-3961
▁검체	-3962
▁공익	-3963
▁그냥	-3964
▁남부	-3965
▁누가	-3966
▁닷새	-3967
▁된다	-3968
▁등도	-3969
▁무릎	-3970
▁물에	-3971
▁발굴	-3972
▁방법	-3973
▁북부	-3974
▁선임	-3975
▁세월	-3976
▁속여	-3977
▁수요	-3978
▁수출	-3979
▁안정	-3980
▁위로	-3981
▁적은	-3982
▁전직	-3983
▁접경	-3984
▁중순	-3985
▁직권	-3986
▁혈중	-3987
관계를	-3988
이었다	-3989
테이너	-3990
▁무죄를	-3991
▁박지훈	-3992
▁밤사이	-3993
▁실종된	-3994
▁아이가	-3995
▁안으로	-3996
▁자리를	-3997
▁지키지	-3998
웠습니다	-3999
전문기관	-4000
▁경찰관이	-4001
▁만입니다	-4002
▁바랍니다	-4003
▁받았다고	-4004
▁블랙박스	-4005
▁사망자는	-4006
▁성폭행한	-4007
▁시위대는	-4008
▁영상물을	-4009
▁들었습니다	-4010
▁해양경찰청	-4011
▁진행했습니다	-4012
DC	-4013
▁멀	-4014
▁염	-4015
▁큽	-4016
▁펼	-4017
검사	-4018
관광	-4019
기지	-4020
라이	-4021
란히	-4022
물로	-4023
부도	-4024
상태	-4025
수로	-4026
심을	-4027
아야	-4028
았던	-4029
이의	-4030
인에	-4031
처리	-4032
청을	-4033
타임	-4034
투표	-4035
▁강도	-4036
▁걱정	-4037
▁고립	-4038
▁곳을	-4039
▁공무	-4040
▁공적	-4041
▁공포	-4042
▁기술	-4043
▁도쿄	-4044
▁따라	-4045
▁보완	-4046
▁빼돌	-4047
▁성적	-4048
▁세워	-4049
▁숙박	-4050
▁악용	-4051
▁안산	-4052
▁안팎	-4053
▁운용	-4054
▁의회	-4055
▁존재	-4056
▁주는	-4057
▁중부	-4058
▁진실	-4059
▁찾지	-4060
▁채취	-4061
▁추산	-4062
▁측에	-4063
▁트럭	-4064
▁혼란	-4065
대병원	-4066
됐으며	-4067
으로는	-4068
▁가족과	-4069
▁김남국	-4070
▁내용은	-4071
▁말씀드	-4072
▁머리를	-4073
▁북한의	-4074
▁붙잡힌	-4075
▁설치돼	-4076
▁시간을	-4077
▁시위는	-4078
▁우리는	-4079
▁유상봉	-4080
▁이후에	-4081
▁전광훈	-4082
▁제주시	-4083
▁주장을	-4084
회의에서	-4085
▁것이라는	-4086
▁보건복지	-4087
▁수법으로	-4088
▁아니냐는	-4089
▁유흥업소	-4090
▁재판에서	-4091
▁집행유예	-4092
▁내용입니다	-4093
▁서울시장의	-4094
▁신천지교회	-4095
▁능	-4096
▁덕	-4097
▁뜨	-4098
▁띄	-4099
▁찬	-4100
개의	-4101
국민	-4102
났다	-4103
량의	-4104
받는	-4105
상황	-4106
수록	-4107
식에	-4108
차에	-4109
호우	-4110
▁41	-4111
▁66	-4112
▁가상	-4113
▁검증	-4114
▁공작	-4115
▁공천	-4116
▁눈에	-4117
▁대공	-4118
▁똑같	-4119
▁물품	-4120
▁베이	-4121
▁보냈	-4122
▁분양	-4123
▁선원	-4124
▁송금	-4125
▁심의	-4126
▁애초	-4127
▁영화	-4128
▁이행	-4129
▁종업	-4130
▁주먹	-4131
▁주호	-4132
▁진짜	-4133
▁차로	-4134
▁차지	-4135
▁충주	-4136
▁투기	-4137
▁학원	-4138
견으로	-4139
된다고	-4140
았다고	-4141
인들이	-4142
중처벌	-4143
▁CNN	-4144
▁가로챈	-4145
▁거예요	-4146
▁거짓말	-4147
▁것이다	-4148
▁공개된	-4149
▁달하는	-4150
▁들어간	-4151
▁또다시	-4152
▁마찬가	-4153
▁문제의	-4154
▁방문해	-4155
▁방침을	-4156
▁보이지	-4157
▁분들이	-4158
▁불길이	-4159
▁사망자	-4160
▁사무실	-4161
▁사우나	-4162
▁수사권	-4163
▁어기고	-4164
▁유리창	-4165
▁윤상현	-4166
▁인근에	-4167
▁입건해	-4168
▁장면이	-4169
▁증거가	-4170
▁지역에	-4171
▁집회와	-4172
▁총리는	-4173
▁큽니다	-4174
▁한국인	-4175
▁희생자	-4176
▁거주하는	-4177
▁대변인은	-4178
▁명예훼손	-4179
▁목적으로	-4180
▁반발하고	-4181
▁부인하고	-4182
▁사람들은	-4183
▁시민들은	-4184
▁시장에게	-4185
▁조주빈이	-4186
▁집중호우	-4187
▁카메라를	-4188
▁컨테이너	-4189
▁화장실에	-4190
▁렌	-4191
▁뽑	-4192
▁좁	-4193
▁캠	-4194
▁흘	-4195
되기	-4196
문에	-4197
소방	-4198
어를	-4199
에요	-4200
와의	-4201
졌던	-4202
조직	-4203
치지	-4204
회사	-4205
▁규명	-4206
▁독립	-4207
▁동해	-4208
▁막을	-4209
▁머리	-4210
▁물리	-4211
▁민정	-4212
▁바다	-4213
▁받던	-4214
▁배상	-4215
▁보는	-4216
▁빨리	-4217
▁생존	-4218
▁쇼핑	-4219
▁수입	-4220
▁승인	-4221
▁시각	-4222
▁시점	-4223
▁씨도	-4224
▁아마	-4225
▁원주	-4226
▁은폐	-4227
▁이웃	-4228
▁자주	-4229
▁전공	-4230
▁전기	-4231
▁정무	-4232
▁주문	-4233
▁훔친	-4234
알코올	-4235
▁700	-4236
▁도움을	-4237
▁민주화	-4238
▁발표한	-4239
▁범죄에	-4240
▁보인다	-4241
▁불기소	-4242
▁비판이	-4243
▁사고는	-4244
▁시작한	-4245
▁시장을	-4246
▁아이를	-4247
▁없다며	-4248
▁위안부	-4249
▁이로써	-4250
▁일부는	-4251
▁정부와	-4252
▁지시를	-4253
▁진행한	-4254
▁참석자	-4255
▁청주의	-4256
▁탈북민	-4257
▁허가를	-4258
▁허위사	-4259
▁후보는	-4260
▁등입니다	-4261
▁없었다고	-4262
▁인재개발	-4263
▁있었는데	-4264
▁확인하는	-4265
▁계획이라고	-4266
▁브리핑에서	-4267
▁전망입니다	-4268
▁피해자에게	-4269
▁공개됐습니다	-4270
▁제기됐습니다	-4271
▁류	-4272
▁샤	-4273
▁액	-4274
▁엘	-4275
▁캐	-4276
▁컸	-4277
▁흙	-4278
구조	-4279
냐는	-4280
방이	-4281
수석	-4282
시킨	-4283
업자	-4284
운하	-4285
제의	-4286
청과	-4287
청이	-4288
해주	-4289
▁강경	-4290
▁강릉	-4291
▁개표	-4292
▁기초	-4293
▁다르	-4294
▁닿지	-4295
▁대남	-4296
▁대대	-4297
▁도난	-4298
▁도내	-4299
▁동생	-4300
▁목사	-4301
▁바닥	-4302
▁비행	-4303
▁사들	-4304
▁사찰	-4305
▁산하	-4306
▁살아	-4307
▁설계	-4308
▁식약	-4309
▁신원	-4310
▁안동	-4311
▁업소	-4312
▁자진	-4313
▁정식	-4314
▁주인	-4315
▁참사	-4316
▁채팅	-4317
▁최루	-4318
▁추돌	-4319
▁카페	-4320
▁타이	-4321
▁횡단	-4322
보다는	-4323
폴리스	-4324
▁괴롭힘	-4325
▁둘러싼	-4326
▁목사가	-4327
▁무면허	-4328
▁백신을	-4329
▁부모는	-4330
▁북한이	-4331
▁불가피	-4332
▁상당의	-4333
▁아들이	-4334
▁업체를	-4335
▁연락을	-4336
▁영수증	-4337
▁영장실	-4338
▁이유는	-4339
▁인력을	-4340
▁입장이	-4341
▁잇따르	-4342
▁제기한	-4343
▁주호영	-4344
▁지역을	-4345
▁집으로	-4346
▁처벌이	-4347
▁체포된	-4348
▁폐기물	-4349
▁흉기로	-4350
사법경찰	-4351
센터에서	-4352
인재개발	-4353
▁국정원법	-4354
▁불법으로	-4355
▁비정규직	-4356
▁이릅니다	-4357
▁제주도는	-4358
▁초등학생	-4359
▁취재진의	-4360
▁해당하는	-4361
▁확산세가	-4362
▁내놨습니다	-4363
▁주장합니다	-4364
▁혈중알코올	-4365
▁기소됐습니다	-4366
▁체포했습니다	-4367
▁깜	-4368
▁뭔	-4369
▁셈	-4370
▁짧	-4371
▁튀	-4372
▁헤	-4373
구와	-4374
기록	-4375
기술	-4376
려가	-4377
리로	-4378
소송	-4379
수에	-4380
이죠	-4381
있던	-4382
정에	-4383
주지	-4384
질환	-4385
초섬	-4386
탄을	-4387
폭력	-4388
하여	-4389
▁걸려	-4390
▁결제	-4391
▁관악	-4392
▁구형	-4393
▁군이	-4394
▁규탄	-4395
▁나이	-4396
▁넘긴	-4397
▁만난	-4398
▁말고	-4399
▁미뤄	-4400
▁밀접	-4401
▁발전	-4402
▁법사	-4403
▁부사	-4404
▁비교	-4405
▁산재	-4406
▁소녀	-4407
▁시급	-4408
▁심야	-4409
▁어떻	-4410
▁완료	-4411
▁이중	-4412
▁있죠	-4413
▁자금	-4414
▁조회	-4415
▁죄송	-4416
▁주식	-4417
▁태운	-4418
▁힘을	-4419
시에서	-4420
었다는	-4421
청에서	-4422
▁감염증	-4423
▁결과에	-4424
▁공소장	-4425
▁관리에	-4426
▁관심이	-4427
▁다리를	-4428
▁들어보	-4429
▁보건용	-4430
▁부분을	-4431
▁사망한	-4432
▁산사태	-4433
▁소식을	-4434
▁아버지	-4435
▁아이의	-4436
▁업체가	-4437
▁원에서	-4438
▁의혹과	-4439
▁일어나	-4440
▁있어요	-4441
▁재확산	-4442
▁증상을	-4443
▁진주시	-4444
▁참가자	-4445
▁춘천시	-4446
▁해마다	-4447
구역에서	-4448
▁경찰에서	-4449
▁광주광역	-4450
▁광주시는	-4451
▁구속기소	-4452
▁마스크와	-4453
▁부산에서	-4454
▁사람들을	-4455
▁소방대원	-4456
▁아버지가	-4457
▁안타까운	-4458
▁유족들은	-4459
▁전국에서	-4460
▁접경지역	-4461
▁중국에서	-4462
▁예정이라고	-4463
▁원내대표는	-4464
▁인정했습니다	-4465
▁지능범죄수사	-4466
▁지방자치단체	-4467
▁혈중알코올농	-4468
NA	-4469
▁J	-4470
▁궁	-4471
▁롯	-4472
▁홀	-4473
가며	-4474
고용	-4475
공원	-4476
내고	-4477
라루	-4478
물산	-4479
받을	-4480
방역	-4481
수와	-4482
어져	-4483
우는	-4484
위로	-4485
일로	-4486
측이	-4487
트가	-4488
하신	-4489
희석	-4490
▁58	-4491
▁가진	-4492
▁고민	-4493
▁군을	-4494
▁그랬	-4495
▁김종	-4496
▁명과	-4497
▁명백	-4498
▁미흡	-4499
▁반출	-4500
▁발급	-4501
▁방류	-4502
▁보통	-4503
▁부근	-4504
▁수치	-4505
▁수행	-4506
▁스트	-4507
▁열흘	-4508
▁오래	-4509
▁유입	-4510
▁일방	-4511
▁재정	-4512
▁전략	-4513
▁전쟁	-4514
▁주재	-4515
▁주한	-4516
▁진영	-4517
▁찾는	-4518
▁찾은	-4519
▁청문	-4520
▁출마	-4521
▁측정	-4522
▁코너	-4523
▁탓에	-4524
▁통합	-4525
▁포렌	-4526
▁해임	-4527
▁행각	-4528
비서관	-4529
였지만	-4530
졌는데	-4531
행위를	-4532
▁400	-4533
▁600	-4534
▁경로를	-4535
▁공개한	-4536
▁교사가	-4537
▁교수가	-4538
▁기록을	-4539
▁내려진	-4540
▁대검찰	-4541
▁미국의	-4542
▁민간인	-4543
▁버스를	-4544
▁범위를	-4545
▁벨라루	-4546
▁별도의	-4547
▁사람들	-4548
▁사이버	-4549
▁상품권	-4550
▁시간에	-4551
▁신원이	-4552
▁신호를	-4553
▁운영진	-4554
▁이름과	-4555
▁이유가	-4556
▁있어야	-4557
▁정의당	-4558
▁정치권	-4559
▁제기된	-4560
▁판단해	-4561
▁현재는	-4562
▁황운하	-4563
▁회의를	-4564
렸는데요	-4565
병원에서	-4566
▁2014	-4567
▁2019	-4568
▁가능성도	-4569
▁가짜뉴스	-4570
▁고등학생	-4571
▁국토교통	-4572
▁발생하는	-4573
▁방역수칙	-4574
▁삼성물산	-4575
▁생활치료	-4576
▁의붓아버	-4577
▁이뤄지지	-4578
▁인천공항	-4579
▁통행금지	-4580
▁답했습니다	-4581
▁알아봅니다	-4582
▁공개했습니다	-4583
▁구속했습니다	-4584
▁진행됐습니다	-4585
▁질병관리본부	-4586
▁확보했습니다	-4587
50	-4588
▁넉	-4589
▁맥	-4590
▁웃	-4591
국이	-4592
군에	-4593
년째	-4594
렸다	-4595
률이	-4596
리던	-4597
번에	-4598
보도	-4599
사기	-4600
중이	-4601
포츠	-4602
히는	-4603
▁개의	-4604
▁개학	-4605
▁고흥	-4606
▁공조	-4607
▁과학	-4608
▁교체	-4609
▁국적	-4610
▁기숙	-4611
▁나는	-4612
▁난민	-4613
▁내에	-4614
▁대마	-4615
▁동안	-4616
▁듣고	-4617
▁롯데	-4618
▁만인	-4619
▁말한	-4620
▁며칠	-4621
▁몰던	-4622
▁미니	-4623
▁밀집	-4624
▁보기	-4625
▁불꽃	-4626
▁산불	-4627
▁상승	-4628
▁시달	-4629
▁실질	-4630
▁쌓여	-4631
▁않다	-4632
▁언제	-4633
▁예비	-4634
▁유도	-4635
▁이루	-4636
▁임대	-4637
▁절단	-4638
▁조국	-4639
▁종료	-4640
▁중증	-4641
▁천만	-4642
▁청탁	-4643
▁총리	-4644
▁취해	-4645
▁터널	-4646
▁토지	-4647
▁퇴직	-4648
▁투명	-4649
▁하게	-4650
▁함께	-4651
▁해고	-4652
▁호우	-4653
▁힘든	-4654
대학교	-4655
면서도	-4656
을까요	-4657
하려고	-4658
▁140	-4659
▁DNA	-4660
▁가방에	-4661
▁국회에	-4662
▁김기현	-4663
▁당연히	-4664
▁대상은	-4665
▁대표가	-4666
▁대한민	-4667
▁동영상	-4668
▁때리고	-4669
▁떨어져	-4670
▁마치고	-4671
▁목사는	-4672
▁분석한	-4673
▁분석해	-4674
▁소규모	-4675
▁소독제	-4676
▁소방서	-4677
▁수사와	-4678
▁시설에	-4679
▁올해는	-4680
▁유치원	-4681
▁이들에	-4682
▁이어질	-4683
▁일하던	-4684
▁조치에	-4685
▁참여한	-4686
▁한글날	-4687
▁환자의	-4688
▁후보가	-4689
국제공항	-4690
수입니다	-4691
안전대책	-4692
희입니다	-4693
▁반대하는	-4694
▁발생하고	-4695
▁벌어지고	-4696
▁보건당국	-4697
▁보수단체	-4698
▁본격적인	-4699
▁사회복무	-4700
▁성착취물	-4701
▁않습니까	-4702
▁어린이가	-4703
▁이후에도	-4704
▁추정하고	-4705
▁항의하는	-4706
하겠습니다	-4707
▁영장실질심	-4708
▁홍콩보안법	-4709
▁기각했습니다	-4710
▁일어났습니다	-4711
▁잇따랐습니다	-4712
▁호소했습니다	-4713
mm	-4714
▁옛	-4715
▁짓	-4716
▁탔	-4717
▁흰	-4718
경북	-4719
례를	-4720
재해	-4721
접촉	-4722
직원	-4723
회로	-4724
▁AP	-4725
▁가격	-4726
▁가슴	-4727
▁걸린	-4728
▁게임	-4729
▁공약	-4730
▁군과	-4731
▁그룹	-4732
▁나설	-4733
▁담배	-4734
▁동부	-4735
▁때도	-4736
▁뜻을	-4737
▁머무	-4738
▁멈춰	-4739
▁모양	-4740
▁목표	-4741
▁몰고	-4742
▁무려	-4743
▁미만	-4744
▁바라	-4745
▁받기	-4746
▁배송	-4747
▁복지	-4748
▁부여	-4749
▁비해	-4750
▁뿐만	-4751
▁새해	-4752
▁생명	-4753
▁선언	-4754
▁수수	-4755
▁수술	-4756
▁시공	-4757
▁시속	-4758
▁시절	-4759
▁실내	-4760
▁역사	-4761
▁잡고	-4762
▁적혀	-4763
▁전반	-4764
▁정권	-4765
▁제압	-4766
▁창녕	-4767
▁폐렴	-4768
▁표결	-4769
▁하자	-4770
▁한창	-4771
▁합격	-4772
▁합천	-4773
▁확실	-4774
▁후속	-4775
▁휴가	-4776
▁희망	-4777
번호를	-4778
질랜드	-4779
▁120	-4780
▁강력히	-4781
▁계기로	-4782
▁고의로	-4783
▁늘어난	-4784
▁단속에	-4785
▁말까지	-4786
▁말씀을	-4787
▁모르는	-4788
▁모이는	-4789
▁방역에	-4790
▁별도로	-4791
▁보이고	-4792
▁설치해	-4793
▁세월호	-4794
▁소식이	-4795
▁속에서	-4796
▁손해배	-4797
▁수사는	-4798
▁않는다	-4799
▁않을까	-4800
▁용의자	-4801
▁유증상	-4802
▁이르는	-4803
▁이어진	-4804
▁징계를	-4805
▁차례에	-4806
▁피해는	-4807
▁필요가	-4808
▁하거나	-4809
▁행동을	-4810
▁화재가	-4811
서입니다	-4812
위원회에	-4813
자들에게	-4814
▁검찰개혁	-4815
▁대구경북	-4816
▁대통령을	-4817
▁받았다는	-4818
▁벨라루스	-4819
▁사용하는	-4820
▁서울시장	-4821
▁신분으로	-4822
▁않는다고	-4823
▁울산시장	-4824
▁위해서는	-4825
▁종교시설	-4826
▁지역사회	-4827
▁해양수산	-4828
▁국가보안법	-4829
▁넘었습니다	-4830
▁역학조사를	-4831
▁인터뷰에서	-4832
▁현행범으로	-4833
▁기소의견으로	-4834
▁임시생활시설	-4835
▁피해자들에게	-4836
▁확진됐습니다	-4837
▁덜	-4838
▁돕	-4839
▁뜯	-4840
▁쓸	-4841
▁젊	-4842
겠죠	-4843
경을	-4844
곳의	-4845
길을	-4846
류에	-4847
를린	-4848
문서	-4849
법과	-4850
법은	-4851
살인	-4852
수막	-4853
여서	-4854
으니	-4855
인트	-4856
일간	-4857
정은	-4858
제와	-4859
치게	-4860
크를	-4861
한국	-4862
항이	-4863
▁가동	-4864
▁건축	-4865
▁검역	-4866
▁공중	-4867
▁궁금	-4868
▁꾸준	-4869
▁눈이	-4870
▁대폭	-4871
▁도중	-4872
▁동승	-4873
▁뒤집	-4874
▁모르	-4875
▁물이	-4876
▁바꾸	-4877
▁바탕	-4878
▁밖에	-4879
▁보좌	-4880
▁복구	-4881
▁불은	-4882
▁빌라	-4883
▁앱을	-4884
▁여쭤	-4885
▁요즘	-4886
▁응답	-4887
▁이렇	-4888
▁이슬	-4889
▁자율	-4890
▁잡아	-4891
▁제지	-4892
▁중간	-4893
▁철도	-4894
▁추행	-4895
▁폭로	-4896
▁해운	-4897
납니다	-4898
음에도	-4899
이어서	-4900
일까요	-4901
졌다는	-4902
▁강화된	-4903
▁건가요	-4904
▁경우는	-4905
▁고소한	-4906
▁공권력	-4907
▁광주시	-4908
▁늘어날	-4909
▁다수의	-4910
▁단속이	-4911
▁대구의	-4912
▁도움이	-4913
▁발견돼	-4914
▁발생할	-4915
▁베를린	-4916
▁부분에	-4917
▁비대면	-4918
▁사례는	-4919
▁사안이	-4920
▁사용한	-4921
▁사전에	-4922
▁상태를	-4923
▁생활을	-4924
▁시민이	-4925
▁시험을	-4926
▁올라온	-4927
▁우려를	-4928
▁인원이	-4929
▁일요일	-4930
▁자세히	-4931
▁자유를	-4932
▁정황을	-4933
▁주변을	-4934
▁지금도	-4935
▁직원의	-4936
▁최초로	-4937
▁판매한	-4938
▁현수막	-4939
▁환자를	-4940
▁효과가	-4941
▁개정안이	-4942
▁경우에는	-4943
▁경찰관의	-4944
▁교육부는	-4945
▁내일부터	-4946
▁변호인은	-4947
▁신속하게	-4948
▁아직까지	-4949
▁않았지만	-4950
▁있다면서	-4951
▁차원에서	-4952
▁학생들이	-4953
▁확인하기	-4954
해왔습니다	-4955
▁옮겨졌지만	-4956
▁타이어뱅크	-4957
▁피해자들은	-4958
▁피해자들이	-4959
▁반박했습니다	-4960
▁부인했습니다	-4961
▁굴	-4962
▁멍	-4963
▁밟	-4964
▁쇠	-4965
▁슬	-4966
▁쌍	-4967
▁옷	-4968
▁왜	-4969
▁콘	-4970
경제	-4971
군을	-4972
기의	-4973
됐을	-4974
두환	-4975
레탄	-4976
려면	-4977
림픽	-4978
면을	-4979
스코	-4980
어난	-4981
었죠	-4982
이탈	-4983
전자	-4984
조합	-4985
체육	-4986
터를	-4987
형이	-4988
희롱	-4989
▁64	-4990
▁감금	-4991
▁격화	-4992
▁고성	-4993
▁고스	-4994
▁구호	-4995
▁귀가	-4996
▁기상	-4997
▁김영	-4998
▁김해	-4999
▁남자	-5000
▁낮은	-5001
▁담은	-5002
▁딸을	-5003
▁딸이	-5004
▁모레	-5005
▁배포	-5006
▁보다	-5007
▁붙어	-5008
▁비리	-5009
▁빚어	-5010
▁사재	-5011
▁소중	-5012
▁심사	-5013
▁없을	-5014
▁역대	-5015
▁연말	-5016
▁오른	-5017
▁완치	-5018
▁원어	-5019
▁위생	-5020
▁유권	-5021
▁이르	-5022
▁일제	-5023
▁장소	-5024
▁장학	-5025
▁젊은	-5026
▁지구	-5027
▁측근	-5028
▁치러	-5029
▁투약	-5030
▁포항	-5031
▁해변	-5032
▁해수	-5033
▁홍익	-5034
되는데	-5035
보호법	-5036
탭니다	-5037
했으나	-5038
▁검사는	-5039
▁경남의	-5040
▁계획을	-5041
▁공사를	-5042
▁관리를	-5043
▁구성된	-5044
▁대출을	-5045
▁된다고	-5046
▁들여다	-5047
▁때마다	-5048
▁미니애	-5049
▁법원의	-5050
▁본인이	-5051
▁부상을	-5052
▁부장검	-5053
▁사실도	-5054
▁상태가	-5055
▁상황은	-5056
▁성희롱	-5057
▁소송을	-5058
▁수색을	-5059
▁수천만	-5060
▁식약처	-5061
▁심하게	-5062
▁여부는	-5063
▁여성과	-5064
▁여학생	-5065
▁우레탄	-5066
▁이르면	-5067
▁일부가	-5068
▁전두환	-5069
▁정도의	-5070
▁정보가	-5071
▁지목된	-5072
▁철저한	-5073
▁폭발이	-5074
▁해운대	-5075
▁후베이	-5076
경찰서에	-5077
졌는데요	-5078
▁2020	-5079
▁계속해서	-5080
▁고스란히	-5081
▁관련해서	-5082
▁국내에서	-5083
▁국민청원	-5084
▁남성에게	-5085
▁달합니다	-5086
▁바탕으로	-5087
▁변호사는	-5088
▁스트레스	-5089
▁시내버스	-5090
▁어린이를	-5091
▁우리나라	-5092
▁증인으로	-5093
▁특별수사	-5094
▁하는데요	-5095
▁확산으로	-5096
▁걸렸습니다	-5097
▁마찬가지로	-5098
▁보겠습니다	-5099
▁보였습니다	-5100
▁생각합니다	-5101
▁어린이보호	-5102
▁워싱턴에서	-5103
▁미니애폴리스	-5104
▁텔레그램에서	-5105
▁겹	-5106
▁맺	-5107
▁멧	-5108
▁즐	-5109
▁찔	-5110
교도	-5111
구청	-5112
께서	-5113
끄러	-5114
남용	-5115
년의	-5116
니티	-5117
대상	-5118
리도	-5119
리면	-5120
목을	-5121
문은	-5122
반이	-5123
발전	-5124
분에	-5125
서부	-5126
스탄	-5127
심의	-5128
약품	-5129
어도	-5130
어든	-5131
요양	-5132
일째	-5133
창호	-5134
체포	-5135
카오	-5136
킥보	-5137
형에	-5138
호선	-5139
환자	-5140
회에	-5141
▁57	-5142
▁62	-5143
▁거론	-5144
▁격렬	-5145
▁경영	-5146
▁계산	-5147
▁공군	-5148
▁구입	-5149
▁그게	-5150
▁그다	-5151
▁금은	-5152
▁급격	-5153
▁김원	-5154
▁끝나	-5155
▁느끼	-5156
▁되어	-5157
▁뒤따	-5158
▁뒤인	-5159
▁맞춰	-5160
▁맡은	-5161
▁매체	-5162
▁멧돼	-5163
▁면접	-5164
▁몸싸	-5165
▁무료	-5166
▁무리	-5167
▁묻는	-5168
▁물어	-5169
▁보행	-5170
▁불량	-5171
▁소음	-5172
▁수익	-5173
▁시기	-5174
▁신설	-5175
▁신용	-5176
▁유세	-5177
▁의식	-5178
▁이란	-5179
▁인공	-5180
▁일간	-5181
▁일명	-5182
▁임의	-5183
▁재범	-5184
▁전역	-5185
▁죽음	-5186
▁체온	-5187
▁총에	-5188
▁총장	-5189
▁추격	-5190
▁축소	-5191
▁출소	-5192
▁취득	-5193
▁측면	-5194
▁커뮤	-5195
▁파리	-5196
▁파티	-5197
▁펜실	-5198
▁한때	-5199
겠지만	-5200
년까지	-5201
방에서	-5202
상으로	-5203
시간여	-5204
업체에	-5205
지원금	-5206
천여만	-5207
▁180	-5208
▁검찰로	-5209
▁기자회	-5210
▁꾸준히	-5211
▁답변을	-5212
▁당국에	-5213
▁대마초	-5214
▁대응을	-5215
▁뒤에도	-5216
▁또다른	-5217
▁방지를	-5218
▁부장판	-5219
▁사용할	-5220
▁신상을	-5221
▁쓰레기	-5222
▁아직도	-5223
▁원으로	-5224
▁이름이	-5225
▁이슬람	-5226
▁작성한	-5227
▁증세를	-5228
▁집회는	-5229
▁집회의	-5230
▁참고인	-5231
▁충분히	-5232
▁판단을	-5233
▁필리핀	-5234
▁학대한	-5235
▁할아버	-5236
▁2013	-5237
▁가상화폐	-5238
▁개정안을	-5239
▁검사에서	-5240
▁목소리를	-5241
▁무단이탈	-5242
▁사회복지	-5243
▁상탭니다	-5244
▁아니라고	-5245
▁여성단체	-5246
▁우한에서	-5247
▁운전자를	-5248
▁위반으로	-5249
▁주장하고	-5250
▁청원경찰	-5251
▁커뮤니티	-5252
▁피고인이	-5253
시켰습니다	-5254
▁모습입니다	-5255
▁올렸습니다	-5256
▁집중적으로	-5257
▁결정했습니다	-5258
▁발부했습니다	-5259
▁조사했습니다	-5260
30	-5261
▁붕	-5262
▁쉬	-5263
검색	-5264
계획	-5265
과정	-5266
관에	-5267
금은	-5268
기계	-5269
내려	-5270
단의	-5271
동부	-5272
들어	-5273
력과	-5274
렸고	-5275
명령	-5276
반은	-5277
상의	-5278
생이	-5279
실은	-5280
운용	-5281
웨이	-5282
유를	-5283
자들	-5284
자료	-5285
작업	-5286
주고	-5287
주와	-5288
체류	-5289
터카	-5290
▁54	-5291
▁78	-5292
▁강풍	-5293
▁걸어	-5294
▁과도	-5295
▁관여	-5296
▁광고	-5297
▁구금	-5298
▁끌어	-5299
▁내릴	-5300
▁높이	-5301
▁동행	-5302
▁따로	-5303
▁목을	-5304
▁몰아	-5305
▁민관	-5306
▁빠른	-5307
▁설득	-5308
▁순식	-5309
▁심한	-5310
▁쓰는	-5311
▁약국	-5312
▁엄격	-5313
▁옆에	-5314
▁이만	-5315
▁장을	-5316
▁쟁점	-5317
▁전동	-5318
▁접속	-5319
▁제재	-5320
▁주력	-5321
▁천여	-5322
▁특례	-5323
▁폐지	-5324
▁한인	-5325
▁훔쳐	-5326
▁흔적	-5327
됐는지	-5328
목으로	-5329
복지법	-5330
분부터	-5331
브리핑	-5332
스러운	-5333
원들이	-5334
이었고	-5335
주시기	-5336
지기도	-5337
하시는	-5338
한국당	-5339
한다며	-5340
해달라	-5341
▁검거된	-5342
▁과정을	-5343
▁과태료	-5344
▁교육감	-5345
▁대사관	-5346
▁드러난	-5347
▁들어서	-5348
▁라면서	-5349
▁렌터카	-5350
▁말레이	-5351
▁받았다	-5352
▁병원을	-5353
▁본회의	-5354
▁식사를	-5355
▁아래로	-5356
▁연기가	-5357
▁일가족	-5358
▁일하는	-5359
▁조사는	-5360
▁중국에	-5361
▁중국의	-5362
▁증거로	-5363
▁차이가	-5364
▁청장은	-5365
▁최소한	-5366
▁출동해	-5367
▁충격을	-5368
▁타이완	-5369
▁학대를	-5370
▁학생이	-5371
▁행사를	-5372
▁행위는	-5373
▁홍익표	-5374
▁확진돼	-5375
▁공무원의	-5376
▁국가수사	-5377
▁대한민국	-5378
▁무엇보다	-5379
▁법무부는	-5380
▁서울시청	-5381
▁순식간에	-5382
▁어렵다는	-5383
▁운전자의	-5384
▁일입니다	-5385
▁피해자와	-5386
▁해상에서	-5387
▁확진자도	-5388
▁확진자를	-5389
해졌습니다	-5390
▁개인정보를	-5391
▁국가공무원	-5392
▁상대적으로	-5393
▁시작합니다	-5394
▁접수됐습니다	-5395
▁제출했습니다	-5396
▁갚	-5397
▁넓	-5398
▁봐	-5399
▁삶	-5400
▁옹	-5401
▁척	-5402
▁틀	-5403
구치	-5404
군요	-5405
기사	-5406
등을	-5407
디아	-5408
량은	-5409
리카	-5410
반기	-5411
받지	-5412
보기	-5413
북부	-5414
서와	-5415
스를	-5416
시와	-5417
심한	-5418
은행	-5419
이트	-5420
자금	-5421
장인	-5422
장치	-5423
지사	-5424
치기	-5425
팀은	-5426
판에	-5427
할지	-5428
항에	-5429
▁44	-5430
▁59	-5431
▁75	-5432
▁감정	-5433
▁강서	-5434
▁개별	-5435
▁글이	-5436
▁김용	-5437
▁내세	-5438
▁다툼	-5439
▁담임	-5440
▁대목	-5441
▁도와	-5442
▁돌봄	-5443
▁동네	-5444
▁떠나	-5445
▁맞고	-5446
▁매주	-5447
▁미군	-5448
▁발사	-5449
▁변화	-5450
▁불복	-5451
▁빠진	-5452
▁서부	-5453
▁성인	-5454
▁아주	-5455
▁앞둔	-5456
▁원룸	-5457
▁유예	-5458
▁유행	-5459
▁인적	-5460
▁잃고	-5461
▁입양	-5462
▁입을	-5463
▁점이	-5464
▁점점	-5465
▁정비	-5466
▁조카	-5467
▁종사	-5468
▁주행	-5469
▁증인	-5470
▁철수	-5471
▁총괄	-5472
▁출장	-5473
▁취임	-5474
▁치솟	-5475
▁필수	-5476
▁향후	-5477
▁휩쓸	-5478
교사가	-5479
대에서	-5480
더라고	-5481
명에서	-5482
본부를	-5483
센터는	-5484
시키는	-5485
적이고	-5486
한다면	-5487
▁가족의	-5488
▁건수는	-5489
▁결과는	-5490
▁결정할	-5491
▁교수의	-5492
▁교회를	-5493
▁교회에	-5494
▁금품을	-5495
▁나타난	-5496
▁다음달	-5497
▁당분간	-5498
▁마약류	-5499
▁무증상	-5500
▁반정부	-5501
▁베이징	-5502
▁보니까	-5503
▁분위기	-5504
▁사고의	-5505
▁상처를	-5506
▁소개해	-5507
▁수사의	-5508
▁승객이	-5509
▁언론은	-5510
▁없었고	-5511
▁요청을	-5512
▁의암댐	-5513
▁장애인	-5514
▁전공의	-5515
▁전까지	-5516
▁정도가	-5517
▁정인이	-5518
▁주택가	-5519
▁중학교	-5520
▁지역은	-5521
▁진행된	-5522
▁찾아가	-5523
▁책임자	-5524
▁택시를	-5525
▁통보를	-5526
▁포렌식	-5527
▁하다가	-5528
▁혐의와	-5529
드립니다	-5530
렀습니다	-5531
우입니다	-5532
정입니다	-5533
▁개정안은	-5534
▁교회에서	-5535
▁긴급체포	-5536
▁뉴질랜드	-5537
▁대통령과	-5538
▁받아들여	-5539
▁업무방해	-5540
▁연결해서	-5541
▁용의자를	-5542
▁이용하는	-5543
▁인천지방	-5544
▁자택에서	-5545
▁전역에서	-5546
▁중앙재난	-5547
▁필요하다	-5548
▁학생들의	-5549
▁관련해서는	-5550
▁많았습니다	-5551
▁말레이시아	-5552
▁미성년자를	-5553
▁방역수칙을	-5554
▁성착취물을	-5555
▁송치했다고	-5556
▁아파트에서	-5557
▁어떻습니까	-5558
▁자가격리를	-5559
▁찾았습니다	-5560
▁피해자들을	-5561
▁검거했습니다	-5562
▁드러냈습니다	-5563
▁인천국제공항	-5564
▁중앙재난안전대책	-5565
▁균	-5566
▁깔	-5567
▁꽃	-5568
▁묘	-5569
▁빅	-5570
▁쯤	-5571
▁칼	-5572
가에	-5573
거운	-5574
곳은	-5575
공직	-5576
그룹	-5577
길에	-5578
널드	-5579
디어	-5580
리게	-5581
면의	-5582
범이	-5583
상품	-5584
석을	-5585
수도	-5586
시로	-5587
시킬	-5588
왔고	-5589
원도	-5590
율이	-5591
일보	-5592
임이	-5593
종의	-5594
주기	-5595
중인	-5596
지기	-5597
지인	-5598
질을	-5599
층에	-5600
파가	-5601
판이	-5602
화된	-5603
▁가던	-5604
▁간의	-5605
▁검문	-5606
▁공관	-5607
▁공백	-5608
▁광장	-5609
▁군인	-5610
▁길이	-5611
▁깊은	-5612
▁내역	-5613
▁네팔	-5614
▁돈만	-5615
▁돌며	-5616
▁동선	-5617
▁뚫고	-5618
▁마구	-5619
▁모니	-5620
▁바란	-5621
▁받으	-5622
▁배수	-5623
▁배제	-5624
▁벌써	-5625
▁법이	-5626
▁북측	-5627
▁산림	-5628
▁산소	-5629
▁산책	-5630
▁성공	-5631
▁소홀	-5632
▁수능	-5633
▁순천	-5634
▁스프	-5635
▁실패	-5636
▁아프	-5637
▁악화	-5638
▁앓고	-5639
▁애플	-5640
▁양육	-5641
▁워낙	-5642
▁유력	-5643
▁유인	-5644
▁이스	-5645
▁인멸	-5646
▁인식	-5647
▁전과	-5648
▁정작	-5649
▁주관	-5650
▁채택	-5651
▁첫날	-5652
▁청소	-5653
▁초과	-5654
▁총경	-5655
▁취지	-5656
▁크레	-5657
▁판사	-5658
▁해킹	-5659
▁화성	-5660
▁화장	-5661
단계를	-5662
대사관	-5663
업체를	-5664
에서의	-5665
왔다고	-5666
인들의	-5667
포스트	-5668
▁000	-5669
▁가족이	-5670
▁거리를	-5671
▁걸까요	-5672
▁겁니까	-5673
▁고통을	-5674
▁교수는	-5675
▁교회와	-5676
▁남성과	-5677
▁대화명	-5678
▁도착한	-5679
▁돌아가	-5680
▁무기징	-5681
▁범행에	-5682
▁보시는	-5683
▁불리는	-5684
▁설치한	-5685
▁성북구	-5686
▁시간은	-5687
▁시행된	-5688
▁식으로	-5689
▁신속히	-5690
▁아니고	-5691
▁아들을	-5692
▁아시아	-5693
▁안에는	-5694
▁어려워	-5695
▁업체는	-5696
▁음란물	-5697
▁의사당	-5698
▁일어났	-5699
▁잘못된	-5700
▁장례식	-5701
▁전국의	-5702
▁점검한	-5703
▁정부에	-5704
▁정확히	-5705
▁차량과	-5706
▁차례로	-5707
▁취지로	-5708
▁취지의	-5709
▁파악해	-5710
▁판결을	-5711
▁판단한	-5712
▁협박해	-5713
▁후보를	-5714
▁훼손한	-5715
교육청은	-5716
더라고요	-5717
이었지만	-5718
▁강화하고	-5719
▁계속되는	-5720
▁공장에서	-5721
▁광주에서	-5722
▁교민들은	-5723
▁높아지고	-5724
▁받았는데	-5725
▁방송시간	-5726
▁방역당국	-5727
▁서비스를	-5728
▁성추행을	-5729
▁승용차를	-5730
▁않는다는	-5731
▁어제까지	-5732
▁없었지만	-5733
▁유지하고	-5734
▁이어가고	-5735
▁전화번호	-5736
▁주민들의	-5737
▁촉구하는	-5738
▁하겠다고	-5739
▁도로교통법	-5740
▁필요하다는	-5741
▁감염병예방법	-5742
▁제기했습니다	-5743
▁아동보호전문기관	-5744
▁굳	-5745
▁꼼	-5746
▁맹	-5747
▁찌	-5748
개입	-5749
계에	-5750
금융	-5751
년과	-5752
로운	-5753
르지	-5754
리포	-5755
발을	-5756
산의	-5757
서야	-5758
서의	-5759
수습	-5760
씨에	-5761
전담	-5762
착용	-5763
추는	-5764
토킹	-5765
함에	-5766
합동	-5767
합의	-5768
해양	-5769
행동	-5770
▁63	-5771
▁73	-5772
▁96	-5773
▁간담	-5774
▁경주	-5775
▁고향	-5776
▁과천	-5777
▁광역	-5778
▁구로	-5779
▁규제	-5780
▁꺼내	-5781
▁꾸려	-5782
▁남해	-5783
▁다리	-5784
▁돈이	-5785
▁따져	-5786
▁맡고	-5787
▁모텔	-5788
▁민생	-5789
▁바뀐	-5790
▁발동	-5791
▁방화	-5792
▁범람	-5793
▁법을	-5794
▁분들	-5795
▁불로	-5796
▁불에	-5797
▁산청	-5798
▁선제	-5799
▁성지	-5800
▁소셜	-5801
▁스쿨	-5802
▁승리	-5803
▁없음	-5804
▁여수	-5805
▁우선	-5806
▁우편	-5807
▁위탁	-5808
▁육박	-5809
▁이걸	-5810
▁좋지	-5811
▁주간	-5812
▁주소	-5813
▁주점	-5814
▁중지	-5815
▁집어	-5816
▁첩보	-5817
▁청사	-5818
▁탈락	-5819
▁트윗	-5820
▁하늘	-5821
▁현대	-5822
▁형식	-5823
▁홍보	-5824
▁휘두	-5825
까지도	-5826
단에서	-5827
리면서	-5828
문에서	-5829
산에서	-5830
서비스	-5831
월에는	-5832
인들은	-5833
층짜리	-5834
협의회	-5835
▁130	-5836
▁같은데	-5837
▁곳으로	-5838
▁근거가	-5839
▁기간에	-5840
▁기사가	-5841
▁기준을	-5842
▁김종인	-5843
▁논란을	-5844
▁다니는	-5845
▁도널드	-5846
▁된다는	-5847
▁명백한	-5848
▁무제한	-5849
▁무허가	-5850
▁문화재	-5851
▁받았던	-5852
▁배상훈	-5853
▁법정에	-5854
▁보내는	-5855
▁부족한	-5856
▁비용을	-5857
▁사진과	-5858
▁소방차	-5859
▁수사도	-5860
▁수술을	-5861
▁스토킹	-5862
▁승인을	-5863
▁시장에	-5864
▁신청한	-5865
▁신청할	-5866
▁실시간	-5867
▁아동의	-5868
▁얼굴이	-5869
▁없었다	-5870
▁연기를	-5871
▁연루된	-5872
▁열리는	-5873
▁영상은	-5874
▁예방을	-5875
▁욕설을	-5876
▁위해서	-5877
▁유료회	-5878
▁유출된	-5879
▁윤창호	-5880
▁의지를	-5881
▁이뤄질	-5882
▁인천의	-5883
▁장소를	-5884
▁지사는	-5885
▁진상규	-5886
▁최근에	-5887
▁코너명	-5888
▁폭언과	-5889
▁폭우로	-5890
▁확인이	-5891
▁후보자	-5892
베이니아	-5893
석입니다	-5894
이었는데	-5895
이었다고	-5896
적으로는	-5897
줬습니다	-5898
▁경상남도	-5899
▁고위공직	-5900
▁국가경찰	-5901
▁규정하고	-5902
▁대공수사	-5903
▁마찬가지	-5904
▁미국에서	-5905
▁받아들이	-5906
▁받았지만	-5907
▁발생하지	-5908
▁설치하고	-5909
▁어제부터	-5910
▁요구하고	-5911
▁유흥주점	-5912
▁이뤄지고	-5913
▁입건하고	-5914
▁적극적인	-5915
▁제주도가	-5916
▁직권남용	-5917
▁직원들이	-5918
▁집행정지	-5919
▁취재진이	-5920
▁한국전쟁	-5921
▁국민의힘은	-5922
▁의붓어머니	-5923
▁자가격리자	-5924
▁자치경찰제	-5925
▁취재진에게	-5926
▁필요합니다	-5927
▁경찰인재개발	-5928
▁넘어섰습니다	-5929
▁도착했습니다	-5930
▁전해드립니다	-5931
▁펜실베이니아	-5932
▁프로그램명을	-5933
▁나눠보겠습니다	-5934
▁알아보겠습니다	-5935
▁서울지방경찰청은	-5936
▁갇	-5937
▁냈	-5938
▁밑	-5939
▁캘	-5940
▁핼	-5941
가가	-5942
감시	-5943
기야	-5944
달아	-5945
동물	-5946
둥이	-5947
러윈	-5948
률은	-5949
리다	-5950
메시	-5951
모임	-5952
받침	-5953
비아	-5954
산물	-5955
액은	-5956
이면	-5957
전에	-5958
점에	-5959
준비	-5960
청문	-5961
하셨	-5962
화학	-5963
▁53	-5964
▁61	-5965
▁감성	-5966
▁개가	-5967
▁것만	-5968
▁곳도	-5969
▁구상	-5970
▁근절	-5971
▁금품	-5972
▁김태	-5973
▁나간	-5974
▁나누	-5975
▁날이	-5976
▁누락	-5977
▁담고	-5978
▁당진	-5979
▁대답	-5980
▁도민	-5981
▁도움	-5982
▁때려	-5983
▁때린	-5984
▁로스	-5985
▁모욕	-5986
▁무더	-5987
▁밀어	-5988
▁발송	-5989
▁밤새	-5990
▁보복	-5991
▁복무	-5992
▁부처	-5993
▁분산	-5994
▁분이	-5995
▁붕괴	-5996
▁브라	-5997
▁빼앗	-5998
▁사죄	-5999
▁서구	-6000
▁설정	-6001
▁속출	-6002
▁숨을	-6003
▁엘리	-6004
▁열릴	-6005
▁영결	-6006
▁왜곡	-6007
▁유독	-6008
▁육군	-6009
▁이관	-6010
▁이순	-6011
▁이슈	-6012
▁인계	-6013
▁일고	-6014
▁임금	-6015
▁저항	-6016
▁적절	-6017
▁전통	-6018
▁점도	-6019
▁지연	-6020
▁질식	-6021
▁질의	-6022
▁질주	-6023
▁체크	-6024
▁초래	-6025
▁축구	-6026
▁특활	-6027
▁파주	-6028
▁한진	-6029
▁행진	-6030
▁홍천	-6031
▁흰색	-6032
겼다고	-6033
네시아	-6034
됐다며	-6035
드리는	-6036
렸다고	-6037
시간에	-6038
았는데	-6039
았다는	-6040
으니까	-6041
자료를	-6042
작업을	-6043
젤레스	-6044
조사에	-6045
줍니다	-6046
청소년	-6047
하고도	-6048
▁가담한	-6049
▁갈등이	-6050
▁강제로	-6051
▁건물을	-6052
▁검찰과	-6053
▁국민연	-6054
▁극단적	-6055
▁끝나는	-6056
▁내용과	-6057
▁대책이	-6058
▁뒷받침	-6059
▁들어오	-6060
▁못하게	-6061
▁바닥에	-6062
▁벗어나	-6063
▁분석을	-6064
▁사고와	-6065
▁사무총	-6066
▁서대문	-6067
▁성지순	-6068
▁쇼핑몰	-6069
▁스포츠	-6070
▁신고로	-6071
▁어렵다	-6072
▁없지만	-6073
▁외교부	-6074
▁요구한	-6075
▁요청한	-6076
▁의암호	-6077
▁의원을	-6078
▁이제는	-6079
▁전라남	-6080
▁절차가	-6081
▁직원과	-6082
▁파악한	-6083
▁포함돼	-6084
▁학대가	-6085
▁핼러윈	-6086
▁확인돼	-6087
▁회장은	-6088
위원회의	-6089
하면서도	-6090
▁강화하는	-6091
▁다릅니다	-6092
▁대구에서	-6093
▁대부분이	-6094
▁마스크가	-6095
▁메시지를	-6096
▁못했다고	-6097
▁민주주의	-6098
▁방법으로	-6099
▁불법체류	-6100
▁사람들의	-6101
▁사실관계	-6102
▁사이트에	-6103
▁서울에서	-6104
▁시작으로	-6105
▁않았다는	-6106
▁인사청문	-6107
▁일대에서	-6108
▁입장문을	-6109
▁조주빈은	-6110
▁통제되고	-6111
▁피의자가	-6112
▁화물차가	-6113
▁확대하고	-6114
▁확진자로	-6115
▁당했습니다	-6116
▁방역당국이	-6117
▁시간입니다	-6118
▁있었는데요	-6119
▁잡혔습니다	-6120
▁검거됐습니다	-6121
▁기록했습니다	-6122
▁발견했습니다	-6123
▁붙잡았습니다	-6124
▁포함됐습니다	-6125
▁살펴보겠습니다	-6126
▁선고받았습니다	-6127
FP	-6128
▁끄	-6129
▁끔	-6130
▁낳	-6131
▁둘	-6132
▁색	-6133
▁쏘	-6134
▁쏜	-6135
▁엽	-6136
▁혁	-6137
결제	-6138
나들	-6139
놓고	-6140
다니	-6141
됨에	-6142
득이	-6143
라엘	-6144
리자	-6145
많은	-6146
망이	-6147
무에	-6148
발찌	-6149
방지	-6150
사인	-6151
세대	-6152
세로	-6153
속히	-6154
시면	-6155
시민	-6156
심은	-6157
없는	-6158
용진	-6159
인척	-6160
저기	-6161
직을	-6162
키는	-6163
해져	-6164
활동	-6165
훈련	-6166
▁67	-6167
▁68	-6168
▁88	-6169
▁갑질	-6170
▁거기	-6171
▁거세	-6172
▁건지	-6173
▁겨냥	-6174
▁결혼	-6175
▁경합	-6176
▁경험	-6177
▁계곡	-6178
▁구멍	-6179
▁국세	-6180
▁기재	-6181
▁끔찍	-6182
▁놓여	-6183
▁늦게	-6184
▁대치	-6185
▁대포	-6186
▁대행	-6187
▁동참	-6188
▁마신	-6189
▁맞는	-6190
▁매년	-6191
▁멈추	-6192
▁무사	-6193
▁무소	-6194
▁물러	-6195
▁반환	-6196
▁보상	-6197
▁부회	-6198
▁사장	-6199
▁선발	-6200
▁선포	-6201
▁수정	-6202
▁승진	-6203
▁신경	-6204
▁앉아	-6205
▁앞선	-6206
▁양의	-6207
▁어서	-6208
▁에어	-6209
▁연합	-6210
▁예측	-6211
▁와의	-6212
▁완화	-6213
▁용산	-6214
▁유기	-6215
▁이종	-6216
▁일관	-6217
▁일은	-6218
▁저도	-6219
▁전염	-6220
▁정관	-6221
▁정체	-6222
▁제일	-6223
▁제천	-6224
▁차가	-6225
▁차벽	-6226
▁챙겨	-6227
▁텐데	-6228
▁퇴소	-6229
▁특성	-6230
▁펜션	-6231
▁풀어	-6232
▁향한	-6233
▁헬기	-6234
▁휩싸	-6235
격으로	-6236
교육청	-6237
냅니다	-6238
달라며	-6239
된다는	-6240
명령을	-6241
상에서	-6242
시키고	-6243
월에도	-6244
중이용	-6245
▁AFP	-6246
▁검사와	-6247
▁계약을	-6248
▁고소장	-6249
▁구성해	-6250
▁구호를	-6251
▁규모는	-6252
▁김경진	-6253
▁늘면서	-6254
▁되는데	-6255
▁들어와	-6256
▁로이터	-6257
▁명예를	-6258
▁모두가	-6259
▁미착용	-6260
▁발언을	-6261
▁방문자	-6262
▁벌금을	-6263
▁보도가	-6264
▁보조금	-6265
▁부분은	-6266
▁사기를	-6267
▁사라진	-6268
▁사태로	-6269
▁사태를	-6270
▁상황도	-6271
▁손님이	-6272
▁수많은	-6273
▁수사로	-6274
▁수위가	-6275
▁스쿨존	-6276
▁스프링	-6277
▁쓰러져	-6278
▁아동을	-6279
▁아산의	-6280
▁않았던	-6281
▁올림픽	-6282
▁우려도	-6283
▁운전을	-6284
▁울산시	-6285
▁위험을	-6286
▁응하지	-6287
▁이어가	-6288
▁있으면	-6289
▁자체를	-6290
▁주한미	-6291
▁지역구	-6292
▁직원은	-6293
▁찾아와	-6294
▁책임이	-6295
▁처벌할	-6296
▁친인척	-6297
▁캘리포	-6298
▁태우고	-6299
▁투입돼	-6300
▁했다며	-6301
경찰청은	-6302
자치경찰	-6303
▁2012	-6304
▁경기도의	-6305
▁다중이용	-6306
▁대구시가	-6307
▁대마초를	-6308
▁문자메시	-6309
▁문형욱은	-6310
▁밝혔지만	-6311
▁법무부가	-6312
▁보육교사	-6313
▁사전투표	-6314
▁서울시와	-6315
▁아니라는	-6316
▁않았다며	-6317
▁어렵다고	-6318
▁운영하고	-6319
▁의료기관	-6320
▁이들에게	-6321
▁이스라엘	-6322
▁있을까요	-6323
▁자율주행	-6324
▁저희들이	-6325
▁전자발찌	-6326
▁제작하고	-6327
▁제주에서	-6328
▁직원들은	-6329
▁추적하고	-6330
▁친어머니	-6331
▁했는데요	-6332
▁행정명령	-6333
▁교통사고가	-6334
▁밝혔는데요	-6335
▁본격적으로	-6336
▁요청했지만	-6337
▁인도네시아	-6338
▁인명피해는	-6339
▁입건했다고	-6340
▁캘리포니아	-6341
▁프로그램명	-6342
▁플로이드의	-6343
▁해양수산부	-6344
▁나오셨습니다	-6345
▁청구했습니다	-6346
▁지능범죄수사대는	-6347
▁경기남부지방경찰청	-6348
▁객	-6349
▁곡	-6350
▁꼬	-6351
▁꼽	-6352
▁칠	-6353
▁흡	-6354
기면	-6355
단과	-6356
당을	-6357
란을	-6358
려다	-6359
류가	-6360
매가	-6361
미널	-6362
반을	-6363
발니	-6364
봉현	-6365
부패	-6366
사스	-6367
사항	-6368
산지	-6369
성은	-6370
성의	-6371
시효	-6372
신을	-6373
안보	-6374
안이	-6375
용어	-6376
위의	-6377
인가	-6378
제품	-6379
줄이	-6380
지게	-6381
천억	-6382
침해	-6383
파크	-6384
학과	-6385
▁74	-6386
▁99	-6387
▁LA	-6388
▁가방	-6389
▁가을	-6390
▁강압	-6391
▁거센	-6392
▁건네	-6393
▁경증	-6394
▁곳곳	-6395
▁공감	-6396
▁공화	-6397
▁관내	-6398
▁그때	-6399
▁그림	-6400
▁기침	-6401
▁김웅	-6402
▁납치	-6403
▁낮아	-6404
▁넣어	-6405
▁농협	-6406
▁뇌물	-6407
▁다크	-6408
▁달러	-6409
▁대유	-6410
▁동일	-6411
▁마트	-6412
▁메모	-6413
▁모바	-6414
▁반갑	-6415
▁벌이	-6416
▁보강	-6417
▁분쟁	-6418
▁선출	-6419
▁성과	-6420
▁소리	-6421
▁스타	-6422
▁시대	-6423
▁심상	-6424
▁쌓아	-6425
▁양형	-6426
▁유일	-6427
▁익명	-6428
▁재활	-6429
▁적법	-6430
▁적힌	-6431
▁절대	-6432
▁정례	-6433
▁정직	-6434
▁조합	-6435
▁주방	-6436
▁줄이	-6437
▁지문	-6438
▁청약	-6439
▁체계	-6440
▁최신	-6441
▁털어	-6442
▁파출	-6443
▁표기	-6444
▁해주	-6445
▁했을	-6446
▁훈육	-6447
▁휠을	-6448
▁휴게	-6449
았지만	-6450
업지도	-6451
였다는	-6452
예배를	-6453
이고요	-6454
장관은	-6455
조사가	-6456
하려다	-6457
해지고	-6458
했다면	-6459
▁것들이	-6460
▁골프장	-6461
▁공소사	-6462
▁과도한	-6463
▁관련이	-6464
▁교회가	-6465
▁국회를	-6466
▁권리를	-6467
▁권한을	-6468
▁권한이	-6469
▁규정을	-6470
▁금지된	-6471
▁기간이	-6472
▁김봉현	-6473
▁나발니	-6474
▁내리고	-6475
▁달아나	-6476
▁돌려보	-6477
▁동의를	-6478
▁됐다고	-6479
▁마련된	-6480
▁말하는	-6481
▁모니터	-6482
▁무소속	-6483
▁미시간	-6484
▁반부패	-6485
▁발견해	-6486
▁밝히기	-6487
▁법안을	-6488
▁붙잡혔	-6489
▁사고에	-6490
▁사례도	-6491
▁사례를	-6492
▁서류를	-6493
▁성명을	-6494
▁송파구	-6495
▁숨졌고	-6496
▁시신이	-6497
▁신고된	-6498
▁신상이	-6499
▁실형을	-6500
▁아닌가	-6501
▁아들의	-6502
▁아이디	-6503
▁압수한	-6504
▁야당의	-6505
▁업체에	-6506
▁여기서	-6507
▁여자친	-6508
▁영상물	-6509
▁의원과	-6510
▁이곳에	-6511
▁이름을	-6512
▁이천시	-6513
▁이해찬	-6514
▁일정을	-6515
▁있을지	-6516
▁장관과	-6517
▁접수돼	-6518
▁정신적	-6519
▁조사와	-6520
▁조치도	-6521
▁지시한	-6522
▁차원의	-6523
▁착수한	-6524
▁카카오	-6525
▁폭우가	-6526
▁하고요	-6527
▁항소심	-6528
▁혐의는	-6529
지역에서	-6530
집행방해	-6531
청사에서	-6532
하겠다며	-6533
▁가해자가	-6534
▁공수처장	-6535
▁관리하는	-6536
▁국가정보	-6537
▁국정원의	-6538
▁그다음에	-6539
▁극단적인	-6540
▁금융감독	-6541
▁나왔는데	-6542
▁담당하는	-6543
▁당선인은	-6544
▁대법원은	-6545
▁대부분의	-6546
▁대화방에	-6547
▁무단으로	-6548
▁물류센터	-6549
▁밝혀지지	-6550
▁서귀포시	-6551
▁서울시의	-6552
▁수사하는	-6553
▁신고했고	-6554
▁신상정보	-6555
▁암호화폐	-6556
▁언론들은	-6557
▁여성가족	-6558
▁유리창을	-6559
▁이야기가	-6560
▁인정하고	-6561
▁있었다는	-6562
▁접촉자로	-6563
▁조사결과	-6564
▁주장하는	-6565
▁중앙사고	-6566
▁직원들의	-6567
▁진행되는	-6568
▁청와대가	-6569
▁폐쇄회로	-6570
▁형사합의	-6571
▁가능합니다	-6572
▁감염경로가	-6573
▁부산에서는	-6574
▁아동복지법	-6575
▁입건됐습니다	-6576
▁중이었습니다	-6577
▁지시했습니다	-6578
▁특별사법경찰	-6579
▁I	-6580
▁故	-6581
▁겸	-6582
▁뚜	-6583
▁뻔	-6584
▁습	-6585
▁읽	-6586
▁잊	-6587
▁텍	-6588
가락	-6589
가와	-6590
감한	-6591
견이	-6592
그러	-6593
길이	-6594
단독	-6595
대도	-6596
데도	-6597
돈을	-6598
등포	-6599
력에	-6600
리티	-6601
명한	-6602
미가	-6603
비는	-6604
비로	-6605
산화	-6606
상해	-6607
소의	-6608
숙현	-6609
스콘	-6610
신이	-6611
아가	-6612
액을	-6613
연습	-6614
연한	-6615
오던	-6616
이로	-6617
장관	-6618
정책	-6619
제에	-6620
조를	-6621
층을	-6622
튿날	-6623
팀이	-6624
평도	-6625
항공	-6626
해경	-6627
해질	-6628
형두	-6629
확인	-6630
▁76	-6631
▁TV	-6632
▁가림	-6633
▁가수	-6634
▁간단	-6635
▁개방	-6636
▁개편	-6637
▁겨울	-6638
▁고니	-6639
▁고유	-6640
▁골절	-6641
▁과속	-6642
▁급히	-6643
▁기온	-6644
▁김은	-6645
▁남녀	-6646
▁내는	-6647
▁노숙	-6648
▁단정	-6649
▁대량	-6650
▁동구	-6651
▁되자	-6652
▁막는	-6653
▁만한	-6654
▁많고	-6655
▁몰카	-6656
▁몸에	-6657
▁무마	-6658
▁믿고	-6659
▁발효	-6660
▁밥을	-6661
▁방콕	-6662
▁번도	-6663
▁봐야	-6664
▁뿌리	-6665
▁살던	-6666
▁소집	-6667
▁속도	-6668
▁속초	-6669
▁수급	-6670
▁수리	-6671
▁수립	-6672
▁스티	-6673
▁싶은	-6674
▁아르	-6675
▁안보	-6676
▁안양	-6677
▁않자	-6678
▁여객	-6679
▁연설	-6680
▁영동	-6681
▁오랜	-6682
▁유실	-6683
▁이끌	-6684
▁이수	-6685
▁인양	-6686
▁자릿	-6687
▁자수	-6688
▁자정	-6689
▁잠복	-6690
▁좁은	-6691
▁지상	-6692
▁직업	-6693
▁청도	-6694
▁치여	-6695
▁친일	-6696
▁코드	-6697
▁타임	-6698
▁평택	-6699
▁포기	-6700
▁표류	-6701
▁학살	-6702
▁한층	-6703
▁해석	-6704
▁해온	-6705
▁현역	-6706
▁화가	-6707
▁화폐	-6708
▁활성	-6709
▁회계	-6710
▁회장	-6711
검사를	-6712
동에서	-6713
사고가	-6714
수사를	-6715
에게도	-6716
일에도	-6717
점으로	-6718
통신은	-6719
힙니다	-6720
▁갈수록	-6721
▁거라고	-6722
▁결국은	-6723
▁공직자	-6724
▁관심을	-6725
▁교사는	-6726
▁국정감	-6727
▁규모가	-6728
▁남학생	-6729
▁논란에	-6730
▁다치게	-6731
▁당선인	-6732
▁당시에	-6733
▁대전과	-6734
▁도로에	-6735
▁들어갈	-6736
▁라디오	-6737
▁마포구	-6738
▁많게는	-6739
▁모바일	-6740
▁무혐의	-6741
▁문제에	-6742
▁미끄러	-6743
▁민원을	-6744
▁밝히지	-6745
▁범죄의	-6746
▁별개로	-6747
▁보안법	-6748
▁사들인	-6749
▁사람도	-6750
▁상당수	-6751
▁상처가	-6752
▁서울과	-6753
▁소방관	-6754
▁시간대	-6755
▁쏟아져	-6756
▁않다고	-6757
▁얘기를	-6758
▁여부도	-6759
▁영등포	-6760
▁영장이	-6761
▁외부에	-6762
▁요양원	-6763
▁우려해	-6764
▁원인과	-6765
▁월요일	-6766
▁음성이	-6767
▁음식을	-6768
▁이만희	-6769
▁이유에	-6770
▁이튿날	-6771
▁인근의	-6772
▁인사를	-6773
▁일본군	-6774
▁재개발	-6775
▁전국에	-6776
▁전라북	-6777
▁절차에	-6778
▁정당한	-6779
▁제공한	-6780
▁종로구	-6781
▁죄질이	-6782
▁지인의	-6783
▁진술이	-6784
▁차들이	-6785
▁착취물	-6786
▁청구한	-6787
▁최선을	-6788
▁최숙현	-6789
▁최형두	-6790
▁최희석	-6791
▁출입이	-6792
▁충돌이	-6793
▁측에서	-6794
▁특별한	-6795
▁파악된	-6796
▁폭행과	-6797
▁하기로	-6798
▁하도록	-6799
▁행위로	-6800
▁횡단보	-6801
▁효과를	-6802
▁후보의	-6803
▁감성주점	-6804
▁공무원과	-6805
▁공무원은	-6806
▁국립중앙	-6807
▁근무하는	-6808
▁금지하는	-6809
▁기다리고	-6810
▁김포공항	-6811
▁노동자가	-6812
▁뉴욕타임	-6813
▁대표적인	-6814
▁명목으로	-6815
▁민관합동	-6816
▁방향으로	-6817
▁보안검색	-6818
▁사이트를	-6819
▁선거개입	-6820
▁셈입니다	-6821
▁소중하다	-6822
▁시사용어	-6823
▁시설에서	-6824
▁엄정하게	-6825
▁엘리베이	-6826
▁연쇄살인	-6827
▁요양시설	-6828
▁위협하는	-6829
▁이라면서	-6830
▁인권침해	-6831
▁있습니까	-6832
▁장소에서	-6833
▁정보통신	-6834
▁주민등록	-6835
▁주변에서	-6836
▁집회금지	-6837
▁최소한의	-6838
▁택시기사	-6839
▁통화에서	-6840
▁피의자의	-6841
▁피해자에	-6842
▁호소하는	-6843
있었습니다	-6844
▁지지자들이	-6845
▁휴대전화로	-6846
▁국가수사본부	-6847
▁기소했습니다	-6848
▁내려졌습니다	-6849
▁들이받습니다	-6850
▁밝혀졌습니다	-6851
▁방문판매업체	-6852
▁생활치료센터	-6853
▁아니었습니다	-6854
▁적발했습니다	-6855
▁중앙사고수습	-6856
▁눌	-6857
▁랜	-6858
▁링	-6859
▁솔	-6860
▁짐	-6861
▁춤	-6862
▁팩	-6863
▁혜	-6864
가의	-6865
거를	-6866
구로	-6867
기기	-6868
났고	-6869
내기	-6870
네소	-6871
당은	-6872
대회	-6873
뜨린	-6874
리즘	-6875
리트	-6876
면에	-6877
물은	-6878
범위	-6879
사도	-6880
서에	-6881
선은	-6882
승주	-6883
실로	-6884
안에	-6885
여만	-6886
왔다	-6887
인인	-6888
일러	-6889
자산	-6890
자흐	-6891
저녁	-6892
전이	-6893
주로	-6894
주인	-6895
지며	-6896
지면	-6897
차선	-6898
처분	-6899
철호	-6900
치며	-6901
카르	-6902
▁강동	-6903
▁갖추	-6904
▁고정	-6905
▁고조	-6906
▁군산	-6907
▁그걸	-6908
▁기지	-6909
▁내무	-6910
▁느낌	-6911
▁다름	-6912
▁당부	-6913
▁더는	-6914
▁두려	-6915
▁마이	-6916
▁맞서	-6917
▁매달	-6918
▁명도	-6919
▁발화	-6920
▁버려	-6921
▁보름	-6922
▁보유	-6923
▁본부	-6924
▁봉투	-6925
▁부수	-6926
▁불응	-6927
▁성향	-6928
▁세무	-6929
▁세정	-6930
▁속속	-6931
▁시카	-6932
▁알선	-6933
▁어깨	-6934
▁어쨌	-6935
▁어쩔	-6936
▁연수	-6937
▁연예	-6938
▁옥천	-6939
▁원천	-6940
▁위장	-6941
▁유착	-6942
▁이승	-6943
▁이외	-6944
▁인접	-6945
▁인증	-6946
▁자발	-6947
▁잔불	-6948
▁장마	-6949
▁재소	-6950
▁전부	-6951
▁전시	-6952
▁점은	-6953
▁정차	-6954
▁조심	-6955
▁중구	-6956
▁중소	-6957
▁집결	-6958
▁쫓고	-6959
▁최진	-6960
▁치열	-6961
▁침범	-6962
▁파괴	-6963
▁포털	-6964
▁풍선	-6965
▁하류	-6966
▁하명	-6967
▁하셨	-6968
▁허술	-6969
▁화상	-6970
▁화학	-6971
▁흐름	-6972
관에서	-6973
깁니다	-6974
네소타	-6975
는지는	-6976
도에서	-6977
되거나	-6978
면에서	-6979
사태를	-6980
스럽게	-6981
시설에	-6982
씨에게	-6983
이라도	-6984
주에서	-6985
튜디오	-6986
▁검토할	-6987
▁경위와	-6988
▁고립된	-6989
▁공개할	-6990
▁관리가	-6991
▁교육부	-6992
▁규모로	-6993
▁기간을	-6994
▁나섰고	-6995
▁다크웹	-6996
▁달리던	-6997
▁대기업	-6998
▁대법원	-6999
▁대상자	-7000
▁대응에	-7001
▁대응할	-7002
▁대체로	-7003
▁로스앤	-7004
▁마시고	-7005
▁말라고	-7006
▁말부터	-7007
▁무관용	-7008
▁밝혔다	-7009
▁부적절	-7010
▁분명히	-7011
▁불거진	-7012
▁상황과	-7013
▁새롭게	-7014
▁선거법	-7015
▁송철호	-7016
▁수사할	-7017
▁수사해	-7018
▁수색에	-7019
▁수업을	-7020
▁시설이	-7021
▁식품의	-7022
▁실시한	-7023
▁알려져	-7024
▁여부가	-7025
▁예정된	-7026
▁운영을	-7027
▁원인은	-7028
▁원인이	-7029
▁위험한	-7030
▁유출한	-7031
▁의원도	-7032
▁의혹도	-7033
▁이곳을	-7034
▁이렇다	-7035
▁인원은	-7036
▁인정한	-7037
▁작업에	-7038
▁장기간	-7039
▁장면을	-7040
▁재판이	-7041
▁전체가	-7042
▁접촉을	-7043
▁정관용	-7044
▁주차된	-7045
▁지정된	-7046
▁촬영을	-7047
▁카자흐	-7048
▁클럽과	-7049
▁텍사스	-7050
▁통행이	-7051
▁평가를	-7052
▁하나로	-7053
▁행각을	-7054
▁행사가	-7055
▁활동가	-7056
방역대책	-7057
원입니다	-7058
이라든가	-7059
해달라는	-7060
현입니다	-7061
▁2009	-7062
▁가족에게	-7063
▁가중처벌	-7064
▁건물에서	-7065
▁공소시효	-7066
▁공중보건	-7067
▁관리사무	-7068
▁권력기관	-7069
▁그렇다면	-7070
▁높습니다	-7071
▁늘어나고	-7072
▁당했다고	-7073
▁명입니다	-7074
▁보인다고	-7075
▁불법행위	-7076
▁성범죄를	-7077
▁시위대와	-7078
▁안전관리	-7079
▁어려움이	-7080
▁어제저녁	-7081
▁원인으로	-7082
▁의원에게	-7083
▁이상으로	-7084
▁정기국회	-7085
▁취재진은	-7086
▁특정범죄	-7087
▁학생들은	-7088
▁허위사실	-7089
▁형사소송	-7090
▁후베이성	-7091
▁후보자는	-7092
▁공무원들이	-7093
▁관계자들이	-7094
▁꺼졌습니다	-7095
▁대상입니다	-7096
▁부장판사는	-7097
▁운전자에게	-7098
▁주장입니다	-7099
▁국립중앙의료	-7100
▁로스앤젤레스	-7101
▁민관합동조사	-7102
▁사회복무요원	-7103
▁선별진료소를	-7104
▁이뤄졌습니다	-7105
▁포착됐습니다	-7106
▁압수수색했습니다	-7107
10	-7108
▁M	-7109
▁곤	-7110
▁꽤	-7111
▁꿇	-7112
▁낼	-7113
▁댐	-7114
▁몽	-7115
▁센	-7116
▁슈	-7117
▁푸	-7118
건설	-7119
계약	-7120
고발	-7121
교생	-7122
국을	-7123
기준	-7124
노조	-7125
다리	-7126
단에	-7127
대포	-7128
대행	-7129
린다	-7130
명씩	-7131
목의	-7132
법인	-7133
북한	-7134
사령	-7135
살을	-7136
생을	-7137
속도	-7138
아서	-7139
어린	-7140
역에	-7141
연주	-7142
오고	-7143
운티	-7144
인멸	-7145
져야	-7146
지침	-7147
차는	-7148
트로	-7149
펌프	-7150
화와	-7151
후보	-7152
▁77	-7153
▁82	-7154
▁84	-7155
▁가서	-7156
▁강북	-7157
▁건넨	-7158
▁공원	-7159
▁그만	-7160
▁기울	-7161
▁기저	-7162
▁김완	-7163
▁남용	-7164
▁납품	-7165
▁내사	-7166
▁넘은	-7167
▁노예	-7168
▁노후	-7169
▁논문	-7170
▁농민	-7171
▁농업	-7172
▁들은	-7173
▁땅을	-7174
▁리조	-7175
▁막고	-7176
▁문건	-7177
▁미루	-7178
▁발병	-7179
▁배경	-7180
▁배우	-7181
▁법령	-7182
▁보전	-7183
▁부시	-7184
▁부추	-7185
▁붙여	-7186
▁비례	-7187
▁사각	-7188
▁산발	-7189
▁살고	-7190
▁상관	-7191
▁상정	-7192
▁상징	-7193
▁서산	-7194
▁성형	-7195
▁수배	-7196
▁수의	-7197
▁스페	-7198
▁시가	-7199
▁시의	-7200
▁아까	-7201
▁앞을	-7202
▁야외	-7203
▁어긴	-7204
▁없던	-7205
▁연계	-7206
▁예를	-7207
▁오던	-7208
▁와서	-7209
▁위작	-7210
▁윤영	-7211
▁응시	-7212
▁이러	-7213
▁인삼	-7214
▁입주	-7215
▁장갑	-7216
▁적지	-7217
▁전격	-7218
▁정류	-7219
▁조금	-7220
▁조문	-7221
▁좋은	-7222
▁중립	-7223
▁증명	-7224
▁지붕	-7225
▁짧은	-7226
▁찍힌	-7227
▁차장	-7228
▁폭동	-7229
▁풀려	-7230
▁한정	-7231
▁홀로	-7232
기관인	-7233
라든가	-7234
마저도	-7235
만으로	-7236
명까지	-7237
스콘신	-7238
시설로	-7239
연구소	-7240
으로써	-7241
코리아	-7242
활동을	-7243
▁194	-7244
▁250	-7245
▁가림막	-7246
▁강남구	-7247
▁개인의	-7248
▁거리로	-7249
▁거창군	-7250
▁건물이	-7251
▁건으로	-7252
▁검사한	-7253
▁게시글	-7254
▁경찰법	-7255
▁고발할	-7256
▁골목길	-7257
▁공문을	-7258
▁공소권	-7259
▁관리법	-7260
▁관악구	-7261
▁광주의	-7262
▁그러다	-7263
▁금액을	-7264
▁기존에	-7265
▁김은배	-7266
▁내역을	-7267
▁내용도	-7268
▁논의가	-7269
▁농기계	-7270
▁다녀간	-7271
▁대가로	-7272
▁마리가	-7273
▁면담을	-7274
▁면서도	-7275
▁모임을	-7276
▁무사히	-7277
▁문자를	-7278
▁바란다	-7279
▁방안도	-7280
▁버스에	-7281
▁보도를	-7282
▁부검을	-7283
▁분류돼	-7284
▁불만을	-7285
▁사태에	-7286
▁사회의	-7287
▁생명을	-7288
▁서울고	-7289
▁선거를	-7290
▁소셜미	-7291
▁시공사	-7292
▁시카고	-7293
▁쓰러진	-7294
▁않거나	-7295
▁어렵게	-7296
▁어쨌든	-7297
▁언론의	-7298
▁엄벌을	-7299
▁예산을	-7300
▁예정돼	-7301
▁올라가	-7302
▁옮겨져	-7303
▁유튜버	-7304
▁의사가	-7305
▁인권을	-7306
▁일단은	-7307
▁있느냐	-7308
▁장관의	-7309
▁장비를	-7310
▁장소에	-7311
▁적발해	-7312
▁전화가	-7313
▁정책을	-7314
▁조사도	-7315
▁조치로	-7316
▁주의가	-7317
▁진화에	-7318
▁최루탄	-7319
▁최소화	-7320
▁태도를	-7321
▁토요일	-7322
▁통화를	-7323
▁파악에	-7324
▁폭력과	-7325
▁폭력을	-7326
▁하나가	-7327
▁협의해	-7328
▁형태로	-7329
▁화상을	-7330
▁확산의	-7331
과정에서	-7332
민입니다	-7333
진입니다	-7334
▁2010	-7335
▁가운데는	-7336
▁가해자는	-7337
▁강력하게	-7338
▁교민들이	-7339
▁국가인권	-7340
▁국민연금	-7341
▁군사경찰	-7342
▁대통령에	-7343
▁들이받아	-7344
▁들이받은	-7345
▁미네소타	-7346
▁벌어지는	-7347
▁베트남인	-7348
▁부산시가	-7349
▁브리핑을	-7350
▁사무실을	-7351
▁생각한다	-7352
▁서울남부	-7353
▁소방당국	-7354
▁시위대에	-7355
▁어머니가	-7356
▁어머니는	-7357
▁어업지도	-7358
▁여론조사	-7359
▁위스콘신	-7360
▁이사장은	-7361
▁인터넷에	-7362
▁중대재해	-7363
▁중앙선을	-7364
▁진행하는	-7365
▁최근까지	-7366
▁추진하고	-7367
▁필리버스	-7368
▁합동으로	-7369
▁해양경찰	-7370
▁호소하고	-7371
리겠습니다	-7372
▁디지털교도	-7373
▁보냈습니다	-7374
▁보이는데요	-7375
▁불과합니다	-7376
▁신청했지만	-7377
▁어렵습니다	-7378
▁조주빈에게	-7379
▁주목됩니다	-7380
▁지적합니다	-7381
▁카자흐스탄	-7382
▁피해자들의	-7383
▁학생들에게	-7384
▁화장실에서	-7385
▁확인했다고	-7386
▁횡단보도를	-7387
▁사과했습니다	-7388
▁선고됐습니다	-7389
▁언급했습니다	-7390
▁중앙방역대책	-7391
▁추가됐습니다	-7392
▁현지시간으로	-7393
▁들어보겠습니다	-7394
cm	-7395
▁W	-7396
▁괜	-7397
▁런	-7398
▁샌	-7399
▁쉼	-7400
▁잦	-7401
▁짜	-7402
▁찢	-7403
감은	-7404
개는	-7405
곳과	-7406
금속	-7407
담당	-7408
득을	-7409
르며	-7410
목이	-7411
바논	-7412
복합	-7413
봉사	-7414
부로	-7415
서울	-7416
승을	-7417
인한	-7418
일용	-7419
입한	-7420
자동	-7421
점과	-7422
조에	-7423
죄를	-7424
중한	-7425
청의	-7426
층의	-7427
커녕	-7428
터가	-7429
패를	-7430
평가	-7431
풀이	-7432
하우	-7433
협력	-7434
협회	-7435
형의	-7436
회와	-7437
회전	-7438
히지	-7439
TBC	-7440
▁85	-7441
▁89	-7442
▁94	-7443
▁거절	-7444
▁결의	-7445
▁곧장	-7446
▁구치	-7447
▁권유	-7448
▁그날	-7449
▁그럼	-7450
▁극복	-7451
▁금감	-7452
▁나갔	-7453
▁남겨	-7454
▁넘길	-7455
▁노무	-7456
▁달에	-7457
▁도운	-7458
▁됐던	-7459
▁뚜렷	-7460
▁루카	-7461
▁말에	-7462
▁모자	-7463
▁무력	-7464
▁반민	-7465
▁범인	-7466
▁부착	-7467
▁부패	-7468
▁부활	-7469
▁비닐	-7470
▁비위	-7471
▁사냥	-7472
▁손에	-7473
▁시정	-7474
▁심문	-7475
▁아빠	-7476
▁양이	-7477
▁어두	-7478
▁영하	-7479
▁오르	-7480
▁올랐	-7481
▁외벽	-7482
▁용역	-7483
▁용접	-7484
▁운송	-7485
▁울타	-7486
▁원격	-7487
▁원생	-7488
▁음악	-7489
▁의문	-7490
▁인구	-7491
▁일시	-7492
▁일일	-7493
▁일치	-7494
▁임원	-7495
▁입에	-7496
▁입찰	-7497
▁잔혹	-7498
▁잡은	-7499
▁재일	-7500
▁재차	-7501
▁적시	-7502
▁점차	-7503
▁정한	-7504
▁존중	-7505
▁중독	-7506
▁지났	-7507
▁찍어	-7508
▁천막	-7509
▁체류	-7510
▁충전	-7511
▁취할	-7512
▁치고	-7513
▁파업	-7514
▁표명	-7515
▁피운	-7516
▁함바	-7517
▁합리	-7518
▁항만	-7519
▁형이	-7520
▁확충	-7521
▁후진	-7522
개월을	-7523
금으로	-7524
들까지	-7525
사이트	-7526
십니다	-7527
자들과	-7528
지검은	-7529
지법은	-7530
카르타	-7531
하기는	-7532
▁197	-7533
▁가이드	-7534
▁간호사	-7535
▁거래를	-7536
▁경비업	-7537
▁경상북	-7538
▁경제적	-7539
▁경찰로	-7540
▁고개를	-7541
▁공분을	-7542
▁공유기	-7543
▁공정한	-7544
▁관리소	-7545
▁교도소	-7546
▁교육을	-7547
▁권일용	-7548
▁귀국한	-7549
▁귀금속	-7550
▁끔찍한	-7551
▁난동을	-7552
▁내용에	-7553
▁단체가	-7554
▁단체의	-7555
▁달라는	-7556
▁대상을	-7557
▁도착해	-7558
▁둘러싸	-7559
▁등에게	-7560
▁떠내려	-7561
▁레바논	-7562
▁만드는	-7563
▁바람에	-7564
▁박용진	-7565
▁밝히고	-7566
▁범인을	-7567
▁범행이	-7568
▁법안이	-7569
▁보고서	-7570
▁보도한	-7571
▁부수고	-7572
▁비율은	-7573
▁비판을	-7574
▁사각지	-7575
▁사과를	-7576
▁사업에	-7577
▁생명과	-7578
▁속도가	-7579
▁수사관	-7580
▁수시로	-7581
▁수준의	-7582
▁수준인	-7583
▁신체를	-7584
▁안전한	-7585
▁안타깝	-7586
▁알리지	-7587
▁억울한	-7588
▁없는지	-7589
▁여행용	-7590
▁예방법	-7591
▁요구를	-7592
▁요청에	-7593
▁우려로	-7594
▁원까지	-7595
▁원칙에	-7596
▁위기에	-7597
▁위반이	-7598
▁유사한	-7599
▁의견이	-7600
▁의뢰한	-7601
▁의정부	-7602
▁이것을	-7603
▁이루어	-7604
▁이순신	-7605
▁이용할	-7606
▁인공수	-7607
▁입원한	-7608
▁있다가	-7609
▁자녀를	-7610
▁작업자	-7611
▁점에서	-7612
▁접수한	-7613
▁정의연	-7614
▁조작한	-7615
▁주도한	-7616
▁주민이	-7617
▁중단을	-7618
▁지원할	-7619
▁지적도	-7620
▁진행될	-7621
▁추락해	-7622
▁출석한	-7623
▁출석해	-7624
▁출입을	-7625
▁코리아	-7626
▁통제를	-7627
▁투표를	-7628
▁판단이	-7629
▁포인트	-7630
▁포함된	-7631
▁하겠다	-7632
▁해경에	-7633
▁해경이	-7634
▁허위로	-7635
▁현금을	-7636
▁현장의	-7637
▁호소해	-7638
▁확보를	-7639
▁확산에	-7640
▁확산이	-7641
▁흉기에	-7642
구역으로	-7643
았는데요	-7644
지입니다	-7645
▁JTBC	-7646
▁가능성은	-7647
▁감사에서	-7648
▁것이라며	-7649
▁경찰서를	-7650
▁과실치사	-7651
▁나눔의집	-7652
▁나섭니다	-7653
▁나섰지만	-7654
▁남북관계	-7655
▁동영상을	-7656
▁들어가는	-7657
▁들이받고	-7658
▁말씀하신	-7659
▁맞습니다	-7660
▁모니터링	-7661
▁문형욱이	-7662
▁법정에서	-7663
▁본회의를	-7664
▁불가피한	-7665
▁사람에게	-7666
▁손해배상	-7667
▁신속대응	-7668
▁아버지는	-7669
▁앞으로도	-7670
▁열립니다	-7671
▁오늘까지	-7672
▁의원들은	-7673
▁자신들의	-7674
▁자카르타	-7675
▁점입니다	-7676
▁증거인멸	-7677
▁최고위원	-7678
▁카카오톡	-7679
▁피고인은	-7680
▁해외에서	-7681
▁회의에서	-7682
▁거리두기를	-7683
▁관련해서도	-7684
▁교통사고를	-7685
▁구속했다고	-7686
▁금지됩니다	-7687
▁무기징역을	-7688
▁사실관계를	-7689
▁수준입니다	-7690
▁알려지면서	-7691
▁오토바이를	-7692
▁온라인으로	-7693
▁이어지면서	-7694
▁잡았습니다	-7695
▁정도입니다	-7696
▁줄었습니다	-7697
▁휴대전화가	-7698
▁휴대전화에	-7699
▁반발했습니다	-7700
▁약속했습니다	-7701
▁어린이집에서	-7702
▁이동했습니다	-7703
▁평가했습니다	-7704
▁들이받았습니다	-7705
▁서울중앙지검은	-7706
▁어린이보호구역에서	-7707
21	-7708
▁F	-7709
▁널	-7710
▁닥	-7711
▁왼	-7712
▁젖	-7713
▁쳐	-7714
▁톤	-7715
▁핸	-7716
▁훌	-7717
공동	-7718
공작	-7719
군과	-7720
권과	-7721
끼리	-7722
놓은	-7723
니스	-7724
달러	-7725
당이	-7726
됐기	-7727
되게	-7728
려던	-7729
렸던	-7730
로로	-7731
르던	-7732
리조	-7733
마를	-7734
바닥	-7735
별한	-7736
부족	-7737
분권	-7738
산을	-7739
셴코	-7740
심히	-7741
안의	-7742
억여	-7743
왔던	-7744
용한	-7745
위치	-7746
유기	-7747
이션	-7748
인력	-7749
재를	-7750
제는	-7751
창룡	-7752
통을	-7753
투쟁	-7754
폭행	-7755
함이	-7756
해보	-7757
화로	-7758
▁69	-7759
▁95	-7760
▁LP	-7761
▁가벼	-7762
▁감지	-7763
▁개조	-7764
▁거친	-7765
▁검경	-7766
▁계정	-7767
▁고생	-7768
▁골든	-7769
▁관찰	-7770
▁관측	-7771
▁구분	-7772
▁군데	-7773
▁그가	-7774
▁근본	-7775
▁기도	-7776
▁끊어	-7777
▁남동	-7778
▁남양	-7779
▁내달	-7780
▁냉동	-7781
▁녹취	-7782
▁다루	-7783
▁달린	-7784
▁달이	-7785
▁담보	-7786
▁대거	-7787
▁독재	-7788
▁돌발	-7789
▁두절	-7790
▁뒤를	-7791
▁들었	-7792
▁떠난	-7793
▁떠올	-7794
▁런던	-7795
▁마시	-7796
▁맡아	-7797
▁맨홀	-7798
▁뭔가	-7799
▁바꿨	-7800
▁박상	-7801
▁배당	-7802
▁배정	-7803
▁백여	-7804
▁법과	-7805
▁병력	-7806
▁복원	-7807
▁부부	-7808
▁불분	-7809
▁불어	-7810
▁빚은	-7811
▁사정	-7812
▁사천	-7813
▁상가	-7814
▁상급	-7815
▁상주	-7816
▁석유	-7817
▁선체	-7818
▁소극	-7819
▁소형	-7820
▁수강	-7821
▁수석	-7822
▁수형	-7823
▁슈퍼	-7824
▁신생	-7825
▁아는	-7826
▁아닐	-7827
▁양은	-7828
▁업주	-7829
▁없게	-7830
▁여순	-7831
▁여전	-7832
▁예외	-7833
▁옥살	-7834
▁왕복	-7835
▁원씩	-7836
▁유발	-7837
▁의장	-7838
▁입학	-7839
▁자영	-7840
▁장치	-7841
▁전후	-7842
▁조류	-7843
▁주유	-7844
▁진돗	-7845
▁찍은	-7846
▁철원	-7847
▁체모	-7848
▁촉발	-7849
▁총책	-7850
▁치과	-7851
▁크고	-7852
▁품고	-7853
▁피서	-7854
▁피소	-7855
▁한꺼	-7856
▁한마	-7857
▁한해	-7858
▁합쳐	-7859
▁해소	-7860
▁행안	-7861
▁혜택	-7862
▁화염	-7863
▁환전	-7864
▁흉기	-7865
▁흙탕	-7866
개월의	-7867
된다며	-7868
라든지	-7869
렸는데	-7870
리거나	-7871
모병원	-7872
번방을	-7873
어린이	-7874
였는데	-7875
인에게	-7876
점검을	-7877
지역의	-7878
판에서	-7879
했고요	-7880
▁350	-7881
▁감식이	-7882
▁감염을	-7883
▁거기에	-7884
▁거래가	-7885
▁결정에	-7886
▁결정이	-7887
▁고발한	-7888
▁고양이	-7889
▁구하기	-7890
▁국민을	-7891
▁그것을	-7892
▁그러자	-7893
▁금지한	-7894
▁급하게	-7895
▁기록이	-7896
▁기사는	-7897
▁기승을	-7898
▁김원장	-7899
▁김창룡	-7900
▁끝까지	-7901
▁내사에	-7902
▁다치는	-7903
▁대유행	-7904
▁대표와	-7905
▁대화를	-7906
▁데이트	-7907
▁도주한	-7908
▁되풀이	-7909
▁뒤에야	-7910
▁듭니다	-7911
▁따르지	-7912
▁만들고	-7913
▁머리에	-7914
▁방송을	-7915
▁방위군	-7916
▁범죄로	-7917
▁부당한	-7918
▁부부는	-7919
▁부분도	-7920
▁부상자	-7921
▁사람과	-7922
▁사유를	-7923
▁세상에	-7924
▁소지한	-7925
▁수백만	-7926
▁수초섬	-7927
▁시간당	-7928
▁시청자	-7929
▁신고는	-7930
▁신분증	-7931
▁실태를	-7932
▁심상치	-7933
▁아내와	-7934
▁않다는	-7935
▁엄중한	-7936
▁업무에	-7937
▁없었던	-7938
▁없으면	-7939
▁역주행	-7940
▁오가는	-7941
▁오늘의	-7942
▁와중에	-7943
▁운동을	-7944
▁원칙을	-7945
▁위반과	-7946
▁윤영석	-7947
▁이르게	-7948
▁이밖에	-7949
▁이연주	-7950
▁이용자	-7951
▁이재오	-7952
▁인용할	-7953
▁인파가	-7954
▁일부러	-7955
▁일자리	-7956
▁장치를	-7957
▁적발돼	-7958
▁전체의	-7959
▁전화로	-7960
▁접근을	-7961
▁접근해	-7962
▁제시한	-7963
▁조직을	-7964
▁조치는	-7965
▁조해진	-7966
▁종업원	-7967
▁주인이	-7968
▁진단을	-7969
▁진실을	-7970
▁창문을	-7971
▁청주시	-7972
▁체포해	-7973
▁총기를	-7974
▁총리가	-7975
▁출입자	-7976
▁커지자	-7977
▁특성상	-7978
▁표기해	-7979
▁학생과	-7980
▁학생들	-7981
▁학생을	-7982
▁해수욕	-7983
▁했는지	-7984
▁호흡기	-7985
명이라고	-7986
운동연합	-7987
지방법원	-7988
하더라도	-7989
▁가능성에	-7990
▁감염자가	-7991
▁거부하는	-7992
▁거짓말을	-7993
▁검찰에서	-7994
▁경기도가	-7995
▁경찰관과	-7996
▁경찰서에	-7997
▁경찰에게	-7998
▁그럼에도	-7999
▁근처에서	-8000
▁기자회견	-8001
▁도움으로	-8002
▁루카셴코	-8003
▁만들어진	-8004
▁못합니다	-8005
▁부적절한	-8006
▁사망자도	-8007
▁살인사건	-8008
▁삼성전자	-8009
▁상당수가	-8010
▁설치하는	-8011
▁스튜디오	-8012
▁승용차는	-8013
▁시위대의	-8014
▁싶습니다	-8015
▁않았는데	-8016
▁언급하며	-8017
▁여기저기	-8018
▁요구하며	-8019
▁요양보호	-8020
▁음성으로	-8021
▁일어나고	-8022
▁잇따르자	-8023
▁자신에게	-8024
▁장애아동	-8025
▁제기되고	-8026
▁조건으로	-8027
▁주력하고	-8028
▁주장하며	-8029
▁지역감염	-8030
▁질문에는	-8031
▁충격으로	-8032
▁통제하고	-8033
▁트위터에	-8034
▁판단하고	-8035
▁하겠다는	-8036
▁하명수사	-8037
▁한꺼번에	-8038
▁확인해야	-8039
▁환자들이	-8040
▁경찰관에게	-8041
▁관계자들을	-8042
▁대목입니다	-8043
▁보건복지부	-8044
▁상습적으로	-8045
▁서울경찰청	-8046
▁엘리베이터	-8047
▁오토바이가	-8048
▁인공수초섬	-8049
▁인재개발원	-8050
▁종합적으로	-8051
▁현장에서는	-8052
▁홈페이지에	-8053
▁계속됐습니다	-8054
▁떨어졌습니다	-8055
▁명령했습니다	-8056
▁쏟아졌습니다	-8057
▁적용했습니다	-8058
▁조치했습니다	-8059
▁통보했습니다	-8060
▁표기해주시기	-8061
▁G	-8062
▁꺾	-8063
▁끈	-8064
▁낀	-8065
▁낚	-8066
▁벤	-8067
▁섭	-8068
▁쉴	-8069
▁엿	-8070
▁젠	-8071
▁틈	-8072
▁횟	-8073
간의	-8074
객이	-8075
격포	-8076
공업	-8077
국공	-8078
권익	-8079
기념	-8080
나가	-8081
나운	-8082
낙연	-8083
도급	-8084
동에	-8085
돼야	-8086
듬해	-8087
래도	-8088
로서	-8089
르기	-8090
만을	-8091
만한	-8092
말을	-8093
물의	-8094
미로	-8095
바다	-8096
방은	-8097
밴드	-8098
범계	-8099
병기	-8100
분한	-8101
사범	-8102
소득	-8103
수수	-8104
수용	-8105
시코	-8106
시티	-8107
신문	-8108
안은	-8109
위험	-8110
의무	-8111
이버	-8112
이상	-8113
자원	-8114
종을	-8115
주차	-8116
진흥	-8117
쪽에	-8118
처에	-8119
쳤고	-8120
투자	-8121
폰을	-8122
피아	-8123
한을	-8124
해를	-8125
히고	-8126
▁81	-8127
▁86	-8128
▁87	-8129
▁감싸	-8130
▁개시	-8131
▁거로	-8132
▁건넸	-8133
▁건을	-8134
▁게재	-8135
▁계열	-8136
▁고사	-8137
▁관제	-8138
▁괜찮	-8139
▁괴산	-8140
▁구미	-8141
▁구제	-8142
▁그래	-8143
▁그럴	-8144
▁기반	-8145
▁기습	-8146
▁깨고	-8147
▁끝났	-8148
▁난입	-8149
▁남긴	-8150
▁내내	-8151
▁노원	-8152
▁높게	-8153
▁대검	-8154
▁대산	-8155
▁돼서	-8156
▁됐고	-8157
▁되찾	-8158
▁딸의	-8159
▁뛰어	-8160
▁마땅	-8161
▁마비	-8162
▁마크	-8163
▁말라	-8164
▁맡긴	-8165
▁명부	-8166
▁모녀	-8167
▁미처	-8168
▁밀려	-8169
▁밀폐	-8170
▁바꾼	-8171
▁밝힐	-8172
▁방어	-8173
▁보셨	-8174
▁분향	-8175
▁불리	-8176
▁비극	-8177
▁상업	-8178
▁생긴	-8179
▁선을	-8180
▁수단	-8181
▁수렴	-8182
▁수를	-8183
▁시흥	-8184
▁신문	-8185
▁실효	-8186
▁쌓인	-8187
▁아쉬	-8188
▁여긴	-8189
▁연행	-8190
▁엿새	-8191
▁예보	-8192
▁왕실	-8193
▁원대	-8194
▁자문	-8195
▁자칫	-8196
▁장착	-8197
▁전송	-8198
▁정서	-8199
▁젠더	-8200
▁조례	-8201
▁조항	-8202
▁조혜	-8203
▁졸업	-8204
▁줄일	-8205
▁중재	-8206
▁중점	-8207
▁지켰	-8208
▁질환	-8209
▁집권	-8210
▁최우	-8211
▁추궁	-8212
▁쿠팡	-8213
▁탄압	-8214
▁태양	-8215
▁통계	-8216
▁통금	-8217
▁트랙	-8218
▁특이	-8219
▁파편	-8220
▁포천	-8221
▁품귀	-8222
▁피살	-8223
▁한복	-8224
▁행복	-8225
▁휴업	-8226
관으로	-8227
기관이	-8228
까지는	-8229
년에도	-8230
노동자	-8231
단체가	-8232
되도록	-8233
리스트	-8234
밀하게	-8235
사회의	-8236
산으로	-8237
상품권	-8238
생활을	-8239
선에서	-8240
시간이	-8241
운동을	-8242
위원장	-8243
인데도	-8244
인지는	-8245
점에서	-8246
하느냐	-8247
▁110	-8248
▁가족을	-8249
▁걱정이	-8250
▁건물의	-8251
▁검거해	-8252
▁것인지	-8253
▁격리된	-8254
▁경주시	-8255
▁관계가	-8256
▁관계를	-8257
▁관련자	-8258
▁교수를	-8259
▁교육생	-8260
▁교직원	-8261
▁국내로	-8262
▁국회가	-8263
▁규정에	-8264
▁그것이	-8265
▁금액이	-8266
▁나오면	-8267
▁나왔고	-8268
▁나중에	-8269
▁넘어가	-8270
▁노력을	-8271
▁뉴스를	-8272
▁다르게	-8273
▁단체는	-8274
▁달리는	-8275
▁달아났	-8276
▁덕분에	-8277
▁도로가	-8278
▁도박을	-8279
▁똑같은	-8280
▁마음을	-8281
▁많은데	-8282
▁말라는	-8283
▁머물고	-8284
▁모르고	-8285
▁못했고	-8286
▁못했다	-8287
▁물리적	-8288
▁박격포	-8289
▁박범계	-8290
▁받도록	-8291
▁받으며	-8292
▁발견한	-8293
▁발표를	-8294
▁방해한	-8295
▁버스가	-8296
▁번째로	-8297
▁벌였고	-8298
▁법사위	-8299
▁보좌관	-8300
▁부리고	-8301
▁부모가	-8302
▁불만이	-8303
▁브라질	-8304
▁빼돌린	-8305
▁사건도	-8306
▁사무국	-8307
▁사재기	-8308
▁산청군	-8309
▁설치를	-8310
▁세상을	-8311
▁소환해	-8312
▁수법이	-8313
▁수위를	-8314
▁순찰을	-8315
▁시민의	-8316
▁신속한	-8317
▁쌍둥이	-8318
▁알리는	-8319
▁없는데	-8320
▁연락해	-8321
▁예배에	-8322
▁오전에	-8323
▁요구가	-8324
▁원어치	-8325
▁위험에	-8326
▁의원에	-8327
▁이낙연	-8328
▁이듬해	-8329
▁이상을	-8330
▁이탈한	-8331
▁인국공	-8332
▁일대에	-8333
▁일으킨	-8334
▁일일이	-8335
▁입수한	-8336
▁자신은	-8337
▁장소로	-8338
▁적절한	-8339
▁전체를	-8340
▁제보를	-8341
▁조처를	-8342
▁주민의	-8343
▁주차장	-8344
▁준하는	-8345
▁줄어든	-8346
▁지역이	-8347
▁지장이	-8348
▁지하차	-8349
▁지휘를	-8350
▁직고용	-8351
▁차관은	-8352
▁창고에	-8353
▁처분이	-8354
▁청구를	-8355
▁총선을	-8356
▁출신의	-8357
▁출입국	-8358
▁취하지	-8359
▁치과의	-8360
▁탈출한	-8361
▁토론을	-8362
▁학교와	-8363
▁학생은	-8364
▁학생의	-8365
▁한국에	-8366
▁항공기	-8367
▁행동이	-8368
▁행방을	-8369
▁행정과	-8370
▁협박한	-8371
▁환자와	-8372
▁회의에	-8373
가중처벌	-8374
병원으로	-8375
슬입니다	-8376
였는데요	-8377
지방검찰	-8378
▁가해자로	-8379
▁감염으로	-8380
▁경찰청장	-8381
▁고용노동	-8382
▁국과수에	-8383
▁금융기관	-8384
▁기본적인	-8385
▁나오면서	-8386
▁내용으로	-8387
▁넘겨받은	-8388
▁단계에서	-8389
▁못했다는	-8390
▁반려동물	-8391
▁방해하는	-8392
▁법원에서	-8393
▁부근에서	-8394
▁부산지역	-8395
▁비공개로	-8396
▁사이에서	-8397
▁서울북부	-8398
▁수도권을	-8399
▁승객들이	-8400
▁시스템을	-8401
▁신분증을	-8402
▁아르바이	-8403
▁어렵다며	-8404
▁유럽연합	-8405
▁이뤄지는	-8406
▁자신들이	-8407
▁제조업체	-8408
▁제출하지	-8409
▁조사하는	-8410
▁지역별로	-8411
▁지점에서	-8412
▁직원에게	-8413
▁직접적인	-8414
▁착용하지	-8415
▁처음에는	-8416
▁청와대에	-8417
▁필요성이	-8418
▁현금으로	-8419
▁현장으로	-8420
▁회견에서	-8421
진영입니다	-8422
▁강화하기로	-8423
▁거리두기가	-8424
▁경상남도는	-8425
▁공중보건의	-8426
▁광주광역시	-8427
▁구속영장심	-8428
▁달랐습니다	-8429
▁들어보시죠	-8430
▁마쳤습니다	-8431
▁반갑습니다	-8432
▁받았는데요	-8433
▁상황이라고	-8434
▁소방당국이	-8435
▁음주운전을	-8436
▁이었습니다	-8437
▁잃었습니다	-8438
▁현장입니다	-8439
▁고발하겠다고	-8440
▁송치됐습니다	-8441
▁이어갔습니다	-8442
▁최진석입니다	-8443
▁서울중앙지검에	-8444
▁전해드렸는데요	-8445
▁정리해드립니다	-8446
94	-8447
▁까	-8448
▁빙	-8449
▁엇	-8450
▁좀	-8451
▁줘	-8452
▁탁	-8453
▁팬	-8454
갑수	-8455
값이	-8456
같이	-8457
개소	-8458
객을	-8459
국대	-8460
국에	-8461
기인	-8462
나마	-8463
도도	-8464
만원	-8465
머스	-8466
밀히	-8467
사슬	-8468
성적	-8469
실장	-8470
심사	-8471
연대	-8472
오지	-8473
우드	-8474
원우	-8475
위반	-8476
위해	-8477
재수	-8478
점은	-8479
정의	-8480
정차	-8481
집회	-8482
참모	-8483
총을	-8484
추홀	-8485
타운	-8486
특정	-8487
하나	-8488
함마	-8489
확진	-8490
▁EU	-8491
▁가라	-8492
▁감안	-8493
▁갔다	-8494
▁갖게	-8495
▁거다	-8496
▁건이	-8497
▁검출	-8498
▁공지	-8499
▁공통	-8500
▁구두	-8501
▁구직	-8502
▁군부	-8503
▁균형	-8504
▁그에	-8505
▁기계	-8506
▁김득	-8507
▁김정	-8508
▁깜깜	-8509
▁남지	-8510
▁내야	-8511
▁내지	-8512
▁놀라	-8513
▁눈치	-8514
▁느껴	-8515
▁늦어	-8516
▁당해	-8517
▁도마	-8518
▁도청	-8519
▁독려	-8520
▁동남	-8521
▁되게	-8522
▁듯한	-8523
▁딸과	-8524
▁뜯어	-8525
▁말은	-8526
▁매출	-8527
▁모인	-8528
▁무궁	-8529
▁무효	-8530
▁문구	-8531
▁문이	-8532
▁묻지	-8533
▁미제	-8534
▁반납	-8535
▁발달	-8536
▁범위	-8537
▁법제	-8538
▁별도	-8539
▁병사	-8540
▁부따	-8541
▁부천	-8542
▁부풀	-8543
▁분열	-8544
▁붙은	-8545
▁사직	-8546
▁사체	-8547
▁상시	-8548
▁생후	-8549
▁서면	-8550
▁서버	-8551
▁선관	-8552
▁선생	-8553
▁세운	-8554
▁세희	-8555
▁소위	-8556
▁소화	-8557
▁수년	-8558
▁수송	-8559
▁수영	-8560
▁신변	-8561
▁실려	-8562
▁싶어	-8563
▁아찔	-8564
▁안성	-8565
▁야권	-8566
▁연령	-8567
▁올리	-8568
▁요원	-8569
▁우울	-8570
▁위축	-8571
▁윤희	-8572
▁의도	-8573
▁이건	-8574
▁이민	-8575
▁이은	-8576
▁자원	-8577
▁재직	-8578
▁재해	-8579
▁조건	-8580
▁조기	-8581
▁조절	-8582
▁주에	-8583
▁지검	-8584
▁찾고	-8585
▁찾을	-8586
▁추념	-8587
▁추후	-8588
▁침몰	-8589
▁침묵	-8590
▁크다	-8591
▁터져	-8592
▁퇴근	-8593
▁판시	-8594
▁편지	-8595
▁포토	-8596
▁한가	-8597
▁한탄	-8598
▁호주	-8599
▁화환	-8600
개월에	-8601
겼다는	-8602
기관과	-8603
는지를	-8604
되지만	-8605
레이크	-8606
백여만	-8607
볼까요	-8608
부에서	-8609
부터는	-8610
사항을	-8611
산화탄	-8612
선으로	-8613
시설의	-8614
역으로	-8615
이면서	-8616
입니까	-8617
전으로	-8618
지역에	-8619
지침을	-8620
처벌법	-8621
코로나	-8622
킥보드	-8623
하려면	-8624
해하고	-8625
화하는	-8626
▁800	-8627
▁가로막	-8628
▁감염의	-8629
▁감염자	-8630
▁감찰을	-8631
▁강훈식	-8632
▁개정을	-8633
▁검찰청	-8634
▁것이고	-8635
▁격렬한	-8636
▁결론을	-8637
▁결정될	-8638
▁경찰차	-8639
▁고소인	-8640
▁공개해	-8641
▁공백이	-8642
▁공화당	-8643
▁과정이	-8644
▁구체적	-8645
▁국가가	-8646
▁국민들	-8647
▁권력을	-8648
▁그만큼	-8649
▁금액은	-8650
▁기소를	-8651
▁기준이	-8652
▁김갑수	-8653
▁끝나고	-8654
▁나흘째	-8655
▁내놓은	-8656
▁노래방	-8657
▁늘었고	-8658
▁단속도	-8659
▁대응이	-8660
▁대전의	-8661
▁데이터	-8662
▁돌진한	-8663
▁마약을	-8664
▁마음이	-8665
▁명의로	-8666
▁명확히	-8667
▁목사의	-8668
▁무시한	-8669
▁무함마	-8670
▁미국은	-8671
▁미추홀	-8672
▁민원이	-8673
▁밝히는	-8674
▁방법이	-8675
▁방지법	-8676
▁백원우	-8677
▁벌금에	-8678
▁부통령	-8679
▁불특정	-8680
▁불편을	-8681
▁사람에	-8682
▁사망에	-8683
▁사용된	-8684
▁사이의	-8685
▁사진이	-8686
▁사회에	-8687
▁살포를	-8688
▁상태인	-8689
▁소방과	-8690
▁송치할	-8691
▁쇠사슬	-8692
▁시민들	-8693
▁신도와	-8694
▁아이돌	-8695
▁안정을	-8696
▁안팎의	-8697
▁않기로	-8698
▁엄마는	-8699
▁업주가	-8700
▁에어컨	-8701
▁열심히	-8702
▁예고한	-8703
▁운영이	-8704
▁운전기	-8705
▁원장이	-8706
▁위치를	-8707
▁위치한	-8708
▁유학생	-8709
▁이거는	-8710
▁이곳은	-8711
▁인정해	-8712
▁일종의	-8713
▁잇달아	-8714
▁자제를	-8715
▁잠적한	-8716
▁쟁점이	-8717
▁전세기	-8718
▁조사해	-8719
▁주소를	-8720
▁주인은	-8721
▁줄줄이	-8722
▁중국어	-8723
▁중상을	-8724
▁지지를	-8725
▁지키고	-8726
▁진입을	-8727
▁첩보를	-8728
▁출연자	-8729
▁침수된	-8730
▁커지는	-8731
▁특례법	-8732
▁표현의	-8733
▁프로듀	-8734
▁한계가	-8735
▁한다며	-8736
▁해경의	-8737
▁해안가	-8738
▁확실한	-8739
▁회장의	-8740
▁회장이	-8741
대입니다	-8742
덕입니다	-8743
성입니다	-8744
어린이집	-8745
자산운용	-8746
▁2008	-8747
▁가족들은	-8748
▁가해자의	-8749
▁고소장이	-8750
▁골프장에	-8751
▁공범으로	-8752
▁공유하는	-8753
▁과태료를	-8754
▁교민들을	-8755
▁국방부는	-8756
▁그렇다고	-8757
▁나왔다고	-8758
▁나타나지	-8759
▁단체들은	-8760
▁당했다는	-8761
▁대대적인	-8762
▁들어오는	-8763
▁마스크는	-8764
▁마을에서	-8765
▁메시지가	-8766
▁민주당의	-8767
▁변호사님	-8768
▁보험사기	-8769
▁부당하게	-8770
▁부산시장	-8771
▁비례대표	-8772
▁신고하고	-8773
▁안전하게	-8774
▁않겠다고	-8775
▁어머니와	-8776
▁예상되는	-8777
▁우레탄폼	-8778
▁운전자에	-8779
▁의료진이	-8780
▁이름으로	-8781
▁자유북한	-8782
▁재판부에	-8783
▁제기하고	-8784
▁죄송하다	-8785
▁주민센터	-8786
▁주지사는	-8787
▁중고거래	-8788
▁증가하고	-8789
▁지속해서	-8790
▁지자체가	-8791
▁지자체에	-8792
▁집회에서	-8793
▁징역이나	-8794
▁차단하기	-8795
▁청주의료	-8796
▁총선에서	-8797
▁카메라가	-8798
▁폐기물을	-8799
▁피해자만	-8800
▁해달라고	-8801
▁확산하고	-8802
▁확인됐다	-8803
▁확인했다	-8804
▁회원들이	-8805
▁개인정보가	-8806
▁경찰관들이	-8807
▁경찰로부터	-8808
▁교차로에서	-8809
▁바이러스가	-8810
▁발생했다고	-8811
▁방침이라고	-8812
▁보건당국이	-8813
▁사례입니다	-8814
▁설명입니다	-8815
▁소셜미디어	-8816
▁시민들에게	-8817
▁알렸습니다	-8818
▁압수수색에	-8819
▁올림픽대로	-8820
▁요구했지만	-8821
▁이어집니다	-8822
▁이유입니다	-8823
▁잇따르면서	-8824
▁지난해보다	-8825
▁지속적으로	-8826
▁플로이드가	-8827
▁학부모들은	-8828
▁확진자들의	-8829
▁구형했습니다	-8830
▁들어왔습니다	-8831
▁마련됐습니다	-8832
▁워싱턴포스트	-8833
▁의결했습니다	-8834
▁중대재해기업	-8835
▁참석했습니다	-8836
▁연결하겠습니다	-8837
▁질병관리본부는	-8838
▁자유북한운동연합	-8839
▁국립과학수사연구원에	-8840
12	-8841
▁U	-8842
▁곽	-8843
▁꿈	-8844
▁낭	-8845
▁롬	-8846
▁멕	-8847
▁벚	-8848
▁뺨	-8849
▁쐈	-8850
▁엉	-8851
▁을	-8852
▁첨	-8853
▁층	-8854
가스	-8855
게요	-8856
겼고	-8857
경비	-8858
급을	-8859
내지	-8860
당에	-8861
동원	-8862
로커	-8863
리케	-8864
마자	-8865
맞이	-8866
배가	-8867
분석	-8868
비와	-8869
사해	-8870
상담	-8871
상은	-8872
시기	-8873
시위	-8874
실과	-8875
실히	-8876
심이	-8877
았을	-8878
용이	-8879
용지	-8880
월과	-8881
웠던	-8882
유입	-8883
율을	-8884
의에	-8885
이사	-8886
인보	-8887
일의	-8888
자나	-8889
쟁을	-8890
죄로	-8891
지어	-8892
추진	-8893
킬로	-8894
통제	-8895
필요	-8896
학기	-8897
학원	-8898
해수	-8899
▁DC	-8900
▁SR	-8901
▁가맹	-8902
▁간병	-8903
▁간첩	-8904
▁갇혀	-8905
▁강간	-8906
▁건에	-8907
▁걸릴	-8908
▁견제	-8909
▁경산	-8910
▁계신	-8911
▁고도	-8912
▁공황	-8913
▁구리	-8914
▁구타	-8915
▁그건	-8916
▁그녀	-8917
▁글쎄	-8918
▁급여	-8919
▁기름	-8920
▁김두	-8921
▁김모	-8922
▁김재	-8923
▁깊이	-8924
▁끊은	-8925
▁날인	-8926
▁노트	-8927
▁뉴딜	-8928
▁느낀	-8929
▁늦은	-8930
▁달간	-8931
▁담아	-8932
▁당내	-8933
▁당첨	-8934
▁대교	-8935
▁대를	-8936
▁도피	-8937
▁맞지	-8938
▁매입	-8939
▁명절	-8940
▁명칭	-8941
▁모아	-8942
▁모의	-8943
▁무언	-8944
▁미안	-8945
▁미터	-8946
▁민사	-8947
▁바깥	-8948
▁박탈	-8949
▁배가	-8950
▁벌일	-8951
▁법리	-8952
▁법조	-8953
▁벚꽃	-8954
▁보낼	-8955
▁보트	-8956
▁사후	-8957
▁샤를	-8958
▁서열	-8959
▁서현	-8960
▁석방	-8961
▁소명	-8962
▁숨어	-8963
▁시는	-8964
▁시켜	-8965
▁신임	-8966
▁심폐	-8967
▁악성	-8968
▁않게	-8969
▁알지	-8970
▁양측	-8971
▁어떤	-8972
▁얻은	-8973
▁없애	-8974
▁엇갈	-8975
▁온몸	-8976
▁외곽	-8977
▁유효	-8978
▁이라	-8979
▁이성	-8980
▁인건	-8981
▁인솔	-8982
▁인질	-8983
▁인출	-8984
▁일도	-8985
▁임명	-8986
▁적도	-8987
▁전투	-8988
▁점에	-8989
▁점포	-8990
▁정규	-8991
▁정오	-8992
▁제거	-8993
▁제동	-8994
▁조현	-8995
▁좋아	-8996
▁주춤	-8997
▁줄여	-8998
▁중상	-8999
▁측과	-9000
▁치어	-9001
▁콘크	-9002
▁통상	-9003
▁통지	-9004
▁특징	-9005
▁파는	-9006
▁필라	-9007
▁한쪽	-9008
▁행인	-9009
▁형을	-9010
▁호송	-9011
▁혼잡	-9012
▁확장	-9013
▁후에	-9014
▁흘러	-9015
개월이	-9016
대원이	-9017
로서는	-9018
명이고	-9019
본부에	-9020
뿐만이	-9021
사태가	-9022
수사에	-9023
업체와	-9024
주의를	-9025
지사는	-9026
체계를	-9027
하는지	-9028
▁900	-9029
▁가벼운	-9030
▁각별한	-9031
▁갈등을	-9032
▁감사를	-9033
▁거리에	-9034
▁거주지	-9035
▁건물에	-9036
▁검토해	-9037
▁계좌로	-9038
▁공개를	-9039
▁공공의	-9040
▁공사가	-9041
▁광고를	-9042
▁광범위	-9043
▁광주와	-9044
▁구조된	-9045
▁구조에	-9046
▁국적의	-9047
▁그중에	-9048
▁금은방	-9049
▁기숙사	-9050
▁기획재	-9051
▁긴장을	-9052
▁김득중	-9053
▁났다는	-9054
▁내부에	-9055
▁논의할	-9056
▁뉴스픽	-9057
▁단계로	-9058
▁대상에	-9059
▁대표의	-9060
▁돌아온	-9061
▁됐지만	-9062
▁둔기로	-9063
▁뒤따라	-9064
▁뒤에서	-9065
▁뜨거운	-9066
▁마련해	-9067
▁멕시코	-9068
▁멧돼지	-9069
▁명확한	-9070
▁모두를	-9071
▁무궁화	-9072
▁무기한	-9073
▁무릎을	-9074
▁무장한	-9075
▁바람이	-9076
▁밖에서	-9077
▁받기도	-9078
▁받으면	-9079
▁번지고	-9080
▁보트를	-9081
▁봅니다	-9082
▁북한에	-9083
▁분류된	-9084
▁불길을	-9085
▁불안을	-9086
▁불필요	-9087
▁비상이	-9088
▁사기범	-9089
▁사다리	-9090
▁사용이	-9091
▁사장은	-9092
▁사태의	-9093
▁사항이	-9094
▁상담을	-9095
▁서울에	-9096
▁선거에	-9097
▁선생님	-9098
▁성남시	-9099
▁소리가	-9100
▁소비자	-9101
▁소재가	-9102
▁속도로	-9103
▁수사팀	-9104
▁수사한	-9105
▁수수료	-9106
▁승객을	-9107
▁시설과	-9108
▁시신은	-9109
▁시위로	-9110
▁신뢰를	-9111
▁신분을	-9112
▁아동이	-9113
▁아찔한	-9114
▁않았을	-9115
▁야당은	-9116
▁어제는	-9117
▁언급한	-9118
▁엄격히	-9119
▁여부에	-9120
▁역부족	-9121
▁오늘로	-9122
▁오세요	-9123
▁오후에	-9124
▁용도로	-9125
▁우려에	-9126
▁운영에	-9127
▁원산지	-9128
▁위에서	-9129
▁위해선	-9130
▁위협을	-9131
▁유통한	-9132
▁이것은	-9133
▁이익을	-9134
▁일정이	-9135
▁임의로	-9136
▁있었을	-9137
▁자신도	-9138
▁작업은	-9139
▁잘못을	-9140
▁장학금	-9141
▁적용할	-9142
▁전력이	-9143
▁정부를	-9144
▁정신과	-9145
▁제보가	-9146
▁젠더특	-9147
▁조지아	-9148
▁조직은	-9149
▁주목할	-9150
▁주의를	-9151
▁중국이	-9152
▁증거능	-9153
▁지금의	-9154
▁지인을	-9155
▁지정해	-9156
▁진압에	-9157
▁진주의	-9158
▁창원시	-9159
▁처리할	-9160
▁체계를	-9161
▁초부터	-9162
▁추가돼	-9163
▁추적해	-9164
▁출연해	-9165
▁충분한	-9166
▁침입해	-9167
▁태양광	-9168
▁통과한	-9169
▁통행을	-9170
▁튀어나	-9171
▁특혜를	-9172
▁판단에	-9173
▁포스코	-9174
▁하니까	-9175
▁하도급	-9176
▁한탄강	-9177
▁할까요	-9178
▁해리스	-9179
▁활용한	-9180
▁회견이	-9181
▁훼손된	-9182
▁휘둘러	-9183
▁흔적이	-9184
규입니다	-9185
들로부터	-9186
안전보건	-9187
약품안전	-9188
요양병원	-9189
일부터는	-9190
지역으로	-9191
호입니다	-9192
▁2007	-9193
▁2011	-9194
▁2021	-9195
▁건강보험	-9196
▁검찰총장	-9197
▁경찰관은	-9198
▁경찰들이	-9199
▁계속하고	-9200
▁공간에서	-9201
▁공소장에	-9202
▁공소장을	-9203
▁공항에서	-9204
▁관계자를	-9205
▁국민들이	-9206
▁긴장감이	-9207
▁나타나고	-9208
▁내일까지	-9209
▁당시에도	-9210
▁대남병원	-9211
▁도시에서	-9212
▁무더기로	-9213
▁박격포탄	-9214
▁발생하면	-9215
▁방문했던	-9216
▁벌금형에	-9217
▁벌금형을	-9218
▁변호사가	-9219
▁보호구역	-9220
▁분석하고	-9221
▁분위기가	-9222
▁불가능한	-9223
▁비상대책	-9224
▁사회관계	-9225
▁상품권을	-9226
▁서울구치	-9227
▁서울서부	-9228
▁선거운동	-9229
▁성관계를	-9230
▁성매매를	-9231
▁성지순례	-9232
▁속출하고	-9233
▁숨졌다고	-9234
▁시스템에	-9235
▁신도들에	-9236
▁신도들이	-9237
▁신용카드	-9238
▁썼습니다	-9239
▁앞서가던	-9240
▁어린이는	-9241
▁여성에게	-9242
▁였습니다	-9243
▁영향으로	-9244
▁요청하는	-9245
▁용의자는	-9246
▁우려되는	-9247
▁운전대를	-9248
▁위험구역	-9249
▁유료회원	-9250
▁이야기는	-9251
▁전국적인	-9252
▁점검하고	-9253
▁정보공개	-9254
▁조주빈과	-9255
▁중소기업	-9256
▁지켜지지	-9257
▁진상규명	-9258
▁출동하는	-9259
▁파악되지	-9260
▁피의자로	-9261
▁학생들을	-9262
▁한국에서	-9263
▁해외유입	-9264
▁현수막이	-9265
▁강조합니다	-9266
▁교통사고는	-9267
▁끝났습니다	-9268
▁노동자들의	-9269
▁노동자들이	-9270
▁대화방에서	-9271
▁때문이라고	-9272
▁미래한국당	-9273
▁보건당국의	-9274
▁비밀번호를	-9275
▁신청했다고	-9276
▁실시간으로	-9277
▁올랐습니다	-9278
▁우려됩니다	-9279
▁운전면허를	-9280
▁일방적으로	-9281
▁재난지원금	-9282
▁최종적으로	-9283
▁텔레그램을	-9284
▁행정안전부	-9285
▁확인됐다고	-9286
▁고소했습니다	-9287
▁공무집행방해	-9288
▁권고했습니다	-9289
▁김용덕입니다	-9290
▁달아났습니다	-9291
▁등장했습니다	-9292
▁디지털교도소	-9293
▁라임자산운용	-9294
▁제시했습니다	-9295
▁처분했습니다	-9296
▁식품의약품안전	-9297
▁인천지방경찰청	-9298
▁혈중알코올농도는	-9299
▁국립과학수사연구원	-9300
YT	-9301
kg	-9302
▁람	-9303
▁몫	-9304
▁빛	-9305
▁샀	-9306
▁싣	-9307
▁싱	-9308
▁쏠	-9309
▁티	-9310
▁헛	-9311
건강	-9312
계는	-9313
국의	-9314
금과	-9315
금리	-9316
급여	-9317
냐고	-9318
는다	-9319
니를	-9320
다툼	-9321
단지	-9322
들고	-9323
들만	-9324
리어	-9325
마을	-9326
마의	-9327
말로	-9328
모빌	-9329
법원	-9330
분리	-9331
붙은	-9332
사경	-9333
상공	-9334
상진	-9335
석에	-9336
설이	-9337
세계	-9338
셔서	-9339
수급	-9340
수칙	-9341
스의	-9342
스타	-9343
스프	-9344
습을	-9345
아웃	-9346
양대	-9347
었기	-9348
연락	-9349
연맹	-9350
영향	-9351
예술	-9352
용품	-9353
위인	-9354
인당	-9355
일은	-9356
자유	-9357
제도	-9358
조끼	-9359
중고	-9360
중을	-9361
진이	-9362
집을	-9363
차와	-9364
참여	-9365
처는	-9366
체계	-9367
치상	-9368
텐츠	-9369
퇴근	-9370
펀드	-9371
하실	-9372
했죠	-9373
현장	-9374
▁83	-9375
▁KF	-9376
▁가려	-9377
▁가축	-9378
▁간에	-9379
▁간이	-9380
▁갑작	-9381
▁건널	-9382
▁검언	-9383
▁견디	-9384
▁결심	-9385
▁경력	-9386
▁경유	-9387
▁경호	-9388
▁계시	-9389
▁골라	-9390
▁광안	-9391
▁광진	-9392
▁교량	-9393
▁구명	-9394
▁글로	-9395
▁급정	-9396
▁꼼꼼	-9397
▁나들	-9398
▁나름	-9399
▁나면	-9400
▁나무	-9401
▁난폭	-9402
▁냉장	-9403
▁넘기	-9404
▁노선	-9405
▁누출	-9406
▁단호	-9407
▁대여	-9408
▁대의	-9409
▁도보	-9410
▁동반	-9411
▁두드	-9412
▁뒤쫓	-9413
▁멍이	-9414
▁모를	-9415
▁모터	-9416
▁무인	-9417
▁물건	-9418
▁물질	-9419
▁미화	-9420
▁박영	-9421
▁발행	-9422
▁배임	-9423
▁벗어	-9424
▁벨루	-9425
▁보존	-9426
▁보지	-9427
▁복역	-9428
▁부두	-9429
▁부른	-9430
▁북구	-9431
▁빌린	-9432
▁뺨을	-9433
▁사연	-9434
▁사적	-9435
▁살피	-9436
▁새끼	-9437
▁서민	-9438
▁서서	-9439
▁성장	-9440
▁세부	-9441
▁속아	-9442
▁속인	-9443
▁수면	-9444
▁수법	-9445
▁숨져	-9446
▁쉼터	-9447
▁신축	-9448
▁실무	-9449
▁실업	-9450
▁실체	-9451
▁실행	-9452
▁써야	-9453
▁알렉	-9454
▁알리	-9455
▁애도	-9456
▁약식	-9457
▁어길	-9458
▁어선	-9459
▁억제	-9460
▁엄청	-9461
▁에브	-9462
▁연대	-9463
▁열차	-9464
▁영월	-9465
▁오면	-9466
▁옹호	-9467
▁유관	-9468
▁유형	-9469
▁이례	-9470
▁이륜	-9471
▁이메	-9472
▁이명	-9473
▁이분	-9474
▁이준	-9475
▁일련	-9476
▁일로	-9477
▁임기	-9478
▁입구	-9479
▁입력	-9480
▁입어	-9481
▁입힌	-9482
▁자살	-9483
▁잠금	-9484
▁잠을	-9485
▁잠정	-9486
▁장이	-9487
▁저수	-9488
▁전현	-9489
▁정경	-9490
▁정면	-9491
▁정문	-9492
▁정착	-9493
▁조종	-9494
▁주저	-9495
▁중태	-9496
▁진열	-9497
▁쫓아	-9498
▁찔러	-9499
▁차이	-9500
▁채로	-9501
▁채무	-9502
▁처할	-9503
▁체벌	-9504
▁초대	-9505
▁초량	-9506
▁촉법	-9507
▁최민	-9508
▁최위	-9509
▁치사	-9510
▁치킨	-9511
▁캐나	-9512
▁커진	-9513
▁커피	-9514
▁탄원	-9515
▁터뜨	-9516
▁투숙	-9517
▁판례	-9518
▁팩트	-9519
▁피격	-9520
▁필기	-9521
▁하동	-9522
▁하드	-9523
▁하이	-9524
▁학술	-9525
▁한반	-9526
▁할인	-9527
▁합법	-9528
▁항상	-9529
▁현안	-9530
▁화를	-9531
▁화천	-9532
겼지만	-9533
기에서	-9534
다시피	-9535
단계에	-9536
단속을	-9537
델피아	-9538
됐다가	-9539
명이나	-9540
본부가	-9541
시설인	-9542
왔지만	-9543
자동차	-9544
자라고	-9545
졌는지	-9546
중공업	-9547
치면서	-9548
카드를	-9549
틀랜드	-9550
하고자	-9551
하우스	-9552
하자는	-9553
해주는	-9554
▁가라앉	-9555
▁감시를	-9556
▁감정을	-9557
▁것이란	-9558
▁계정을	-9559
▁고발된	-9560
▁교민을	-9561
▁교사의	-9562
▁국내에	-9563
▁규모를	-9564
▁극심한	-9565
▁급격히	-9566
▁급기야	-9567
▁급류에	-9568
▁기사의	-9569
▁깜깜이	-9570
▁나서는	-9571
▁나오자	-9572
▁남성에	-9573
▁너무나	-9574
▁넘어서	-9575
▁노동당	-9576
▁노무현	-9577
▁녹취록	-9578
▁논란은	-9579
▁눈치채	-9580
▁다가가	-9581
▁단순히	-9582
▁단체에	-9583
▁대국민	-9584
▁대전시	-9585
▁마련에	-9586
▁많았고	-9587
▁머물렀	-9588
▁몸싸움	-9589
▁무너져	-9590
▁물대포	-9591
▁반응을	-9592
▁발생을	-9593
▁방안이	-9594
▁방향을	-9595
▁배제할	-9596
▁배치돼	-9597
▁번호를	-9598
▁벌금이	-9599
▁범인이	-9600
▁범죄는	-9601
▁보세요	-9602
▁보호를	-9603
▁부담을	-9604
▁부부가	-9605
▁부인한	-9606
▁분석이	-9607
▁불복해	-9608
▁불안감	-9609
▁브로커	-9610
▁사기와	-9611
▁사람만	-9612
▁사실과	-9613
▁사업은	-9614
▁사이드	-9615
▁사이로	-9616
▁사칭한	-9617
▁사항을	-9618
▁사흘째	-9619
▁상반기	-9620
▁상태에	-9621
▁샤를리	-9622
▁서초구	-9623
▁소녀상	-9624
▁수십억	-9625
▁수원시	-9626
▁숙박업	-9627
▁시위와	-9628
▁시위의	-9629
▁시작해	-9630
▁시중에	-9631
▁신도는	-9632
▁신생아	-9633
▁신청이	-9634
▁아들은	-9635
▁아이는	-9636
▁안전에	-9637
▁않아도	-9638
▁않아서	-9639
▁어두운	-9640
▁어디에	-9641
▁어제도	-9642
▁언론사	-9643
▁업무가	-9644
▁업체의	-9645
▁여부와	-9646
▁영상에	-9647
▁예방접	-9648
▁예정인	-9649
▁외에는	-9650
▁용인시	-9651
▁유상범	-9652
▁유일한	-9653
▁의무를	-9654
▁의미를	-9655
▁이번주	-9656
▁이상은	-9657
▁이성윤	-9658
▁이재용	-9659
▁인도를	-9660
▁인원을	-9661
▁임무를	-9662
▁입건된	-9663
▁있다면	-9664
▁자료가	-9665
▁자리에	-9666
▁자백을	-9667
▁자택에	-9668
▁자회사	-9669
▁장치가	-9670
▁적발한	-9671
▁적용을	-9672
▁전염병	-9673
▁점검에	-9674
▁접촉해	-9675
▁정도를	-9676
▁조작해	-9677
▁조직이	-9678
▁조혜연	-9679
▁주먹을	-9680
▁주장한	-9681
▁주지사	-9682
▁준비를	-9683
▁중국과	-9684
▁중대한	-9685
▁증세가	-9686
▁지나지	-9687
▁지내던	-9688
▁지켜야	-9689
▁진료를	-9690
▁진정을	-9691
▁차선을	-9692
▁참석해	-9693
▁참여를	-9694
▁찾아내	-9695
▁총격을	-9696
▁총장이	-9697
▁출근길	-9698
▁출입구	-9699
▁출퇴근	-9700
▁충돌을	-9701
▁충주시	-9702
▁크다는	-9703
▁특별법	-9704
▁특사경	-9705
▁파장이	-9706
▁판단할	-9707
▁판정이	-9708
▁피하기	-9709
▁하기도	-9710
▁하나씩	-9711
▁하나의	-9712
▁해결을	-9713
▁현황을	-9714
▁협력해	-9715
▁협조해	-9716
▁화제가	-9717
▁확정된	-9718
▁환자도	-9719
▁황당한	-9720
▁횡령한	-9721
▁흑인의	-9722
곳입니다	-9723
뒀습니다	-9724
모빌리티	-9725
수사대는	-9726
킬로미터	-9727
하는데요	-9728
▁2006	-9729
▁가해자를	-9730
▁갔습니다	-9731
▁것이고요	-9732
▁격리조치	-9733
▁경우에도	-9734
▁경찰관을	-9735
▁경찰청과	-9736
▁경찰청에	-9737
▁고발하고	-9738
▁공공기관	-9739
▁과거에도	-9740
▁관계자와	-9741
▁국가안보	-9742
▁국무총리	-9743
▁권한대행	-9744
▁귀금속을	-9745
▁기다리는	-9746
▁기다리던	-9747
▁기록적인	-9748
▁내부에서	-9749
▁대상에서	-9750
▁동물보호	-9751
▁말입니다	-9752
▁몸싸움을	-9753
▁무시하고	-9754
▁문형욱의	-9755
▁민정수석	-9756
▁바라보는	-9757
▁반려견을	-9758
▁발견하고	-9759
▁방문자와	-9760
▁범죄단체	-9761
▁변호인이	-9762
▁보조금을	-9763
▁불필요한	-9764
▁비서관은	-9765
▁사용하지	-9766
▁살펴보고	-9767
▁새벽까지	-9768
▁생명에는	-9769
▁선거에서	-9770
▁손님들이	-9771
▁수도권에	-9772
▁수도권의	-9773
▁실질적인	-9774
▁쏟아지고	-9775
▁아니라며	-9776
▁어린이의	-9777
▁열겠다고	-9778
▁오후부터	-9779
▁인터뷰를	-9780
▁일어나는	-9781
▁입주민의	-9782
▁자격정지	-9783
▁전국으로	-9784
▁전세버스	-9785
▁전수조사	-9786
▁제주지역	-9787
▁제한하고	-9788
▁줄었지만	-9789
▁지방선거	-9790
▁지원하고	-9791
▁지인에게	-9792
▁지자체는	-9793
▁지자체와	-9794
▁지자체의	-9795
▁진단검사	-9796
▁진상조사	-9797
▁징역형을	-9798
▁철저하게	-9799
▁청소년을	-9800
▁촬영물을	-9801
▁최근에는	-9802
▁출장비를	-9803
▁통일부는	-9804
▁통합당은	-9805
▁피고인의	-9806
▁해역에서	-9807
▁형식으로	-9808
▁훼손하는	-9809
들었습니다	-9810
브리핑에서	-9811
위원회에서	-9812
▁겪었습니다	-9813
▁국가정보원	-9814
▁국토교통부	-9815
▁들어갑니다	-9816
▁때문인데요	-9817
▁발견됐다고	-9818
▁방역지침을	-9819
▁부장검사는	-9820
▁비서실장은	-9821
▁실시하기로	-9822
▁압수수색해	-9823
▁온라인에서	-9824
▁의무적으로	-9825
▁이어갑니다	-9826
▁인명피해가	-9827
▁인사청문회	-9828
▁자유한국당	-9829
▁정보통신망	-9830
▁지적입니다	-9831
▁직원들에게	-9832
▁청주의료원	-9833
▁체포했다고	-9834
▁충청북도는	-9835
▁필라델피아	-9836
▁필리버스터	-9837
▁대응하겠다고	-9838
▁분석했습니다	-9839
▁비난했습니다	-9840
▁스타모빌리티	-9841
▁전달했습니다	-9842
▁최위지입니다	-9843
▁출석했습니다	-9844
▁파악했습니다	-9845
▁해양경찰청은	-9846
▁사랑제일교회에	-9847
▁영장실질심사를	-9848
▁전해드렸습니다	-9849
▁중앙재난안전대책본부는	-9850
BS	-9851
OK	-9852
▁T	-9853
▁갱	-9854
▁겉	-9855
▁긍	-9856
▁득	-9857
▁땐	-9858
▁뭘	-9859
▁솜	-9860
▁앙	-9861
▁엔	-9862
▁칸	-9863
▁캄	-9864
▁턱	-9865
▁폼	-9866
개정	-9867
공간	-9868
급히	-9869
년도	-9870
노샤	-9871
녹화	-9872
느라	-9873
는가	-9874
되던	-9875
등이	-9876
라노	-9877
로에	-9878
류의	-9879
만이	-9880
멘트	-9881
명당	-9882
명만	-9883
무장	-9884
미수	-9885
미콘	-9886
박한	-9887
분기	-9888
분께	-9889
분향	-9890
빌딩	-9891
사용	-9892
석희	-9893
설명	-9894
세에	-9895
세종	-9896
셔야	-9897
수라	-9898
스턴	-9899
식은	-9900
심과	-9901
악한	-9902
역과	-9903
욕탕	-9904
우저	-9905
읍의	-9906
이에	-9907
장학	-9908
재단	-9909
젓이	-9910
졌을	-9911
종일	-9912
주면	-9913
진압	-9914
체의	-9915
층과	-9916
통이	-9917
파에	-9918
프로	-9919
픔을	-9920
하러	-9921
한데	-9922
항쟁	-9923
화점	-9924
화한	-9925
▁08	-9926
▁가고	-9927
▁가둬	-9928
▁가르	-9929
▁가야	-9930
▁강아	-9931
▁강의	-9932
▁개성	-9933
▁객관	-9934
▁거칠	-9935
▁겪는	-9936
▁경매	-9937
▁경부	-9938
▁고급	-9939
▁고무	-9940
▁공안	-9941
▁공영	-9942
▁교외	-9943
▁국감	-9944
▁그를	-9945
▁긍정	-9946
▁김진	-9947
▁끌고	-9948
▁낚시	-9949
▁내다	-9950
▁노란	-9951
▁농장	-9952
▁느슨	-9953
▁늘려	-9954
▁단란	-9955
▁단축	-9956
▁달여	-9957
▁대다	-9958
▁대립	-9959
▁대조	-9960
▁던져	-9961
▁도용	-9962
▁돕는	-9963
▁동시	-9964
▁동향	-9965
▁드문	-9966
▁리원	-9967
▁마라	-9968
▁마찰	-9969
▁만났	-9970
▁말도	-9971
▁말로	-9972
▁맞게	-9973
▁면적	-9974
▁명시	-9975
▁모른	-9976
▁목록	-9977
▁목에	-9978
▁무게	-9979
▁묶어	-9980
▁문의	-9981
▁문체	-9982
▁민경	-9983
▁발주	-9984
▁방파	-9985
▁버린	-9986
▁법에	-9987
▁벽돌	-9988
▁벽에	-9989
▁복잡	-9990
▁복직	-9991
▁부러	-9992
▁북송	-9993
▁분담	-9994
▁비토	-9995
▁빙판	-9996
▁빼곡	-9997
▁사임	-9998
▁사항	-9999
▁상고	-10000
▁상무	-10001
▁상세	-10002
▁상처	-10003
▁생중	-10004
▁성도	-10005
▁세입	-10006
▁소연	-10007
▁송환	-10008
▁수위	-10009
▁시군	-10010
▁시키	-10011
▁실은	-10012
▁아기	-10013
▁안을	-10014
▁안장	-10015
▁않기	-10016
▁않으	-10017
▁약을	-10018
▁영광	-10019
▁오지	-10020
▁왔다	-10021
▁운반	-10022
▁위태	-10023
▁의대	-10024
▁의약	-10025
▁이소	-10026
▁이익	-10027
▁인과	-10028
▁인원	-10029
▁일선	-10030
▁임용	-10031
▁입시	-10032
▁잇는	-10033
▁자전	-10034
▁잠실	-10035
▁재검	-10036
▁적색	-10037
▁접견	-10038
▁정재	-10039
▁주상	-10040
▁중징	-10041
▁차려	-10042
▁철제	-10043
▁철조	-10044
▁초속	-10045
▁총력	-10046
▁최강	-10047
▁추경	-10048
▁추도	-10049
▁축하	-10050
▁타낸	-10051
▁테이	-10052
▁특검	-10053
▁팀을	-10054
▁퍼진	-10055
▁펼쳐	-10056
▁피난	-10057
▁하얀	-10058
▁한라	-10059
▁한미	-10060
▁함양	-10061
▁합참	-10062
▁핸드	-10063
▁행태	-10064
▁황당	-10065
▁회식	-10066
▁훌쩍	-10067
▁힘이	-10068
가량을	-10069
객들이	-10070
공사는	-10071
관리법	-10072
관에게	-10073
교육을	-10074
교회와	-10075
까지만	-10076
나드는	-10077
는데도	-10078
들과의	-10079
라인을	-10080
렸다는	-10081
로에서	-10082
리조나	-10083
센터가	-10084
센터를	-10085
안에서	-10086
았다가	-10087
었다가	-10088
었다며	-10089
여명이	-10090
용으로	-10091
웁니다	-10092
윱니다	-10093
재판을	-10094
지법인	-10095
책으로	-10096
처분을	-10097
쳤다는	-10098
층으로	-10099
카메라	-10100
편으로	-10101
하더니	-10102
해하는	-10103
협회는	-10104
화하고	-10105
▁270	-10106
▁LPG	-10107
▁감염도	-10108
▁갑니다	-10109
▁강행한	-10110
▁강행할	-10111
▁거부한	-10112
▁건수가	-10113
▁걸리지	-10114
▁검역을	-10115
▁검찰도	-10116
▁것들을	-10117
▁것인가	-10118
▁과거사	-10119
▁과실이	-10120
▁교회는	-10121
▁국과수	-10122
▁국민적	-10123
▁규명을	-10124
▁그것도	-10125
▁그리스	-10126
▁근무한	-10127
▁급속히	-10128
▁기관은	-10129
▁기관의	-10130
▁기능을	-10131
▁기록한	-10132
▁기소돼	-10133
▁기억이	-10134
▁긴장이	-10135
▁김정은	-10136
▁김해의	-10137
▁나가는	-10138
▁나들목	-10139
▁나타났	-10140
▁노출된	-10141
▁높다고	-10142
▁높이고	-10143
▁늘어나	-10144
▁다니던	-10145
▁다단계	-10146
▁다음은	-10147
▁대처가	-10148
▁던지고	-10149
▁던지는	-10150
▁데리고	-10151
▁도착할	-10152
▁돌아다	-10153
▁동안의	-10154
▁되도록	-10155
▁되면서	-10156
▁두기를	-10157
▁들이닥	-10158
▁등록을	-10159
▁레미콘	-10160
▁리조트	-10161
▁마련한	-10162
▁마음에	-10163
▁말다툼	-10164
▁말했다	-10165
▁맞지만	-10166
▁명단과	-10167
▁명단이	-10168
▁명령이	-10169
▁명부를	-10170
▁명에게	-10171
▁모양새	-10172
▁목격자	-10173
▁목표로	-10174
▁못하면	-10175
▁무너진	-10176
▁무리한	-10177
▁무차별	-10178
▁물품을	-10179
▁뭐라고	-10180
▁바람직	-10181
▁받기로	-10182
▁받아서	-10183
▁버스와	-10184
▁버젓이	-10185
▁법안은	-10186
▁벗어난	-10187
▁병사의	-10188
▁병원은	-10189
▁보도된	-10190
▁보험료	-10191
▁부모님	-10192
▁부서진	-10193
▁부위를	-10194
▁북한은	-10195
▁분량의	-10196
▁비교해	-10197
▁비접촉	-10198
▁사업자	-10199
▁사업장	-10200
▁사퇴를	-10201
▁사퇴한	-10202
▁사표를	-10203
▁살포가	-10204
▁상원의	-10205
▁생각은	-10206
▁생각해	-10207
▁서둘러	-10208
▁소리를	-10209
▁소재를	-10210
▁손님을	-10211
▁송국회	-10212
▁송치된	-10213
▁수상한	-10214
▁수요일	-10215
▁숫자가	-10216
▁시행령	-10217
▁신고자	-10218
▁신고할	-10219
▁신병을	-10220
▁신세계	-10221
▁실장은	-10222
▁심인보	-10223
▁악용해	-10224
▁안전이	-10225
▁없어서	-10226
▁여론을	-10227
▁여론이	-10228
▁여야가	-10229
▁역량을	-10230
▁연관된	-10231
▁올리고	-10232
▁왔는데	-10233
▁요구에	-10234
▁우려의	-10235
▁우리의	-10236
▁운영해	-10237
▁원짜리	-10238
▁위기를	-10239
▁위력에	-10240
▁유감을	-10241
▁유력한	-10242
▁유죄로	-10243
▁이것이	-10244
▁이득을	-10245
▁이틀째	-10246
▁이후로	-10247
▁인도에	-10248
▁일당은	-10249
▁입교생	-10250
▁입국해	-10251
▁입수해	-10252
▁잇따랐	-10253
▁잇따른	-10254
▁장관을	-10255
▁재판은	-10256
▁전원책	-10257
▁전주시	-10258
▁전주의	-10259
▁정보와	-10260
▁정보위	-10261
▁정황도	-10262
▁제출을	-10263
▁좀처럼	-10264
▁좌회전	-10265
▁주민들	-10266
▁주부터	-10267
▁주위를	-10268
▁주장은	-10269
▁주장해	-10270
▁주제로	-10271
▁줄어들	-10272
▁줄이기	-10273
▁중대본	-10274
▁지침에	-10275
▁진천의	-10276
▁집행을	-10277
▁차량도	-10278
▁착용한	-10279
▁체포돼	-10280
▁체포한	-10281
▁총격이	-10282
▁최민희	-10283
▁취재를	-10284
▁측정을	-10285
▁침입한	-10286
▁카운티	-10287
▁커노샤	-10288
▁크리스	-10289
▁투표가	-10290
▁파악이	-10291
▁판사가	-10292
▁판사는	-10293
▁평화의	-10294
▁폭행에	-10295
▁프라이	-10296
▁하반기	-10297
▁학교를	-10298
▁학대에	-10299
▁해맞이	-10300
▁협의를	-10301
▁홍콩의	-10302
▁화장품	-10303
▁활동이	-10304
▁효력을	-10305
▁후보로	-10306
▁휘두른	-10307
▁휩쓸려	-10308
거리에서	-10309
국민투쟁	-10310
대로라면	-10311
되는데요	-10312
명인데요	-10313
스프레스	-10314
시간가량	-10315
시설에서	-10316
킥보드를	-10317
함으로써	-10318
훈입니다	-10319
▁1986	-10320
▁2005	-10321
▁간격으로	-10322
▁감염병의	-10323
▁강원관광	-10324
▁공황장애	-10325
▁관련해선	-10326
▁교차로를	-10327
▁국민권익	-10328
▁근무하고	-10329
▁근무했던	-10330
▁기저질환	-10331
▁내년부터	-10332
▁내렸다고	-10333
▁당선인의	-10334
▁당시에는	-10335
▁대부분은	-10336
▁둘러싸고	-10337
▁뒤따르던	-10338
▁매장에서	-10339
▁모두에게	-10340
▁문제점을	-10341
▁반성하고	-10342
▁받아들일	-10343
▁발견됐고	-10344
▁발견하지	-10345
▁발표하고	-10346
▁밝혔다고	-10347
▁벌입니다	-10348
▁보호하는	-10349
▁분석하는	-10350
▁불안감을	-10351
▁서울동부	-10352
▁선고받고	-10353
▁성추행한	-10354
▁수준으로	-10355
▁승용차와	-10356
▁신고하는	-10357
▁아무래도	-10358
▁알려지자	-10359
▁애리조나	-10360
▁업체들이	-10361
▁연관성이	-10362
▁예정대로	-10363
▁오전부터	-10364
▁옥살이를	-10365
▁용의자가	-10366
▁운영자가	-10367
▁원칙으로	-10368
▁유족들이	-10369
▁유통업체	-10370
▁이춘재의	-10371
▁인권위는	-10372
▁일반재판	-10373
▁있다고요	-10374
▁재산피해	-10375
▁재판부가	-10376
▁접촉자는	-10377
▁접촉자를	-10378
▁정부서울	-10379
▁제한하는	-10380
▁조두순이	-10381
▁주상복합	-10382
▁중앙분리	-10383
▁지나가던	-10384
▁지원금을	-10385
▁지원하는	-10386
▁진주시는	-10387
▁차량에서	-10388
▁참여하는	-10389
▁철도경찰	-10390
▁청소년성	-10391
▁청소년의	-10392
▁촉법소년	-10393
▁총회장이	-10394
▁컸습니다	-10395
▁태국에서	-10396
▁퍼지면서	-10397
▁편의점에	-10398
▁폭행하고	-10399
▁피의자를	-10400
▁학교에서	-10401
▁합동분향	-10402
▁해외입국	-10403
▁행정조사	-10404
▁현장에는	-10405
▁확보하기	-10406
▁확산되고	-10407
▁확인됐고	-10408
▁확인되면	-10409
▁확인했고	-10410
당했습니다	-10411
상현입니다	-10412
이었는데요	-10413
▁거부하거나	-10414
▁공소시효가	-10415
▁공식적으로	-10416
▁국무총리는	-10417
▁국민청원에	-10418
▁그쳤습니다	-10419
▁김포공항에	-10420
▁뉴스브리핑	-10421
▁마지막으로	-10422
▁맞았습니다	-10423
▁받아들이지	-10424
▁보육교사가	-10425
▁사회관계망	-10426
▁손해배상을	-10427
▁수도권에서	-10428
▁시행합니다	-10429
▁신종코로나	-10430
▁아동학대로	-10431
▁아르바이트	-10432
▁알려졌는데	-10433
▁외쳤습니다	-10434
▁위해섭니다	-10435
▁일었습니다	-10436
▁자가격리에	-10437
▁주민들에게	-10438
▁주차장에서	-10439
▁진행됩니다	-10440
▁진행합니다	-10441
▁파악됩니다	-10442
▁한진중공업	-10443
▁할머니들을	-10444
▁확산하면서	-10445
▁확인되면서	-10446
▁고발됐습니다	-10447
▁구조했습니다	-10448
▁뉴욕타임스는	-10449
▁대공수사권을	-10450
▁돌아갔습니다	-10451
▁만들었습니다	-10452
▁받아들여지지	-10453
▁방문했습니다	-10454
▁배치됐습니다	-10455
▁빚어졌습니다	-10456
▁설치했습니다	-10457
▁소방대원들이	-10458
▁역학조사에서	-10459
▁올라왔습니다	-10460
▁적용됐습니다	-10461
▁제주자치경찰	-10462
▁주문했습니다	-10463
▁증가했습니다	-10464
▁집합금지명령	-10465
▁충돌했습니다	-10466
▁투입됐습니다	-10467
▁확진자입니다	-10468
▁정례브리핑에서	-10469
▁혈중알코올농도	-10470
▁임시생활시설에서	-10471
17	-10472
18	-10473
20	-10474
24	-10475
▁p	-10476
▁값	-10477
▁닭	-10478
▁둑	-10479
▁몇	-10480
▁밸	-10481
▁뺑	-10482
▁십	-10483
▁씻	-10484
▁옵	-10485
▁찼	-10486
▁혐	-10487
각을	-10488
감식	-10489
광장	-10490
권의	-10491
기구	-10492
기부	-10493
기억	-10494
기총	-10495
끄럽	-10496
남기	-10497
년생	-10498
년여	-10499
돌고	-10500
라제	-10501
로의	-10502
류를	-10503
마켓	-10504
매장	-10505
명인	-10506
므로	-10507
미를	-10508
미칼	-10509
바르	-10510
박람	-10511
발굴	-10512
발로	-10513
발의	-10514
방향	-10515
변호	-10516
부장	-10517
뼈가	-10518
사례	-10519
사전	-10520
성해	-10521
센트	-10522
소니	-10523
소생	-10524
소유	-10525
소한	-10526
순영	-10527
순환	-10528
시영	-10529
시한	-10530
쓰레	-10531
씨도	-10532
워서	-10533
웠다	-10534
위와	-10535
이란	-10536
인민	-10537
자문	-10538
작용	-10539
전남	-10540
전철	-10541
절을	-10542
정한	-10543
종합	-10544
주년	-10545
증이	-10546
책임	-10547
철을	-10548
초가	-10549
추적	-10550
취를	-10551
치에	-10552
클럽	-10553
탱크	-10554
턱을	-10555
토론	-10556
투본	-10557
페이	-10558
평구	-10559
평등	-10560
평을	-10561
평화	-10562
학대	-10563
함께	-10564
해가	-10565
협박	-10566
화해	-10567
▁LG	-10568
▁가평	-10569
▁갖춰	-10570
▁건립	-10571
▁걸고	-10572
▁경과	-10573
▁고가	-10574
▁고속	-10575
▁고장	-10576
▁관람	-10577
▁괴한	-10578
▁교섭	-10579
▁교정	-10580
▁국경	-10581
▁국산	-10582
▁그거	-10583
▁그리	-10584
▁극우	-10585
▁기강	-10586
▁기금	-10587
▁길게	-10588
▁꿇고	-10589
▁끌려	-10590
▁날을	-10591
▁내걸	-10592
▁노사	-10593
▁노점	-10594
▁놀란	-10595
▁놓인	-10596
▁늘었	-10597
▁답답	-10598
▁당뇨	-10599
▁도덕	-10600
▁동산	-10601
▁동작	-10602
▁되돌	-10603
▁뒤엉	-10604
▁들면	-10605
▁많을	-10606
▁망가	-10607
▁맡겨	-10608
▁매몰	-10609
▁먹지	-10610
▁멀리	-10611
▁묵인	-10612
▁묻고	-10613
▁물놀	-10614
▁물체	-10615
▁미칠	-10616
▁박기	-10617
▁받자	-10618
▁방금	-10619
▁방범	-10620
▁배출	-10621
▁법은	-10622
▁베네	-10623
▁보은	-10624
▁보훈	-10625
▁부총	-10626
▁분당	-10627
▁불빛	-10628
▁비트	-10629
▁사범	-10630
▁사육	-10631
▁상류	-10632
▁상상	-10633
▁상자	-10634
▁서식	-10635
▁선양	-10636
▁성산	-10637
▁세금	-10638
▁소요	-10639
▁승선	-10640
▁승합	-10641
▁시상	-10642
▁시즌	-10643
▁신빙	-10644
▁신중	-10645
▁실습	-10646
▁쓰게	-10647
▁아시	-10648
▁아영	-10649
▁않겠	-10650
▁앱에	-10651
▁양계	-10652
▁양상	-10653
▁어느	-10654
▁어떨	-10655
▁억압	-10656
▁얻어	-10657
▁오리	-10658
▁오염	-10659
▁옵티	-10660
▁외상	-10661
▁외신	-10662
▁용납	-10663
▁용량	-10664
▁우수	-10665
▁위급	-10666
▁유서	-10667
▁유용	-10668
▁유턴	-10669
▁이때	-10670
▁이우	-10671
▁이주	-10672
▁인민	-10673
▁인재	-10674
▁일병	-10675
▁일삼	-10676
▁자본	-10677
▁잡지	-10678
▁잡힌	-10679
▁저축	-10680
▁전개	-10681
▁제약	-10682
▁조율	-10683
▁종이	-10684
▁죽을	-10685
▁준공	-10686
▁줄을	-10687
▁중계	-10688
▁중도	-10689
▁중복	-10690
▁지낸	-10691
▁지어	-10692
▁질서	-10693
▁집이	-10694
▁차일	-10695
▁철회	-10696
▁체결	-10697
▁초당	-10698
▁총기	-10699
▁최영	-10700
▁최후	-10701
▁충원	-10702
▁캠프	-10703
▁캠핑	-10704
▁코스	-10705
▁탈퇴	-10706
▁파쇄	-10707
▁페이	-10708
▁편집	-10709
▁폭죽	-10710
▁표지	-10711
▁풀이	-10712
▁피싱	-10713
▁피할	-10714
▁필로	-10715
▁하원	-10716
▁한명	-10717
▁해병	-10718
▁했죠	-10719
▁혁명	-10720
▁형제	-10721
▁회피	-10722
▁후퇴	-10723
가에서	-10724
개월여	-10725
공사의	-10726
군에서	-10727
기간을	-10728
년으로	-10729
뉴스룸	-10730
단계가	-10731
당에서	-10732
당하고	-10733
렸지만	-10734
번방과	-10735
보도록	-10736
본부와	-10737
불명의	-10738
센터에	-10739
소송을	-10740
시간의	-10741
야말로	-10742
연대는	-10743
영장을	-10744
원들의	-10745
의료원	-10746
이거나	-10747
이기도	-10748
이에서	-10749
전문가	-10750
주간의	-10751
줬다는	-10752
지도를	-10753
지사가	-10754
직원이	-10755
차량을	-10756
케미칼	-10757
터미널	-10758
통신이	-10759
하고는	-10760
하려던	-10761
해수욕	-10762
했더니	-10763
▁160	-10764
▁170	-10765
▁210	-10766
▁SOK	-10767
▁가맹점	-10768
▁감염에	-10769
▁강서구	-10770
▁개혁을	-10771
▁거치지	-10772
▁거칠게	-10773
▁건너던	-10774
▁검사에	-10775
▁검사의	-10776
▁결과도	-10777
▁결정적	-10778
▁경위는	-10779
▁계정에	-10780
▁고발을	-10781
▁고소를	-10782
▁공격이	-10783
▁공급이	-10784
▁공기업	-10785
▁공모해	-10786
▁공사장	-10787
▁과제를	-10788
▁관계에	-10789
▁관여한	-10790
▁교육청	-10791
▁구간을	-10792
▁구급차	-10793
▁국회는	-10794
▁그나마	-10795
▁그렇기	-10796
▁근무를	-10797
▁글쎄요	-10798
▁기관과	-10799
▁기능이	-10800
▁기온이	-10801
▁긴급히	-10802
▁김승주	-10803
▁김태년	-10804
▁나아가	-10805
▁나와서	-10806
▁나왔다	-10807
▁넘어져	-10808
▁누구도	-10809
▁늘어났	-10810
▁다음주	-10811
▁다쳤고	-10812
▁다툼이	-10813
▁단속은	-10814
▁당국과	-10815
▁대교협	-10816
▁대리점	-10817
▁대변인	-10818
▁대선을	-10819
▁댓글이	-10820
▁돌진해	-10821
▁동승자	-10822
▁두기가	-10823
▁뒤에는	-10824
▁드론을	-10825
▁드론이	-10826
▁뜻하는	-10827
▁롬바르	-10828
▁마련이	-10829
▁마크롱	-10830
▁막대한	-10831
▁맞는지	-10832
▁명의의	-10833
▁모습도	-10834
▁모터보	-10835
▁목욕탕	-10836
▁문구가	-10837
▁문구를	-10838
▁바우저	-10839
▁박시영	-10840
▁반응이	-10841
▁발언이	-10842
▁발표된	-10843
▁배치해	-10844
▁범투본	-10845
▁보행자	-10846
▁본사가	-10847
▁부딪힌	-10848
▁부모의	-10849
▁불꽃이	-10850
▁불리한	-10851
▁비율이	-10852
▁뺑소니	-10853
▁사문서	-10854
▁사안에	-10855
▁사유가	-10856
▁사장과	-10857
▁사천시	-10858
▁사회가	-10859
▁상자를	-10860
▁생각하	-10861
▁생명도	-10862
▁선고한	-10863
▁소동이	-10864
▁소식에	-10865
▁손석희	-10866
▁수위는	-10867
▁수익을	-10868
▁수준에	-10869
▁실시할	-10870
▁아나운	-10871
▁아내가	-10872
▁아들과	-10873
▁아래에	-10874
▁아수라	-10875
▁어디서	-10876
▁어제와	-10877
▁업무는	-10878
▁업소는	-10879
▁업주를	-10880
▁업체와	-10881
▁없이는	-10882
▁열리지	-10883
▁영상과	-10884
▁예방과	-10885
▁오스트	-10886
▁외출을	-10887
▁움직임	-10888
▁원장은	-10889
▁원하지	-10890
▁위원회	-10891
▁유족과	-10892
▁유족이	-10893
▁의심이	-10894
▁의장은	-10895
▁의혹은	-10896
▁의혹의	-10897
▁이동할	-10898
▁이들과	-10899
▁이소현	-10900
▁이수정	-10901
▁이승만	-10902
▁이용섭	-10903
▁이종필	-10904
▁인권위	-10905
▁인도로	-10906
▁인물로	-10907
▁인적이	-10908
▁인접한	-10909
▁인지한	-10910
▁일정한	-10911
▁임순영	-10912
▁있었죠	-10913
▁자료에	-10914
▁자신과	-10915
▁재심을	-10916
▁재활용	-10917
▁저희는	-10918
▁적게는	-10919
▁전날인	-10920
▁전단을	-10921
▁전에는	-10922
▁전에도	-10923
▁전화해	-10924
▁정치인	-10925
▁제조업	-10926
▁제품을	-10927
▁조건을	-10928
▁조금씩	-10929
▁조치할	-10930
▁주변의	-10931
▁주에서	-10932
▁죽음을	-10933
▁줄지어	-10934
▁중에는	-10935
▁중으로	-10936
▁줬다는	-10937
▁지인이	-10938
▁지지율	-10939
▁지키는	-10940
▁진술과	-10941
▁차로를	-10942
▁차에서	-10943
▁참여할	-10944
▁찾아낸	-10945
▁찾아온	-10946
▁청구할	-10947
▁총장은	-10948
▁충북의	-10949
▁치료비	-10950
▁치열한	-10951
▁캐나다	-10952
▁크기의	-10953
▁크다고	-10954
▁클럽을	-10955
▁통과가	-10956
▁트윗을	-10957
▁특보는	-10958
▁파도가	-10959
▁파도에	-10960
▁판결에	-10961
▁판매를	-10962
▁퍼지고	-10963
▁폭행해	-10964
▁표현을	-10965
▁피고소	-10966
▁필요해	-10967
▁학대로	-10968
▁한국여	-10969
▁한국은	-10970
▁한마디	-10971
▁합천군	-10972
▁해명을	-10973
▁해서는	-10974
▁해제된	-10975
▁했고요	-10976
▁행패를	-10977
▁현상을	-10978
▁형태의	-10979
▁혼란을	-10980
▁화재로	-10981
▁화재를	-10982
▁활용해	-10983
▁회사는	-10984
▁훈련을	-10985
▁흔적을	-10986
되더라도	-10987
위원장이	-10988
이라든지	-10989
적입니다	-10990
차적으로	-10991
▁가족들이	-10992
▁가혹행위	-10993
▁강력범죄	-10994
▁거리에서	-10995
▁게시판에	-10996
▁결정으로	-10997
▁경찰까지	-10998
▁공개하지	-10999
▁공익신고	-11000
▁공정거래	-11001
▁공판에서	-11002
▁관계자가	-11003
▁관계자의	-11004
▁관리하고	-11005
▁광주시가	-11006
▁광주시의	-11007
▁구명조끼	-11008
▁국민들의	-11009
▁그런데도	-11010
▁근무성적	-11011
▁나서기로	-11012
▁내립니다	-11013
▁노동자의	-11014
▁늘어나는	-11015
▁단독보도	-11016
▁도심에서	-11017
▁되는데요	-11018
▁드러났다	-11019
▁때립니다	-11020
▁마스크도	-11021
▁목소리도	-11022
▁몰랐다고	-11023
▁반대하고	-11024
▁받았으며	-11025
▁받으면서	-11026
▁발견되지	-11027
▁발령하고	-11028
▁발생했다	-11029
▁백악관은	-11030
▁범인으로	-11031
▁변호인을	-11032
▁보고서를	-11033
▁보험금을	-11034
▁부산에선	-11035
▁비판하는	-11036
▁사망사고	-11037
▁산발적인	-11038
▁생각하고	-11039
▁서울행정	-11040
▁선거범죄	-11041
▁선고받은	-11042
▁수색하고	-11043
▁수익금을	-11044
▁승용차에	-11045
▁시작되자	-11046
▁식당에서	-11047
▁실시하고	-11048
▁심폐소생	-11049
▁아이들이	-11050
▁아파트에	-11051
▁아프리카	-11052
▁앞으로는	-11053
▁여성아동	-11054
▁여순사건	-11055
▁영상녹화	-11056
▁옵티머스	-11057
▁외교부는	-11058
▁요청하고	-11059
▁용의자로	-11060
▁운영자인	-11061
▁움직임이	-11062
▁위반하면	-11063
▁유포하는	-11064
▁유해발굴	-11065
▁육박하는	-11066
▁윤창호법	-11067
▁의원들이	-11068
▁이마저도	-11069
▁이야기도	-11070
▁이어졌고	-11071
▁이와함께	-11072
▁이윱니다	-11073
▁일관되게	-11074
▁일본에서	-11075
▁있었어요	-11076
▁정부세종	-11077
▁정상적인	-11078
▁정의기억	-11079
▁제공하는	-11080
▁제주공항	-11081
▁지나서야	-11082
▁지켜봐야	-11083
▁직무유기	-11084
▁촉구한다	-11085
▁총격으로	-11086
▁추모하는	-11087
▁충청북도	-11088
▁콘크리트	-11089
▁탄원서를	-11090
▁탔습니다	-11091
▁특수학교	-11092
▁평화롭게	-11093
▁포토라인	-11094
▁플로리다	-11095
▁피해자인	-11096
▁할머니는	-11097
▁해양쓰레	-11098
▁형사처벌	-11099
▁확보하고	-11100
▁횡단보도	-11101
보건소에서	-11102
예슬입니다	-11103
지영입니다	-11104
▁감염경로를	-11105
▁강화됩니다	-11106
▁개인적으로	-11107
▁결정했다고	-11108
▁경찰청장이	-11109
▁고발하기로	-11110
▁고위공직자	-11111
▁교통사고로	-11112
▁금융감독원	-11113
▁기획재정부	-11114
▁대응하기로	-11115
▁대통령에게	-11116
▁들어옵니다	-11117
▁롬바르디아	-11118
▁롯데케미칼	-11119
▁막았습니다	-11120
▁물었습니다	-11121
▁민정비서관	-11122
▁방역당국의	-11123
▁보도자료를	-11124
▁사람들에게	-11125
▁사회복무요	-11126
▁선거운동을	-11127
▁수사본부를	-11128
▁오스트리아	-11129
▁오토바이와	-11130
▁유가족들은	-11131
▁유흥시설을	-11132
▁음성판정을	-11133
▁자치단체가	-11134
▁저질렀다고	-11135
▁적었습니다	-11136
▁중점적으로	-11137
▁지난해부터	-11138
▁진행했다고	-11139
▁집중호우로	-11140
▁천안에서는	-11141
▁측으로부터	-11142
▁할아버지는	-11143
▁허위사실을	-11144
▁확대하기로	-11145
보호전문기관	-11146
지방법원에서	-11147
▁거부했습니다	-11148
▁기각됐습니다	-11149
▁다녀왔습니다	-11150
▁마련했습니다	-11151
▁박기원입니다	-11152
▁보호구역에서	-11153
▁송국회입니다	-11154
▁압수했습니다	-11155
▁예고했습니다	-11156
▁장애아동전문	-11157
▁조진영입니다	-11158
▁중단했습니다	-11159
▁증언했습니다	-11160
▁참여했습니다	-11161
▁취소됐습니다	-11162
▁통과했습니다	-11163
▁확대했습니다	-11164
▁확정됐습니다	-11165
▁사랑제일교회와	-11166
▁울산지방경찰청	-11167
▁정부서울청사에서	-11168
▁특정범죄가중처벌	-11169
27	-11170
39	-11171
▁X	-11172
▁깃	-11173
▁떳	-11174
▁뜬	-11175
▁멱	-11176
▁앵	-11177
▁윗	-11178
▁잣	-11179
▁짙	-11180
▁칭	-11181
▁케	-11182
▁켜	-11183
▁혹	-11184
▁흩	-11185
건물	-11186
건축	-11187
격이	-11188
경호	-11189
계의	-11190
고에	-11191
구급	-11192
구요	-11193
권도	-11194
규칙	-11195
근혜	-11196
급적	-11197
기나	-11198
기획	-11199
노래	-11200
니언	-11201
대체	-11202
대출	-11203
더라	-11204
됐죠	-11205
들인	-11206
란티	-11207
려나	-11208
력의	-11209
만은	-11210
망에	-11211
매체	-11212
먼트	-11213
문과	-11214
밀한	-11215
방의	-11216
보에	-11217
보좌	-11218
보죠	-11219
부시	-11220
사랑	-11221
사한	-11222
생의	-11223
성구	-11224
세의	-11225
시오	-11226
양을	-11227
어버	-11228
에겐	-11229
여야	-11230
였기	-11231
와는	-11232
운영	-11233
일종	-11234
자리	-11235
자비	-11236
장비	-11237
전은	-11238
전한	-11239
정과	-11240
졌기	-11241
중개	-11242
중심	-11243
차량	-11244
척이	-11245
체크	-11246
쳤다	-11247
틀랜	-11248
평균	-11249
푸르	-11250
프트	-11251
필품	-11252
해드	-11253
혈압	-11254
협조	-11255
형철	-11256
호가	-11257
호는	-11258
500	-11259
▁가거	-11260
▁가구	-11261
▁가기	-11262
▁가만	-11263
▁가출	-11264
▁가파	-11265
▁간주	-11266
▁감수	-11267
▁감옥	-11268
▁강사	-11269
▁강호	-11270
▁개는	-11271
▁걸친	-11272
▁격려	-11273
▁겪은	-11274
▁견인	-11275
▁결코	-11276
▁고지	-11277
▁곳의	-11278
▁공단	-11279
▁공연	-11280
▁공용	-11281
▁공표	-11282
▁과열	-11283
▁과장	-11284
▁교무	-11285
▁교신	-11286
▁교주	-11287
▁구의	-11288
▁군수	-11289
▁권리	-11290
▁권익	-11291
▁그분	-11292
▁급식	-11293
▁기여	-11294
▁기후	-11295
▁김성	-11296
▁김여	-11297
▁깜짝	-11298
▁끝이	-11299
▁나뉘	-11300
▁남짓	-11301
▁내며	-11302
▁넣은	-11303
▁농성	-11304
▁눈을	-11305
▁단기	-11306
▁답을	-11307
▁도봉	-11308
▁동포	-11309
▁되기	-11310
▁될지	-11311
▁득표	-11312
▁들끓	-11313
▁들려	-11314
▁들으	-11315
▁라이	-11316
▁링크	-11317
▁마리	-11318
▁많으	-11319
▁말해	-11320
▁맺고	-11321
▁먹는	-11322
▁모호	-11323
▁몰다	-11324
▁못할	-11325
▁무색	-11326
▁묶여	-11327
▁물살	-11328
▁미세	-11329
▁미온	-11330
▁발족	-11331
▁방임	-11332
▁번씩	-11333
▁벤츠	-11334
▁변을	-11335
▁별로	-11336
▁병행	-11337
▁보증	-11338
▁본청	-11339
▁봉사	-11340
▁봉화	-11341
▁부합	-11342
▁분뇨	-11343
▁분주	-11344
▁비율	-11345
▁비틀	-11346
▁빅데	-11347
▁빚을	-11348
▁삼척	-11349
▁상반	-11350
▁생겨	-11351
▁서너	-11352
▁선물	-11353
▁설비	-11354
▁설훈	-11355
▁성분	-11356
▁성용	-11357
▁세우	-11358
▁소장	-11359
▁수련	-11360
▁수해	-11361
▁순서	-11362
▁습격	-11363
▁승려	-11364
▁시범	-11365
▁시켰	-11366
▁신지	-11367
▁실랑	-11368
▁실망	-11369
▁실어	-11370
▁실험	-11371
▁안이	-11372
▁안쪽	-11373
▁약사	-11374
▁어둠	-11375
▁어른	-11376
▁업종	-11377
▁여부	-11378
▁여중	-11379
▁오고	-11380
▁오프	-11381
▁옹벽	-11382
▁외제	-11383
▁욕을	-11384
▁우회	-11385
▁원심	-11386
▁원장	-11387
▁원치	-11388
▁위중	-11389
▁이럴	-11390
▁인상	-11391
▁일행	-11392
▁일회	-11393
▁있겠	-11394
▁작년	-11395
▁작용	-11396
▁잡혔	-11397
▁재생	-11398
▁재임	-11399
▁저널	-11400
▁전산	-11401
▁전형	-11402
▁절실	-11403
▁조언	-11404
▁조장	-11405
▁주가	-11406
▁주석	-11407
▁지리	-11408
▁지명	-11409
▁진심	-11410
▁집무	-11411
▁집주	-11412
▁쪽에	-11413
▁총탄	-11414
▁최선	-11415
▁추징	-11416
▁출판	-11417
▁치명	-11418
▁칠곡	-11419
▁코인	-11420
▁콜롬	-11421
▁키우	-11422
▁타살	-11423
▁탈옥	-11424
▁토로	-11425
▁통영	-11426
▁트레	-11427
▁특가	-11428
▁파헤	-11429
▁팔아	-11430
▁펌프	-11431
▁편법	-11432
▁평생	-11433
▁폐차	-11434
▁포획	-11435
▁폭염	-11436
▁풍자	-11437
▁프티	-11438
▁하청	-11439
▁한밤	-11440
▁해체	-11441
▁했기	-11442
▁행렬	-11443
▁헌병	-11444
▁현상	-11445
▁협상	-11446
▁협약	-11447
▁형성	-11448
▁홍성	-11449
▁화훼	-11450
▁확성	-11451
▁후배	-11452
▁휘둘	-11453
▁휠체	-11454
▁흔들	-11455
과대학	-11456
교회를	-11457
기까지	-11458
다니며	-11459
다보니	-11460
당으로	-11461
돕니다	-11462
뜨리고	-11463
라이브	-11464
류협력	-11465
마리가	-11466
마스크	-11467
만원을	-11468
명인데	-11469
받았고	-11470
밴드를	-11471
병원에	-11472
부장이	-11473
분가량	-11474
사령부	-11475
성폭력	-11476
셨어요	-11477
소방서	-11478
스럽다	-11479
시설이	-11480
시키기	-11481
신청을	-11482
었어요	-11483
연하게	-11484
으로도	-11485
자금을	-11486
자들에	-11487
점검에	-11488
졌으며	-11489
주년을	-11490
차례나	-11491
하라며	-11492
해지는	-11493
했거나	-11494
▁190	-11495
▁220	-11496
▁280	-11497
▁NYT	-11498
▁가급적	-11499
▁가방을	-11500
▁감식에	-11501
▁감염돼	-11502
▁강남의	-11503
▁강화할	-11504
▁개정된	-11505
▁거대한	-11506
▁거리가	-11507
▁거부할	-11508
▁검찰을	-11509
▁격리장	-11510
▁결론이	-11511
▁경계를	-11512
▁경로와	-11513
▁경상을	-11514
▁경우엔	-11515
▁경위에	-11516
▁경합주	-11517
▁고양시	-11518
▁고혈압	-11519
▁골프를	-11520
▁곳곳을	-11521
▁곳곳이	-11522
▁공개가	-11523
▁공문서	-11524
▁공유한	-11525
▁과제로	-11526
▁관리도	-11527
▁광장에	-11528
▁교수님	-11529
▁교체를	-11530
▁구간은	-11531
▁구간의	-11532
▁구매한	-11533
▁구멍이	-11534
▁구조를	-11535
▁국장은	-11536
▁근거를	-11537
▁글로벌	-11538
▁금지를	-11539
▁급격한	-11540
▁급정거	-11541
▁기관에	-11542
▁기다려	-11543
▁기소가	-11544
▁기지국	-11545
▁기회를	-11546
▁끝으로	-11547
▁나라가	-11548
▁난항을	-11549
▁날아온	-11550
▁남편과	-11551
▁노인을	-11552
▁뇌물을	-11553
▁눈물을	-11554
▁능력을	-11555
▁다가온	-11556
▁다니며	-11557
▁다리가	-11558
▁다주택	-11559
▁담배를	-11560
▁당국도	-11561
▁당일인	-11562
▁당했다	-11563
▁대도시	-11564
▁더욱이	-11565
▁도로로	-11566
▁두바이	-11567
▁드러났	-11568
▁따라붙	-11569
▁뚜렷한	-11570
▁마련을	-11571
▁만일의	-11572
▁메시지	-11573
▁멱살을	-11574
▁명단에	-11575
▁명이나	-11576
▁모자를	-11577
▁목사를	-11578
▁목사와	-11579
▁몰리는	-11580
▁무관한	-11581
▁문건을	-11582
▁문제도	-11583
▁물의를	-11584
▁미디어	-11585
▁민주적	-11586
▁박근혜	-11587
▁밖에도	-11588
▁반민특	-11589
▁발언도	-11590
▁발열과	-11591
▁방법을	-11592
▁방송에	-11593
▁번화가	-11594
▁벌어져	-11595
▁범행은	-11596
▁범행한	-11597
▁법률에	-11598
▁보도로	-11599
▁보시죠	-11600
▁보트가	-11601
▁부부의	-11602
▁부산에	-11603
▁부실한	-11604
▁부인이	-11605
▁분석도	-11606
▁불분명	-11607
▁불안에	-11608
▁붙잡혀	-11609
▁비대위	-11610
▁비판도	-11611
▁비협조	-11612
▁빌려준	-11613
▁빌미로	-11614
▁사과와	-11615
▁사례로	-11616
▁사안을	-11617
▁사안의	-11618
▁사용을	-11619
▁사이를	-11620
▁사체가	-11621
▁살인자	-11622
▁살펴본	-11623
▁상해를	-11624
▁생중계	-11625
▁생필품	-11626
▁설명회	-11627
▁손가락	-11628
▁수거한	-11629
▁수법은	-11630
▁수법을	-11631
▁숫자를	-11632
▁스티커	-11633
▁승객은	-11634
▁시민을	-11635
▁시행에	-11636
▁신고와	-11637
▁신고해	-11638
▁실체가	-11639
▁아닌지	-11640
▁아동은	-11641
▁안전과	-11642
▁않았기	-11643
▁알고도	-11644
▁애틀랜	-11645
▁약사법	-11646
▁양육비	-11647
▁엄정한	-11648
▁없으며	-11649
▁연평도	-11650
▁오가며	-11651
▁오르는	-11652
▁옮겨진	-11653
▁왜곡된	-11654
▁외치며	-11655
▁욕설과	-11656
▁운전한	-11657
▁유서가	-11658
▁유재수	-11659
▁유전자	-11660
▁의뢰할	-11661
▁의뢰해	-11662
▁의문을	-11663
▁의식이	-11664
▁이기야	-11665
▁이동을	-11666
▁이랜드	-11667
▁이메일	-11668
▁이사장	-11669
▁이상원	-11670
▁이송을	-11671
▁이어갈	-11672
▁이우환	-11673
▁이전에	-11674
▁인용해	-11675
▁인증을	-11676
▁인터폴	-11677
▁일반인	-11678
▁임대차	-11679
▁임시로	-11680
▁있나요	-11681
▁있었기	-11682
▁자영업	-11683
▁자치구	-11684
▁장소는	-11685
▁장애를	-11686
▁재산을	-11687
▁저소득	-11688
▁저질러	-11689
▁적어도	-11690
▁전과가	-11691
▁전국을	-11692
▁전달한	-11693
▁전문의	-11694
▁전제로	-11695
▁절반에	-11696
▁절반이	-11697
▁점검해	-11698
▁접어들	-11699
▁접종을	-11700
▁정권의	-11701
▁제공할	-11702
▁제도를	-11703
▁제목의	-11704
▁제작한	-11705
▁제주의	-11706
▁조사단	-11707
▁조속히	-11708
▁조합원	-11709
▁주방위	-11710
▁주식을	-11711
▁주장도	-11712
▁주택이	-11713
▁준비한	-11714
▁중단된	-11715
▁중앙선	-11716
▁지켜본	-11717
▁직위해	-11718
▁진행해	-11719
▁쪽에서	-11720
▁차단을	-11721
▁차단할	-11722
▁차별에	-11723
▁착용이	-11724
▁처분에	-11725
▁청문회	-11726
▁최신종	-11727
▁추적을	-11728
▁추적이	-11729
▁출발한	-11730
▁충돌해	-11731
▁취약한	-11732
▁크레인	-11733
▁터미널	-11734
▁텐데요	-11735
▁통제가	-11736
▁투표할	-11737
▁트럭이	-11738
▁특정해	-11739
▁팔란티	-11740
▁폐쇄된	-11741
▁표현이	-11742
▁하나둘	-11743
▁하나인	-11744
▁하루에	-11745
▁학교가	-11746
▁한기총	-11747
▁한명숙	-11748
▁함바왕	-11749
▁해외로	-11750
▁행진을	-11751
▁현장실	-11752
▁협박을	-11753
▁호소를	-11754
▁홈리스	-11755
▁홈페이	-11756
▁화재는	-11757
▁활성화	-11758
▁황희석	-11759
▁회사의	-11760
▁후에도	-11761
▁휴스턴	-11762
▁힘들어	-11763
리케이션	-11764
만입니다	-11765
받았다고	-11766
스트라제	-11767
시스템을	-11768
아입니다	-11769
연입니다	-11770
위원회와	-11771
이었다는	-11772
주의보가	-11773
초등학교	-11774
했는데도	-11775
▁간담회를	-11776
▁강화되고	-11777
▁건강상의	-11778
▁건강상태	-11779
▁검사들이	-11780
▁경비원이	-11781
▁경찰차가	-11782
▁경찰청이	-11783
▁골든타임	-11784
▁공수처가	-11785
▁과학수사	-11786
▁괴롭힘을	-11787
▁근로자가	-11788
▁근무하던	-11789
▁기대하고	-11790
▁기록하고	-11791
▁나왔지만	-11792
▁나타났다	-11793
▁남성으로	-11794
▁넘겼다고	-11795
▁노동조합	-11796
▁누군가가	-11797
▁단독으로	-11798
▁단란주점	-11799
▁대구지역	-11800
▁대한항공	-11801
▁도착했을	-11802
▁디지털성	-11803
▁마련하고	-11804
▁마포구의	-11805
▁못하도록	-11806
▁무리하게	-11807
▁반복되고	-11808
▁발생하자	-11809
▁방송통신	-11810
▁범행으로	-11811
▁법안들이	-11812
▁변호사와	-11813
▁보건소에	-11814
▁보여주는	-11815
▁보이는데	-11816
▁북한에서	-11817
▁블레이크	-11818
▁비밀경호	-11819
▁빅데이터	-11820
▁사회에서	-11821
▁상황으로	-11822
▁서대문구	-11823
▁서울고검	-11824
▁시민들과	-11825
▁시민사회	-11826
▁시스템이	-11827
▁시행되는	-11828
▁시행하고	-11829
▁실종자를	-11830
▁아버지를	-11831
▁아시아나	-11832
▁아이들을	-11833
▁안타깝게	-11834
▁않는다며	-11835
▁알면서도	-11836
▁억울함을	-11837
▁없었는지	-11838
▁없었다는	-11839
▁여학생이	-11840
▁영상에는	-11841
▁영장전담	-11842
▁예정이며	-11843
▁온라인을	-11844
▁올해부터	-11845
▁운영자는	-11846
▁운전기사	-11847
▁울타리를	-11848
▁이번에도	-11849
▁이어지자	-11850
▁인권감독	-11851
▁일이라고	-11852
▁일자리를	-11853
▁있거든요	-11854
▁자동으로	-11855
▁자원봉사	-11856
▁전세기가	-11857
▁제공하고	-11858
▁주민들을	-11859
▁주장했고	-11860
▁중단하고	-11861
▁중인데요	-11862
▁지역으로	-11863
▁지지하는	-11864
▁직원들에	-11865
▁직원들을	-11866
▁진술하고	-11867
▁진술했다	-11868
▁진정서를	-11869
▁차량으로	-11870
▁차지하는	-11871
▁처벌하고	-11872
▁체포하고	-11873
▁총회장의	-11874
▁최루탄을	-11875
▁추정되고	-11876
▁충북지역	-11877
▁콜롬비아	-11878
▁타임아웃	-11879
▁투입되는	-11880
▁특수협박	-11881
▁파악되고	-11882
▁파악하는	-11883
▁파악하지	-11884
▁프로듀스	-11885
▁헌법재판	-11886
▁협박하는	-11887
▁확보하지	-11888
▁확인하지	-11889
▁확진됐고	-11890
지방법원은	-11891
▁가상화폐를	-11892
▁검찰개혁을	-11893
▁경찰서에서	-11894
▁경찰청장은	-11895
▁고려했다고	-11896
▁고위험시설	-11897
▁공무원들은	-11898
▁광주에서는	-11899
▁국민의힘이	-11900
▁높였습니다	-11901
▁늘었는데요	-11902
▁달아납니다	-11903
▁대검찰청은	-11904
▁대중교통을	-11905
▁드러나면서	-11906
▁모셨습니다	-11907
▁모였습니다	-11908
▁바꿨습니다	-11909
▁범국민투쟁	-11910
▁보건소에서	-11911
▁부과됩니다	-11912
▁비상사태를	-11913
▁빠졌습니다	-11914
▁사이트에서	-11915
▁삼성물산이	-11916
▁생겼습니다	-11917
▁서울시장을	-11918
▁선별진료소	-11919
▁순서입니다	-11920
▁어업지도선	-11921
▁옮겼습니다	-11922
▁원칙적으로	-11923
▁위반했다는	-11924
▁자발적으로	-11925
▁자치단체의	-11926
▁전문가들이	-11927
▁전자발찌를	-11928
▁정체불명의	-11929
▁종교시설과	-11930
▁지적장애인	-11931
▁짚어봅니다	-11932
▁챙겼습니다	-11933
▁탈북민단체	-11934
▁택시기사가	-11935
▁통합뉴스룸	-11936
▁페이스북에	-11937
▁풀이됩니다	-11938
▁하나입니다	-11939
▁해당합니다	-11940
▁현실적으로	-11941
▁형사소송법	-11942
▁확보했다고	-11943
▁확진자들이	-11944
▁휴대전화와	-11945
▁강행했습니다	-11946
▁강화하겠다고	-11947
▁강화했습니다	-11948
▁경찰관들에게	-11949
▁구조됐습니다	-11950
▁논의했습니다	-11951
▁늘어났습니다	-11952
▁동원됐습니다	-11953
▁동의했습니다	-11954
▁백상현입니다	-11955
▁사망했습니다	-11956
▁사회복지법인	-11957
▁성용희입니다	-11958
▁심의위원회를	-11959
▁심폐소생술을	-11960
▁애플리케이션	-11961
▁이송됐습니다	-11962
▁인정하면서도	-11963
▁조선우입니다	-11964
▁진행중입니다	-11965
▁추돌했습니다	-11966
▁캘리포니아주	-11967
▁개인정보보호법	-11968
▁내용이었습니다	-11969
▁사회관계망서비스	-11970
▁서울지방경찰청에	-11971
▁연결해보겠습니다	-11972
▁중앙재난안전대책본부	-11973
11	-11974
15	-11975
22	-11976
MW	-11977
TX	-11978
▁北	-11979
▁秋	-11980
▁꽉	-11981
▁낫	-11982
▁니	-11983
▁닌	-11984
▁덩	-11985
▁맘	-11986
▁맛	-11987
▁뱉	-11988
▁쏴	-11989
▁웹	-11990
▁윈	-11991
▁캔	-11992
감과	-11993
갔다	-11994
갔던	-11995
개골	-11996
겼다	-11997
계층	-11998
고도	-11999
공무	-12000
교포	-12001
구나	-12002
권에	-12003
규정	-12004
김에	-12005
끼로	-12006
내용	-12007
냈고	-12008
네카	-12009
다발	-12010
당성	-12011
당의	-12012
대구	-12013
대인	-12014
대전	-12015
독교	-12016
동과	-12017
될지	-12018
드니	-12019
들지	-12020
듯이	-12021
따라	-12022
라서	-12023
로워	-12024
리움	-12025
문도	-12026
물고	-12027
미래	-12028
믿음	-12029
받으	-12030
방위	-12031
백을	-12032
보조	-12033
보지	-12034
비행	-12035
사부	-12036
산과	-12037
서만	-12038
선언	-12039
센티	-12040
수당	-12041
수익	-12042
순찰	-12043
스카	-12044
스터	-12045
식도	-12046
신청	-12047
심리	-12048
쓰고	-12049
아르	-12050
아이	-12051
악의	-12052
액의	-12053
어는	-12054
어의	-12055
언론	-12056
업무	-12057
여행	-12058
연수	-12059
예트	-12060
오다	-12061
원한	-12062
월드	-12063
유가	-12064
으론	-12065
음과	-12066
일엔	-12067
일인	-12068
자고	-12069
장현	-12070
저지	-12071
정류	-12072
제출	-12073
조각	-12074
조무	-12075
조선	-12076
죄는	-12077
중독	-12078
중지	-12079
증명	-12080
지요	-12081
진과	-12082
진교	-12083
채를	-12084
채취	-12085
철도	-12086
체는	-12087
치로	-12088
치의	-12089
태서	-12090
테러	-12091
텐도	-12092
톤급	-12093
통장	-12094
티즌	-12095
팀장	-12096
패스	-12097
편이	-12098
평론	-12099
포폴	-12100
하곤	-12101
하진	-12102
학을	-12103
해준	-12104
호의	-12105
혼모	-12106
화는	-12107
희룡	-12108
▁03	-12109
▁71	-12110
▁92	-12111
▁97	-12112
▁가린	-12113
▁감추	-12114
▁거고	-12115
▁거치	-12116
▁걷던	-12117
▁것뿐	-12118
▁계도	-12119
▁공고	-12120
▁공보	-12121
▁과격	-12122
▁과수	-12123
▁광륵	-12124
▁구글	-12125
▁구석	-12126
▁국군	-12127
▁굳게	-12128
▁그간	-12129
▁그린	-12130
▁그중	-12131
▁금속	-12132
▁길에	-12133
▁김도	-12134
▁김민	-12135
▁김지	-12136
▁김현	-12137
▁꺼진	-12138
▁꼬집	-12139
▁끊긴	-12140
▁끼어	-12141
▁나갈	-12142
▁나눈	-12143
▁나쁜	-12144
▁날짜	-12145
▁남의	-12146
▁내기	-12147
▁내놨	-12148
▁내륙	-12149
▁녹음	-12150
▁농촌	-12151
▁누워	-12152
▁다급	-12153
▁다를	-12154
▁다중	-12155
▁닫은	-12156
▁달째	-12157
▁대단	-12158
▁대인	-12159
▁던진	-12160
▁도는	-12161
▁도의	-12162
▁독극	-12163
▁돕기	-12164
▁들과	-12165
▁때만	-12166
▁떠오	-12167
▁뜯겨	-12168
▁라인	-12169
▁라파	-12170
▁레스	-12171
▁레이	-12172
▁마셨	-12173
▁막히	-12174
▁만남	-12175
▁많다	-12176
▁많지	-12177
▁말아	-12178
▁매매	-12179
▁먹을	-12180
▁메르	-12181
▁모델	-12182
▁모씨	-12183
▁목이	-12184
▁무고	-12185
▁무렵	-12186
▁무서	-12187
▁문진	-12188
▁미주	-12189
▁밀반	-12190
▁밖의	-12191
▁반중	-12192
▁받다	-12193
▁발을	-12194
▁방호	-12195
▁배를	-12196
▁병역	-12197
▁복용	-12198
▁부르	-12199
▁북서	-12200
▁불허	-12201
▁비는	-12202
▁비만	-12203
▁빚고	-12204
▁사격	-12205
▁사립	-12206
▁사살	-12207
▁사설	-12208
▁사외	-12209
▁산산	-12210
▁삼아	-12211
▁상식	-12212
▁상위	-12213
▁상판	-12214
▁새겨	-12215
▁생길	-12216
▁서명	-12217
▁서정	-12218
▁석탄	-12219
▁선전	-12220
▁설탕	-12221
▁성격	-12222
▁세로	-12223
▁세차	-12224
▁소년	-12225
▁손상	-12226
▁솜방	-12227
▁수중	-12228
▁순직	-12229
▁숨긴	-12230
▁승강	-12231
▁실린	-12232
▁실수	-12233
▁실현	-12234
▁싸움	-12235
▁씨로	-12236
▁씨앗	-12237
▁아베	-12238
▁안건	-12239
▁안나	-12240
▁압도	-12241
▁어겨	-12242
▁언어	-12243
▁여주	-12244
▁연제	-12245
▁연천	-12246
▁영구	-12247
▁영농	-12248
▁영양	-12249
▁영어	-12250
▁예전	-12251
▁옮긴	-12252
▁완주	-12253
▁요금	-12254
▁요약	-12255
▁우체	-12256
▁유의	-12257
▁의존	-12258
▁이체	-12259
▁인쇄	-12260
▁인수	-12261
▁인위	-12262
▁일용	-12263
▁일탈	-12264
▁일한	-12265
▁일할	-12266
▁잃게	-12267
▁자고	-12268
▁자매	-12269
▁자필	-12270
▁잠이	-12271
▁장난	-12272
▁장대	-12273
▁재유	-12274
▁저울	-12275
▁전신	-12276
▁전임	-12277
▁점주	-12278
▁정민	-12279
▁정쟁	-12280
▁정해	-12281
▁제설	-12282
▁조리	-12283
▁조짐	-12284
▁죄를	-12285
▁죄책	-12286
▁주기	-12287
▁주범	-12288
▁주일	-12289
▁줄고	-12290
▁줄어	-12291
▁중의	-12292
▁중한	-12293
▁지갑	-12294
▁지고	-12295
▁지불	-12296
▁지워	-12297
▁지은	-12298
▁지체	-12299
▁지칭	-12300
▁찌른	-12301
▁찍게	-12302
▁차명	-12303
▁착륙	-12304
▁찬성	-12305
▁책을	-12306
▁최다	-12307
▁추세	-12308
▁출구	-12309
▁출몰	-12310
▁치매	-12311
▁캄보	-12312
▁캠페	-12313
▁코를	-12314
▁코챈	-12315
▁클라	-12316
▁태워	-12317
▁통고	-12318
▁틀어	-12319
▁퍼져	-12320
▁평범	-12321
▁포상	-12322
▁포차	-12323
▁폭스	-12324
▁폭탄	-12325
▁피켓	-12326
▁하죠	-12327
▁한익	-12328
▁한파	-12329
▁합성	-12330
▁헤엄	-12331
▁혐오	-12332
▁화해	-12333
▁환영	-12334
▁후유	-12335
▁흡입	-12336
개소에	-12337
개월간	-12338
객들은	-12339
결과를	-12340
곳으로	-12341
공사와	-12342
국장은	-12343
권으로	-12344
기록을	-12345
단체는	-12346
대책을	-12347
도까지	-12348
되어야	-12349
드린다	-12350
리기도	-12351
리지만	-12352
마파크	-12353
범들이	-12354
법원은	-12355
사고로	-12356
사무소	-12357
서까지	-12358
시간씩	-12359
시위를	-12360
시켰고	-12361
신고를	-12362
십시오	-12363
업무를	-12364
에서야	-12365
연합회	-12366
왔는데	-12367
원들은	-12368
웠다고	-12369
으로서	-12370
장치를	-12371
절차를	-12372
준비기	-12373
지거나	-12374
지역을	-12375
쳤다고	-12376
치료를	-12377
텐데요	-12378
편에서	-12379
하자고	-12380
하지는	-12381
하지도	-12382
현에서	-12383
▁156	-12384
▁173	-12385
▁196	-12386
▁240	-12387
▁306	-12388
▁BMW	-12389
▁가입한	-12390
▁가정을	-12391
▁가혹한	-12392
▁감정이	-12393
▁강호순	-12394
▁강화를	-12395
▁강화해	-12396
▁걸어서	-12397
▁게시판	-12398
▁결과와	-12399
▁결정한	-12400
▁경기가	-12401
▁경주를	-12402
▁계기가	-12403
▁계약한	-12404
▁계좌를	-12405
▁계획은	-12406
▁계획이	-12407
▁고려한	-12408
▁고인의	-12409
▁곳까지	-12410
▁공간에	-12411
▁공천을	-12412
▁과거에	-12413
▁구매할	-12414
▁구속돼	-12415
▁국가를	-12416
▁국민이	-12417
▁국세청	-12418
▁규정한	-12419
▁그것은	-12420
▁그림을	-12421
▁기각된	-12422
▁기간은	-12423
▁기관을	-12424
▁기존의	-12425
▁기준에	-12426
▁길게는	-12427
▁김두관	-12428
▁나뉘어	-12429
▁나서고	-12430
▁나서서	-12431
▁나서야	-12432
▁나섰던	-12433
▁날아든	-12434
▁남겨진	-12435
▁남기고	-12436
▁남기지	-12437
▁남아있	-12438
▁내렸다	-12439
▁냉장고	-12440
▁네티즌	-12441
▁노란색	-12442
▁노트북	-12443
▁농성을	-12444
▁높다는	-12445
▁눈사태	-12446
▁느끼고	-12447
▁늘리고	-12448
▁닌텐도	-12449
▁다세대	-12450
▁단장이	-12451
▁담보로	-12452
▁당사자	-12453
▁대비한	-12454
▁대응과	-12455
▁대책도	-12456
▁대피한	-12457
▁덜미가	-12458
▁도대체	-12459
▁도입을	-12460
▁도주의	-12461
▁돌아갈	-12462
▁됐는데	-12463
▁되는지	-12464
▁두개골	-12465
▁뒤부터	-12466
▁들어선	-12467
▁들었다	-12468
▁등교를	-12469
▁등장한	-12470
▁똑같이	-12471
▁마구간	-12472
▁마라톤	-12473
▁만취한	-12474
▁말고도	-12475
▁말하지	-12476
▁명령에	-12477
▁모스크	-12478
▁모자라	-12479
▁몰랐다	-12480
▁무료로	-12481
▁무엇을	-12482
▁문턱을	-12483
▁물량이	-12484
▁미국인	-12485
▁미래를	-12486
▁미만의	-12487
▁미혼모	-12488
▁민경국	-12489
▁바다에	-12490
▁박태서	-12491
▁박형철	-12492
▁받아온	-12493
▁발견될	-12494
▁발언에	-12495
▁발화지	-12496
▁밤부터	-12497
▁방역이	-12498
▁배진교	-12499
▁배치된	-12500
▁버스전	-12501
▁번호가	-12502
▁벌이는	-12503
▁벌이던	-12504
▁범죄인	-12505
▁법안소	-12506
▁변화가	-12507
▁병원과	-12508
▁보고를	-12509
▁보면서	-12510
▁본인의	-12511
▁봉투를	-12512
▁부득이	-12513
▁부탁을	-12514
▁불과한	-12515
▁불어난	-12516
▁비상근	-12517
▁비판의	-12518
▁빚어진	-12519
▁사냥개	-12520
▁사업이	-12521
▁사장이	-12522
▁사칭해	-12523
▁사흘간	-12524
▁살인과	-12525
▁상당한	-12526
▁상임위	-12527
▁상황인	-12528
▁생각에	-12529
▁서울역	-12530
▁서울이	-12531
▁선거인	-12532
▁선고가	-12533
▁선박이	-12534
▁선수의	-12535
▁설명을	-12536
▁설명이	-12537
▁소개한	-12538
▁소란을	-12539
▁소모임	-12540
▁손바닥	-12541
▁손으로	-12542
▁송병기	-12543
▁수감자	-12544
▁수거해	-12545
▁수십만	-12546
▁수치를	-12547
▁순위를	-12548
▁승무원	-12549
▁시간과	-12550
▁시기를	-12551
▁시기에	-12552
▁시멘트	-12553
▁시설은	-12554
▁시설의	-12555
▁시인한	-12556
▁시장과	-12557
▁시험장	-12558
▁신도가	-12559
▁신문조	-12560
▁아래와	-12561
▁안내를	-12562
▁안성식	-12563
▁않겠다	-12564
▁알리고	-12565
▁알코올	-12566
▁앞까지	-12567
▁약속한	-12568
▁약탈이	-12569
▁어기면	-12570
▁어려움	-12571
▁언급된	-12572
▁언론이	-12573
▁연이어	-12574
▁열기로	-12575
▁열리고	-12576
▁옆으로	-12577
▁올해도	-12578
▁요청할	-12579
▁우려한	-12580
▁우연히	-12581
▁우한에	-12582
▁원주시	-12583
▁원희룡	-12584
▁위반을	-12585
▁위법한	-12586
▁위협이	-12587
▁유죄를	-12588
▁윤장현	-12589
▁의견도	-12590
▁의도가	-12591
▁의식불	-12592
▁이뤄져	-12593
▁이뤄지	-12594
▁이륜차	-12595
▁이재갑	-12596
▁이해할	-12597
▁일하고	-12598
▁일했던	-12599
▁입국자	-12600
▁입장은	-12601
▁있거나	-12602
▁있으니	-12603
▁있을까	-12604
▁자금을	-12605
▁자기가	-12606
▁자유가	-12607
▁자택을	-12608
▁장군이	-12609
▁장시간	-12610
▁전반에	-12611
▁전보다	-12612
▁절도와	-12613
▁점검이	-12614
▁점수를	-12615
▁정리를	-12616
▁정체가	-12617
▁정해진	-12618
▁제도가	-12619
▁제주항	-12620
▁제한을	-12621
▁조성욱	-12622
▁조수석	-12623
▁조용한	-12624
▁조항을	-12625
▁주민과	-12626
▁주인공	-12627
▁주인을	-12628
▁주재로	-12629
▁주택을	-12630
▁준수를	-12631
▁중단한	-12632
▁지나가	-12633
▁지원금	-12634
▁지위를	-12635
▁지켜보	-12636
▁직원에	-12637
▁진료비	-12638
▁진상을	-12639
▁착수해	-12640
▁참여해	-12641
▁처리한	-12642
▁처벌에	-12643
▁처분의	-12644
▁총격에	-12645
▁총력을	-12646
▁총리의	-12647
▁촬영물	-12648
▁최고의	-12649
▁최악의	-12650
▁최우선	-12651
▁출발해	-12652
▁출소를	-12653
▁춤추는	-12654
▁충돌한	-12655
▁취득한	-12656
▁치러진	-12657
▁콘텐츠	-12658
▁킥보드	-12659
▁타격을	-12660
▁탑승한	-12661
▁태국인	-12662
▁통계를	-12663
▁통신이	-12664
▁통제된	-12665
▁퇴원한	-12666
▁투약한	-12667
▁트랙터	-12668
▁특별히	-12669
▁파악할	-12670
▁파주시	-12671
▁폭력에	-12672
▁폭행이	-12673
▁피해액	-12674
▁하느냐	-12675
▁학교의	-12676
▁한국을	-12677
▁해경과	-12678
▁해변에	-12679
▁현재의	-12680
▁형체를	-12681
▁호소한	-12682
▁호우경	-12683
▁확보된	-12684
▁확산된	-12685
▁확산한	-12686
▁확진을	-12687
▁황급히	-12688
▁회사가	-12689
▁회원을	-12690
▁효과는	-12691
▁후보에	-12692
▁후보인	-12693
경입니다	-12694
경찰학교	-12695
고등학교	-12696
구입니다	-12697
기입니다	-12698
다면서요	-12699
리겠다고	-12700
범죄조사	-12701
업체에서	-12702
자로부터	-12703
준입니다	-12704
지원센터	-12705
췄습니다	-12706
하기에는	-12707
해달라며	-12708
해지면서	-12709
해집니다	-12710
▁1950	-12711
▁가족들의	-12712
▁간호조무	-12713
▁개정안에	-12714
▁거부하고	-12715
▁거잖아요	-12716
▁경기도와	-12717
▁경영대학	-12718
▁경찰청의	-12719
▁고발했고	-12720
▁골목길을	-12721
▁공공병원	-12722
▁공무원을	-12723
▁광안대교	-12724
▁교외장학	-12725
▁교통안전	-12726
▁구급차를	-12727
▁구조대원	-12728
▁국제사회	-12729
▁그야말로	-12730
▁금감원은	-12731
▁금지하고	-12732
▁긴장하고	-12733
▁나가있는	-12734
▁나갑니다	-12735
▁나서면서	-12736
▁난폭운전	-12737
▁내리면서	-12738
▁누구보다	-12739
▁다쳤다고	-12740
▁당했다며	-12741
▁대구시와	-12742
▁대부분을	-12743
▁대상자가	-12744
▁대화방을	-12745
▁동료들은	-12746
▁들이받는	-12747
▁라파예트	-12748
▁마스크로	-12749
▁문화체육	-12750
▁밀입국한	-12751
▁방지하기	-12752
▁버스에서	-12753
▁버스정류	-12754
▁벌였지만	-12755
▁보십니까	-12756
▁보이지만	-12757
▁보인다는	-12758
▁부사장과	-12759
▁부산항에	-12760
▁분위기를	-12761
▁비판하고	-12762
▁빌라에서	-12763
▁사람들에	-12764
▁사망자를	-12765
▁사무실에	-12766
▁사법경찰	-12767
▁살펴보면	-12768
▁상태라고	-12769
▁상품권은	-12770
▁석유화학	-12771
▁선거사범	-12772
▁설명했다	-12773
▁성범죄는	-12774
▁소연평도	-12775
▁솜방망이	-12776
▁송치하고	-12777
▁수사팀은	-12778
▁수원지법	-12779
▁숨지거나	-12780
▁시작했고	-12781
▁심야시간	-12782
▁씨입니다	-12783
▁아나운서	-12784
▁아닙니까	-12785
▁안전결제	-12786
▁안정적인	-12787
▁알려지지	-12788
▁애틀랜타	-12789
▁어떤가요	-12790
▁여성들을	-12791
▁오전까지	-12792
▁오피니언	-12793
▁외국인은	-12794
▁요청했고	-12795
▁우편투표	-12796
▁운영하며	-12797
▁운전자와	-12798
▁위태롭게	-12799
▁위험성이	-12800
▁위협하고	-12801
▁유도하는	-12802
▁의과대학	-12803
▁의뢰하고	-12804
▁이뤄졌고	-12805
▁이용하지	-12806
▁이춘재가	-12807
▁인천에서	-12808
▁잇따르는	-12809
▁있잖아요	-12810
▁자제하고	-12811
▁자치분권	-12812
▁저널리즘	-12813
▁적용하는	-12814
▁전라북도	-12815
▁전세기는	-12816
▁전세기를	-12817
▁접수하고	-12818
▁접촉자가	-12819
▁정신질환	-12820
▁정확하게	-12821
▁주거지를	-12822
▁주한미군	-12823
▁중부지방	-12824
▁중에서도	-12825
▁중요하다	-12826
▁증가세가	-12827
▁진심으로	-12828
▁진정서와	-12829
▁집계되고	-12830
▁집중하고	-12831
▁차단하고	-12832
▁차단하는	-12833
▁참가자가	-12834
▁처벌하는	-12835
▁청문회를	-12836
▁청와대의	-12837
▁촉구하고	-12838
▁추적하는	-12839
▁춘천시가	-12840
▁출석하지	-12841
▁충북에서	-12842
▁취재진에	-12843
▁카드번호	-12844
▁캄보디아	-12845
▁코인노래	-12846
▁택시에서	-12847
▁파악하기	-12848
▁평화로운	-12849
▁포틀랜드	-12850
▁폭력으로	-12851
▁프로포폴	-12852
▁피의자는	-12853
▁피해액은	-12854
▁필기시험	-12855
▁한가운데	-12856
▁한강공원	-12857
▁한인타운	-12858
▁합천군은	-12859
▁혐의로도	-12860
▁홍콩보안	-12861
▁화물차를	-12862
▁확인되고	-12863
▁환자들을	-12864
▁회복하지	-12865
▁후원금을	-12866
대병원으로	-12867
원으로부터	-12868
▁간담회에서	-12869
▁검찰총장이	-12870
▁경북에서는	-12871
▁고속도로에	-12872
▁고용노동부	-12873
▁공개되면서	-12874
▁공사장에서	-12875
▁공소사실을	-12876
▁공판준비기	-12877
▁과정에서도	-12878
▁관계자들의	-12879
▁그었습니다	-12880
▁기자회견을	-12881
▁끊겼습니다	-12882
▁남았습니다	-12883
▁노동자들은	-12884
▁담았습니다	-12885
▁만났습니다	-12886
▁모았습니다	-12887
▁미네소타주	-12888
▁민주노총은	-12889
▁발견됐는데	-12890
▁발생했다는	-12891
▁본회의에서	-12892
▁부산경찰청	-12893
▁부산시장에	-12894
▁부산시장이	-12895
▁불안해하고	-12896
▁사고입니다	-12897
▁서울시에서	-12898
▁성지순례를	-12899
▁세웠습니다	-12900
▁수치입니다	-12901
▁스트레스를	-12902
▁시작됩니다	-12903
▁아니었다고	-12904
▁아스트라제	-12905
▁않았는데요	-12906
▁않았습니까	-12907
▁여성가족부	-12908
▁운전면허증	-12909
▁의무화하는	-12910
▁의원들에게	-12911
▁이송됐지만	-12912
▁인터넷에서	-12913
▁있다면서요	-12914
▁정상적으로	-12915
▁제기됩니다	-12916
▁조사하기로	-12917
▁종로경찰서	-12918
▁지시했다고	-12919
▁지역사회의	-12920
▁지원하기로	-12921
▁지지자들은	-12922
▁참가자들은	-12923
▁체포됐다고	-12924
▁추진합니다	-12925
▁친어머니는	-12926
▁코리아빌딩	-12927
▁텔레그램에	-12928
▁판단입니다	-12929
▁페이스북을	-12930
▁한복판에서	-12931
▁해당한다고	-12932
▁해외입국자	-12933
▁했습니다만	-12934
▁현장예배를	-12935
▁홈페이지를	-12936
명이었습니다	-12937
▁감염됐습니다	-12938
▁급증했습니다	-12939
▁김정대입니다	-12940
▁다중이용시설	-12941
▁돌아왔습니다	-12942
▁디지털성범죄	-12943
▁모양새입니다	-12944
▁문자메시지를	-12945
▁받아왔습니다	-12946
▁부탁했습니다	-12947
▁사라졌습니다	-12948
▁산업안전보건	-12949
▁살펴봤습니다	-12950
▁서부경찰서는	-12951
▁서울남부지검	-12952
▁실시했습니다	-12953
▁실종됐습니다	-12954
▁입수했습니다	-12955
▁조사하겠다고	-12956
▁조치됐습니다	-12957
▁중앙경찰학교	-12958
▁추정했습니다	-12959
▁통행금지령이	-12960
▁표명했습니다	-12961
▁풀려났습니다	-12962
▁한익스프레스	-12963
▁감염병예방법에	-12964
▁마무리됐습니다	-12965
▁마찬가지입니다	-12966
▁빠져나갔습니다	-12967
▁사랑제일교회가	-12968
▁사랑제일교회를	-12969
▁아스트라제네카	-12970
▁어린이보호구역	-12971
▁집합금지명령을	-12972
▁경북지방경찰청은	-12973
▁인천국제공항공사	-12974
▁정부세종청사에서	-12975
▁고위공직자범죄수사	-12976
▁국립중앙의료원으로	-12977
▁경기남부지방경찰청은	-12978
13	-12979
31	-12980
40	-12981
AT	-12982
ht	-12983
tp	-12984
▁k	-12985
▁v	-12986
▁尹	-12987
▁떴	-12988
▁띕	-12989
▁룸	-12990
▁멤	-12991
▁벼	-12992
▁솟	-12993
▁앤	-12994
▁엎	-12995
▁쥔	-12996
▁째	-12997
가포	-12998
감정	-12999
값을	-13000
갔고	-13001
강댐	-13002
개와	-13003
건과	-13004
계와	-13005
계좌	-13006
공급	-13007
공에	-13008
과실	-13009
국가	-13010
근로	-13011
기상	-13012
나와	-13013
내역	-13014
냈다	-13015
노이	-13016
누리	-13017
다란	-13018
독한	-13019
동은	-13020
동호	-13021
돼서	-13022
등과	-13023
라텍	-13024
량과	-13025
렀고	-13026
려야	-13027
론을	-13028
루라	-13029
률을	-13030
르신	-13031
르크	-13032
리섬	-13033
리오	-13034
만의	-13035
모닝	-13036
모를	-13037
모토	-13038
뮤지	-13039
미향	-13040
미화	-13041
민하	-13042
바람	-13043
범을	-13044
병과	-13045
보내	-13046
부대	-13047
비리	-13048
비오	-13049
비용	-13050
빨리	-13051
사실	-13052
셨을	-13053
소음	-13054
수업	-13055
스와	-13056
스틴	-13057
심에	-13058
아치	-13059
억원	-13060
었을	-13061
연휴	-13062
영민	-13063
영상	-13064
예수	-13065
오늘	-13066
외과	-13067
원인	-13068
월엔	-13069
월쯤	-13070
위기	-13071
위조	-13072
유총	-13073
유치	-13074
음식	-13075
일으	-13076
입건	-13077
있어	-13078
자녀	-13079
자며	-13080
재산	-13081
절차	-13082
정숙	-13083
정신	-13084
제보	-13085
조가	-13086
줄을	-13087
줬고	-13088
지구	-13089
지노	-13090
지하	-13091
진에	-13092
진은	-13093
질러	-13094
집에	-13095
천명	-13096
치맨	-13097
크쇼	-13098
태호	-13099
터널	-13100
톤의	-13101
통합	-13102
투를	-13103
트에	-13104
포를	-13105
풍이	-13106
하긴	-13107
합한	-13108
해튼	-13109
형무	-13110
호트	-13111
호흡	-13112
희생	-13113
800	-13114
▁04	-13115
▁79	-13116
▁IP	-13117
▁US	-13118
▁XX	-13119
▁가도	-13120
▁가리	-13121
▁간편	-13122
▁갈비	-13123
▁감리	-13124
▁감봉	-13125
▁감천	-13126
▁개원	-13127
▁거는	-13128
▁건은	-13129
▁검정	-13130
▁겨눈	-13131
▁경향	-13132
▁곡성	-13133
▁곤란	-13134
▁공기	-13135
▁공인	-13136
▁공채	-13137
▁관통	-13138
▁광양	-13139
▁구마	-13140
▁구역	-13141
▁구이	-13142
▁국유	-13143
▁군포	-13144
▁굳이	-13145
▁권역	-13146
▁권영	-13147
▁귀를	-13148
▁귀향	-13149
▁그곳	-13150
▁그려	-13151
▁금천	-13152
▁기무	-13153
▁기밀	-13154
▁김광	-13155
▁김대	-13156
▁김문	-13157
▁김천	-13158
▁깨진	-13159
▁꾸며	-13160
▁끝날	-13161
▁나아	-13162
▁나자	-13163
▁나지	-13164
▁날려	-13165
▁남쪽	-13166
▁납득	-13167
▁낮게	-13168
▁내외	-13169
▁넣고	-13170
▁노린	-13171
▁다투	-13172
▁단어	-13173
▁당혹	-13174
▁당황	-13175
▁대담	-13176
▁대만	-13177
▁대회	-13178
▁데도	-13179
▁도둑	-13180
▁도매	-13181
▁독자	-13182
▁돌을	-13183
▁동아	-13184
▁됐죠	-13185
▁둘째	-13186
▁듣지	-13187
▁딸은	-13188
▁때가	-13189
▁떠넘	-13190
▁떠밀	-13191
▁뜨겁	-13192
▁라마	-13193
▁랜딩	-13194
▁마산	-13195
▁마침	-13196
▁만료	-13197
▁말만	-13198
▁맞추	-13199
▁멤버	-13200
▁면제	-13201
▁몰릴	-13202
▁몽키	-13203
▁무겁	-13204
▁무작	-13205
▁물량	-13206
▁미불	-13207
▁미수	-13208
▁미투	-13209
▁바구	-13210
▁바닷	-13211
▁박성	-13212
▁발로	-13213
▁발발	-13214
▁발휘	-13215
▁밤샘	-13216
▁방을	-13217
▁배터	-13218
▁백억	-13219
▁벽보	-13220
▁보궐	-13221
▁보신	-13222
▁복합	-13223
▁본사	-13224
▁부마	-13225
▁부품	-13226
▁분과	-13227
▁분기	-13228
▁불참	-13229
▁불출	-13230
▁비운	-13231
▁비중	-13232
▁비추	-13233
▁빌딩	-13234
▁빼내	-13235
▁사내	-13236
▁삶을	-13237
▁상생	-13238
▁상장	-13239
▁상하	-13240
▁색깔	-13241
▁생생	-13242
▁샤워	-13243
▁성동	-13244
▁성립	-13245
▁세르	-13246
▁소견	-13247
▁소득	-13248
▁소통	-13249
▁송구	-13250
▁수확	-13251
▁스위	-13252
▁스크	-13253
▁신랑	-13254
▁싣고	-13255
▁실천	-13256
▁심층	-13257
▁악몽	-13258
▁악취	-13259
▁안티	-13260
▁앓던	-13261
▁양민	-13262
▁양천	-13263
▁여는	-13264
▁여럿	-13265
▁연동	-13266
▁연소	-13267
▁예약	-13268
▁오갈	-13269
▁오랫	-13270
▁옷을	-13271
▁외장	-13272
▁외주	-13273
▁원가	-13274
▁원은	-13275
▁원활	-13276
▁월급	-13277
▁웨이	-13278
▁유감	-13279
▁유유	-13280
▁은박	-13281
▁음압	-13282
▁이래	-13283
▁이원	-13284
▁익산	-13285
▁인간	-13286
▁인테	-13287
▁일기	-13288
▁일찍	-13289
▁잇단	-13290
▁있으	-13291
▁잊지	-13292
▁자식	-13293
▁잠재	-13294
▁장군	-13295
▁재배	-13296
▁재택	-13297
▁재학	-13298
▁저를	-13299
▁적재	-13300
▁전교	-13301
▁전속	-13302
▁전액	-13303
▁전쯤	-13304
▁전치	-13305
▁정답	-13306
▁제곱	-13307
▁제때	-13308
▁제민	-13309
▁조달	-13310
▁존슨	-13311
▁좁혀	-13312
▁주부	-13313
▁중개	-13314
▁중랑	-13315
▁증축	-13316
▁지른	-13317
▁지을	-13318
▁지출	-13319
▁차는	-13320
▁채권	-13321
▁채워	-13322
▁처럼	-13323
▁처방	-13324
▁철새	-13325
▁첫째	-13326
▁체제	-13327
▁초등	-13328
▁초소	-13329
▁최전	-13330
▁출생	-13331
▁출혈	-13332
▁춤을	-13333
▁취급	-13334
▁치밀	-13335
▁칭찬	-13336
▁키운	-13337
▁탐사	-13338
▁탐지	-13339
▁탱크	-13340
▁통장	-13341
▁팀장	-13342
▁파기	-13343
▁패턴	-13344
▁폭넓	-13345
▁폭주	-13346
▁표선	-13347
▁표출	-13348
▁풍경	-13349
▁프리	-13350
▁하시	-13351
▁하에	-13352
▁한동	-13353
▁한두	-13354
▁한약	-13355
▁한참	-13356
▁할지	-13357
▁해가	-13358
▁해돋	-13359
▁해설	-13360
▁해지	-13361
▁해커	-13362
▁향상	-13363
▁혁신	-13364
▁협회	-13365
▁화제	-13366
▁환수	-13367
▁회삿	-13368
▁회수	-13369
▁휴식	-13370
▁흙더	-13371
가량이	-13372
가포르	-13373
건에서	-13374
검찰청	-13375
계약을	-13376
금지를	-13377
기거나	-13378
기관에	-13379
께서는	-13380
당하는	-13381
대표는	-13382
들끼리	-13383
레스타	-13384
령으로	-13385
명이며	-13386
뮤지엄	-13387
민주화	-13388
바에서	-13389
받아야	-13390
번방의	-13391
번호와	-13392
병원과	-13393
보니까	-13394
사관이	-13395
사부일	-13396
사업에	-13397
사하고	-13398
셉니다	-13399
식에서	-13400
아르내	-13401
아시아	-13402
업체가	-13403
었고요	-13404
에게서	-13405
연습장	-13406
요원을	-13407
유치원	-13408
자였던	-13409
작업이	-13410
장관이	-13411
적이며	-13412
정부는	-13413
졌다며	-13414
주면서	-13415
준다는	-13416
집에서	-13417
층에는	-13418
푸르나	-13419
하기가	-13420
했어야	-13421
환자는	-13422
http	-13423
▁101	-13424
▁102	-13425
▁103	-13426
▁113	-13427
▁123	-13428
▁360	-13429
▁BBC	-13430
▁가장이	-13431
▁가족들	-13432
▁가족은	-13433
▁가지가	-13434
▁간격을	-13435
▁감독을	-13436
▁강경화	-13437
▁갖추고	-13438
▁같다고	-13439
▁같다는	-13440
▁개정에	-13441
▁개정해	-13442
▁거래로	-13443
▁거주자	-13444
▁건강을	-13445
▁검거에	-13446
▁검거한	-13447
▁검문식	-13448
▁검사로	-13449
▁경로는	-13450
▁경범죄	-13451
▁경우에	-13452
▁경전철	-13453
▁계시는	-13454
▁계시죠	-13455
▁고객이	-13456
▁고립돼	-13457
▁고소할	-13458
▁공사현	-13459
▁공장과	-13460
▁교통이	-13461
▁교회의	-13462
▁구로구	-13463
▁구상권	-13464
▁구조돼	-13465
▁구축해	-13466
▁국가의	-13467
▁국무부	-13468
▁그러고	-13469
▁그러한	-13470
▁금지돼	-13471
▁급증한	-13472
▁기부금	-13473
▁김여정	-13474
▁김원웅	-13475
▁꾸리고	-13476
▁끝나면	-13477
▁나가고	-13478
▁나눠서	-13479
▁나란히	-13480
▁남북교	-13481
▁남편이	-13482
▁내놓고	-13483
▁내려앉	-13484
▁내리지	-13485
▁넘어선	-13486
▁노숙인	-13487
▁노영민	-13488
▁논의를	-13489
▁누구나	-13490
▁뉴스가	-13491
▁느낌이	-13492
▁다수를	-13493
▁답하지	-13494
▁당하는	-13495
▁대구를	-13496
▁대구에	-13497
▁대구와	-13498
▁대답을	-13499
▁대표를	-13500
▁도구를	-13501
▁도시에	-13502
▁도의회	-13503
▁도주할	-13504
▁도지사	-13505
▁동구의	-13506
▁동료를	-13507
▁동선이	-13508
▁동양대	-13509
▁됐다는	-13510
▁됐어요	-13511
▁뒤집어	-13512
▁뒤집힌	-13513
▁드러낸	-13514
▁드리고	-13515
▁들어올	-13516
▁들었고	-13517
▁등록된	-13518
▁딸에게	-13519
▁띕니다	-13520
▁마사회	-13521
▁마음은	-13522
▁마치는	-13523
▁맨해튼	-13524
▁머물러	-13525
▁면밀히	-13526
▁명단도	-13527
▁명대를	-13528
▁모습에	-13529
▁목소리	-13530
▁못했던	-13531
▁문제와	-13532
▁물러서	-13533
▁미국이	-13534
▁미끼로	-13535
▁민감한	-13536
▁밀어붙	-13537
▁밀접한	-13538
▁밀폐된	-13539
▁박상학	-13540
▁반대편	-13541
▁반려견	-13542
▁반부터	-13543
▁받고도	-13544
▁받아낸	-13545
▁발표가	-13546
▁방에서	-13547
▁방치된	-13548
▁방침에	-13549
▁백승주	-13550
▁버리고	-13551
▁번호로	-13552
▁법률상	-13553
▁벚꽃길	-13554
▁병사가	-13555
▁병원이	-13556
▁보고한	-13557
▁보관한	-13558
▁보냈고	-13559
▁보상을	-13560
▁보호에	-13561
▁부딪혀	-13562
▁부모와	-13563
▁부산항	-13564
▁부여해	-13565
▁부정한	-13566
▁분노를	-13567
▁불과해	-13568
▁불안한	-13569
▁불이익	-13570
▁붙잡은	-13571
▁붙잡히	-13572
▁비난이	-13573
▁비상벨	-13574
▁비용은	-13575
▁빙판길	-13576
▁빼앗은	-13577
▁사고도	-13578
▁사기가	-13579
▁사업과	-13580
▁사용해	-13581
▁사장을	-13582
▁사태와	-13583
▁살펴볼	-13584
▁상세히	-13585
▁상태는	-13586
▁상태의	-13587
▁상판이	-13588
▁상품을	-13589
▁생각도	-13590
▁서버를	-13591
▁서울대	-13592
▁서정협	-13593
▁선거가	-13594
▁선정해	-13595
▁설명도	-13596
▁성관계	-13597
▁세워진	-13598
▁세인트	-13599
▁소독을	-13600
▁소상공	-13601
▁소식도	-13602
▁소용이	-13603
▁소장은	-13604
▁소재로	-13605
▁손해를	-13606
▁송금한	-13607
▁송치한	-13608
▁수상히	-13609
▁수색이	-13610
▁수성구	-13611
▁수용소	-13612
▁수용할	-13613
▁수준을	-13614
▁수집한	-13615
▁시급한	-13616
▁시도한	-13617
▁시비가	-13618
▁시작할	-13619
▁시키는	-13620
▁식중독	-13621
▁실체적	-13622
▁심리적	-13623
▁심사를	-13624
▁심정지	-13625
▁싶다는	-13626
▁쏟아진	-13627
▁아기를	-13628
▁아내는	-13629
▁아니겠	-13630
▁아니며	-13631
▁아산과	-13632
▁안산시	-13633
▁않지만	-13634
▁알렉산	-13635
▁앞바다	-13636
▁애플이	-13637
▁양부모	-13638
▁얘기가	-13639
▁어깨를	-13640
▁어려울	-13641
▁어르신	-13642
▁어제에	-13643
▁언급은	-13644
▁언론을	-13645
▁언제든	-13646
▁얼굴과	-13647
▁엄청난	-13648
▁여당이	-13649
▁여성도	-13650
▁연결된	-13651
▁엽니다	-13652
▁영향이	-13653
▁예배가	-13654
▁올리는	-13655
▁옮겨졌	-13656
▁외교관	-13657
▁요청해	-13658
▁원대의	-13659
▁원심을	-13660
▁위해를	-13661
▁위협한	-13662
▁유기한	-13663
▁유독가	-13664
▁유서를	-13665
▁유족은	-13666
▁유통을	-13667
▁윤미향	-13668
▁윤태호	-13669
▁음식물	-13670
▁응답이	-13671
▁의무가	-13672
▁의식한	-13673
▁의약품	-13674
▁이곳이	-13675
▁이내에	-13676
▁이동한	-13677
▁이동해	-13678
▁이상인	-13679
▁이상한	-13680
▁이어져	-13681
▁이용구	-13682
▁이용이	-13683
▁이주민	-13684
▁이틀간	-13685
▁인근을	-13686
▁인력이	-13687
▁인사가	-13688
▁일대를	-13689
▁일방적	-13690
▁일용직	-13691
▁일하며	-13692
▁일행이	-13693
▁일회용	-13694
▁임시국	-13695
▁입소한	-13696
▁입장인	-13697
▁자녀는	-13698
▁자신에	-13699
▁자유롭	-13700
▁자제해	-13701
▁장관도	-13702
▁장례를	-13703
▁장소가	-13704
▁재발급	-13705
▁적극적	-13706
▁적용된	-13707
▁전북대	-13708
▁전원에	-13709
▁전원을	-13710
▁전후해	-13711
▁점원을	-13712
▁접근한	-13713
▁정도에	-13714
▁정보도	-13715
▁정의를	-13716
▁정책에	-13717
▁제기돼	-13718
▁제동목	-13719
▁조믿음	-13720
▁조직원	-13721
▁조항이	-13722
▁주간지	-13723
▁주민을	-13724
▁중단할	-13725
▁중이며	-13726
▁증가한	-13727
▁지급한	-13728
▁지나는	-13729
▁지나던	-13730
▁지도자	-13731
▁지목한	-13732
▁지시에	-13733
▁지원이	-13734
▁지인과	-13735
▁지적을	-13736
▁집계한	-13737
▁징역형	-13738
▁차례나	-13739
▁차장검	-13740
▁차질이	-13741
▁창원의	-13742
▁챙기는	-13743
▁처벌도	-13744
▁처음에	-13745
▁청구된	-13746
▁체계가	-13747
▁총동원	-13748
▁총장을	-13749
▁총장의	-13750
▁최종식	-13751
▁충북도	-13752
▁취지를	-13753
▁친구와	-13754
▁침범해	-13755
▁커다란	-13756
▁코호트	-13757
▁콜라텍	-13758
▁클럽발	-13759
▁타인의	-13760
▁탑승자	-13761
▁통신은	-13762
▁통장을	-13763
▁투자금	-13764
▁투표용	-13765
▁특활비	-13766
▁파출소	-13767
▁판단은	-13768
▁포착된	-13769
▁폭우에	-13770
▁폭행은	-13771
▁표결에	-13772
▁피해도	-13773
▁하나는	-13774
▁하는지	-13775
▁학대의	-13776
▁한반도	-13777
▁한상진	-13778
▁한유총	-13779
▁합의를	-13780
▁해산을	-13781
▁해상에	-13782
▁핵심은	-13783
▁했다가	-13784
▁했으며	-13785
▁행동에	-13786
▁행위도	-13787
▁행위의	-13788
▁허점이	-13789
▁현상이	-13790
▁현실이	-13791
▁현장은	-13792
▁혐의자	-13793
▁호루라	-13794
▁화제의	-13795
▁확산될	-13796
▁확산은	-13797
▁활동에	-13798
▁활동한	-13799
▁활용할	-13800
▁회사에	-13801
▁회원이	-13802
▁회장을	-13803
▁횡령과	-13804
▁후진을	-13805
▁휠체어	-13806
▁휴가를	-13807
▁휴대폰	-13808
경제범죄	-13809
단체들은	-13810
본부장은	-13811
선거관리	-13812
시쯤부터	-13813
에서부터	-13814
영향평가	-13815
요일부터	-13816
운동본부	-13817
운용본부	-13818
위원장은	-13819
이라면서	-13820
자에게도	-13821
총연합회	-13822
확진자는	-13823
▁1339	-13824
▁1948	-13825
▁2003	-13826
▁가정폭력	-13827
▁가족이나	-13828
▁강원도는	-13829
▁거짓으로	-13830
▁검토하는	-13831
▁격리하는	-13832
▁경기지역	-13833
▁경찰개혁	-13834
▁경찰서로	-13835
▁계단에서	-13836
▁계십니까	-13837
▁계십니다	-13838
▁골프장을	-13839
▁공무원에	-13840
▁과잉진압	-13841
▁광범위한	-13842
▁구간에서	-13843
▁구이민하	-13844
▁국민에게	-13845
▁국방과학	-13846
▁균형발전	-13847
▁극단주의	-13848
▁금은방에	-13849
▁금지되고	-13850
▁급속도로	-13851
▁급증하고	-13852
▁기관으로	-13853
▁김아르내	-13854
▁나발니가	-13855
▁난민수용	-13856
▁날입니다	-13857
▁내부고발	-13858
▁내용들이	-13859
▁냉동창고	-13860
▁넘겨받아	-13861
▁농업기술	-13862
▁뇌물수수	-13863
▁단속하고	-13864
▁달아나는	-13865
▁당선인이	-13866
▁대검찰청	-13867
▁대법원이	-13868
▁대비하고	-13869
▁뒷받침할	-13870
▁드라이브	-13871
▁명확하게	-13872
▁모레부터	-13873
▁무엇인지	-13874
▁미제사건	-13875
▁반발하는	-13876
▁발견되면	-13877
▁방문자에	-13878
▁방역복을	-13879
▁배수펌프	-13880
▁벌였다고	-13881
▁보도해드	-13882
▁보여주고	-13883
▁보호자가	-13884
▁부동산을	-13885
▁부모에게	-13886
▁불러일으	-13887
▁불법촬영	-13888
▁비교하면	-13889
▁비난하는	-13890
▁비밀번호	-13891
▁비서실장	-13892
▁사과하고	-13893
▁사칭하는	-13894
▁산사태가	-13895
▁살해하고	-13896
▁상관없이	-13897
▁상당수는	-13898
▁상생조정	-13899
▁상인들은	-13900
▁상징하는	-13901
▁생각하는	-13902
▁생활안전	-13903
▁선거공작	-13904
▁선고하고	-13905
▁성범죄가	-13906
▁성범죄의	-13907
▁성폭행을	-13908
▁소유권을	-13909
▁송치했고	-13910
▁수단으로	-13911
▁수사망을	-13912
▁수사에서	-13913
▁숨지면서	-13914
▁시달리다	-13915
▁신도들을	-13916
▁실종됐던	-13917
▁심각하게	-13918
▁싱가포르	-13919
▁써달라고	-13920
▁씨로부터	-13921
▁아니지만	-13922
▁아들에게	-13923
▁아이디와	-13924
▁안됩니다	-13925
▁안전수칙	-13926
▁않겠다는	-13927
▁않으면서	-13928
▁양성으로	-13929
▁어디까지	-13930
▁어디에서	-13931
▁어떨까요	-13932
▁언론에서	-13933
▁여기까지	-13934
▁여성들이	-13935
▁여자친구	-13936
▁연결되어	-13937
▁연관성을	-13938
▁영수증을	-13939
▁예정됐던	-13940
▁오랫동안	-13941
▁외부에서	-13942
▁우려하고	-13943
▁운영되고	-13944
▁위반하는	-13945
▁유통기한	-13946
▁음란물을	-13947
▁의심하고	-13948
▁의원님이	-13949
▁의원들의	-13950
▁이뿐만이	-13951
▁이용하고	-13952
▁이후에는	-13953
▁인도에서	-13954
▁인사담당	-13955
▁입증되지	-13956
▁작동하지	-13957
▁작업하던	-13958
▁재일교포	-13959
▁저축은행	-13960
▁적용할지	-13961
▁전북에서	-13962
▁전북지역	-13963
▁전속고발	-13964
▁전형적인	-13965
▁전화금융	-13966
▁정돕니다	-13967
▁정무라인	-13968
▁정무수석	-13969
▁정치인이	-13970
▁정치자금	-13971
▁조주빈을	-13972
▁조카에게	-13973
▁주먹으로	-13974
▁주목하고	-13975
▁주민들도	-13976
▁주민에게	-13977
▁주변에는	-13978
▁주택에서	-13979
▁중학생이	-13980
▁지나치게	-13981
▁진압으로	-13982
▁진입하는	-13983
▁집사부일	-13984
▁집합제한	-13985
▁착용하고	-13986
▁처리하는	-13987
▁청소업체	-13988
▁체육시설	-13989
▁충남에서	-13990
▁취재진을	-13991
▁측면에서	-13992
▁친구들은	-13993
▁클라우드	-13994
▁키워드로	-13995
▁텍사스주	-13996
▁특가법상	-13997
▁특별입국	-13998
▁특수상해	-13999
▁특수활동	-14000
▁판단되면	-14001
▁팔레스타	-14002
▁팩트체크	-14003
▁포함되지	-14004
▁폭발음이	-14005
▁프라이팬	-14006
▁학교폭력	-14007
▁학부모는	-14008
▁한진그룹	-14009
▁할머니가	-14010
▁합동조사	-14011
▁해당하지	-14012
▁현장에선	-14013
▁형사사건	-14014
▁확산세를	-14015
▁확진자인	-14016
▁환경미화	-14017
▁회사에서	-14018
▁후보자의	-14019
▁희생자를	-14020
나왔습니다	-14021
명으로부터	-14022
▁가능하다고	-14023
▁결정됩니다	-14024
▁경기지사는	-14025
▁경비원에게	-14026
▁경상북도는	-14027
▁고발했다고	-14028
▁공무원들의	-14029
▁관계자들은	-14030
▁관리소장은	-14031
▁광화문에서	-14032
▁구조합니다	-14033
▁국가경찰과	-14034
▁급증하면서	-14035
▁기저질환이	-14036
▁나서겠다고	-14037
▁나섰는데요	-14038
▁뉴스픽으로	-14039
▁대구에서는	-14040
▁덮쳤습니다	-14041
▁뒤였습니다	-14042
▁뒷받침하는	-14043
▁들어섭니다	-14044
▁몽키뮤지엄	-14045
▁무함마드를	-14046
▁문자메시지	-14047
▁민식이법이	-14048
▁바이러스를	-14049
▁발견됩니다	-14050
▁발생하면서	-14051
▁밝혀주시기	-14052
▁번째입니다	-14053
▁벌어지기도	-14054
▁베를린에서	-14055
▁베이징에서	-14056
▁변호인단은	-14057
▁부족하다고	-14058
▁비닐하우스	-14059
▁빚었습니다	-14060
▁사실관계가	-14061
▁사회적으로	-14062
▁서울에서는	-14063
▁선제적으로	-14064
▁설명합니다	-14065
▁성폭행하고	-14066
▁소극적으로	-14067
▁손바닥으로	-14068
▁시급합니다	-14069
▁시도했지만	-14070
▁시민단체는	-14071
▁시사용어로	-14072
▁신고하면서	-14073
▁신고했지만	-14074
▁실시합니다	-14075
▁실질적으로	-14076
▁아동청소년	-14077
▁아동학대가	-14078
▁아수라장이	-14079
▁안나푸르나	-14080
▁여전합니다	-14081
▁영상입니다	-14082
▁요구합니다	-14083
▁운영됩니다	-14084
▁운영하면서	-14085
▁운전자들은	-14086
▁원내대표가	-14087
▁위해서라도	-14088
▁유가족에게	-14089
▁의심된다며	-14090
▁인종차별에	-14091
▁있습니다만	-14092
▁있었는지도	-14093
▁자가격리가	-14094
▁자체적으로	-14095
▁잠겼습니다	-14096
▁정했습니다	-14097
▁조사에서는	-14098
▁조직적으로	-14099
▁좋겠습니다	-14100
▁주목할만한	-14101
▁주한미국대	-14102
▁지방자치법	-14103
▁지역에서는	-14104
▁지역에서도	-14105
▁지원합니다	-14106
▁지하차도에	-14107
▁추정되는데	-14108
▁추진됩니다	-14109
▁출발합니다	-14110
▁충청북도가	-14111
▁키워듭니다	-14112
▁플로이드를	-14113
▁한창입니다	-14114
▁해운대구의	-14115
▁행정조치를	-14116
▁행정지도를	-14117
▁혐의입니다	-14118
▁확인됐는데	-14119
고속도로에서	-14120
특별사법경찰	-14121
▁것이었습니다	-14122
▁기금운용본부	-14123
▁대피했습니다	-14124
▁반부패비서관	-14125
▁범죄단체조직	-14126
▁불거졌습니다	-14127
▁사람들입니다	-14128
▁소개해드리는	-14129
▁시사용어사전	-14130
▁오피스텔에서	-14131
▁의붓아버지가	-14132
▁이유민입니다	-14133
▁이유였습니다	-14134
▁자가격리자가	-14135
▁자가격리자는	-14136
▁자가격리자의	-14137
▁재개됐습니다	-14138
▁전체회의에서	-14139
▁전현우입니다	-14140
▁정리해드리는	-14141
▁정재훈입니다	-14142
▁제안했습니다	-14143
▁종결했습니다	-14144
▁집중됐습니다	-14145
▁짚어봤습니다	-14146
▁처벌하겠다고	-14147
▁통제됐습니다	-14148
▁특정경제범죄	-14149
▁홈페이지에서	-14150
▁확정했습니다	-14151
▁구속영장심사를	-14152
▁김아르내입니다	-14153
▁단독보도입니다	-14154
▁돌려보냈습니다	-14155
▁모습이었습니다	-14156
▁선별진료소에서	-14157
▁짚어보겠습니다	-14158
▁경찰인재개발원에	-14159
▁여성아동범죄조사	-14160
▁국가공무원인재개발	-14161
▁아동보호전문기관은	-14162
76	-14163
93	-14164
▁c	-14165
▁꽂	-14166
▁놔	-14167
▁뚝	-14168
▁르	-14169
▁뭉	-14170
▁밧	-14171
▁봄	-14172
▁붉	-14173
▁삐	-14174
▁삽	-14175
▁섞	-14176
▁싼	-14177
▁씌	-14178
▁앨	-14179
▁읍	-14180
▁쥐	-14181
▁짝	-14182
▁찰	-14183
▁탕	-14184
▁폴	-14185
▁홧	-14186
▁히	-14187
감사	-14188
같은	-14189
게도	-14190
경기	-14191
계사	-14192
관찰	-14193
관한	-14194
국과	-14195
국인	-14196
규격	-14197
기금	-14198
기동	-14199
기만	-14200
기본	-14201
냈던	-14202
년대	-14203
대기	-14204
대대	-14205
대리	-14206
대변	-14207
데다	-14208
데이	-14209
도청	-14210
도피	-14211
돌봄	-14212
둘이	-14213
등급	-14214
디션	-14215
락을	-14216
랐고	-14217
랑곳	-14218
렀다	-14219
력도	-14220
령은	-14221
로도	-14222
료품	-14223
루엔	-14224
류로	-14225
마가	-14226
마이	-14227
만명	-14228
만인	-14229
맘때	-14230
명여	-14231
모란	-14232
목적	-14233
물손	-14234
미에	-14235
미한	-14236
바마	-14237
방과	-14238
법률	-14239
벙커	-14240
변을	-14241
병도	-14242
병이	-14243
봉쇄	-14244
봉을	-14245
부처	-14246
살롱	-14247
살의	-14248
생과	-14249
서장	-14250
성도	-14251
성향	-14252
수면	-14253
수형	-14254
슈빌	-14255
스티	-14256
슬아	-14257
식장	-14258
심판	-14259
싸움	-14260
액이	-14261
양의	-14262
여객	-14263
오염	-14264
외품	-14265
웠고	-14266
위생	-14267
유도	-14268
율로	-14269
은경	-14270
음악	-14271
이질	-14272
인숙	-14273
인식	-14274
인터	-14275
자형	-14276
작전	-14277
쟁이	-14278
전형	-14279
절도	-14280
조의	-14281
조작	-14282
주에	-14283
준영	-14284
줘야	-14285
줬다	-14286
지휘	-14287
진단	-14288
질서	-14289
집이	-14290
책이	-14291
체험	-14292
쳐야	-14293
쳤던	-14294
총괄	-14295
총장	-14296
출을	-14297
충하	-14298
층은	-14299
치다	-14300
치자	-14301
칙에	-14302
침입	-14303
퀴가	-14304
클러	-14305
토록	-14306
트워	-14307
하길	-14308
하듯	-14309
하시	-14310
하에	-14311
하죠	-14312
한석	-14313
함과	-14314
함은	-14315
혁신	-14316
협약	-14317
협의	-14318
형사	-14319
형진	-14320
호에	-14321
화에	-14322
화할	-14323
휘국	-14324
희동	-14325
▁93	-14326
▁AI	-14327
▁EE	-14328
▁WH	-14329
▁가뒀	-14330
▁가면	-14331
▁가속	-14332
▁가한	-14333
▁간접	-14334
▁간판	-14335
▁감당	-14336
▁감축	-14337
▁갓난	-14338
▁강우	-14339
▁갖춘	-14340
▁개통	-14341
▁거란	-14342
▁건과	-14343
▁걷어	-14344
▁검진	-14345
▁견적	-14346
▁경선	-14347
▁고교	-14348
▁고맙	-14349
▁고시	-14350
▁고심	-14351
▁공언	-14352
▁과제	-14353
▁관중	-14354
▁관해	-14355
▁광산	-14356
▁교란	-14357
▁구토	-14358
▁구한	-14359
▁구할	-14360
▁군용	-14361
▁그을	-14362
▁극히	-14363
▁금전	-14364
▁급성	-14365
▁김수	-14366
▁깊숙	-14367
▁깔려	-14368
▁끄는	-14369
▁끝낸	-14370
▁나기	-14371
▁나음	-14372
▁납부	-14373
▁났고	-14374
▁내란	-14375
▁내면	-14376
▁내의	-14377
▁내정	-14378
▁내홍	-14379
▁널리	-14380
▁녹화	-14381
▁농림	-14382
▁단신	-14383
▁단일	-14384
▁닫혀	-14385
▁답한	-14386
▁대낮	-14387
▁대부	-14388
▁대외	-14389
▁돈은	-14390
▁돌입	-14391
▁동강	-14392
▁동급	-14393
▁동기	-14394
▁동서	-14395
▁되팔	-14396
▁드는	-14397
▁드라	-14398
▁들렀	-14399
▁등급	-14400
▁따뜻	-14401
▁뚫린	-14402
▁랜덤	-14403
▁리더	-14404
▁리치	-14405
▁막바	-14406
▁막으	-14407
▁막은	-14408
▁막지	-14409
▁막판	-14410
▁막혀	-14411
▁만날	-14412
▁만여	-14413
▁많기	-14414
▁말과	-14415
▁맞물	-14416
▁맡는	-14417
▁매각	-14418
▁맺은	-14419
▁먹고	-14420
▁멈춘	-14421
▁명당	-14422
▁명씩	-14423
▁명인	-14424
▁모으	-14425
▁목초	-14426
▁몰라	-14427
▁무산	-14428
▁미비	-14429
▁미숙	-14430
▁미술	-14431
▁민족	-14432
▁바둑	-14433
▁바짝	-14434
▁박물	-14435
▁발걸	-14436
▁발목	-14437
▁밟아	-14438
▁방사	-14439
▁방심	-14440
▁배웅	-14441
▁배후	-14442
▁밴드	-14443
▁버지	-14444
▁버티	-14445
▁번진	-14446
▁법의	-14447
▁변성	-14448
▁보시	-14449
▁복당	-14450
▁본다	-14451
▁봐도	-14452
▁부유	-14453
▁부재	-14454
▁부하	-14455
▁북미	-14456
▁북쪽	-14457
▁분량	-14458
▁불티	-14459
▁붙인	-14460
▁비춰	-14461
▁빗발	-14462
▁산간	-14463
▁산내	-14464
▁산지	-14465
▁살려	-14466
▁상의	-14467
▁샌드	-14468
▁생계	-14469
▁서른	-14470
▁서탑	-14471
▁선교	-14472
▁선호	-14473
▁성고	-14474
▁세게	-14475
▁세탁	-14476
▁소매	-14477
▁소청	-14478
▁수당	-14479
▁수락	-14480
▁수선	-14481
▁수억	-14482
▁숨겨	-14483
▁숫자	-14484
▁스리	-14485
▁시립	-14486
▁시에	-14487
▁시외	-14488
▁시일	-14489
▁시중	-14490
▁시총	-14491
▁시한	-14492
▁신림	-14493
▁신천	-14494
▁신한	-14495
▁심어	-14496
▁악질	-14497
▁안개	-14498
▁안겨	-14499
▁안상	-14500
▁앵커	-14501
▁양보	-14502
▁양쪽	-14503
▁양호	-14504
▁언니	-14505
▁얼어	-14506
▁없지	-14507
▁연간	-14508
▁연습	-14509
▁연출	-14510
▁열람	-14511
▁열려	-14512
▁열사	-14513
▁염태	-14514
▁예의	-14515
▁오간	-14516
▁오정	-14517
▁오클	-14518
▁온갖	-14519
▁온열	-14520
▁올릴	-14521
▁올바	-14522
▁완강	-14523
▁완벽	-14524
▁외면	-14525
▁외침	-14526
▁왼쪽	-14527
▁용기	-14528
▁용담	-14529
▁용해	-14530
▁울려	-14531
▁원만	-14532
▁위력	-14533
▁유례	-14534
▁유류	-14535
▁유혹	-14536
▁윤성	-14537
▁윤호	-14538
▁이겨	-14539
▁이면	-14540
▁이혼	-14541
▁일각	-14542
▁일과	-14543
▁일축	-14544
▁자경	-14545
▁자국	-14546
▁자기	-14547
▁자산	-14548
▁작전	-14549
▁잔디	-14550
▁잡혀	-14551
▁장의	-14552
▁잦은	-14553
▁재가	-14554
▁저작	-14555
▁적어	-14556
▁전제	-14557
▁점심	-14558
▁제이	-14559
▁조롱	-14560
▁조용	-14561
▁조처	-14562
▁좌석	-14563
▁좌절	-14564
▁주둔	-14565
▁준항	-14566
▁중경	-14567
▁증원	-14568
▁증평	-14569
▁지사	-14570
▁직결	-14571
▁직급	-14572
▁진범	-14573
▁진보	-14574
▁짧게	-14575
▁쫓는	-14576
▁차고	-14577
▁차관	-14578
▁참작	-14579
▁창업	-14580
▁처인	-14581
▁처한	-14582
▁청산	-14583
▁총살	-14584
▁총영	-14585
▁출산	-14586
▁측을	-14587
▁친족	-14588
▁침을	-14589
▁컸던	-14590
▁크로	-14591
▁탈세	-14592
▁탐문	-14593
▁테니	-14594
▁투쟁	-14595
▁튀어	-14596
▁틈을	-14597
▁파일	-14598
▁펀드	-14599
▁편성	-14600
▁평창	-14601
▁폭도	-14602
▁폭설	-14603
▁폭증	-14604
▁표창	-14605
▁풍속	-14606
▁피시	-14607
▁하여	-14608
▁행방	-14609
▁현관	-14610
▁형법	-14611
▁호기	-14612
▁홍대	-14613
▁환불	-14614
▁후회	-14615
거리는	-14616
겠네요	-14617
겼는데	-14618
계약직	-14619
계획을	-14620
관계가	-14621
기관의	-14622
기면서	-14623
기적인	-14624
나들목	-14625
냈다고	-14626
년형을	-14627
는지도	-14628
니까요	-14629
동으로	-14630
되어서	-14631
들이는	-14632
라이나	-14633
마이클	-14634
물손괴	-14635
방송이	-14636
버스와	-14637
보건소	-14638
보다도	-14639
보지만	-14640
볼게요	-14641
부르크	-14642
사고는	-14643
산물을	-14644
선도로	-14645
설명회	-14646
소리를	-14647
속에서	-14648
스포츠	-14649
슬아슬	-14650
시위가	-14651
아동을	-14652
업자와	-14653
여부를	-14654
였다며	-14655
였으며	-14656
웠지만	-14657
음식점	-14658
음으로	-14659
인가요	-14660
인력을	-14661
인트를	-14662
인하게	-14663
일만에	-14664
일에서	-14665
임에도	-14666
자리를	-14667
자비린	-14668
잡니다	-14669
장애인	-14670
장이나	-14671
전부터	-14672
조치가	-14673
주겠다	-14674
집행을	-14675
천만한	-14676
추적을	-14677
충하초	-14678
특보가	-14679
플루엔	-14680
하는가	-14681
해경청	-14682
해서는	-14683
해지자	-14684
했느냐	-14685
화되고	-14686
환자가	-14687
회사에	-14688
훈련을	-14689
▁111	-14690
▁114	-14691
▁148	-14692
▁171	-14693
▁195	-14694
▁217	-14695
▁230	-14696
▁MBC	-14697
▁가만히	-14698
▁가슴을	-14699
▁가슴이	-14700
▁가정의	-14701
▁가져가	-14702
▁가치를	-14703
▁가해가	-14704
▁감독의	-14705
▁감사원	-14706
▁감안해	-14707
▁강남역	-14708
▁강요한	-14709
▁강훈은	-14710
▁강훈이	-14711
▁같고요	-14712
▁개발에	-14713
▁개입한	-14714
▁개학을	-14715
▁개학이	-14716
▁거라는	-14717
▁건물은	-14718
▁검사들	-14719
▁검은색	-14720
▁것이라	-14721
▁게재나	-14722
▁겨냥한	-14723
▁격리를	-14724
▁결심공	-14725
▁결정된	-14726
▁경감은	-14727
▁경고를	-14728
▁경보가	-14729
▁경제에	-14730
▁계단을	-14731
▁계속될	-14732
▁계약이	-14733
▁고령의	-14734
▁고민이	-14735
▁고한석	-14736
▁공간을	-14737
▁공모한	-14738
▁공무상	-14739
▁공사의	-14740
▁공장에	-14741
▁공장은	-14742
▁공정성	-14743
▁공조해	-14744
▁공포에	-14745
▁관광지	-14746
▁광주로	-14747
▁교사와	-14748
▁교회발	-14749
▁구간에	-14750
▁구성을	-14751
▁구속이	-14752
▁구속해	-14753
▁국토부	-14754
▁국회와	-14755
▁군사적	-14756
▁권고가	-14757
▁규정이	-14758
▁그들은	-14759
▁그들이	-14760
▁그래요	-14761
▁글에는	-14762
▁금니를	-14763
▁기간제	-14764
▁기관이	-14765
▁기모란	-14766
▁기부를	-14767
▁기회가	-14768
▁김영록	-14769
▁깃발을	-14770
▁꺼내지	-14771
▁꺼리는	-14772
▁꺾이지	-14773
▁끊이질	-14774
▁나가지	-14775
▁나왔던	-14776
▁남매가	-14777
▁남자아	-14778
▁남해군	-14779
▁내렸고	-14780
▁내리는	-14781
▁내무부	-14782
▁내부를	-14783
▁내슈빌	-14784
▁넘나들	-14785
▁넘도록	-14786
▁넘었고	-14787
▁논문에	-14788
▁높다며	-14789
▁높이의	-14790
▁뉴스에	-14791
▁뉴욕시	-14792
▁느끼는	-14793
▁늘었다	-14794
▁능력이	-14795
▁다녀왔	-14796
▁다루는	-14797
▁단서를	-14798
▁단어를	-14799
▁단지에	-14800
▁달라진	-14801
▁달라질	-14802
▁달려와	-14803
▁달리고	-14804
▁달하고	-14805
▁답변이	-14806
▁당시의	-14807
▁당연한	-14808
▁대다수	-14809
▁대출금	-14810
▁대표이	-14811
▁대표적	-14812
▁대학교	-14813
▁도로와	-14814
▁도심의	-14815
▁동대문	-14816
▁동료의	-14817
▁뒤엉켜	-14818
▁드러날	-14819
▁등에는	-14820
▁따라가	-14821
▁뜻으로	-14822
▁룸살롱	-14823
▁말했고	-14824
▁맞서고	-14825
▁머무는	-14826
▁명령은	-14827
▁모녀를	-14828
▁모두의	-14829
▁모시고	-14830
▁모임과	-14831
▁모텔에	-14832
▁목적이	-14833
▁무거운	-14834
▁무등록	-14835
▁뭔가요	-14836
▁미국과	-14837
▁미치는	-14838
▁바다를	-14839
▁반복된	-14840
▁반영한	-14841
▁발의된	-14842
▁방문객	-14843
▁방문을	-14844
▁방식을	-14845
▁방식이	-14846
▁방역과	-14847
▁방역의	-14848
▁방지에	-14849
▁방치한	-14850
▁배달을	-14851
▁백화점	-14852
▁버려진	-14853
▁벌어질	-14854
▁법적인	-14855
▁변화를	-14856
▁보도는	-14857
▁보도와	-14858
▁보안과	-14859
▁보장을	-14860
▁보험금	-14861
▁부작용	-14862
▁부정청	-14863
▁부주의	-14864
▁부천시	-14865
▁부활절	-14866
▁분노한	-14867
▁분들은	-14868
▁분야로	-14869
▁분양권	-14870
▁분통을	-14871
▁불러내	-14872
▁불편한	-14873
▁비난을	-14874
▁비리를	-14875
▁비트코	-14876
▁빼곡히	-14877
▁빼돌려	-14878
▁사격을	-14879
▁사과할	-14880
▁사상구	-14881
▁사안은	-14882
▁사이렌	-14883
▁사일로	-14884
▁사정이	-14885
▁산책을	-14886
▁살펴보	-14887
▁삼성증	-14888
▁상고심	-14889
▁생명에	-14890
▁선고를	-14891
▁선수가	-14892
▁선택한	-14893
▁설치할	-14894
▁성과를	-14895
▁성분이	-14896
▁성일종	-14897
▁세계로	-14898
▁세력과	-14899
▁세심한	-14900
▁세우고	-14901
▁소견이	-14902
▁소속의	-14903
▁소음을	-14904
▁소중한	-14905
▁수년째	-14906
▁수능을	-14907
▁수단을	-14908
▁숙명여	-14909
▁순으로	-14910
▁스위치	-14911
▁스크린	-14912
▁스페셜	-14913
▁시비를	-14914
▁시설로	-14915
▁시작될	-14916
▁시행을	-14917
▁식료품	-14918
▁식판을	-14919
▁신고도	-14920
▁실수로	-14921
▁실종돼	-14922
▁실질심	-14923
▁심사가	-14924
▁싶더니	-14925
▁쌓아둔	-14926
▁아기가	-14927
▁아동과	-14928
▁아랑곳	-14929
▁아침에	-14930
▁악용한	-14931
▁안개가	-14932
▁안심할	-14933
▁안형진	-14934
▁암매장	-14935
▁압수물	-14936
▁앱으로	-14937
▁야당이	-14938
▁억지로	-14939
▁언제쯤	-14940
▁얼굴에	-14941
▁엄마가	-14942
▁업소가	-14943
▁업소를	-14944
▁여성에	-14945
▁여지가	-14946
▁여행을	-14947
▁연결돼	-14948
▁연결이	-14949
▁연락한	-14950
▁연예인	-14951
▁연희동	-14952
▁염려가	-14953
▁영업이	-14954
▁영업한	-14955
▁예고된	-14956
▁오디션	-14957
▁오리무	-14958
▁오바마	-14959
▁올라오	-14960
▁올라와	-14961
▁올라왔	-14962
▁와치맨	-14963
▁외치고	-14964
▁요청이	-14965
▁운동부	-14966
▁운전이	-14967
▁운행이	-14968
▁울산의	-14969
▁위독한	-14970
▁위반에	-14971
▁위반해	-14972
▁유리한	-14973
▁유명한	-14974
▁유지를	-14975
▁유포해	-14976
▁의료인	-14977
▁의문이	-14978
▁의심돼	-14979
▁의회가	-14980
▁이르고	-14981
▁이름은	-14982
▁이맘때	-14983
▁이명박	-14984
▁이보다	-14985
▁이사회	-14986
▁이외에	-14987
▁이재민	-14988
▁이준석	-14989
▁이후엔	-14990
▁인구가	-14991
▁인력과	-14992
▁일본에	-14993
▁일본의	-14994
▁일인지	-14995
▁임동호	-14996
▁입구를	-14997
▁입법을	-14998
▁입었고	-14999
▁입원해	-15000
▁있겠죠	-15001
▁있네요	-15002
▁있어도	-15003
▁자녀가	-15004
▁자료는	-15005
▁자료로	-15006
▁자료의	-15007
▁자릿수	-15008
▁자정쯤	-15009
▁자취를	-15010
▁작성을	-15011
▁장휘국	-15012
▁재검토	-15013
▁재사용	-15014
▁재학생	-15015
▁저장된	-15016
▁적용한	-15017
▁전원이	-15018
▁전파를	-15019
▁전했다	-15020
▁전후로	-15021
▁절차상	-15022
▁젊은이	-15023
▁접근이	-15024
▁접수를	-15025
▁접수해	-15026
▁정도는	-15027
▁정부도	-15028
▁정비를	-15029
▁정서적	-15030
▁제보자	-15031
▁제안을	-15032
▁제작과	-15033
▁제정을	-15034
▁제출할	-15035
▁제품은	-15036
▁조대원	-15037
▁조비오	-15038
▁조치와	-15039
▁조화를	-15040
▁조회한	-15041
▁종합해	-15042
▁주거지	-15043
▁주말과	-15044
▁주민은	-15045
▁주시죠	-15046
▁주저앉	-15047
▁주정차	-15048
▁죽음에	-15049
▁죽음이	-15050
▁줄이지	-15051
▁중간에	-15052
▁중구의	-15053
▁중태에	-15054
▁중환자	-15055
▁증세로	-15056
▁지급을	-15057
▁지내고	-15058
▁지르고	-15059
▁지리산	-15060
▁지방청	-15061
▁지시가	-15062
▁지적에	-15063
▁지점은	-15064
▁지침이	-15065
▁직원들	-15066
▁진술은	-15067
▁진행이	-15068
▁집어넣	-15069
▁집에만	-15070
▁집회나	-15071
▁징역에	-15072
▁창문이	-15073
▁처리가	-15074
▁처리에	-15075
▁처음엔	-15076
▁천안과	-15077
▁청년이	-15078
▁청소를	-15079
▁초과해	-15080
▁초까지	-15081
▁초등생	-15082
▁초래할	-15083
▁초중고	-15084
▁총장에	-15085
▁촬영된	-15086
▁최강욱	-15087
▁최영조	-15088
▁최종상	-15089
▁추가된	-15090
▁추적에	-15091
▁추진을	-15092
▁추진해	-15093
▁출범을	-15094
▁출신인	-15095
▁출입문	-15096
▁충돌도	-15097
▁취재가	-15098
▁침수로	-15099
▁카드를	-15100
▁쿠아치	-15101
▁키우고	-15102
▁타격이	-15103
▁탄핵을	-15104
▁태국에	-15105
▁태어난	-15106
▁택시와	-15107
▁털어놓	-15108
▁테러가	-15109
▁통고를	-15110
▁통과를	-15111
▁트리아	-15112
▁특성을	-15113
▁패스트	-15114
▁평소와	-15115
▁폭력은	-15116
▁폭력이	-15117
▁폭력적	-15118
▁표시를	-15119
▁표한다	-15120
▁필요할	-15121
▁하나를	-15122
▁학교는	-15123
▁한국당	-15124
▁한동훈	-15125
▁해경청	-15126
▁해수부	-15127
▁했더니	-15128
▁행동은	-15129
▁행방이	-15130
▁행사에	-15131
▁허술한	-15132
▁헬기를	-15133
▁형태가	-15134
▁형태를	-15135
▁호텔을	-15136
▁확대할	-15137
▁확대해	-15138
▁확보가	-15139
▁확보에	-15140
▁홧김에	-15141
▁회복을	-15142
▁훼손이	-15143
▁휩쓸린	-15144
▁흐름을	-15145
▁흑인이	-15146
▁흔적도	-15147
▁희생된	-15148
감시대응	-15149
거래허가	-15150
검사에서	-15151
경찰서로	-15152
공장에서	-15153
교육청이	-15154
노동조합	-15155
뉴습니다	-15156
만으로는	-15157
분쯤에는	-15158
솔입니다	-15159
안전공사	-15160
으면서도	-15161
의료원에	-15162
일입니다	-15163
장에게는	-15164
재입니다	-15165
적으로도	-15166
주택에서	-15167
테마파크	-15168
하느냐는	-15169
했는지도	-15170
했다면서	-15171
화되면서	-15172
환입니다	-15173
▁1989	-15174
▁2002	-15175
▁2004	-15176
▁2022	-15177
▁가정에서	-15178
▁각지에서	-15179
▁간편결제	-15180
▁감식반은	-15181
▁감식에서	-15182
▁강조하고	-15183
▁개천절에	-15184
▁거창군이	-15185
▁검거하고	-15186
▁검사장의	-15187
▁검토해야	-15188
▁결정적인	-15189
▁경비업법	-15190
▁경비원의	-15191
▁경찰차를	-15192
▁계속되자	-15193
▁고려했다	-15194
▁공개하고	-15195
▁공동주택	-15196
▁공소장이	-15197
▁과학기술	-15198
▁광장에서	-15199
▁교민들의	-15200
▁교인들의	-15201
▁구상권을	-15202
▁국가에서	-15203
▁국민참여	-15204
▁권고하고	-15205
▁그러더니	-15206
▁근로기준	-15207
▁긍정적인	-15208
▁기반으로	-15209
▁기사들이	-15210
▁기사에서	-15211
▁긴급재난	-15212
▁남성보다	-15213
▁남아있던	-15214
▁남양주시	-15215
▁내려받은	-15216
▁내리기로	-15217
▁넘어가는	-15218
▁노동자는	-15219
▁농장에서	-15220
▁늘었는데	-15221
▁다음날인	-15222
▁단속반이	-15223
▁대선에서	-15224
▁대전에서	-15225
▁대통령도	-15226
▁대피했고	-15227
▁대해서만	-15228
▁동료들이	-15229
▁동충하초	-15230
▁됐는데요	-15231
▁드러내고	-15232
▁들어가기	-15233
▁들어있는	-15234
▁등에서도	-15235
▁등지에서	-15236
▁때리거나	-15237
▁라디오에	-15238
▁렌터카를	-15239
▁리원량의	-15240
▁마련해야	-15241
▁마무리될	-15242
▁마음으로	-15243
▁말씀드린	-15244
▁말이에요	-15245
▁말하기도	-15246
▁맥마이클	-15247
▁모레까지	-15248
▁모임이나	-15249
▁무기징역	-15250
▁무너지고	-15251
▁물놀이를	-15252
▁미국으로	-15253
▁민간인이	-15254
▁발생했을	-15255
▁밝히기도	-15256
▁방위군이	-15257
▁버스회사	-15258
▁버지니아	-15259
▁범인도피	-15260
▁범죄심리	-15261
▁법무부와	-15262
▁법무장관	-15263
▁변호사를	-15264
▁보관하고	-15265
▁보냈지만	-15266
▁보도하고	-15267
▁보행자가	-15268
▁보호관찰	-15269
▁보호하고	-15270
▁부딪히는	-15271
▁부사장은	-15272
▁부산에는	-15273
▁부인하는	-15274
▁부정적인	-15275
▁분노하고	-15276
▁불안감이	-15277
▁비서관이	-15278
▁비접촉식	-15279
▁비행기에	-15280
▁사과문을	-15281
▁사람들도	-15282
▁사법처리	-15283
▁사실확인	-15284
▁사용하고	-15285
▁사재기한	-15286
▁산산조각	-15287
▁살아있는	-15288
▁상태였던	-15289
▁상황부터	-15290
▁상황인데	-15291
▁새벽부터	-15292
▁서울특별	-15293
▁석유관리	-15294
▁선거인단	-15295
▁선임행정	-15296
▁설치하지	-15297
▁섰습니다	-15298
▁성명에서	-15299
▁세르비아	-15300
▁수사관이	-15301
▁수사의뢰	-15302
▁슈퍼마켓	-15303
▁스포츠카	-15304
▁시작되는	-15305
▁시험장에	-15306
▁신고의무	-15307
▁신고했던	-15308
▁신청했다	-15309
▁실종자가	-15310
▁심각성을	-15311
▁쏟아지는	-15312
▁쓰레기를	-15313
▁아니에요	-15314
▁아슬아슬	-15315
▁아이들의	-15316
▁아침부터	-15317
▁아파트는	-15318
▁아파트를	-15319
▁안건조정	-15320
▁안심밴드	-15321
▁안에서는	-15322
▁안전속도	-15323
▁약국에서	-15324
▁어머니를	-15325
▁억울하게	-15326
▁엄격하게	-15327
▁업무추진	-15328
▁여성으로	-15329
▁연락처를	-15330
▁영상으로	-15331
▁예정인데	-15332
▁오십시오	-15333
▁오후에는	-15334
▁온라인에	-15335
▁왔는데요	-15336
▁외교관의	-15337
▁우려했던	-15338
▁운영진이	-15339
▁운전자인	-15340
▁원입니다	-15341
▁위원장이	-15342
▁유치장에	-15343
▁의료진과	-15344
▁의료진은	-15345
▁의약외품	-15346
▁의혹까지	-15347
▁이관하는	-15348
▁이산화탄	-15349
▁이틀동안	-15350
▁인사들이	-15351
▁인사혁신	-15352
▁인정된다	-15353
▁인정하지	-15354
▁인터넷을	-15355
▁일방적인	-15356
▁일산화탄	-15357
▁있었다면	-15358
▁자유연대	-15359
▁장기화로	-15360
▁장례식장	-15361
▁장학금을	-15362
▁재난안전	-15363
▁저작권은	-15364
▁적발되면	-15365
▁전국인민	-15366
▁전달받은	-15367
▁전달하는	-15368
▁전문가는	-15369
▁전문가의	-15370
▁전문성을	-15371
▁전체회의	-15372
▁접수되기	-15373
▁제곱미터	-15374
▁제외하면	-15375
▁제주특별	-15376
▁제출받은	-15377
▁제출했다	-15378
▁제한되고	-15379
▁제한속도	-15380
▁조두순의	-15381
▁조치라고	-15382
▁주말에는	-15383
▁준비하는	-15384
▁중경상을	-15385
▁줬습니다	-15386
▁지급하고	-15387
▁지나가는	-15388
▁지켜보고	-15389
▁지켰는지	-15390
▁직원들과	-15391
▁직원들도	-15392
▁직원으로	-15393
▁직위해제	-15394
▁진행하지	-15395
▁진행했고	-15396
▁참석자는	-15397
▁채널명과	-15398
▁채널에서	-15399
▁처음부터	-15400
▁청와대는	-15401
▁청주시는	-15402
▁청주에서	-15403
▁추천위원	-15404
▁춘천시는	-15405
▁춘천시의	-15406
▁취소하고	-15407
▁취재결과	-15408
▁취재진과	-15409
▁크리스마	-15410
▁클럽에서	-15411
▁탈북민이	-15412
▁투자금을	-15413
▁트레일러	-15414
▁특별재난	-15415
▁특수경비	-15416
▁특수절도	-15417
▁특활비를	-15418
▁파출소에	-15419
▁판매하는	-15420
▁평소보다	-15421
▁폐쇄하고	-15422
▁폭행하는	-15423
▁하이패스	-15424
▁학부모가	-15425
▁한국당은	-15426
▁한마디로	-15427
▁합동참모	-15428
▁항공기에	-15429
▁해변에서	-15430
▁핼러윈데	-15431
▁행정력을	-15432
▁현지에서	-15433
▁현행법상	-15434
▁혐의점이	-15435
▁협력업체	-15436
▁협박하고	-15437
▁활동하는	-15438
▁희망하는	-15439
▁희생자가	-15440
성폭력상담	-15441
심의위원회	-15442
의료원으로	-15443
▁가능하도록	-15444
▁걸었습니다	-15445
▁격리장소를	-15446
▁경상남도가	-15447
▁경찰공무원	-15448
▁고등학생이	-15449
▁공개적으로	-15450
▁과실치사상	-15451
▁관계기관과	-15452
▁관리사무소	-15453
▁구조됐지만	-15454
▁구조작업을	-15455
▁규모입니다	-15456
▁기소의견을	-15457
▁기숙사에서	-15458
▁나왔는데요	-15459
▁냉장고에서	-15460
▁노동자들을	-15461
▁담임교사가	-15462
▁대공수사권	-15463
▁대면예배를	-15464
▁대북전단을	-15465
▁등으로부터	-15466
▁떠났습니다	-15467
▁떨어지면서	-15468
▁몰렸습니다	-15469
▁무기계약직	-15470
▁민주노총이	-15471
▁민주화운동	-15472
▁반복적으로	-15473
▁방식입니다	-15474
▁부당하다며	-15475
▁부분입니다	-15476
▁부족하다는	-15477
▁비슷합니다	-15478
▁사건입니다	-15479
▁사무실에서	-15480
▁서울역에서	-15481
▁성지순례단	-15482
▁성폭력범죄	-15483
▁소비자들의	-15484
▁소식입니다	-15485
▁수사기관의	-15486
▁순차적으로	-15487
▁숨졌는데요	-15488
▁스프링클러	-15489
▁시작했다고	-15490
▁어린이집의	-15491
▁업무상과실	-15492
▁여자친구를	-15493
▁역학조사가	-15494
▁역학조사관	-15495
▁예정이었던	-15496
▁예정인데요	-15497
▁운전자들의	-15498
▁위험천만한	-15499
▁유증상자는	-15500
▁유흥시설에	-15501
▁유흥업소를	-15502
▁음주운전이	-15503
▁의원입니다	-15504
▁이뤄졌다고	-15505
▁자연스럽게	-15506
▁자치경찰의	-15507
▁자치경찰이	-15508
▁장애아동을	-15509
▁적용됩니다	-15510
▁전문적으로	-15511
▁전수조사를	-15512
▁정규직으로	-15513
▁정류장에서	-15514
▁정보공개청	-15515
▁조치입니다	-15516
▁중국에서는	-15517
▁지난달부터	-15518
▁지난해에는	-15519
▁지지자들과	-15520
▁지하차도가	-15521
▁진주시의회	-15522
▁집사부일체	-15523
▁참가자들이	-15524
▁추산됩니다	-15525
▁충돌합니다	-15526
▁충북에서는	-15527
▁취지입니다	-15528
▁커졌습니다	-15529
▁퍼졌습니다	-15530
▁포털사이트	-15531
▁포토라인에	-15532
▁프로그램을	-15533
▁피해자들과	-15534
▁허용됩니다	-15535
▁확산되면서	-15536
▁확인해보니	-15537
공무집행방해	-15538
셔야겠습니다	-15539
지방경찰청이	-15540
▁감소했습니다	-15541
▁강예슬입니다	-15542
▁고위공직자의	-15543
▁교통사고처리	-15544
▁국제범죄수사	-15545
▁꼬집었습니다	-15546
▁남북교류협력	-15547
▁남아있습니다	-15548
▁내놓았습니다	-15549
▁모스크바에서	-15550
▁문화체육관광	-15551
▁미래통합당의	-15552
▁바뀌었습니다	-15553
▁반복했습니다	-15554
▁발동했습니다	-15555
▁보건복지부가	-15556
▁분위기입니다	-15557
▁설치됐습니다	-15558
▁소셜미디어에	-15559
▁순이었습니다	-15560
▁신지수입니다	-15561
▁쏟아냈습니다	-15562
▁아동학대치사	-15563
▁운전면허증을	-15564
▁유통됐습니다	-15565
▁윤희정입니다	-15566
▁잠적했습니다	-15567
▁저질렀습니다	-15568
▁전동킥보드를	-15569
▁접수했습니다	-15570
▁정보통신망법	-15571
▁조치하겠다고	-15572
▁차지했습니다	-15573
▁찾아냈습니다	-15574
▁추락했습니다	-15575
▁출발했습니다	-15576
▁침수됐습니다	-15577
▁털어놨습니다	-15578
▁토지거래허가	-15579
▁투입했습니다	-15580
▁투자자들에게	-15581
▁트리아자비린	-15582
▁판시했습니다	-15583
▁휩싸였습니다	-15584
▁경기남부경찰청	-15585
▁공권력감시대응	-15586
▁범국민투쟁본부	-15587
▁여쭤보겠습니다	-15588
▁예정이었습니다	-15589
▁질병관리본부와	-15590
▁청소년성보호법	-15591
▁생활치료센터에서	-15592
▁중앙사고수습본부	-15593
▁중대재해기업처벌법	-15594
▁중앙방역대책본부는	-15595
▁중앙사고수습본부는	-15596
▁고위공직자범죄수사처	-15597
▁국립과학수사연구원과	-15598
▁장애아동전문어린이집	-15599
BI	-15600
EC	-15601
LL	-15602
PS	-15603
dB	-15604
ᄏᄏ	-15605
▁H	-15606
▁R	-15607
▁b	-15608
▁野	-15609
▁굵	-15610
▁굽	-15611
▁꼴	-15612
▁꽁	-15613
▁냄	-15614
▁닝	-15615
▁닦	-15616
▁뭡	-15617
▁붐	-15618
▁섰	-15619
▁셀	-15620
▁셔	-15621
▁셰	-15622
▁숟	-15623
▁숲	-15624
▁쌀	-15625
▁씁	-15626
▁엑	-15627
▁엠	-15628
▁옳	-15629
▁웰	-15630
▁융	-15631
▁촘	-15632
▁촛	-15633
▁춥	-15634
▁텅	-15635
▁튕	-15636
▁팻	-15637
▁푹	-15638
▁핀	-15639
▁험	-15640
가능	-15641
각에	-15642
각한	-15643
간첩	-15644
감찰	-15645
감치	-15646
갔을	-15647
강간	-15648
개시	-15649
거죠	-15650
검증	-15651
것도	-15652
겨운	-15653
결을	-15654
경색	-15655
경에	-15656
곤란	-15657
곳도	-15658
교를	-15659
교안	-15660
국장	-15661
군데	-15662
규를	-15663
기능	-15664
기던	-15665
기며	-15666
너를	-15667
노현	-15668
농단	-15669
늦은	-15670
다은	-15671
달을	-15672
당해	-15673
동포	-15674
두는	-15675
드레	-15676
드의	-15677
랫폼	-15678
랴부	-15679
려를	-15680
령골	-15681
로와	-15682
론이	-15683
르트	-15684
마취	-15685
머리	-15686
면과	-15687
면적	-15688
명예	-15689
모스	-15690
무근	-15691
물류	-15692
밀리	-15693
발과	-15694
발생	-15695
발성	-15696
방울	-15697
버린	-15698
벅스	-15699
법의	-15700
보장	-15701
부두	-15702
부제	-15703
분들	-15704
비도	-15705
비상	-15706
살이	-15707
상과	-15708
생명	-15709
생은	-15710
선의	-15711
설을	-15712
세는	-15713
세훈	-15714
소도	-15715
소독	-15716
수거	-15717
수본	-15718
순위	-15719
스레	-15720
스차	-15721
승희	-15722
시법	-15723
식품	-15724
신은	-15725
아닌	-15726
아를	-15727
아티	-15728
안게	-15729
안정	-15730
야를	-15731
양은	-15732
여분	-15733
옷을	-15734
워야	-15735
월로	-15736
유의	-15737
유지	-15738
윤리	-15739
을까	-15740
의사	-15741
의의	-15742
이와	-15743
임교	-15744
재정	-15745
저히	-15746
적한	-15747
전입	-15748
정권	-15749
젝트	-15750
조는	-15751
종결	-15752
죄가	-15753
중부	-15754
즈음	-15755
지던	-15756
진의	-15757
짐에	-15758
집단	-15759
참사	-15760
척과	-15761
척을	-15762
체에	-15763
취소	-15764
측정	-15765
층이	-15766
치던	-15767
칙금	-15768
카페	-15769
켄전	-15770
쿠아	-15771
태경	-15772
토랑	-15773
통에	-15774
특례	-15775
파를	-15776
파출	-15777
편을	-15778
포로	-15779
포와	-15780
포털	-15781
하니	-15782
해요	-15783
행에	-15784
현충	-15785
혜련	-15786
홍글	-15787
화될	-15788
회복	-15789
회장	-15790
400	-15791
▁98	-15792
▁가공	-15793
▁가누	-15794
▁가볍	-15795
▁가중	-15796
▁각계	-15797
▁간섭	-15798
▁갈아	-15799
▁갔고	-15800
▁갔던	-15801
▁강기	-15802
▁강연	-15803
▁강추	-15804
▁같아	-15805
▁개그	-15806
▁개념	-15807
▁개헌	-15808
▁거점	-15809
▁걸까	-15810
▁검열	-15811
▁계단	-15812
▁고등	-15813
▁고창	-15814
▁고충	-15815
▁고품	-15816
▁공금	-15817
▁공산	-15818
▁과시	-15819
▁관세	-15820
▁교내	-15821
▁구슬	-15822
▁국비	-15823
▁굴착	-15824
▁글과	-15825
▁글은	-15826
▁금정	-15827
▁기동	-15828
▁김석	-15829
▁김일	-15830
▁김형	-15831
▁깊게	-15832
▁깔린	-15833
▁깜빡	-15834
▁꺼져	-15835
▁끄고	-15836
▁끈을	-15837
▁끼고	-15838
▁끼쳐	-15839
▁나뒹	-15840
▁나은	-15841
▁난간	-15842
▁남한	-15843
▁났을	-15844
▁낭독	-15845
▁낮추	-15846
▁넘고	-15847
▁넣는	-15848
▁노려	-15849
▁녹색	-15850
▁놀랍	-15851
▁놀러	-15852
▁농경	-15853
▁높고	-15854
▁놓은	-15855
▁놓친	-15856
▁누리	-15857
▁누설	-15858
▁눈앞	-15859
▁눌러	-15860
▁느꼈	-15861
▁다룬	-15862
▁다툰	-15863
▁다해	-15864
▁단서	-15865
▁단수	-15866
▁단원	-15867
▁단위	-15868
▁닫고	-15869
▁달성	-15870
▁당연	-15871
▁대권	-15872
▁대안	-15873
▁대에	-15874
▁대원	-15875
▁대접	-15876
▁더해	-15877
▁덜어	-15878
▁덮친	-15879
▁데는	-15880
▁데려	-15881
▁데서	-15882
▁독직	-15883
▁돌연	-15884
▁동굴	-15885
▁동석	-15886
▁동천	-15887
▁둘이	-15888
▁뒤덮	-15889
▁뒤엔	-15890
▁듣는	-15891
▁땅에	-15892
▁떳떳	-15893
▁떼가	-15894
▁떼어	-15895
▁레드	-15896
▁레저	-15897
▁마감	-15898
▁마칠	-15899
▁막힌	-15900
▁맞을	-15901
▁맞춤	-15902
▁매수	-15903
▁머문	-15904
▁멀어	-15905
▁멀쩡	-15906
▁면세	-15907
▁면직	-15908
▁명성	-15909
▁명품	-15910
▁모은	-15911
▁목판	-15912
▁묵살	-15913
▁문준	-15914
▁묻자	-15915
▁묻힌	-15916
▁물려	-15917
▁물론	-15918
▁뭐가	-15919
▁믿을	-15920
▁밀봉	-15921
▁바가	-15922
▁바른	-15923
▁반일	-15924
▁발신	-15925
▁발파	-15926
▁밤이	-15927
▁방수	-15928
▁방에	-15929
▁배뇨	-15930
▁배로	-15931
▁배에	-15932
▁백만	-15933
▁밸브	-15934
▁뱅크	-15935
▁번복	-15936
▁번에	-15937
▁변사	-15938
▁변해	-15939
▁병실	-15940
▁병을	-15941
▁보게	-15942
▁본질	-15943
▁부위	-15944
▁북상	-15945
▁분간	-15946
▁불미	-15947
▁불쾌	-15948
▁비브	-15949
▁비싼	-15950
▁비켜	-15951
▁비통	-15952
▁빈번	-15953
▁빨간	-15954
▁사옥	-15955
▁사인	-15956
▁사제	-15957
▁사참	-15958
▁사학	-15959
▁삭감	-15960
▁산을	-15961
▁삼가	-15962
▁삼은	-15963
▁상실	-15964
▁상향	-15965
▁상호	-15966
▁생년	-15967
▁서희	-15968
▁석사	-15969
▁섬광	-15970
▁섭취	-15971
▁성경	-15972
▁세대	-15973
▁세제	-15974
▁소관	-15975
▁소를	-15976
▁소아	-15977
▁소외	-15978
▁손녀	-15979
▁수뇌	-15980
▁수만	-15981
▁수표	-15982
▁스패	-15983
▁슬로	-15984
▁시와	-15985
▁신발	-15986
▁신병	-15987
▁신입	-15988
▁신장	-15989
▁심장	-15990
▁심해	-15991
▁싶다	-15992
▁쓰기	-15993
▁쓰던	-15994
▁쓰여	-15995
▁아끼	-15996
▁안다	-15997
▁않나	-15998
▁앞장	-15999
▁애를	-16000
▁앱이	-16001
▁야생	-16002
▁양구	-16003
▁양창	-16004
▁어긋	-16005
▁어김	-16006
▁어지	-16007
▁어쩌	-16008
▁얼마	-16009
▁없기	-16010
▁에스	-16011
▁엘패	-16012
▁엠넷	-16013
▁여느	-16014
▁여직	-16015
▁열자	-16016
▁예매	-16017
▁예타	-16018
▁오대	-16019
▁오도	-16020
▁오송	-16021
▁완성	-16022
▁외사	-16023
▁용도	-16024
▁용서	-16025
▁우월	-16026
▁원산	-16027
▁위헌	-16028
▁유공	-16029
▁유린	-16030
▁유엔	-16031
▁윤리	-16032
▁응원	-16033
▁응한	-16034
▁의석	-16035
▁의정	-16036
▁의지	-16037
▁이나	-16038
▁이륙	-16039
▁이인	-16040
▁이자	-16041
▁인기	-16042
▁인신	-16043
▁인하	-16044
▁일단	-16045
▁일산	-16046
▁임무	-16047
▁임신	-16048
▁입사	-16049
▁입실	-16050
▁입혔	-16051
▁자립	-16052
▁자의	-16053
▁자해	-16054
▁잠겨	-16055
▁잠긴	-16056
▁장모	-16057
▁장병	-16058
▁장사	-16059
▁장성	-16060
▁장외	-16061
▁장혁	-16062
▁잦아	-16063
▁재선	-16064
▁적게	-16065
▁전보	-16066
▁전봇	-16067
▁전학	-16068
▁접전	-16069
▁제삼	-16070
▁져야	-16071
▁조교	-16072
▁조력	-16073
▁조업	-16074
▁졸피	-16075
▁종식	-16076
▁종전	-16077
▁종종	-16078
▁좌파	-16079
▁주를	-16080
▁주면	-16081
▁중시	-16082
▁증빙	-16083
▁지배	-16084
▁지위	-16085
▁직사	-16086
▁진도	-16087
▁진원	-16088
▁질본	-16089
▁질타	-16090
▁짓눌	-16091
▁짙은	-16092
▁쪽을	-16093
▁찔린	-16094
▁참모	-16095
▁참전	-16096
▁책상	-16097
▁챙기	-16098
▁처우	-16099
▁천경	-16100
▁천장	-16101
▁철인	-16102
▁체험	-16103
▁쳐다	-16104
▁촉매	-16105
▁촘촘	-16106
▁촛불	-16107
▁총파	-16108
▁최욱	-16109
▁최저	-16110
▁추방	-16111
▁축제	-16112
▁충족	-16113
▁치는	-16114
▁침체	-16115
▁카트	-16116
▁코치	-16117
▁탈레	-16118
▁탐방	-16119
▁통을	-16120
▁파라	-16121
▁판명	-16122
▁팔과	-16123
▁패널	-16124
▁퍼뜨	-16125
▁편입	-16126
▁평등	-16127
▁폐업	-16128
▁포스	-16129
▁포탄	-16130
▁포화	-16131
▁표정	-16132
▁프레	-16133
▁피어	-16134
▁하룻	-16135
▁하선	-16136
▁하실	-16137
▁하향	-16138
▁학습	-16139
▁한겨	-16140
▁한달	-16141
▁한림	-16142
▁한만	-16143
▁한발	-16144
▁한산	-16145
▁한샘	-16146
▁한시	-16147
▁함정	-16148
▁합류	-16149
▁해를	-16150
▁혈액	-16151
▁호남	-16152
▁홍수	-16153
▁확립	-16154
▁환기	-16155
▁활발	-16156
▁활보	-16157
▁황금	-16158
▁후반	-16159
▁후폭	-16160
▁흐른	-16161
▁흔히	-16162
가면서	-16163
감사를	-16164
건이나	-16165
경찰은	-16166
경찰의	-16167
경찰이	-16168
고장을	-16169
공단의	-16170
국에서	-16171
기간이	-16172
기기도	-16173
기독교	-16174
기지에	-16175
길에서	-16176
나라는	-16177
년에는	-16178
느냐가	-16179
다고요	-16180
단체와	-16181
대까지	-16182
대학원	-16183
동까지	-16184
든데요	-16185
디스크	-16186
랴부랴	-16187
렸다가	-16188
리겠다	-16189
리라는	-16190
리에서	-16191
린다는	-16192
만큼은	-16193
면에는	-16194
명대를	-16195
바닥에	-16196
버스가	-16197
번방에	-16198
범들의	-16199
법원에	-16200
별로는	-16201
병원성	-16202
보호에	-16203
복지원	-16204
부동산	-16205
부장은	-16206
사고를	-16207
사업법	-16208
성착취	-16209
셨는데	-16210
소리로	-16211
속도를	-16212
수사국	-16213
수술을	-16214
스에서	-16215
신기술	-16216
아파트	-16217
어지고	-16218
여명의	-16219
연대가	-16220
영상을	-16221
올랐고	-16222
올림픽	-16223
왔는지	-16224
웠다는	-16225
위원의	-16226
일간의	-16227
일보가	-16228
일보는	-16229
일수록	-16230
입구역	-16231
자까지	-16232
장관과	-16233
장까지	-16234
장처럼	-16235
장치가	-16236
정보부	-16237
주에선	-16238
중이던	-16239
즈니스	-16240
증으로	-16241
지검에	-16242
지구로	-16243
지사의	-16244
지원을	-16245
지청은	-16246
찌감치	-16247
치기도	-16248
카운티	-16249
탑니다	-16250
투표를	-16251
페이오	-16252
피해자	-16253
항에서	-16254
행위가	-16255
행위에	-16256
▁115	-16257
▁128	-16258
▁129	-16259
▁205	-16260
▁EEZ	-16261
▁FBI	-16262
▁GPS	-16263
▁NLL	-16264
▁SAT	-16265
▁USB	-16266
▁가격이	-16267
▁가능할	-16268
▁가로채	-16269
▁가스가	-16270
▁가지로	-16271
▁가처분	-16272
▁가파른	-16273
▁가해를	-16274
▁간사인	-16275
▁감독이	-16276
▁감사에	-16277
▁감염과	-16278
▁감염은	-16279
▁갓갓은	-16280
▁갔다가	-16281
▁강제할	-16282
▁강조한	-16283
▁강풍에	-16284
▁강화도	-16285
▁강화한	-16286
▁개선을	-16287
▁개설한	-16288
▁거듭된	-16289
▁거라며	-16290
▁거리는	-16291
▁거제시	-16292
▁건너는	-16293
▁건전한	-16294
▁검거를	-16295
▁검사도	-16296
▁검사장	-16297
▁검토한	-16298
▁것보다	-16299
▁것이며	-16300
▁것이죠	-16301
▁것이지	-16302
▁게스트	-16303
▁게시물	-16304
▁겨울철	-16305
▁격리돼	-16306
▁겹치는	-16307
▁경기를	-16308
▁경로가	-16309
▁경북은	-16310
▁경비를	-16311
▁경비실	-16312
▁경제를	-16313
▁경향이	-16314
▁계장이	-16315
▁계좌가	-16316
▁계획도	-16317
▁계획에	-16318
▁고려할	-16319
▁고발이	-16320
▁고의가	-16321
▁고인이	-16322
▁고통은	-16323
▁골령골	-16324
▁곳에는	-16325
▁공격을	-16326
▁공무직	-16327
▁공방이	-16328
▁공사는	-16329
▁공작원	-16330
▁공판을	-16331
▁과천시	-16332
▁곽노현	-16333
▁괴한이	-16334
▁교민의	-16335
▁교민이	-16336
▁교사를	-16337
▁교수에	-16338
▁교인과	-16339
▁구간이	-16340
▁구리동	-16341
▁구청은	-16342
▁국면을	-16343
▁군에게	-16344
▁군인과	-16345
▁궁금한	-16346
▁권고를	-16347
▁권력형	-16348
▁권총을	-16349
▁귀국을	-16350
▁규정도	-16351
▁그때는	-16352
▁그러는	-16353
▁그러던	-16354
▁그런가	-16355
▁그렇고	-16356
▁근거는	-16357
▁근처를	-16358
▁글에서	-16359
▁금요일	-16360
▁기각한	-16361
▁기능도	-16362
▁기소한	-16363
▁기술이	-16364
▁김기식	-16365
▁김병기	-16366
▁끼어들	-16367
▁나섰다	-16368
▁나와야	-16369
▁나이가	-16370
▁날치기	-16371
▁남짓한	-16372
▁났는데	-16373
▁내년도	-16374
▁내놓지	-16375
▁내리기	-16376
▁내일도	-16377
▁네이버	-16378
▁네팔인	-16379
▁노동력	-16380
▁노인이	-16381
▁노조는	-16382
▁녹화된	-16383
▁논란과	-16384
▁논평을	-16385
▁높아진	-16386
▁뉴스는	-16387
▁뉴스도	-16388
▁늘어서	-16389
▁늘어선	-16390
▁다리와	-16391
▁다이버	-16392
▁단체를	-16393
▁단체인	-16394
▁달라며	-16395
▁달러를	-16396
▁담당자	-16397
▁담배꽁	-16398
▁답장을	-16399
▁당하고	-16400
▁대검은	-16401
▁대전에	-16402
▁대정부	-16403
▁대책은	-16404
▁대피해	-16405
▁대화가	-16406
▁데려가	-16407
▁도로의	-16408
▁도마에	-16409
▁도망가	-16410
▁도봉구	-16411
▁도시를	-16412
▁도입한	-16413
▁도주극	-16414
▁동급생	-16415
▁동기는	-16416
▁동부간	-16417
▁동해시	-16418
▁됐고요	-16419
▁됐는지	-16420
▁되고요	-16421
▁두드러	-16422
▁두려워	-16423
▁두절된	-16424
▁뒷돈을	-16425
▁드나들	-16426
▁드러내	-16427
▁들에게	-16428
▁들여와	-16429
▁디스코	-16430
▁때리는	-16431
▁때보다	-16432
▁때아닌	-16433
▁떠밀려	-16434
▁뛰어들	-16435
▁라마단	-16436
▁마련할	-16437
▁마약에	-16438
▁마을에	-16439
▁마쳤고	-16440
▁막히자	-16441
▁만나고	-16442
▁만나는	-16443
▁만났고	-16444
▁많다고	-16445
▁많다는	-16446
▁많지만	-16447
▁말하며	-16448
▁말하면	-16449
▁맡았던	-16450
▁매달려	-16451
▁매장을	-16452
▁머물던	-16453
▁멈추지	-16454
▁메르스	-16455
▁면적의	-16456
▁면허를	-16457
▁면회가	-16458
▁명에서	-16459
▁명의를	-16460
▁모르게	-16461
▁목격한	-16462
▁몰랐던	-16463
▁못하자	-16464
▁무력화	-16465
▁무정차	-16466
▁무죄가	-16467
▁문건이	-16468
▁문제점	-16469
▁묻겠다	-16470
▁묻지마	-16471
▁뭡니까	-16472
▁미루고	-16473
▁미확인	-16474
▁박지원	-16475
▁박차를	-16476
▁반발을	-16477
▁반발이	-16478
▁발생은	-16479
▁발전소	-16480
▁발전을	-16481
▁밝히며	-16482
▁방법도	-16483
▁방식의	-16484
▁방조한	-16485
▁방파제	-16486
▁배경을	-16487
▁배수로	-16488
▁백혜련	-16489
▁범람해	-16490
▁범민주	-16491
▁범정부	-16492
▁범칙금	-16493
▁범행의	-16494
▁법안에	-16495
▁변호를	-16496
▁병상이	-16497
▁병원의	-16498
▁보내고	-16499
▁보도도	-16500
▁보시면	-16501
▁보안관	-16502
▁보안이	-16503
▁보여준	-16504
▁보였고	-16505
▁보였다	-16506
▁보이며	-16507
▁보일러	-16508
▁보험설	-16509
▁보호자	-16510
▁복귀를	-16511
▁부과될	-16512
▁부과할	-16513
▁부르고	-16514
▁부르는	-16515
▁부산진	-16516
▁부자가	-16517
▁부탁드	-16518
▁부회장	-16519
▁북한군	-16520
▁분야의	-16521
▁분쟁이	-16522
▁불법집	-16523
▁불응한	-16524
▁불평등	-16525
▁비닐봉	-16526
▁비무장	-16527
▁비서의	-16528
▁비행기	-16529
▁빗물이	-16530
▁사기로	-16531
▁사들여	-16532
▁사례에	-16533
▁사망과	-16534
▁사실로	-16535
▁사업가	-16536
▁사업비	-16537
▁사외이	-16538
▁사정은	-16539
▁사찰을	-16540
▁삭제한	-16541
▁산불의	-16542
▁산켄전	-16543
▁산하기	-16544
▁살해를	-16545
▁상판을	-16546
▁새벽에	-16547
▁생계를	-16548
▁생산된	-16549
▁생활관	-16550
▁서구의	-16551
▁서류와	-16552
▁선거의	-16553
▁선관위	-16554
▁선언한	-16555
▁선출직	-16556
▁설득해	-16557
▁설명한	-16558
▁설비가	-16559
▁성적인	-16560
▁세번째	-16561
▁세상이	-16562
▁센터장	-16563
▁소견을	-16564
▁소송에	-16565
▁소송이	-16566
▁소유권	-16567
▁소지자	-16568
▁소프트	-16569
▁수감돼	-16570
▁수그러	-16571
▁수백억	-16572
▁수술과	-16573
▁수습을	-16574
▁수영장	-16575
▁수용자	-16576
▁수원의	-16577
▁수형인	-16578
▁순찰차	-16579
▁숟가락	-16580
▁숨지기	-16581
▁시각은	-16582
▁시내를	-16583
▁시민에	-16584
▁시설물	-16585
▁시술을	-16586
▁시의회	-16587
▁시행할	-16588
▁시흥시	-16589
▁식당과	-16590
▁신도인	-16591
▁신발을	-16592
▁신부를	-16593
▁신체적	-16594
▁실거래	-16595
▁실적을	-16596
▁실태와	-16597
▁심정을	-16598
▁쓰이는	-16599
▁아동에	-16600
▁아산에	-16601
▁아영이	-16602
▁아직은	-16603
▁아쿠아	-16604
▁아픔을	-16605
▁안내문	-16606
▁않느냐	-16607
▁않다며	-16608
▁알아볼	-16609
▁알아서	-16610
▁앞차를	-16611
▁약품을	-16612
▁어렵고	-16613
▁어렵지	-16614
▁언급을	-16615
▁엄정히	-16616
▁업무용	-16617
▁없이도	-16618
▁에브도	-16619
▁여의치	-16620
▁역사를	-16621
▁역사상	-16622
▁역사의	-16623
▁연계해	-16624
▁연기와	-16625
▁연말연	-16626
▁연휴가	-16627
▁연휴를	-16628
▁열악한	-16629
▁염태영	-16630
▁영사관	-16631
▁영화를	-16632
▁예산안	-16633
▁예산이	-16634
▁오늘자	-16635
▁옮기는	-16636
▁외치는	-16637
▁요건을	-16638
▁용담댐	-16639
▁용량을	-16640
▁용서를	-16641
▁우려는	-16642
▁우리를	-16643
▁우한을	-16644
▁운영할	-16645
▁울음을	-16646
▁원래는	-16647
▁원장을	-16648
▁원주에	-16649
▁원하는	-16650
▁월북한	-16651
▁위험성	-16652
▁유유히	-16653
▁유족을	-16654
▁유족의	-16655
▁유통된	-16656
▁유통될	-16657
▁유포된	-16658
▁유포자	-16659
▁유해가	-16660
▁윤희웅	-16661
▁은행을	-16662
▁의결을	-16663
▁의사는	-16664
▁의사와	-16665
▁의지가	-16666
▁이것도	-16667
▁이견을	-16668
▁이끌어	-16669
▁이대로	-16670
▁이동이	-16671
▁이력이	-16672
▁이슈가	-16673
▁이외의	-16674
▁이익에	-16675
▁이종훈	-16676
▁인건비	-16677
▁인물은	-16678
▁인물을	-16679
▁인물이	-16680
▁인삼밭	-16681
▁인스타	-16682
▁인식이	-16683
▁인원도	-16684
▁인정된	-16685
▁인정할	-16686
▁인해서	-16687
▁일까지	-16688
▁일당의	-16689
▁일들이	-16690
▁일련의	-16691
▁일어날	-16692
▁일제히	-16693
▁일하다	-16694
▁임금을	-16695
▁임무에	-16696
▁임산물	-16697
▁입건할	-16698
▁입금한	-16699
▁입법회	-16700
▁입소자	-16701
▁입장료	-16702
▁입증할	-16703
▁있으나	-16704
▁자국이	-16705
▁자백한	-16706
▁자연석	-16707
▁자유와	-16708
▁자체도	-16709
▁작업과	-16710
▁잡아당	-16711
▁잡히지	-16712
▁장군의	-16713
▁장면도	-16714
▁장비가	-16715
▁저렇게	-16716
▁저장고	-16717
▁적용될	-16718
▁전역에	-16719
▁전역을	-16720
▁전체에	-16721
▁전통시	-16722
▁전하고	-16723
▁전해진	-16724
▁전화통	-16725
▁접촉에	-16726
▁접촉이	-16727
▁정경심	-16728
▁정류장	-16729
▁정점에	-16730
▁정치국	-16731
▁정하고	-16732
▁제공을	-16733
▁제도의	-16734
▁제안한	-16735
▁제재를	-16736
▁제조된	-16737
▁조용히	-16738
▁조작된	-16739
▁존재를	-16740
▁종류의	-16741
▁종사자	-16742
▁주변엔	-16743
▁주인과	-16744
▁주홍글	-16745
▁준강간	-16746
▁준비가	-16747
▁준비에	-16748
▁줄이고	-16749
▁줄이는	-16750
▁중심에	-16751
▁중에도	-16752
▁증가해	-16753
▁증거는	-16754
▁증거와	-16755
▁증언이	-16756
▁지르며	-16757
▁지방채	-16758
▁지시로	-16759
▁지역도	-16760
▁지원에	-16761
▁지점을	-16762
▁지지자	-16763
▁지하에	-16764
▁지휘권	-16765
▁직업이	-16766
▁직장을	-16767
▁진돗개	-16768
▁진술도	-16769
▁진압을	-16770
▁진입한	-16771
▁진정서	-16772
▁진행중	-16773
▁질문을	-16774
▁질서를	-16775
▁질식사	-16776
▁집값이	-16777
▁집시법	-16778
▁집주인	-16779
▁차벽을	-16780
▁차일혁	-16781
▁찾아간	-16782
▁찾았고	-16783
▁채취한	-16784
▁책상을	-16785
▁책임지	-16786
▁챙기고	-16787
▁처리될	-16788
▁처벌해	-16789
▁처해질	-16790
▁철원의	-16791
▁청원에	-16792
▁청원은	-16793
▁청원이	-16794
▁청탁을	-16795
▁청탁한	-16796
▁체온을	-16797
▁체포를	-16798
▁초유의	-16799
▁총경이	-16800
▁총리실	-16801
▁추석을	-16802
▁추세가	-16803
▁추진한	-16804
▁출장비	-16805
▁출장을	-16806
▁충격에	-16807
▁충돌은	-16808
▁취하고	-16809
▁측근인	-16810
▁측정한	-16811
▁치르는	-16812
▁친분이	-16813
▁친자녀	-16814
▁친환경	-16815
▁카드로	-16816
▁탑승을	-16817
▁태세를	-16818
▁택배로	-16819
▁터스틴	-16820
▁테러로	-16821
▁테러를	-16822
▁토론이	-16823
▁토사가	-16824
▁통신에	-16825
▁통일부	-16826
▁통장에	-16827
▁통지를	-16828
▁통화한	-16829
▁퇴원을	-16830
▁퇴직자	-16831
▁투숙객	-16832
▁투입될	-16833
▁특보가	-16834
▁파견해	-16835
▁파악과	-16836
▁판매가	-16837
▁팔려나	-16838
▁퍼뜨린	-16839
▁편의를	-16840
▁평범한	-16841
▁포천시	-16842
▁포항의	-16843
▁폭넓게	-16844
▁폭언을	-16845
▁표시가	-16846
▁표현한	-16847
▁풍선을	-16848
▁프레이	-16849
▁프리랜	-16850
▁피해금	-16851
▁하라고	-16852
▁하려고	-16853
▁하천에	-16854
▁하천의	-16855
▁하태경	-16856
▁학원에	-16857
▁한계를	-16858
▁한동안	-16859
▁한병도	-16860
▁한창인	-16861
▁항소를	-16862
▁해결할	-16863
▁해군은	-16864
▁해병대	-16865
▁행사는	-16866
▁헌법상	-16867
▁헤엄쳐	-16868
▁현실을	-16869
▁현장감	-16870
▁협력을	-16871
▁협박에	-16872
▁형사고	-16873
▁형사과	-16874
▁형제가	-16875
▁형제의	-16876
▁호우로	-16877
▁혼선을	-16878
▁홍콩과	-16879
▁화면을	-16880
▁화장지	-16881
▁화폐를	-16882
▁확대된	-16883
▁확인과	-16884
▁확진이	-16885
▁환경의	-16886
▁황교안	-16887
▁회삿돈	-16888
▁회장과	-16889
▁휴대용	-16890
▁휴식을	-16891
▁흔드는	-16892
▁흩어져	-16893
개월가량	-16894
건입니다	-16895
경찰서를	-16896
교육지원	-16897
구조대가	-16898
기관에서	-16899
다면서도	-16900
단계에서	-16901
보호센터	-16902
성의전화	-16903
셨습니까	-16904
스차이나	-16905
시켰다고	-16906
오릅니다	-16907
월부터는	-16908
위원장인	-16909
지원단을	-16910
처벌법상	-16911
철입니다	-16912
▁1988	-16913
▁1994	-16914
▁APEC	-16915
▁http	-16916
▁가해자나	-16917
▁가해자에	-16918
▁가해학생	-16919
▁간부들이	-16920
▁감시하는	-16921
▁강남구는	-16922
▁강제수사	-16923
▁개정안도	-16924
▁거부권을	-16925
▁건넸다는	-16926
▁게시글을	-16927
▁격화되고	-16928
▁경주시청	-16929
▁경찰이나	-16930
▁고려하고	-16931
▁고려하지	-16932
▁고발장을	-16933
▁고위험군	-16934
▁고조되고	-16935
▁고흥군이	-16936
▁공개하는	-16937
▁공격하는	-16938
▁공공의료	-16939
▁공권력을	-16940
▁공사업체	-16941
▁공영방송	-16942
▁공원에서	-16943
▁공인중개	-16944
▁공직자의	-16945
▁관계자에	-16946
▁관리에도	-16947
▁광주전남	-16948
▁교섭단체	-16949
▁교육청과	-16950
▁구급차가	-16951
▁구마모토	-16952
▁구성하고	-16953
▁구하기가	-16954
▁국가보안	-16955
▁국민건강	-16956
▁국민신문	-16957
▁군사재판	-16958
▁글입니다	-16959
▁급증하는	-16960
▁기간보다	-16961
▁기념식에	-16962
▁기부금품	-16963
▁기자들과	-16964
▁기획조정	-16965
▁남아있는	-16966
▁넘나드는	-16967
▁노인복지	-16968
▁늘었다고	-16969
▁단장으로	-16970
▁단체들이	-16971
▁단체에서	-16972
▁당국자는	-16973
▁당일에는	-16974
▁대구교회	-16975
▁대산공단	-16976
▁대상자로	-16977
▁대인접촉	-16978
▁대전시는	-16979
▁대책으로	-16980
▁대처하지	-16981
▁대표이사	-16982
▁대형교회	-16983
▁도로에는	-16984
▁도쿄에서	-16985
▁독직폭행	-16986
▁돌려보내	-16987
▁돌아보고	-16988
▁돌아오는	-16989
▁동네에서	-16990
▁동부구치	-16991
▁동영상이	-16992
▁득표율로	-16993
▁들어오면	-16994
▁때렸다고	-16995
▁떠올리며	-16996
▁레스토랑	-16997
▁마약사범	-16998
▁많은데요	-16999
▁머물렀던	-17000
▁멧돼지가	-17001
▁모습으로	-17002
▁무언가를	-17003
▁바다에서	-17004
▁발견됐다	-17005
▁방위군은	-17006
▁배경에는	-17007
▁배치하고	-17008
▁버스전용	-17009
▁번지면서	-17010
▁벌어들인	-17011
▁법률대리	-17012
▁법인카드	-17013
▁보고서는	-17014
▁보수성향	-17015
▁보호자의	-17016
▁보호하기	-17017
▁본회의가	-17018
▁부담해야	-17019
▁부득이한	-17020
▁부랴부랴	-17021
▁부마항쟁	-17022
▁부분들이	-17023
▁부산시의	-17024
▁부상자는	-17025
▁부실장의	-17026
▁부정선거	-17027
▁북부지역	-17028
▁분리수거	-17029
▁분명하게	-17030
▁분양권을	-17031
▁불가피해	-17032
▁불분명한	-17033
▁불이익을	-17034
▁비브리오	-17035
▁사건에서	-17036
▁사례처럼	-17037
▁사망하고	-17038
▁사망하는	-17039
▁사무국장	-17040
▁사실무근	-17041
▁사진으로	-17042
▁살펴보는	-17043
▁살펴봐야	-17044
▁상임대표	-17045
▁상태였고	-17046
▁샌드위치	-17047
▁생존수형	-17048
▁서울고등	-17049
▁서울교통	-17050
▁서울에선	-17051
▁성모병원	-17052
▁성북구의	-17053
▁성형외과	-17054
▁소방청은	-17055
▁소비자를	-17056
▁수사관은	-17057
▁수사중인	-17058
▁수사팀을	-17059
▁수사하기	-17060
▁수사하던	-17061
▁수사해온	-17062
▁수원여객	-17063
▁수원지검	-17064
▁수차례에	-17065
▁수초섬을	-17066
▁수험생이	-17067
▁숙명여고	-17068
▁순찰차가	-17069
▁술집에서	-17070
▁숨졌다는	-17071
▁숨졌지만	-17072
▁스티커를	-17073
▁시간대에	-17074
▁시민들을	-17075
▁시설장과	-17076
▁식약처에	-17077
▁신고자의	-17078
▁신청했고	-17079
▁써달라는	-17080
▁아무것도	-17081
▁아버지의	-17082
▁아산에서	-17083
▁아이들은	-17084
▁아이에게	-17085
▁안내하고	-17086
▁알렉산드	-17087
▁알려주는	-17088
▁양성률이	-17089
▁얘기부터	-17090
▁어김없이	-17091
▁엄중하게	-17092
▁업자들이	-17093
▁없었다며	-17094
▁연말까지	-17095
▁연쇄감염	-17096
▁영향력을	-17097
▁예방접종	-17098
▁예비후보	-17099
▁예상보다	-17100
▁예정이던	-17101
▁올라가고	-17102
▁올립니다	-17103
▁요청으로	-17104
▁운영진은	-17105
▁원산지를	-17106
▁위반자에	-17107
▁위반하고	-17108
▁유권자의	-17109
▁유증상자	-17110
▁유포자를	-17111
▁의견서를	-17112
▁의무화한	-17113
▁의원에서	-17114
▁의혹으로	-17115
▁이동통신	-17116
▁이사장에	-17117
▁이사장이	-17118
▁이송됐고	-17119
▁이용하면	-17120
▁인위적인	-17121
▁인적사항	-17122
▁인정하는	-17123
▁인지하지	-17124
▁인천시는	-17125
▁일당에게	-17126
▁일부에서	-17127
▁일상생활	-17128
▁일상으로	-17129
▁일어나지	-17130
▁일어났을	-17131
▁일요일인	-17132
▁일주일이	-17133
▁임시국회	-17134
▁입구에서	-17135
▁입주민은	-17136
▁있다고도	-17137
▁있더라도	-17138
▁있음에도	-17139
▁자녀들이	-17140
▁자료들을	-17141
▁자릿수를	-17142
▁자유롭게	-17143
▁자전거를	-17144
▁자택으로	-17145
▁작업자가	-17146
▁잔혹하게	-17147
▁잠수교는	-17148
▁장갑차를	-17149
▁재수사에	-17150
▁재일동포	-17151
▁재판부의	-17152
▁적법하게	-17153
▁적용되는	-17154
▁전날보다	-17155
▁전담팀을	-17156
▁전라남도	-17157
▁전부개정	-17158
▁전세기로	-17159
▁전역으로	-17160
▁전용도로	-17161
▁전통시장	-17162
▁전합니다	-17163
▁정당성을	-17164
▁정면으로	-17165
▁정보보호	-17166
▁정상회의	-17167
▁정책위의	-17168
▁정치권이	-17169
▁제동목장	-17170
▁제보자는	-17171
▁제외하곤	-17172
▁제주도의	-17173
▁조사해야	-17174
▁조직으로	-17175
▁조직적인	-17176
▁주고받은	-17177
▁주말부터	-17178
▁준비하고	-17179
▁중국어선	-17180
▁중국으로	-17181
▁중순부터	-17182
▁중징계를	-17183
▁지금처럼	-17184
▁지난해와	-17185
▁지도부는	-17186
▁지방분권	-17187
▁지방정부	-17188
▁지속적인	-17189
▁지역에는	-17190
▁지인들과	-17191
▁지지자들	-17192
▁지하에서	-17193
▁지하주차	-17194
▁직무집행	-17195
▁진주에서	-17196
▁쪽에서는	-17197
▁착용해야	-17198
▁찼습니다	-17199
▁찾았다가	-17200
▁처리하고	-17201
▁처하도록	-17202
▁철조망을	-17203
▁체포했고	-17204
▁총괄하는	-17205
▁최루탄과	-17206
▁추가적인	-17207
▁추격전은	-17208
▁출근하지	-17209
▁콜센터에	-17210
▁크레인이	-17211
▁크로아티	-17212
▁키워드는	-17213
▁터지면서	-17214
▁테러리즘	-17215
▁토지소유	-17216
▁투명사회	-17217
▁특별조사	-17218
▁특수폭행	-17219
▁파리에서	-17220
▁포렌식을	-17221
▁포인트를	-17222
▁포장지에	-17223
▁포항에서	-17224
▁폼페이오	-17225
▁프랑스는	-17226
▁프랑스와	-17227
▁피의자에	-17228
▁피해자도	-17229
▁필요성을	-17230
▁필요하면	-17231
▁하루만에	-17232
▁하루종일	-17233
▁한국가스	-17234
▁합동단속	-17235
▁합법적인	-17236
▁항의하며	-17237
▁해결해야	-17238
▁해설위원	-17239
▁해안도로	-17240
▁해외여행	-17241
▁행정사무	-17242
▁현수막을	-17243
▁현황부터	-17244
▁협의하고	-17245
▁협조하지	-17246
▁호텔에서	-17247
▁호흡곤란	-17248
▁홍콩에서	-17249
▁화물차에	-17250
▁확대하는	-17251
▁확산하는	-17252
▁확인됨에	-17253
▁확진되는	-17254
▁환자들은	-17255
▁회원들을	-17256
▁훼손하고	-17257
▁휠체어에	-17258
▁흙탕물로	-17259
▁힘듭니다	-17260
모닝포스트	-17261
지었습니다	-17262
하였습니다	-17263
화했습니다	-17264
▁가득합니다	-17265
▁가짜뉴스가	-17266
▁건설신기술	-17267
▁검거했다고	-17268
▁검찰총장의	-17269
▁결과적으로	-17270
▁경제적으로	-17271
▁경찰관들을	-17272
▁고객들에게	-17273
▁곳곳에서는	-17274
▁공익신고자	-17275
▁교통사고의	-17276
▁국무총리가	-17277
▁국방장관은	-17278
▁권한대행은	-17279
▁그러면서도	-17280
▁기본적으로	-17281
▁기획부동산	-17282
▁긴급사태를	-17283
▁길거리에서	-17284
▁나갔습니다	-17285
▁노렸습니다	-17286
▁놀랐습니다	-17287
▁농업기술원	-17288
▁늘렸습니다	-17289
▁단속합니다	-17290
▁닫았습니다	-17291
▁대검찰청에	-17292
▁똑같습니다	-17293
▁마무리하고	-17294
▁마무리하는	-17295
▁말씀드리면	-17296
▁맞섰습니다	-17297
▁맞은편에서	-17298
▁맡았습니다	-17299
▁모았는데요	-17300
▁몰랐습니다	-17301
▁무제한토론	-17302
▁문제입니다	-17303
▁문화재청은	-17304
▁민주주의를	-17305
▁반박합니다	-17306
▁반부패수사	-17307
▁발견했다고	-17308
▁법사위에서	-17309
▁부렸습니다	-17310
▁북한대사관	-17311
▁불가피하게	-17312
▁불렀습니다	-17313
▁불법입니다	-17314
▁불법체류자	-17315
▁비서실에서	-17316
▁비서실장이	-17317
▁빅뉴습니다	-17318
▁빠져나오지	-17319
▁사각지대에	-17320
▁사망했다고	-17321
▁사망했다는	-17322
▁사무총장은	-17323
▁사무총장이	-17324
▁사문서위조	-17325
▁사이버안전	-17326
▁삼았습니다	-17327
▁상태인데요	-17328
▁상황이지만	-17329
▁생활시설로	-17330
▁서울고검은	-17331
▁서울시장은	-17332
▁소방당국과	-17333
▁수사기관에	-17334
▁수술실에서	-17335
▁시행한다고	-17336
▁실정입니다	-17337
▁쏟아지면서	-17338
▁쓰였습니다	-17339
▁아동성착취	-17340
▁아랑곳하지	-17341
▁안전조치를	-17342
▁안타까움을	-17343
▁알겠습니다	-17344
▁암호화폐를	-17345
▁압수수색이	-17346
▁양성판정을	-17347
▁여성들에게	-17348
▁여성청소년	-17349
▁역학조사에	-17350
▁예방접종을	-17351
▁오래전부터	-17352
▁오피스텔을	-17353
▁옮겨졌으나	-17354
▁우리나라의	-17355
▁우한시에서	-17356
▁운영합니다	-17357
▁운전기사가	-17358
▁운전자들이	-17359
▁음식점에서	-17360
▁의뢰하기로	-17361
▁의심스러운	-17362
▁의혹입니다	-17363
▁이뤄졌는지	-17364
▁인스타그램	-17365
▁인터넷으로	-17366
▁일반음식점	-17367
▁일시적으로	-17368
▁입장에서는	-17369
▁입장이지만	-17370
▁자치단체는	-17371
▁자치단체에	-17372
▁잠수교에서	-17373
▁재산피해가	-17374
▁적용하기로	-17375
▁전반적으로	-17376
▁정부로부터	-17377
▁제외하고는	-17378
▁제한적으로	-17379
▁조치했다고	-17380
▁중앙정보부	-17381
▁지금까지는	-17382
▁지급됩니다	-17383
▁지난달까지	-17384
▁지역감염이	-17385
▁지자체에서	-17386
▁지켜달라고	-17387
▁집계됐다고	-17388
▁착용하도록	-17389
▁참가자들을	-17390
▁최고위원은	-17391
▁충돌하면서	-17392
▁치렀습니다	-17393
▁치솟습니다	-17394
▁크리스마스	-17395
▁키워든데요	-17396
▁택시기사를	-17397
▁택시기사의	-17398
▁팔란티어의	-17399
▁팔았습니다	-17400
▁포함됩니다	-17401
▁표했습니다	-17402
▁플로이드는	-17403
▁피고인들은	-17404
▁피해자라고	-17405
▁필요하다며	-17406
▁하드디스크	-17407
▁한국기독교	-17408
▁한국대사관	-17409
▁함께합니다	-17410
▁항소심에서	-17411
▁행정명령이	-17412
▁향했습니다	-17413
▁허용했다고	-17414
▁현장실습을	-17415
▁확진됐는데	-17416
▁확진자수가	-17417
▁회원들에게	-17418
▁희생자들의	-17419
동부경찰서는	-17420
▁강화됐습니다	-17421
▁과학기술정보	-17422
▁국가정보원법	-17423
▁국민연금공단	-17424
▁국정감사에서	-17425
▁규탄했습니다	-17426
▁금지됐습니다	-17427
▁김영록입니다	-17428
▁나타냈습니다	-17429
▁뉴욕타임스가	-17430
▁달라졌습니다	-17431
▁돌진했습니다	-17432
▁동부간선도로	-17433
▁따라붙습니다	-17434
▁마련하겠다고	-17435
▁명예훼손으로	-17436
▁문준영입니다	-17437
▁발령했습니다	-17438
▁배치했습니다	-17439
▁부서졌습니다	-17440
▁불가능합니다	-17441
▁사들였습니다	-17442
▁사우스차이나	-17443
▁서지영입니다	-17444
▁선별진료소가	-17445
▁송금한입니다	-17446
▁수사기관에서	-17447
▁수색했습니다	-17448
▁시도자치경찰	-17449
▁시민단체들이	-17450
▁신세계상품권	-17451
▁신속대응팀을	-17452
▁아니겠습니까	-17453
▁압박했습니다	-17454
▁양창희입니다	-17455
▁역부족입니다	-17456
▁영동고속도로	-17457
▁오대성입니다	-17458
▁오정현입니다	-17459
▁요양보호사가	-17460
▁의붓아버지에	-17461
▁의붓아버지와	-17462
▁의붓어머니는	-17463
▁이어가겠다고	-17464
▁자제해달라고	-17465
▁장혁진입니다	-17466
▁전국인민대표	-17467
▁전부였습니다	-17468
▁전화금융사기	-17469
▁제주지역에서	-17470
▁조사중입니다	-17471
▁중단됐습니다	-17472
▁중앙선거관리	-17473
▁진입했습니다	-17474
▁진화했습니다	-17475
▁처리했습니다	-17476
▁추진하겠다고	-17477
▁출동했습니다	-17478
▁충남교육청은	-17479
▁터뜨렸습니다	-17480
▁통제했습니다	-17481
▁퇴원했습니다	-17482
▁포착했습니다	-17483
▁폭발했습니다	-17484
▁행정안전부는	-17485
▁협조하겠다고	-17486
▁홍콩보안법은	-17487
▁국가수사본부를	-17488
▁대구경북에서는	-17489
▁때문이었습니다	-17490
▁비상대책위원회	-17491
▁사이버수사대는	-17492
▁생활치료센터로	-17493
▁서귀포경찰서는	-17494
▁애플리케이션을	-17495
▁영장실질심사가	-17496
▁오리무중입니다	-17497
▁워싱턴포스트는	-17498
▁제주지방경찰청	-17499
▁지방자치단체가	-17500
▁한국여성의전화	-17501
▁긴급체포했습니다	-17502
▁뉴스브리핑입니다	-17503
▁식품의약품안전처	-17504
▁중대재해기업처벌	-17505
▁공권력감시대응팀은	-17506
▁토지거래허가구역으로	-17507
▁특정범죄가중처벌법상	-17508
▁사우스차이나모닝포스트	-17509
33	-17510
66	-17511
70	-17512
ET	-17513
GO	-17514
IC	-17515
Km	-17516
LC	-17517
ha	-17518
ou	-17519
▁d	-17520
▁깬	-17521
▁낯	-17522
▁뉘	-17523
▁늑	-17524
▁님	-17525
▁댄	-17526
▁덫	-17527
▁뒀	-17528
▁띠	-17529
▁란	-17530
▁밭	-17531
▁뾰	-17532
▁샅	-17533
▁셋	-17534
▁쉰	-17535
▁싫	-17536
▁씩	-17537
▁챌	-17538
▁켠	-17539
▁쿨	-17540
▁킹	-17541
▁팽	-17542
▁핑	-17543
▁획	-17544
▁힐	-17545
간다	-17546
강도	-17547
개선	-17548
겹게	-17549
경력	-17550
경의	-17551
경합	-17552
고리	-17553
고사	-17554
공고	-17555
공구	-17556
공장	-17557
과도	-17558
과장	-17559
관인	-17560
구매	-17561
권리	-17562
규석	-17563
극이	-17564
근리	-17565
글라	-17566
꾸로	-17567
나지	-17568
난성	-17569
난한	-17570
내셔	-17571
내야	-17572
냐며	-17573
네르	-17574
년전	-17575
놓는	-17576
뉴얼	-17577
능후	-17578
님들	-17579
님의	-17580
님이	-17581
다못	-17582
당댐	-17583
데믹	-17584
데타	-17585
동강	-17586
동도	-17587
동료	-17588
동자	-17589
두에	-17590
드가	-17591
딩스	-17592
라넷	-17593
라배	-17594
락이	-17595
랐다	-17596
랑카	-17597
랜트	-17598
렌스	-17599
렌지	-17600
렸죠	-17601
령도	-17602
로폼	-17603
료와	-17604
루트	-17605
르다	-17606
름을	-17607
린저	-17608
막이	-17609
말읍	-17610
명부	-17611
명석	-17612
모델	-17613
무가	-17614
무성	-17615
문제	-17616
물과	-17617
바탕	-17618
박물	-17619
박이	-17620
받게	-17621
방한	-17622
밭에	-17623
백억	-17624
번을	-17625
번의	-17626
범은	-17627
병에	-17628
보와	-17629
불케	-17630
비난	-17631
사리	-17632
산에	-17633
샅이	-17634
생도	-17635
생산	-17636
생충	-17637
서인	-17638
석규	-17639
선수	-17640
선엽	-17641
세와	-17642
셨죠	-17643
소연	-17644
송읍	-17645
수만	-17646
수무	-17647
수엘	-17648
쉽게	-17649
스런	-17650
스루	-17651
슬러	-17652
식과	-17653
식한	-17654
신호	-17655
신히	-17656
실련	-17657
실의	-17658
악산	-17659
양이	-17660
어로	-17661
업계	-17662
업소	-17663
없음	-17664
여겨	-17665
여성	-17666
오바	-17667
우회	-17668
월의	-17669
웨어	-17670
유럽	-17671
은혜	-17672
의가	-17673
이용	-17674
인방	-17675
있고	-17676
장한	-17677
저우	-17678
전투	-17679
정치	-17680
제공	-17681
져서	-17682
졌죠	-17683
조건	-17684
조로	-17685
조물	-17686
조한	-17687
족한	-17688
종사	-17689
주며	-17690
준생	-17691
줄도	-17692
중원	-17693
즈가	-17694
지청	-17695
질긴	-17696
차피	-17697
채용	-17698
처로	-17699
쳤을	-17700
축산	-17701
출입	-17702
취재	-17703
측에	-17704
측은	-17705
치면	-17706
치와	-17707
친화	-17708
타고	-17709
태섭	-17710
톤이	-17711
트럴	-17712
파워	-17713
파일	-17714
퍼드	-17715
폐쇄	-17716
포트	-17717
표시	-17718
품이	-17719
하놉	-17720
해줄	-17721
해협	-17722
행사	-17723
행성	-17724
혈증	-17725
호텔	-17726
화방	-17727
회도	-17728
후배	-17729
100	-17730
200	-17731
▁91	-17732
▁ET	-17733
▁PD	-17734
▁TF	-17735
▁가금	-17736
▁가늠	-17737
▁가뜩	-17738
▁가세	-17739
▁가열	-17740
▁가전	-17741
▁가할	-17742
▁각기	-17743
▁간곡	-17744
▁갇혔	-17745
▁갈취	-17746
▁감면	-17747
▁감춰	-17748
▁감형	-17749
▁강구	-17750
▁같이	-17751
▁갚지	-17752
▁개당	-17753
▁개소	-17754
▁거둔	-17755
▁거라	-17756
▁걸렸	-17757
▁검시	-17758
▁결국	-17759
▁결빙	-17760
▁결탁	-17761
▁결함	-17762
▁결합	-17763
▁겸직	-17764
▁경각	-17765
▁경감	-17766
▁경광	-17767
▁경마	-17768
▁고담	-17769
▁고문	-17770
▁고수	-17771
▁고열	-17772
▁고온	-17773
▁고작	-17774
▁공갈	-17775
▁공론	-17776
▁공을	-17777
▁공주	-17778
▁과밀	-17779
▁관공	-17780
▁관노	-17781
▁광인	-17782
▁교황	-17783
▁구출	-17784
▁국도	-17785
▁국면	-17786
▁군도	-17787
▁군에	-17788
▁굴삭	-17789
▁규슈	-17790
▁그친	-17791
▁근교	-17792
▁글도	-17793
▁금강	-17794
▁금광	-17795
▁금산	-17796
▁급진	-17797
▁급한	-17798
▁기내	-17799
▁기말	-17800
▁기아	-17801
▁기장	-17802
▁긴박	-17803
▁길거	-17804
▁길목	-17805
▁김준	-17806
▁김효	-17807
▁까다	-17808
▁꾸몄	-17809
▁끊는	-17810
▁끊임	-17811
▁나게	-17812
▁나를	-17813
▁나뭇	-17814
▁나빠	-17815
▁낙상	-17816
▁낙엽	-17817
▁날씨	-17818
▁남영	-17819
▁내보	-17820
▁냄새	-17821
▁너머	-17822
▁넉넉	-17823
▁넘을	-17824
▁년이	-17825
▁노스	-17826
▁농관	-17827
▁높여	-17828
▁놓는	-17829
▁놓을	-17830
▁늦추	-17831
▁늦출	-17832
▁니스	-17833
▁닝보	-17834
▁다닌	-17835
▁다닐	-17836
▁다다	-17837
▁다뤘	-17838
▁다산	-17839
▁다섯	-17840
▁다수	-17841
▁다운	-17842
▁다짐	-17843
▁다칠	-17844
▁닥터	-17845
▁단결	-17846
▁단양	-17847
▁단풍	-17848
▁달서	-17849
▁닭을	-17850
▁담담	-17851
▁답안	-17852
▁당산	-17853
▁당원	-17854
▁당직	-17855
▁대결	-17856
▁대금	-17857
▁대도	-17858
▁대략	-17859
▁대우	-17860
▁대장	-17861
▁데뷔	-17862
▁독서	-17863
▁독성	-17864
▁돌멩	-17865
▁동거	-17866
▁동래	-17867
▁동조	-17868
▁동호	-17869
▁돼야	-17870
▁돼요	-17871
▁돼지	-17872
▁되며	-17873
▁두렵	-17874
▁두산	-17875
▁둑이	-17876
▁들며	-17877
▁때를	-17878
▁또래	-17879
▁뚫려	-17880
▁뜬금	-17881
▁뜻에	-17882
▁레고	-17883
▁로프	-17884
▁리드	-17885
▁마린	-17886
▁막말	-17887
▁만삭	-17888
▁만의	-17889
▁만족	-17890
▁만평	-17891
▁말할	-17892
▁맡게	-17893
▁맡길	-17894
▁맡을	-17895
▁매듭	-17896
▁메를	-17897
▁면이	-17898
▁명소	-17899
▁몇몇	-17900
▁모금	-17901
▁모독	-17902
▁모래	-17903
▁모조	-17904
▁몰수	-17905
▁몸이	-17906
▁묘연	-17907
▁무릅	-17908
▁무분	-17909
▁무섭	-17910
▁묶인	-17911
▁물가	-17912
▁물갈	-17913
▁물고	-17914
▁미지	-17915
▁미친	-17916
▁민병	-17917
▁밀고	-17918
▁밀린	-17919
▁밀양	-17920
▁밀착	-17921
▁밑에	-17922
▁바빠	-17923
▁바쁘	-17924
▁박빙	-17925
▁박정	-17926
▁박진	-17927
▁반론	-17928
▁발원	-17929
▁발이	-17930
▁발현	-17931
▁밤을	-17932
▁방제	-17933
▁방학	-17934
▁법도	-17935
▁벽을	-17936
▁벽화	-17937
▁보러	-17938
▁보며	-17939
▁보일	-17940
▁복사	-17941
▁부린	-17942
▁부문	-17943
▁부안	-17944
▁부직	-17945
▁분은	-17946
▁불끈	-17947
▁불태	-17948
▁브룩	-17949
▁비건	-17950
▁비관	-17951
▁비단	-17952
▁비말	-17953
▁비방	-17954
▁비자	-17955
▁비하	-17956
▁빈과	-17957
▁빨강	-17958
▁빨라	-17959
▁뻔히	-17960
▁뽑아	-17961
▁사드	-17962
▁사령	-17963
▁사자	-17964
▁사주	-17965
▁삼는	-17966
▁상동	-17967
▁상법	-17968
▁상영	-17969
▁상원	-17970
▁상응	-17971
▁생물	-17972
▁생태	-17973
▁서슴	-17974
▁서행	-17975
▁설문	-17976
▁성비	-17977
▁성실	-17978
▁소강	-17979
▁소란	-17980
▁소양	-17981
▁손수	-17982
▁솔직	-17983
▁송이	-17984
▁수령	-17985
▁수서	-17986
▁수소	-17987
▁수신	-17988
▁수심	-17989
▁수여	-17990
▁수와	-17991
▁숙소	-17992
▁숙지	-17993
▁순경	-17994
▁쉬는	-17995
▁스미	-17996
▁스콧	-17997
▁승차	-17998
▁시선	-17999
▁시인	-18000
▁식별	-18001
▁식의	-18002
▁신주	-18003
▁신파	-18004
▁신혼	-18005
▁실정	-18006
▁실족	-18007
▁실형	-18008
▁심부	-18009
▁쓰인	-18010
▁쓸어	-18011
▁아꼈	-18012
▁아냐	-18013
▁아픔	-18014
▁안도	-18015
▁안일	-18016
▁알았	-18017
▁애국	-18018
▁양대	-18019
▁양식	-18020
▁양양	-18021
▁어겼	-18022
▁어땠	-18023
▁얻는	-18024
▁엄수	-18025
▁엄태	-18026
▁업계	-18027
▁에는	-18028
▁에미	-18029
▁엔진	-18030
▁여권	-18031
▁여동	-18032
▁역량	-18033
▁연이	-18034
▁열이	-18035
▁열지	-18036
▁염려	-18037
▁영도	-18038
▁영리	-18039
▁영세	-18040
▁영유	-18041
▁오열	-18042
▁오차	-18043
▁오키	-18044
▁오픈	-18045
▁옥중	-18046
▁온통	-18047
▁옮겼	-18048
▁옮길	-18049
▁왔던	-18050
▁요건	-18051
▁우측	-18052
▁위임	-18053
▁유골	-18054
▁유광	-18055
▁유동	-18056
▁유성	-18057
▁유혈	-18058
▁은신	-18059
▁이길	-18060
▁이념	-18061
▁이더	-18062
▁이리	-18063
▁이영	-18064
▁이정	-18065
▁이첩	-18066
▁이호	-18067
▁인화	-18068
▁인후	-18069
▁일원	-18070
▁일출	-18071
▁잃을	-18072
▁임박	-18073
▁임차	-18074
▁입문	-18075
▁자는	-18076
▁자랑	-18077
▁자부	-18078
▁자사	-18079
▁자처	-18080
▁자퇴	-18081
▁자행	-18082
▁작가	-18083
▁잘라	-18084
▁잡기	-18085
▁잡는	-18086
▁장과	-18087
▁장악	-18088
▁재무	-18089
▁재월	-18090
▁재적	-18091
▁적립	-18092
▁전락	-18093
▁전방	-18094
▁전전	-18095
▁전철	-18096
▁점거	-18097
▁점멸	-18098
▁점수	-18099
▁접대	-18100
▁정박	-18101
▁정정	-18102
▁정진	-18103
▁젖은	-18104
▁제각	-18105
▁조각	-18106
▁조깅	-18107
▁조서	-18108
▁졸라	-18109
▁종신	-18110
▁종잇	-18111
▁좌우	-18112
▁좌회	-18113
▁주권	-18114
▁주불	-18115
▁주주	-18116
▁죽어	-18117
▁줄곧	-18118
▁중반	-18119
▁증권	-18120
▁지각	-18121
▁지옥	-18122
▁지킨	-18123
▁지향	-18124
▁직면	-18125
▁직속	-18126
▁직책	-18127
▁진안	-18128
▁진유	-18129
▁진지	-18130
▁진해	-18131
▁질러	-18132
▁짐을	-18133
▁짐칸	-18134
▁집은	-18135
▁짚은	-18136
▁짜고	-18137
▁짝퉁	-18138
▁쪽지	-18139
▁찍기	-18140
▁참변	-18141
▁창당	-18142
▁처참	-18143
▁천명	-18144
▁천사	-18145
▁청부	-18146
▁청취	-18147
▁초동	-18148
▁최승	-18149
▁최장	-18150
▁추구	-18151
▁추운	-18152
▁출시	-18153
▁측도	-18154
▁치닫	-18155
▁친절	-18156
▁친척	-18157
▁코나	-18158
▁크지	-18159
▁클릭	-18160
▁타지	-18161
▁타협	-18162
▁탁구	-18163
▁탔던	-18164
▁터를	-18165
▁텐트	-18166
▁토사	-18167
▁통학	-18168
▁퇴사	-18169
▁퇴선	-18170
▁튕겨	-18171
▁파고	-18172
▁파랑	-18173
▁파크	-18174
▁팔다	-18175
▁팔지	-18176
▁패배	-18177
▁페트	-18178
▁편에	-18179
▁평온	-18180
▁평일	-18181
▁폐유	-18182
▁폭등	-18183
▁표를	-18184
▁풀고	-18185
▁플래	-18186
▁피부	-18187
▁피우	-18188
▁하려	-18189
▁하신	-18190
[...]
