<pad>	0
<s>	0
</s>	0
<unk>	0
니다	-0
습니다	-1
▁이	-2
▁사	-3
▁경	-4
▁있	-5
에서	-6
으로	-7
▁대	-8
▁지	-9
했습니다	-10
▁1	-11
▁수	-12
▁전	-13
▁경찰	-14
▁2	-15
▁시	-16
▁보	-17
▁한	-18
입니다	-19
▁가	-20
▁조	-21
▁확	-22
▁오	-23
▁것	-24
▁정	-25
▁고	-26
▁아	-27
▁주	-28
하고	-29
▁공	-30
▁씨	-31
▁중	-32
다고	-33
▁기	-34
하는	-35
▁인	-36
▁신	-37
▁있습니다	-38
▁부	-39
▁3	-40
▁자	-41
▁위	-42
▁나	-43
▁의	-44
▁상	-45
▁일	-46
▁관	-47
▁받	-48
▁지난	-49
▁서	-50
▁내	-51
▁않	-52
▁등	-53
▁발	-54
▁A	-55
▁유	-56
▁제	-57
▁검	-58
▁방	-59
▁피	-60
▁소	-61
▁여	-62
▁해	-63
▁마	-64
▁국	-65
▁불	-66
▁어	-67
▁현	-68
됐습니다	-69
▁차	-70
▁것으로	-71
▁구	-72
▁집	-73
다는	-74
▁당	-75
▁4	-76
▁없	-77
▁5	-78
들이	-79
▁진	-80
▁다	-81
▁안	-82
까지	-83
▁강	-84
▁추	-85
▁남	-86
▁명	-87
▁밝	-88
혐의	-89
▁그	-90
▁혐의	-91
는데	-92
▁도	-93
▁서울	-94
▁원	-95
▁비	-96
▁통	-97
에게	-98
▁입	-99
▁오늘	-100
▁하	-101
라고	-102
▁교	-103
▁성	-104
▁코	-105
▁피해	-106
▁수사	-107
▁미	-108
혔습니다	-109
▁감	-110
▁거	-111
▁조사	-112
▁최	-113
지만	-114
▁경찰은	-115
면서	-116
▁확진	-117
▁뒤	-118
로나	-119
부터	-120
▁선	-121
▁20	-122
▁코로나	-123
합니다	-124
▁말	-125
▁있는	-126
▁만	-127
졌습니다	-128
▁모	-129
▁운	-130
▁밝혔습니다	-131
▁연	-132
▁6	-133
▁장	-134
▁영	-135
▁개	-136
▁재	-137
▁직	-138
▁무	-139
▁건	-140
▁김	-141
▁동	-142
▁법	-143
▁사고	-144
▁사건	-145
명이	-146
▁결	-147
었습니다	-148
19	-149
▁알	-150
▁확인	-151
▁계	-152
▁문	-153
▁예	-154
들은	-155
▁10	-156
자가	-157
▁관련	-158
▁실	-159
▁반	-160
에는	-161
▁대해	-162
▁처	-163
▁행	-164
▁출	-165
▁대한	-166
▁폭	-167
▁7	-168
▁판	-169
▁학	-170
▁남성	-171
▁숨	-172
▁들	-173
▁적	-174
▁범	-175
▁달	-176
▁앞	-177
▁씨는	-178
▁검찰	-179
▁청	-180
자는	-181
▁8	-182
▁우	-183
하기	-184
▁박	-185
▁설	-186
▁단	-187
▁화	-188
▁특	-189
▁분	-190
▁파	-191
▁넘	-192
▁사람	-193
▁과	-194
▁했습니다	-195
▁취	-196
았습니다	-197
▁요	-198
▁총	-199
▁벌	-200
▁9	-201
▁바	-202
장을	-203
▁생	-204
경찰	-205
▁등을	-206
▁두	-207
▁차량	-208
▁시위	-209
▁신고	-210
▁노	-211
▁혐의로	-212
▁위해	-213
병원	-214
▁경찰에	-215
▁여성	-216
▁민	-217
했다	-218
▁사실	-219
하지	-220
▁상황	-221
▁보도	-222
▁발생	-223
스크	-224
▁접	-225
▁정부	-226
▁올	-227
▁감염	-228
▁당시	-229
▁목	-230
▁업	-231
▁증	-232
▁후	-233
▁금	-234
▁현장	-235
▁광	-236
▁살	-237
▁회	-238
▁어제	-239
들의	-240
▁세	-241
▁이어	-242
▁열	-243
적으로	-244
운데	-245
▁포	-246
사를	-247
▁더	-248
▁체	-249
하게	-250
▁뉴	-251
▁가운데	-252
▁못	-253
▁채	-254
▁외	-255
했다고	-256
▁마스크	-257
▁물	-258
▁참	-259
▁많	-260
기도	-261
라는	-262
에서는	-263
▁치	-264
▁저	-265
▁집회	-266
대로	-267
▁충	-268
▁운전	-269
들을	-270
▁작	-271
▁들어	-272
▁구속	-273
▁따	-274
▁군	-275
▁결과	-276
▁배	-277
▁30	-278
▁걸	-279
정을	-280
▁경찰이	-281
통령	-282
▁며	-283
▁피해자	-284
▁음	-285
적인	-286
▁같	-287
▁받고	-288
▁알려	-289
▁발견	-290
▁대통령	-291
명을	-292
▁지역	-293
격리	-294
▁투	-295
▁때	-296
▁환	-297
▁사망	-298
▁측	-299
▁트	-300
에도	-301
되는	-302
▁위반	-303
▁승	-304
▁있었	-305
▁병원	-306
▁이후	-307
▁통해	-308
▁심	-309
했고	-310
▁곳	-311
장이	-312
▁미국	-313
▁씨가	-314
▁관계	-315
▁점	-316
▁양	-317
▁B	-318
됩니다	-319
▁새	-320
▁진행	-321
는데요	-322
▁중국	-323
부는	-324
▁경우	-325
▁추가	-326
였습니다	-327
▁근	-328
시간	-329
▁드	-330
▁오후	-331
▁내용	-332
▁서울시	-333
▁매	-334
▁역	-335
▁자신	-336
▁상태	-337
▁방역	-338
▁직원	-339
▁속	-340
▁손	-341
▁영상	-342
▁입니다	-343
▁초	-344
▁시작	-345
▁담	-346
▁의원	-347
▁문제	-348
났습니다	-349
지고	-350
▁돌	-351
▁할	-352
▁앵	-353
▁혐의를	-354
▁뉴스	-355
▁아동	-356
▁착	-357
장은	-358
▁오전	-359
▁스	-360
▁앵커	-361
서는	-362
기를	-363
도록	-364
▁불법	-365
▁말했습니다	-366
▁기자	-367
▁보고	-368
▁간	-369
▁지금	-370
▁지난달	-371
▁부산	-372
▁겁	-373
▁해당	-374
▁주민	-375
▁일부	-376
▁201	-377
▁확진자	-378
다며	-379
▁홍	-380
▁재판	-381
▁필	-382
▁찾	-383
▁12	-384
▁임	-385
▁최근	-386
▁백	-387
▁형	-388
▁타	-389
▁같은	-390
▁호	-391
하겠	-392
▁운영	-393
▁겁니다	-394
▁11	-395
▁규	-396
▁늘	-397
▁지난해	-398
사가	-399
▁아니	-400
되고	-401
리는	-402
▁50	-403
거나	-404
▁하는	-405
▁붙	-406
이나	-407
▁협	-408
▁예정	-409
▁국민	-410
▁맞	-411
▁산	-412
▁현재	-413
▁것이	-414
▁체포	-415
지는	-416
▁40	-417
▁본	-418
리를	-419
▁종	-420
▁평	-421
▁범죄	-422
▁설명	-423
▁사이	-424
▁주장	-425
▁권	-426
▁변	-427
▁약	-428
▁파악	-429
▁전해	-430
▁C	-431
▁가능	-432
▁휴	-433
▁게	-434
▁난	-435
▁시민	-436
르면	-437
▁확산	-438
▁의혹	-439
▁공개	-440
▁소방	-441
▁언	-442
▁막	-443
▁누	-444
▁대구	-445
▁합	-446
▁앞서	-447
▁조치	-448
▁용	-449
▁과정	-450
▁논	-451
▁했	-452
▁도로	-453
▁쓰	-454
자를	-455
▁몰	-456
▁번	-457
라며	-458
▁19	-459
▁송	-460
▁않은	-461
▁사회	-462
도로	-463
▁계속	-464
▁폭행	-465
▁있다고	-466
왔습니다	-467
▁씨의	-468
▁북	-469
국은	-470
▁있던	-471
▁않았	-472
▁데	-473
▁허	-474
다가	-475
하며	-476
▁검사	-477
▁확진자가	-478
▁태	-479
▁없는	-480
▁하고	-481
▁15	-482
위원	-483
▁따르면	-484
▁명이	-485
지를	-486
▁항	-487
▁아이	-488
▁숨진	-489
상을	-490
인이	-491
▁절	-492
▁받은	-493
▁범행	-494
▁알려졌습니다	-495
▁N	-496
▁버	-497
▁씨를	-498
▁인근	-499
▁한국	-500
▁D	-501
▁민주	-502
무원	-503
▁다시	-504
들에게	-505
▁이유	-506
인데	-507
씨는	-508
▁작업	-509
▁만에	-510
▁이용	-511
▁L	-512
▁되	-513
렸습니다	-514
명은	-515
▁기소	-516
▁남성이	-517
▁취재	-518
▁대상	-519
▁는	-520
▁폐	-521
▁드러	-522
▁진술	-523
▁온	-524
▁인천	-525
▁제주	-526
▁요구	-527
▁처벌	-528
▁계획	-529
▁고발	-530
하면서	-531
럼프	-532
▁프	-533
수사	-534
▁국가	-535
분쯤	-536
▁자가	-537
▁않고	-538
▁합니다	-539
▁붙잡	-540
으며	-541
해야	-542
▁홍콩	-543
▁끝	-544
사는	-545
▁트럼프	-546
▁건물	-547
▁징	-548
에서도	-549
▁관련해	-550
▁크	-551
▁화재	-552
▁안전	-553
▁경기도	-554
▁받아	-555
▁시간	-556
▁어린	-557
▁철	-558
위를	-559
▁우려	-560
▁된	-561
▁필요	-562
▁밀	-563
▁이라고	-564
▁국회	-565
▁높	-566
▁설명했습니다	-567
▁관리	-568
▁돈	-569
▁카	-570
했지만	-571
▁표	-572
시설	-573
▁위한	-574
했던	-575
▁판정을	-576
범죄	-577
▁격리	-578
▁순	-579
▁S	-580
니까	-581
원이	-582
▁식	-583
기로	-584
▁업무	-585
▁보이	-586
단체	-587
▁설치	-588
▁이에	-589
▁침	-590
▁과정에서	-591
▁금지	-592
▁복	-593
▁활	-594
▁엄	-595
▁라고	-596
하다	-597
▁수사를	-598
▁윤	-599
▁가족	-600
▁등에	-601
▁방문	-602
렇게	-603
▁나오	-604
▁판단	-605
▁학생	-606
▁질	-607
료를	-608
▁광주	-609
이라고	-610
하기로	-611
천지	-612
▁날	-613
TV	-614
▁압	-615
기관	-616
▁등의	-617
▁음주	-618
경찰청	-619
▁밤	-620
▁긴	-621
▁현지	-622
그램	-623
▁구조	-624
▁직접	-625
시는	-626
▁교회	-627
▁행정	-628
▁경찰관	-629
▁사용	-630
▁대응	-631
▁시장	-632
▁경기	-633
▁새벽	-634
처럼	-635
▁공무원	-636
▁천	-637
파트	-638
▁이를	-639
▁포함	-640
자의	-641
▁정보	-642
▁전국	-643
대가	-644
▁줄	-645
센터	-646
▁있어	-647
원을	-648
▁자가격리	-649
▁확인됐습니다	-650
ew	-651
ews	-652
▁확보	-653
al	-654
▁신청	-655
it	-656
▁신천지	-657
기가	-658
▁13	-659
▁지적	-660
ab	-661
ig	-662
▁것을	-663
igit	-664
▁Lab	-665
▁News	-666
igital	-667
▁Digital	-668
▁요청	-669
▁아파트	-670
명의	-671
보다	-672
▁않는	-673
인을	-674
▁옮	-675
▁어린이	-676
용차	-677
▁가능성	-678
▁불이	-679
▁선거	-680
머니	-681
▁않았습니다	-682
추행	-683
▁벌어	-684
위원회	-685
▁창	-686
▁여러	-687
▁고소	-688
▁대표	-689
▁빠	-690
리가	-691
▁수도	-692
▁토	-693
▁있었습니다	-694
했다는	-695
는지	-696
▁추정	-697
▁받았습니다	-698
▁큰	-699
이었	-700
▁18	-701
▁친	-702
하던	-703
▁보건	-704
▁휴대	-705
▁경찰과	-706
▁준	-707
▁14	-708
▁단속	-709
▁특히	-710
부를	-711
원은	-712
▁마스크를	-713
교회	-714
▁학대	-715
▁급	-716
상이	-717
▁탈	-718
학생	-719
▁접촉	-720
▁면	-721
명으로	-722
물을	-723
▁소식	-724
▁25	-725
▁사례	-726
▁책	-727
▁승용차	-728
▁사실을	-729
▁처음	-730
▁60	-731
▁업체	-732
▁조사를	-733
하면	-734
▁것은	-735
▁올해	-736
▁적발	-737
되지	-738
▁거리	-739
▁모습	-740
▁예정입니다	-741
▁많은	-742
▁주변	-743
▁커	-744
전화	-745
▁잡	-746
▁결정	-747
지방	-748
▁전해졌습니다	-749
▁16	-750
▁선고	-751
▁가해	-752
▁경찰의	-753
▁흑	-754
▁하루	-755
▁잘	-756
▁원을	-757
▁의심	-758
▁잠	-759
▁정도	-760
▁CC	-761
시쯤	-762
▁CCTV	-763
▁독	-764
▁후보	-765
이고	-766
▁가장	-767
▁받았	-768
▁적용	-769
▁지하	-770
▁첫	-771
개월	-772
기에	-773
▁나섰	-774
▁전화	-775
▁언론	-776
▁장관	-777
▁술	-778
▁인정	-779
▁보호	-780
▁시설	-781
▁실종	-782
▁인터	-783
▁구속영	-784
리고	-785
▁휴대전화	-786
▁전했습니다	-787
▁아직	-788
▁없이	-789
▁행위	-790
바이	-791
▁생각	-792
조사	-793
▁자신의	-794
▁방침	-795
▁출동	-796
의자	-797
▁학교	-798
▁강화	-799
▁흑인	-800
▁야	-801
▁발생한	-802
▁17	-803
▁증거	-804
▁사고가	-805
▁이들은	-806
▁관계자는	-807
인은	-808
▁박사	-809
▁없었	-810
▁지원	-811
▁버스	-812
하겠다고	-813
의를	-814
▁이뤄	-815
▁찾아	-816
▁검찰에	-817
▁있다는	-818
이었습니다	-819
▁차례	-820
▁떨	-821
▁이동	-822
▁논란	-823
▁택	-824
해서	-825
▁민주당	-826
▁이른	-827
▁청와	-828
▁개정	-829
▁0	-830
업체	-831
▁사진	-832
▁보도합니다	-833
금을	-834
들과	-835
▁머	-836
▁길	-837
▁완	-838
▁책임	-839
▁이렇게	-840
▁나타	-841
▁개인	-842
▁이미	-843
▁변호	-844
▁측은	-845
▁성추행	-846
도를	-847
씨가	-848
▁압수	-849
▁어려	-850
▁성폭	-851
▁접수	-852
▁한편	-853
▁은	-854
▁제기	-855
▁편	-856
에선	-857
▁사태	-858
▁집단	-859
▁옮겨	-860
▁폭력	-861
▁징역	-862
▁분석	-863
▁울	-864
▁수색	-865
▁먼	-866
▁특별	-867
▁메	-868
천만	-869
▁참석	-870
▁검찰은	-871
동을	-872
▁때문	-873
텔레	-874
▁등이	-875
▁있고	-876
사고	-877
▁소속	-878
▁검사를	-879
장에	-880
▁24	-881
▁국내	-882
일부터	-883
▁시위대	-884
▁70	-885
식을	-886
▁텔레	-887
당국은	-888
▁눈	-889
원에	-890
촬영	-891
▁강제	-892
▁떨어	-893
▁연락	-894
▁정부는	-895
▁극	-896
▁골	-897
보호	-898
안을	-899
▁입건	-900
학교	-901
▁텔레그램	-902
▁교통	-903
▁위험	-904
▁전문	-905
▁타고	-906
▁박사방	-907
▁청와대	-908
▁단체	-909
▁통제	-910
겠습니다	-911
정보	-912
▁글	-913
서를	-914
▁발표	-915
▁병원으로	-916
▁내려	-917
▁먼저	-918
▁시행	-919
▁의료	-920
▁보입니다	-921
▁돌아	-922
▁생활	-923
▁시신	-924
▁환자	-925
▁별	-926
러스	-927
주시	-928
▁검거	-929
▁사업	-930
▁사건을	-931
▁아니라	-932
▁조사하고	-933
부분	-934
▁일어	-935
▁집중	-936
했는데	-937
▁200	-938
됐고	-939
▁교육	-940
▁바이	-941
▁정확	-942
▁플	-943
라인	-944
▁애	-945
▁촬영	-946
▁판매	-947
▁향	-948
▁실제	-949
▁최대	-950
지역	-951
▁경찰청	-952
▁이른바	-953
▁잇	-954
한다	-955
▁넘어	-956
▁하지	-957
▁사건이	-958
▁노동	-959
▁이번	-960
▁운전자	-961
▁갑	-962
장의	-963
▁북한	-964
▁숨졌습니다	-965
들도	-966
▁모든	-967
▁병	-968
▁긴급	-969
▁형사	-970
기는	-971
▁21	-972
장에서	-973
▁사실이	-974
▁퇴	-975
선을	-976
▁법무	-977
▁응	-978
소를	-979
주의	-980
▁사랑	-981
으면	-982
▁강조	-983
▁정치	-984
▁검토	-985
▁귀	-986
▁당국	-987
▁들이	-988
▁주장했습니다	-989
▁대화	-990
▁비판	-991
▁이날	-992
▁힘	-993
▁투입	-994
령을	-995
▁돈을	-996
▁만큼	-997
로부터	-998
쳤습니다	-999
▁계획입니다	-1000
▁아닌	-1001
▁제출	-1002
▁라	-1003
주빈	-1004
▁없다	-1005
▁유포	-1006
▁중인	-1007
▁조주빈	-1008
▁갈	-1009
하려	-1010
▁만들	-1011
▁중앙	-1012
부가	-1013
▁근무	-1014
▁농	-1015
▁조직	-1016
▁그러	-1017
▁연결	-1018
▁얼	-1019
원의	-1020
▁많이	-1021
▁드러났습니다	-1022
▁대부분	-1023
▁나왔습니다	-1024
▁클	-1025
력을	-1026
▁송치	-1027
▁등으로	-1028
차를	-1029
지방경찰청	-1030
▁사람이	-1031
▁집회를	-1032
단을	-1033
지자	-1034
▁것입니다	-1035
▁될	-1036
구의	-1037
이드	-1038
차례	-1039
▁반대	-1040
▁의견	-1041
▁살해	-1042
권을	-1043
화문	-1044
▁교민	-1045
▁테	-1046
▁추적	-1047
▁사회적	-1048
▁이야	-1049
들에	-1050
▁도착	-1051
▁마련	-1052
▁이상	-1053
▁수사에	-1054
사의	-1055
▁부분	-1056
▁않아	-1057
▁택시	-1058
▁베	-1059
▁제대로	-1060
▁월	-1061
▁답	-1062
▁떠	-1063
▁브	-1064
▁착용	-1065
▁남성은	-1066
▁피해를	-1067
계를	-1068
▁투표	-1069
▁100	-1070
▁경비	-1071
▁일이	-1072
▁착취	-1073
▁관계자	-1074
겼습니다	-1075
▁받는	-1076
하거나	-1077
명에	-1078
안전	-1079
지법	-1080
▁사기	-1081
▁기간	-1082
▁넘겨	-1083
▁광화문	-1084
▁기록	-1085
▁신고를	-1086
문을	-1087
▁곳곳	-1088
▁나온	-1089
▁우한	-1090
▁확진자는	-1091
▁놓	-1092
▁딸	-1093
관리	-1094
인의	-1095
▁현장에서	-1096
▁크게	-1097
▁해경	-1098
▁디	-1099
▁또	-1100
번방	-1101
▁나섰습니다	-1102
▁지시	-1103
▁참여	-1104
▁국민의	-1105
하자	-1106
▁늘어	-1107
▁인도	-1108
▁지나	-1109
▁됐	-1110
▁인터넷	-1111
▁봉	-1112
▁출입	-1113
▁플로	-1114
▁항의	-1115
▁서울시는	-1116
▁촉	-1117
▁처리	-1118
▁정부가	-1119
▁중입니다	-1120
▁몸	-1121
지가	-1122
▁상당	-1123
▁있는데	-1124
▁지금까지	-1125
▁리	-1126
으나	-1127
▁충돌	-1128
▁합동	-1129
갔습니다	-1130
▁됐습니다	-1131
받은	-1132
▁명의	-1133
▁선수	-1134
▁제한	-1135
▁정확한	-1136
라도	-1137
수색	-1138
▁추가로	-1139
▁발견됐습니다	-1140
경찰서는	-1141
냈습니다	-1142
당국	-1143
본부	-1144
▁워	-1145
도는	-1146
제일	-1147
소년	-1148
운전	-1149
▁온라인	-1150
▁그런	-1151
▁있을	-1152
▁흉	-1153
▁거부	-1154
▁전체	-1155
제일교회	-1156
▁방침입니다	-1157
르고	-1158
▁경남	-1159
▁부모	-1160
인데요	-1161
▁앞으로	-1162
▁압수수색	-1163
훼손	-1164
▁27	-1165
▁규모	-1166
▁폐쇄	-1167
▁대통령은	-1168
서도	-1169
▁거래	-1170
대를	-1171
▁올라	-1172
▁점검	-1173
▁호소	-1174
▁성범죄	-1175
▁여부를	-1176
▁이유로	-1177
자로	-1178
▁내부	-1179
▁달아	-1180
▁유출	-1181
▁사랑제일교회	-1182
▁삼	-1183
명과	-1184
▁청구	-1185
지면서	-1186
▁대해서는	-1187
▁폭발	-1188
▁2018	-1189
▁보도했습니다	-1190
▁경북	-1191
▁사고를	-1192
금지	-1193
▁걸로	-1194
▁중심	-1195
▁한다	-1196
겠다고	-1197
▁아동학	-1198
NS	-1199
▁악	-1200
성을	-1201
시아	-1202
▁협박	-1203
▁시위가	-1204
규모	-1205
▁대책	-1206
하기도	-1207
▁사람은	-1208
도가	-1209
천여	-1210
▁23	-1211
▁보안	-1212
▁낮	-1213
비를	-1214
▁28	-1215
▁거주	-1216
▁SNS	-1217
▁내용을	-1218
▁붙잡혔습니다	-1219
▁터	-1220
데요	-1221
치를	-1222
▁대전	-1223
식이	-1224
업을	-1225
▁탄	-1226
▁황	-1227
▁잇따	-1228
▁피의자	-1229
씨를	-1230
▁22	-1231
▁보내	-1232
월부터	-1233
▁맡	-1234
스트	-1235
▁면서	-1236
▁이제	-1237
▁자치	-1238
▁뉴욕	-1239
▁죽	-1240
▁얼굴	-1241
▁예방	-1242
▁주택	-1243
립니다	-1244
▁잃	-1245
더니	-1246
▁이들	-1247
▁이름	-1248
▁입국	-1249
▁격	-1250
지검	-1251
▁중단	-1252
▁특정	-1253
▁상대로	-1254
▁때문입니다	-1255
▁공사	-1256
성이	-1257
▁신규	-1258
▁입장	-1259
▁치료를	-1260
▁플로이드	-1261
▁구속영장을	-1262
▁퍼	-1263
▁그는	-1264
▁현장에	-1265
00	-1266
▁희	-1267
가는	-1268
▁역시	-1269
▁유족	-1270
▁사고로	-1271
▁씨에게	-1272
▁보도입니다	-1273
하도록	-1274
▁통과	-1275
▁프랑	-1276
▁근처	-1277
▁기준	-1278
▁명을	-1279
▁이하	-1280
동안	-1281
▁김경	-1282
▁주요	-1283
▁부인	-1284
속도로	-1285
▁꺼	-1286
▁넘는	-1287
▁대형	-1288
하다고	-1289
중앙	-1290
▁내일	-1291
▁해외	-1292
▁로	-1293
▁밖	-1294
▁강력	-1295
▁프로	-1296
소에	-1297
▁규정	-1298
▁안녕	-1299
▁문제가	-1300
▁n	-1301
지지	-1302
▁29	-1303
▁강원	-1304
▁넘게	-1305
▁처분	-1306
▁추진	-1307
▁대통령이	-1308
단계	-1309
▁허위	-1310
▁강조했습니다	-1311
▁덧	-1312
▁가까	-1313
▁취소	-1314
▁화물	-1315
됐다고	-1316
▁영상을	-1317
▁살인	-1318
▁자유	-1319
원에서	-1320
▁재판에	-1321
▁프랑스	-1322
▁있는데요	-1323
▁안녕하	-1324
건을	-1325
리아	-1326
지에	-1327
▁도주	-1328
▁이곳	-1329
▁가능성이	-1330
▁낸	-1331
지로	-1332
지털	-1333
▁나와	-1334
▁비롯	-1335
▁외국	-1336
▁인종	-1337
경찰서	-1338
▁있지만	-1339
▁보면	-1340
▁집행	-1341
▁디지털	-1342
▁키	-1343
▁덧붙	-1344
▁유흥	-1345
▁P	-1346
움을	-1347
▁국정	-1348
▁인사	-1349
▁진단	-1350
되면서	-1351
▁상황이	-1352
회의	-1353
▁담당	-1354
▁법률	-1355
▁안에	-1356
▁예배	-1357
▁지방	-1358
▁논란이	-1359
▁당국은	-1360
▁됩니다	-1361
▁들이받	-1362
▁여성이	-1363
▁사람들이	-1364
▁끊	-1365
장과	-1366
▁나머	-1367
▁방송	-1368
▁신종	-1369
▁착수	-1370
옵니다	-1371
▁검찰이	-1372
▁아동학대	-1373
▁재판부는	-1374
▁기관	-1375
▁자체	-1376
▁클럽	-1377
▁음주운전	-1378
이는	-1379
제를	-1380
▁공소	-1381
▁국방	-1382
▁씨와	-1383
▁했다	-1384
▁에	-1385
사에	-1386
▁없어	-1387
▁일본	-1388
▁임시	-1389
▁충북	-1390
소에서	-1391
▁나머지	-1392
▁차량이	-1393
▁대북	-1394
▁하나	-1395
▁출동한	-1396
▁백신	-1397
▁의뢰	-1398
▁피고	-1399
▁싶	-1400
력이	-1401
▁벌금	-1402
▁시도	-1403
▁치료	-1404
▁대규모	-1405
▁수도권	-1406
▁있도록	-1407
▁있었던	-1408
겠다	-1409
▁신도	-1410
백여	-1411
자기	-1412
페이	-1413
▁마약	-1414
일까지	-1415
▁입장을	-1416
▁덧붙였습니다	-1417
▁공공	-1418
▁교수	-1419
▁일반	-1420
▁출석	-1421
사와	-1422
자와	-1423
▁그렇	-1424
▁이틀	-1425
▁총격	-1426
▁갑자기	-1427
▁돼	-1428
▁나서	-1429
▁신분	-1430
▁역학	-1431
▁유통	-1432
교통	-1433
르는	-1434
싱턴	-1435
▁공수	-1436
▁박원	-1437
▁입원	-1438
자들이	-1439
▁워싱턴	-1440
레이	-1441
▁비서	-1442
▁어렵	-1443
▁오는	-1444
▁정황	-1445
▁직후	-1446
▁없다고	-1447
▁차량을	-1448
▁빼	-1449
▁찍	-1450
씨의	-1451
▁가짜	-1452
▁공수처	-1453
▁성폭행	-1454
▁취재진	-1455
▁못한	-1456
▁감염병	-1457
▁범행을	-1458
▁조치를	-1459
▁쏟	-1460
▁횡	-1461
졌고	-1462
▁라며	-1463
▁수준	-1464
▁알고	-1465
통신	-1466
▁대피	-1467
▁사과	-1468
▁사무	-1469
▁신상	-1470
▁음성	-1471
▁적극	-1472
▁상황을	-1473
로를	-1474
젯밤	-1475
▁동원	-1476
▁승객	-1477
▁김경래	-1478
▁밝혀	-1479
▁갖	-1480
▁먹	-1481
세요	-1482
▁공유	-1483
▁저녁	-1484
▁초등	-1485
▁훼손	-1486
▁겪	-1487
사건	-1488
▁의무	-1489
▁박원순	-1490
▁라는	-1491
▁목소	-1492
한다고	-1493
▁어젯밤	-1494
▁대상으로	-1495
▁너	-1496
▁좋	-1497
공항	-1498
차별	-1499
▁번째	-1500
▁이탈	-1501
▁팔	-1502
까요	-1503
▁시내	-1504
▁심각	-1505
▁주말	-1506
▁이라며	-1507
▁빌	-1508
▁이와	-1509
▁활동	-1510
▁어머니	-1511
▁흔	-1512
청은	-1513
▁경제	-1514
▁지정	-1515
▁충남	-1516
▁우려가	-1517
▁26	-1518
▁막기	-1519
▁최소	-1520
▁서울중앙	-1521
▁챙	-1522
마다	-1523
▁31	-1524
▁나왔	-1525
▁선택	-1526
▁아무	-1527
▁이송	-1528
한다는	-1529
성년	-1530
이던	-1531
▁전날	-1532
▁미성년	-1533
▁신고가	-1534
▁내렸습니다	-1535
이어	-1536
이터	-1537
지막	-1538
차가	-1539
▁공장	-1540
▁달리	-1541
▁쏟아	-1542
▁울산	-1543
▁촉구	-1544
▁통화	-1545
▁만들어	-1546
▁발견된	-1547
▁청소년	-1548
▁취재했습니다	-1549
▁풀	-1550
호를	-1551
▁마을	-1552
▁사전	-1553
▁묻	-1554
두순	-1555
었다	-1556
품을	-1557
▁고려	-1558
▁도심	-1559
▁인권	-1560
▁제작	-1561
▁의혹을	-1562
▁조두순	-1563
▁볼	-1564
됐다	-1565
▁영국	-1566
▁전북	-1567
집니다	-1568
▁멈	-1569
▁블	-1570
자체	-1571
▁열린	-1572
▁외부	-1573
▁주차	-1574
▁개정안	-1575
▁지자체	-1576
▁환자가	-1577
연구	-1578
▁의사	-1579
▁작업을	-1580
▁났습니다	-1581
▁중심으로	-1582
동산	-1583
장실	-1584
▁동료	-1585
▁등은	-1586
▁법무부	-1587
▁쉽	-1588
되면	-1589
▁무단	-1590
▁예상	-1591
가족	-1592
▁위협	-1593
▁전달	-1594
하다는	-1595
▁마지막	-1596
▁시위를	-1597
▁자신이	-1598
자에	-1599
▁80	-1600
▁숨지	-1601
▁이달	-1602
▁차단	-1603
바이러스	-1604
견을	-1605
느냐	-1606
당한	-1607
메라	-1608
명입니다	-1609
▁피해자가	-1610
▁늘었습니다	-1611
가를	-1612
▁경고	-1613
▁씨에	-1614
▁아버	-1615
달라고	-1616
됐지만	-1617
▁조사에서	-1618
▁축	-1619
착취	-1620
▁대비	-1621
▁되는	-1622
▁두고	-1623
▁트럭	-1624
▁조사됐습니다	-1625
대에	-1626
두고	-1627
민주	-1628
▁백인	-1629
▁참가	-1630
▁테러	-1631
▁여성을	-1632
▁대해서도	-1633
대는	-1634
▁감독	-1635
▁기존	-1636
▁반발	-1637
▁알아	-1638
▁유지	-1639
▁느	-1640
▁죄	-1641
둘러	-1642
원과	-1643
▁가로	-1644
▁건강	-1645
▁아래	-1646
▁인명	-1647
▁자택	-1648
▁증가	-1649
대책	-1650
법을	-1651
▁법안	-1652
▁정신	-1653
▁준비	-1654
이라는	-1655
시장	-1656
지원	-1657
▁집계	-1658
▁의원은	-1659
▁그러면서	-1660
▁없었습니다	-1661
▁빚	-1662
▁옆	-1663
밖에	-1664
▁저지	-1665
▁부동산	-1666
▁뿐	-1667
주는	-1668
합당	-1669
▁지켜	-1670
▁그대로	-1671
▁안에서	-1672
▁2017	-1673
관은	-1674
늦게	-1675
버스	-1676
인과	-1677
지도	-1678
▁국립	-1679
▁밝히	-1680
▁살포	-1681
▁제공	-1682
▁제보	-1683
사에서	-1684
▁사이트	-1685
▁코로나바이러스	-1686
▁훔	-1687
▁또는	-1688
▁불안	-1689
▁상황에서	-1690
▁지적했습니다	-1691
▁새로	-1692
▁세계	-1693
▁시험	-1694
▁언급	-1695
▁자녀	-1696
▁자료	-1697
▁충격	-1698
▁성착취	-1699
▁포함해	-1700
감염	-1701
관이	-1702
시가	-1703
▁논의	-1704
▁요양	-1705
▁집합	-1706
▁최고	-1707
▁협조	-1708
▁들어가	-1709
▁바이든	-1710
▁국민의힘	-1711
▁뜻	-1712
▁휘	-1713
리스	-1714
위는	-1715
▁개혁	-1716
▁금융	-1717
▁차를	-1718
▁해양	-1719
▁확대	-1720
▁나옵니다	-1721
▁없습니다	-1722
법상	-1723
었고	-1724
▁해야	-1725
▁할머니	-1726
▁소방당국은	-1727
▁발생했습니다	-1728
스템	-1729
정부	-1730
차로	-1731
▁공범	-1732
▁보니	-1733
역에서	-1734
▁어린이집	-1735
관계	-1736
기고	-1737
대표	-1738
번째	-1739
보안	-1740
선거	-1741
▁나가	-1742
▁민간	-1743
▁보인	-1744
▁오토	-1745
▁전남	-1746
▁친구	-1747
습니까	-1748
▁사례가	-1749
▁숨지고	-1750
으로부터	-1751
▁않습니다	-1752
개발	-1753
회를	-1754
▁과거	-1755
▁한다는	-1756
▁것이라고	-1757
▁오토바이	-1758
▁못했습니다	-1759
교육	-1760
시키	-1761
적이	-1762
▁게시	-1763
▁법정	-1764
▁일당	-1765
▁자세	-1766
▁장애	-1767
▁결과를	-1768
▁나오고	-1769
▁피해가	-1770
km	-1771
▁잔	-1772
▁탑	-1773
가량	-1774
점을	-1775
▁걸쳐	-1776
▁만나	-1777
▁불러	-1778
▁손님	-1779
▁채용	-1780
▁특수	-1781
보겠습니다	-1782
부했습니다	-1783
▁곧	-1784
▁억	-1785
구속	-1786
▁비난	-1787
▁비상	-1788
▁빠져	-1789
▁자리	-1790
▁이들이	-1791
▁한다고	-1792
▁교통사고	-1793
▁현재까지	-1794
▁춘	-1795
▁살펴	-1796
▁쓰러	-1797
▁중요	-1798
▁투자	-1799
▁희생	-1800
겠다는	-1801
▁못하고	-1802
▁다쳤습니다	-1803
규직	-1804
사태	-1805
피해	-1806
▁극단	-1807
▁목숨	-1808
▁유튜	-1809
▁경위를	-1810
▁이용해	-1811
▁석	-1812
▁앱	-1813
시의	-1814
인지	-1815
칙을	-1816
했을	-1817
▁나선	-1818
▁마음	-1819
▁받을	-1820
▁작성	-1821
▁상태입니다	-1822
UV	-1823
▁깨	-1824
▁숙	-1825
이다	-1826
▁너무	-1827
▁받지	-1828
▁실시	-1829
▁집에	-1830
▁평소	-1831
▁SUV	-1832
▁그동안	-1833
수가	-1834
▁강행	-1835
▁고위	-1836
▁근로	-1837
▁현행	-1838
▁대화방	-1839
▁정부의	-1840
년간	-1841
행을	-1842
▁말을	-1843
▁맞아	-1844
▁양성	-1845
▁거리두	-1846
▁떨어진	-1847
▁실제로	-1848
▁전문가	-1849
▁개인정보	-1850
▁뒷	-1851
르게	-1852
▁구성	-1853
▁그제	-1854
▁상태로	-1855
▁끌	-1856
▁네	-1857
랜드	-1858
비스	-1859
실을	-1860
입국	-1861
형을	-1862
▁당일	-1863
▁배치	-1864
▁향해	-1865
레스	-1866
▁공격	-1867
▁내고	-1868
▁밝혔	-1869
▁부정	-1870
▁수는	-1871
▁영업	-1872
됐는데	-1873
인으로	-1874
▁있다며	-1875
봤습니다	-1876
▁얘	-1877
▁혼	-1878
요일	-1879
주민	-1880
주일	-1881
▁다녀	-1882
▁방식	-1883
▁봉쇄	-1884
▁않을	-1885
▁이태	-1886
▁잘못	-1887
▁전에	-1888
▁지급	-1889
▁행사	-1890
▁육	-1891
행위	-1892
▁거짓	-1893
▁대신	-1894
▁보여	-1895
▁신속	-1896
▁토대로	-1897
▁했다고	-1898
▁괴	-1899
▁함	-1900
년을	-1901
보는	-1902
▁구체	-1903
▁다음	-1904
▁발언	-1905
▁소환	-1906
▁수원	-1907
▁이사	-1908
▁접근	-1909
▁시장의	-1910
▁현장을	-1911
문에	-1912
수를	-1913
치는	-1914
▁공직	-1915
▁대가	-1916
▁대로	-1917
▁목격	-1918
▁문을	-1919
▁부족	-1920
▁소재	-1921
▁수십	-1922
▁식당	-1923
▁열고	-1924
년부터	-1925
하겠다	-1926
▁것처럼	-1927
▁남성을	-1928
▁나타났습니다	-1929
▁파악됐습니다	-1930
보드	-1931
▁끝에	-1932
▁마무	-1933
▁매우	-1934
▁통보	-1935
▁회원	-1936
▁정보를	-1937
▁카메라	-1938
▁쓴	-1939
다면	-1940
법이	-1941
치고	-1942
▁강남	-1943
▁다가	-1944
▁물류	-1945
▁반복	-1946
▁아침	-1947
▁원의	-1948
▁하면	-1949
▁성폭력	-1950
▁원인을	-1951
▁증상이	-1952
▁벗	-1953
됐던	-1954
물이	-1955
태훈	-1956
▁따른	-1957
▁말씀	-1958
▁명령	-1959
▁부딪	-1960
▁비슷	-1961
▁앞에	-1962
▁인한	-1963
▁모습을	-1964
▁K	-1965
▁존	-1966
▁헌	-1967
명도	-1968
자인	-1969
체를	-1970
▁방해	-1971
▁불길	-1972
▁엄마	-1973
▁자동	-1974
자들은	-1975
졌지만	-1976
▁시작된	-1977
정이	-1978
▁기사	-1979
▁들고	-1980
▁지키	-1981
▁측이	-1982
장으로	-1983
▁감염이	-1984
▁앞두고	-1985
개를	-1986
▁누적	-1987
▁당한	-1988
▁도시	-1989
▁면허	-1990
▁사는	-1991
▁수가	-1992
▁영향	-1993
▁장면	-1994
▁확정	-1995
▁활용	-1996
자들의	-1997
▁경찰서	-1998
▁불구속	-1999
▁책임을	-2000
하겠다는	-2001
▁추정되는	-2002
▁던	-2003
▁고의	-2004
▁기각	-2005
▁시사	-2006
▁지휘	-2007
▁진압	-2008
▁마무리	-2009
▁지하철	-2010
도의	-2011
▁고등	-2012
▁교사	-2013
▁구매	-2014
▁대출	-2015
▁백악	-2016
▁지침	-2017
▁최종	-2018
▁수사가	-2019
▁이들의	-2020
▁꾸	-2021
▁놀	-2022
면허	-2023
불어	-2024
생활	-2025
▁우리	-2026
▁이같	-2027
민주당	-2028
▁더불어	-2029
▁운전자가	-2030
▁확인하고	-2031
▁욕	-2032
부에	-2033
▁감시	-2034
▁기다	-2035
▁대선	-2036
▁사라	-2037
▁외교	-2038
▁점을	-2039
▁지지	-2040
▁진입	-2041
▁최초	-2042
▁환경	-2043
▁명령을	-2044
▁보이는	-2045
▁벌어졌습니다	-2046
▁와	-2047
나는	-2048
처벌	-2049
▁순찰	-2050
▁전담	-2051
▁춘천	-2052
▁탑승	-2053
▁포착	-2054
자들을	-2055
▁사건은	-2056
▁오태훈	-2057
▁훈	-2058
구를	-2059
복지	-2060
이가	-2061
▁단독	-2062
▁보험	-2063
▁판결	-2064
했으며	-2065
▁정도로	-2066
▁바이러스	-2067
▁명단	-2068
▁모여	-2069
▁이게	-2070
▁폐기	-2071
원으로	-2072
▁이야기	-2073
▁이태원	-2074
NN	-2075
▁암	-2076
대원	-2077
부모	-2078
이를	-2079
▁경위	-2080
▁교인	-2081
▁나눠	-2082
▁벌인	-2083
▁안내	-2084
▁유치	-2085
▁편의	-2086
▁현직	-2087
▁회의	-2088
킥보드	-2089
▁집에서	-2090
▁확산을	-2091
▁쌓	-2092
▁핵	-2093
▁효	-2094
과학	-2095
리핑	-2096
소가	-2097
스로	-2098
▁35	-2099
▁여자	-2100
▁완전	-2101
▁월북	-2102
▁유리	-2103
▁전세	-2104
▁정상	-2105
▁조작	-2106
▁출신	-2107
▁평화	-2108
시부터	-2109
▁법원은	-2110
했는데요	-2111
▁대통령의	-2112
▁이어지고	-2113
▁더불어민주당	-2114
려고	-2115
운동	-2116
▁반쯤	-2117
▁아내	-2118
▁징계	-2119
▁통신	-2120
▁합의	-2121
▁병원에서	-2122
사이	-2123
▁등록	-2124
▁예산	-2125
▁전수	-2126
▁진화	-2127
▁조사할	-2128
▁했지만	-2129
▁인종차별	-2130
조차	-2131
▁45	-2132
▁가지	-2133
▁불가	-2134
▁일을	-2135
▁재산	-2136
▁보이스	-2137
▁사건에	-2138
▁사건의	-2139
▁숨지게	-2140
▁조사에	-2141
▁레	-2142
백만	-2143
이지	-2144
▁관광	-2145
▁국무	-2146
▁글을	-2147
▁발열	-2148
▁재난	-2149
했다며	-2150
▁고속도로	-2151
▁헬	-2152
임을	-2153
재인	-2154
▁대학	-2155
▁역할	-2156
▁이천	-2157
▁어려운	-2158
▁갓	-2159
▁빨	-2160
간에	-2161
공개	-2162
▁담긴	-2163
▁침수	-2164
▁태국	-2165
▁항공	-2166
▁했고	-2167
▁가까이	-2168
▁문재인	-2169
▁녹	-2170
베이	-2171
아요	-2172
전문	-2173
▁다행	-2174
▁조지	-2175
▁핵심	-2176
▁전화를	-2177
▁했는데	-2178
▁견	-2179
였던	-2180
피싱	-2181
▁사흘	-2182
▁아산	-2183
▁용의	-2184
▁중대	-2185
▁평가	-2186
▁해상	-2187
▁연락이	-2188
▁프로그램	-2189
▁보이스피싱	-2190
▁안녕하세요	-2191
▁듯	-2192
심을	-2193
없이	-2194
▁것도	-2195
▁불과	-2196
▁술을	-2197
▁장례	-2198
▁정책	-2199
▁탈출	-2200
실에서	-2201
▁119	-2202
▁비슷한	-2203
▁시장은	-2204
▁알려진	-2205
▁있는지	-2206
▁곳곳에서	-2207
▁운전자는	-2208
▁콜	-2209
세를	-2210
이라	-2211
▁가정	-2212
▁고양	-2213
▁명에	-2214
▁방조	-2215
▁선박	-2216
▁야당	-2217
▁지인	-2218
▁통행	-2219
▁300	-2220
▁내용이	-2221
▁벌이고	-2222
▁적발됐습니다	-2223
▁펜	-2224
구에	-2225
구역	-2226
기소	-2227
리지	-2228
어요	-2229
▁계약	-2230
▁되고	-2231
보안법	-2232
▁강원도	-2233
▁대북전	-2234
▁백악관	-2235
▁벌어진	-2236
▁사실상	-2237
▁없다는	-2238
▁삭	-2239
군은	-2240
바로	-2241
부와	-2242
▁메시	-2243
▁배달	-2244
▁속에	-2245
▁열어	-2246
▁창고	-2247
▁그렇게	-2248
▁업무를	-2249
▁외국인	-2250
▁체포됐습니다	-2251
▁덮	-2252
▁움	-2253
방을	-2254
제가	-2255
▁38	-2256
▁놓고	-2257
▁지목	-2258
▁철저	-2259
▁표현	-2260
▁피의	-2261
십니까	-2262
▁500	-2263
▁뒤늦게	-2264
▁목숨을	-2265
▁처벌을	-2266
▁끼	-2267
▁둔	-2268
▁풍	-2269
리에	-2270
▁가담	-2271
▁공동	-2272
▁만든	-2273
▁미래	-2274
▁밝힌	-2275
▁보관	-2276
▁전망	-2277
▁전혀	-2278
▁절차	-2279
▁종교	-2280
▁협의	-2281
▁관련한	-2282
▁기소된	-2283
▁장관은	-2284
▁전해드	-2285
▁승용차가	-2286
▁빈	-2287
니아	-2288
미터	-2289
부의	-2290
실에	-2291
회가	-2292
▁이는	-2293
▁전파	-2294
▁지속	-2295
자에게	-2296
층에서	-2297
▁여성의	-2298
▁있었다	-2299
▁말합니다	-2300
▁집합금지	-2301
▁시작했습니다	-2302
BC	-2303
문이	-2304
▁갈등	-2305
▁골프	-2306
▁누군	-2307
▁둘러	-2308
▁운동	-2309
▁전환	-2310
▁허용	-2311
▁회사	-2312
▁완전히	-2313
▁일주일	-2314
▁피해자의	-2315
▁요청했습니다	-2316
▁땅	-2317
▁옥	-2318
가지	-2319
기와	-2320
단은	-2321
달라	-2322
자치	-2323
창고	-2324
▁높은	-2325
▁당선	-2326
▁대기	-2327
▁뒤에	-2328
▁맞은	-2329
▁명예	-2330
▁부서	-2331
▁제가	-2332
▁제외	-2333
▁내용의	-2334
▁보도에	-2335
▁집회에	-2336
▁혐의가	-2337
▁처음으로	-2338
▁각	-2339
중에	-2340
▁공식	-2341
▁사안	-2342
▁수용	-2343
▁밀입국	-2344
▁의원이	-2345
▁지지자	-2346
▁혈	-2347
점이	-2348
처를	-2349
▁교도	-2350
▁보수	-2351
▁부장	-2352
▁소독	-2353
▁조정	-2354
▁추돌	-2355
▁의료진	-2356
▁자료를	-2357
▁필요한	-2358
랐습니다	-2359
▁벽	-2360
세가	-2361
었던	-2362
역을	-2363
증을	-2364
항을	-2365
▁돌려	-2366
▁만취	-2367
▁무너	-2368
▁음식	-2369
▁행동	-2370
▁진술을	-2371
▁확인된	-2372
▁역학조사	-2373
▁왕	-2374
다른	-2375
조치	-2376
▁거쳐	-2377
▁김포	-2378
▁방향	-2379
▁본격	-2380
▁위치	-2381
▁저희	-2382
▁접종	-2383
▁했던	-2384
월까지	-2385
▁사망자	-2386
▁확인한	-2387
▁듣	-2388
동의	-2389
▁남아	-2390
▁이춘	-2391
▁총선	-2392
릅니다	-2393
했다가	-2394
▁관련된	-2395
▁않았다	-2396
▁여성은	-2397
▁들어갔습니다	-2398
▁서울중앙지검	-2399
▁판단했습니다	-2400
▁서울지방경찰청	-2401
거래	-2402
되자	-2403
보고	-2404
▁권한	-2405
▁남편	-2406
▁부과	-2407
▁부상	-2408
▁비밀	-2409
▁올린	-2410
▁외출	-2411
▁정리	-2412
▁빠져나	-2413
▁용의자	-2414
▁화장실	-2415
법에	-2416
사관	-2417
소는	-2418
시에	-2419
위터	-2420
화폐	-2421
▁PC	-2422
▁공정	-2423
▁구간	-2424
▁다친	-2425
▁부검	-2426
▁소송	-2427
▁응급	-2428
▁장기	-2429
▁장비	-2430
▁페이	-2431
▁곧바로	-2432
▁이춘재	-2433
▁트위터	-2434
▁폭행한	-2435
구가	-2436
소로	-2437
어서	-2438
▁감식	-2439
▁국제	-2440
▁무죄	-2441
▁분노	-2442
▁쓰레	-2443
▁추락	-2444
으면서	-2445
▁다행히	-2446
▁문제를	-2447
▁수밖에	-2448
▁운영자	-2449
▁중이던	-2450
▁납	-2451
▁늦	-2452
▁뛰	-2453
마트	-2454
우고	-2455
회는	-2456
▁감사	-2457
▁여론	-2458
▁입고	-2459
▁제조	-2460
▁현금	-2461
▁시간이	-2462
▁않으면	-2463
▁이하의	-2464
▁입주민	-2465
▁대북전단	-2466
▁수사하고	-2467
▁신고했습니다	-2468
론가	-2469
였다	-2470
▁계좌	-2471
▁공항	-2472
▁귀국	-2473
▁내린	-2474
▁달라	-2475
▁대법	-2476
▁명은	-2477
▁약탈	-2478
▁연구	-2479
▁이재	-2480
▁지점	-2481
▁남성의	-2482
▁이들을	-2483
▁확보한	-2484
▁집단감염	-2485
▁피해자는	-2486
공사	-2487
남부	-2488
년이	-2489
미애	-2490
▁다쳐	-2491
▁동물	-2492
▁사법	-2493
▁움직	-2494
▁정의	-2495
▁철거	-2496
▁필리	-2497
▁사진을	-2498
▁절차를	-2499
▁편의점	-2500
▁학부모	-2501
▁벌였습니다	-2502
가고	-2503
▁군은	-2504
▁머물	-2505
▁방지	-2506
▁블랙	-2507
▁선별	-2508
▁수백	-2509
▁술에	-2510
▁의미	-2511
▁일대	-2512
▁지도	-2513
▁출발	-2514
▁횡령	-2515
조사를	-2516
▁202	-2517
▁시스템	-2518
▁이상이	-2519
▁차량에	-2520
▁추미애	-2521
▁킥보드	-2522
▁않았다고	-2523
▁났	-2524
감을	-2525
기한	-2526
번호	-2527
▁높아	-2528
▁독일	-2529
▁비용	-2530
▁삼성	-2531
▁절반	-2532
▁모습이	-2533
▁병원에	-2534
▁스스로	-2535
▁심각한	-2536
▁일어난	-2537
▁구체적인	-2538
▁왔	-2539
▁쪽	-2540
가요	-2541
거리	-2542
음을	-2543
짜리	-2544
▁건설	-2545
▁의한	-2546
▁진상	-2547
▁해서	-2548
▁국정원	-2549
▁수차례	-2550
▁아니냐	-2551
▁이상의	-2552
▁도로에서	-2553
▁당부했습니다	-2554
▁써	-2555
▁팀	-2556
▁품	-2557
과는	-2558
나고	-2559
네요	-2560
화를	-2561
▁생산	-2562
▁호텔	-2563
갑니다	-2564
하라고	-2565
▁커지고	-2566
▁의견으로	-2567
▁초등학교	-2568
▁걱	-2569
▁쫓	-2570
로는	-2571
리기	-2572
▁가득	-2573
▁개입	-2574
▁검은	-2575
▁노인	-2576
▁분류	-2577
▁상담	-2578
▁여의	-2579
▁위원	-2580
▁입은	-2581
▁주목	-2582
▁평균	-2583
▁하던	-2584
건으로	-2585
명령을	-2586
평론가	-2587
▁문제는	-2588
▁비롯한	-2589
▁인터뷰	-2590
▁있었고	-2591
▁진술한	-2592
▁폭행을	-2593
▁행위를	-2594
▁운영하는	-2595
▁넣	-2596
보건	-2597
연합	-2598
였고	-2599
적을	-2600
트를	-2601
형욱	-2602
▁보낸	-2603
▁상품	-2604
▁종로	-2605
더라도	-2606
▁CNN	-2607
▁문형욱	-2608
▁아이를	-2609
▁2015	-2610
▁시민들이	-2611
받았습니다	-2612
고를	-2613
과의	-2614
사회	-2615
위가	-2616
▁근거	-2617
▁늘고	-2618
▁증언	-2619
▁힘들	-2620
됐다는	-2621
▁중국인	-2622
▁거리두기	-2623
▁피해자를	-2624
군이	-2625
댓글	-2626
성동	-2627
스가	-2628
시켰	-2629
학년	-2630
▁급증	-2631
▁되지	-2632
▁무릎	-2633
▁상대	-2634
▁등에서	-2635
▁선택을	-2636
▁위반한	-2637
▁유가족	-2638
▁정규직	-2639
▁화물차	-2640
▁파악하고	-2641
▁구속됐습니다	-2642
▁든	-2643
▁얻	-2644
받아	-2645
방에	-2646
씨와	-2647
움이	-2648
현준	-2649
▁다양	-2650
▁댓글	-2651
▁반려	-2652
▁삭제	-2653
▁여기	-2654
▁영장	-2655
▁오피	-2656
▁인해	-2657
▁저는	-2658
▁전면	-2659
▁추모	-2660
▁탈북	-2661
▁해제	-2662
▁검찰의	-2663
▁국회의	-2664
▁도로를	-2665
▁민식이	-2666
▁방안을	-2667
▁브리핑	-2668
▁예배를	-2669
▁유포한	-2670
▁의혹에	-2671
▁자세한	-2672
▁총리는	-2673
▁하는데	-2674
▁확인할	-2675
▁잇따르고	-2676
▁자치경찰	-2677
▁이어졌습니다	-2678
▁뭐	-2679
▁쇼	-2680
사법	-2681
▁고용	-2682
▁광복	-2683
▁구급	-2684
▁라임	-2685
▁몰래	-2686
▁있기	-2687
▁중에	-2688
▁직무	-2689
▁결과가	-2690
▁고현준	-2691
▁사람을	-2692
▁살해한	-2693
▁오늘은	-2694
▁유튜브	-2695
▁지적이	-2696
과학수사	-2697
▁2016	-2698
▁시위대가	-2699
▁국립과학수사	-2700
▁익	-2701
드는	-2702
술을	-2703
주택	-2704
▁36	-2705
▁결론	-2706
▁고통	-2707
▁기억	-2708
▁분위	-2709
▁성매	-2710
▁인력	-2711
▁허가	-2712
재개발	-2713
▁방문한	-2714
▁사실은	-2715
▁확인되지	-2716
▁넘겨졌습니다	-2717
정지	-2718
증상	-2719
▁달려	-2720
▁모두	-2721
▁반응	-2722
▁순간	-2723
▁신호	-2724
▁욕설	-2725
▁원내	-2726
▁이웃	-2727
▁이전	-2728
▁이해	-2729
▁주거	-2730
▁영상이	-2731
▁의식을	-2732
▁직원이	-2733
▁택시기	-2734
▁포함한	-2735
▁요구하는	-2736
▁주민들이	-2737
▁시사평론가	-2738
▁좌	-2739
노동	-2740
대와	-2741
량을	-2742
려는	-2743
어나	-2744
이며	-2745
제로	-2746
▁바람	-2747
▁방치	-2748
▁위기	-2749
▁있게	-2750
▁전자	-2751
▁해명	-2752
했는지	-2753
▁경비원	-2754
▁밖으로	-2755
▁발생해	-2756
▁의혹이	-2757
▁체포된	-2758
▁검토하고	-2759
▁국립과학수사연구	-2760
▁겨	-2761
▁굉	-2762
▁러	-2763
대교	-2764
사업	-2765
수는	-2766
전을	-2767
▁노출	-2768
▁단계	-2769
▁더욱	-2770
▁도입	-2771
▁들여	-2772
▁문자	-2773
▁소지	-2774
▁신체	-2775
▁아들	-2776
▁원이	-2777
▁전단	-2778
▁정지	-2779
검사를	-2780
다면서	-2781
법으로	-2782
본부는	-2783
졌다고	-2784
▁시장이	-2785
▁아이가	-2786
▁이라는	-2787
▁지난주	-2788
▁강제추행	-2789
▁상황입니다	-2790
▁뿌	-2791
스텔	-2792
아버	-2793
예방	-2794
▁개천	-2795
▁내리	-2796
▁문화	-2797
▁쓰지	-2798
▁진정	-2799
▁집을	-2800
었다고	-2801
▁경찰을	-2802
▁권성동	-2803
▁부산시	-2804
▁사이에	-2805
▁신고한	-2806
▁회견을	-2807
▁추정됩니다	-2808
▁고발했습니다	-2809
▁비판했습니다	-2810
▁패	-2811
고요	-2812
도에	-2813
스는	-2814
장애	-2815
▁가상	-2816
▁그의	-2817
▁법인	-2818
▁수감	-2819
▁안타	-2820
▁없고	-2821
▁인물	-2822
▁전기	-2823
▁차에	-2824
▁청년	-2825
▁총을	-2826
▁폭우	-2827
었는데	-2828
▁개천절	-2829
▁나오는	-2830
▁비롯해	-2831
▁이처럼	-2832
▁뇌	-2833
방송	-2834
▁32	-2835
▁남부	-2836
▁동영	-2837
▁소개	-2838
▁얘기	-2839
▁원에	-2840
▁유료	-2841
▁정말	-2842
당국이	-2843
지에서	-2844
▁누군가	-2845
▁법원에	-2846
▁비서실	-2847
▁새로운	-2848
▁현행범	-2849
▁환자는	-2850
▁목소리가	-2851
▁발표했습니다	-2852
▁요구했습니다	-2853
▁진술했습니다	-2854
▁촉구했습니다	-2855
▁낙	-2856
년에	-2857
방해	-2858
▁법적	-2859
▁엄정	-2860
▁여행	-2861
▁침입	-2862
▁국민청	-2863
▁속도를	-2864
▁역할을	-2865
▁접촉자	-2866
▁흉기를	-2867
▁주민들은	-2868
▁안녕하십니까	-2869
▁확인했습니다	-2870
▁갔	-2871
▁싸	-2872
디오	-2873
지의	-2874
처가	-2875
투표	-2876
트남	-2877
▁개발	-2878
▁권력	-2879
▁그것	-2880
▁금액	-2881
▁다니	-2882
▁받게	-2883
▁불을	-2884
▁사우	-2885
▁소녀	-2886
▁어디	-2887
▁전주	-2888
▁질병	-2889
▁해결	-2890
▁당국이	-2891
▁베트남	-2892
▁변호사	-2893
▁않았고	-2894
▁접촉한	-2895
▁한국인	-2896
▁해경은	-2897
▁혐의도	-2898
▁물류창고	-2899
▁상태에서	-2900
▁오피스텔	-2901
▁인명피해	-2902
▁뚫	-2903
▁믿	-2904
▁홈	-2905
라이	-2906
명령	-2907
선이	-2908
일을	-2909
▁관심	-2910
▁군사	-2911
▁때는	-2912
▁발령	-2913
▁발부	-2914
▁위법	-2915
▁일정	-2916
▁전동	-2917
▁종합	-2918
▁총리	-2919
▁학원	-2920
졌는데	-2921
▁시신을	-2922
▁영업을	-2923
▁통합당	-2924
▁구속영장	-2925
▁인근에서	-2926
▁지역에서	-2927
▁선고했습니다	-2928
▁걷	-2929
▁깊	-2930
▁즉	-2931
았고	-2932
▁곳이	-2933
▁나눔	-2934
▁답변	-2935
▁돌진	-2936
▁동의	-2937
▁드론	-2938
▁무시	-2939
▁무엇	-2940
▁부실	-2941
▁원인	-2942
▁의붓	-2943
▁저질	-2944
▁천안	-2945
▁대해선	-2946
▁동원해	-2947
▁성매매	-2948
▁조사가	-2949
▁페이스	-2950
▁확인해	-2951
▁있었지만	-2952
▁착수했습니다	-2953
▁쿠	-2954
▁90	-2955
▁국토	-2956
▁도망	-2957
▁매일	-2958
▁사상	-2959
▁수상	-2960
▁안산	-2961
▁취한	-2962
▁파손	-2963
이었던	-2964
▁대책을	-2965
▁대표는	-2966
▁러시아	-2967
▁서비스	-2968
▁시위에	-2969
▁자동차	-2970
▁처분을	-2971
▁활동을	-2972
▁가능성을	-2973
▁서울시가	-2974
▁이번에는	-2975
▁냉	-2976
▁휩	-2977
함을	-2978
▁가게	-2979
▁남북	-2980
▁누구	-2981
▁동생	-2982
▁방안	-2983
▁서로	-2984
▁연방	-2985
▁원칙	-2986
▁유명	-2987
▁주고	-2988
▁주로	-2989
▁주의	-2990
▁진천	-2991
▁충분	-2992
▁침해	-2993
▁경우가	-2994
▁단속을	-2995
▁서울의	-2996
▁않도록	-2997
▁재판을	-2998
▁저지른	-2999
▁적용해	-3000
놨습니다	-3001
▁이탈리아	-3002
▁페이스북	-3003
▁넘겼습니다	-3004
동이	-3005
졌다	-3006
▁관할	-3007
▁단순	-3008
▁뒤로	-3009
▁멈춰	-3010
▁반면	-3011
▁사유	-3012
▁운행	-3013
▁은행	-3014
▁이것	-3015
▁인지	-3016
▁차별	-3017
▁하천	-3018
▁한강	-3019
▁나눔의	-3020
고속도로	-3021
▁미성년자	-3022
▁받습니다	-3023
▁착취물을	-3024
▁벨	-3025
상에	-3026
코올	-3027
▁과태	-3028
▁구청	-3029
▁권고	-3030
▁끝내	-3031
▁내렸	-3032
▁법원	-3033
▁올려	-3034
▁재개	-3035
▁적이	-3036
▁주먹	-3037
▁청원	-3038
▁출근	-3039
장에게	-3040
주시죠	-3041
▁구속된	-3042
▁달라고	-3043
▁때까지	-3044
▁명단을	-3045
▁오늘부터	-3046
▁그렇습니다	-3047
▁신청했습니다	-3048
▁찬	-3049
구는	-3050
군의	-3051
대응	-3052
배를	-3053
위에	-3054
판을	-3055
▁공급	-3056
▁기본	-3057
▁머리	-3058
▁모임	-3059
▁미리	-3060
▁분리	-3061
▁전광	-3062
▁주도	-3063
▁주지	-3064
▁카드	-3065
▁형태	-3066
봅니다	-3067
이었다	-3068
▁150	-3069
▁광복절	-3070
▁자신을	-3071
▁작업이	-3072
▁원내대표	-3073
▁입건했습니다	-3074
▁루	-3075
▁묵	-3076
보가	-3077
지와	-3078
▁거듭	-3079
▁검색	-3080
▁곳은	-3081
▁길을	-3082
▁독감	-3083
▁몰던	-3084
▁수습	-3085
▁시청	-3086
▁일으	-3087
▁직전	-3088
▁청주	-3089
▁출범	-3090
▁출소	-3091
달라는	-3092
섭니다	-3093
하다가	-3094
하라는	-3095
▁가지고	-3096
▁곳에서	-3097
▁방역수	-3098
▁있어서	-3099
▁정황이	-3100
▁아동보호	-3101
▁확진자의	-3102
▁흘	-3103
거든	-3104
뉴스	-3105
들로	-3106
받고	-3107
복을	-3108
수의	-3109
신저	-3110
았다	-3111
있는	-3112
장한	-3113
▁간부	-3114
▁갓갓	-3115
▁갖고	-3116
▁건데	-3117
▁억울	-3118
▁연쇄	-3119
▁예고	-3120
▁위조	-3121
▁유사	-3122
▁전공	-3123
▁주진	-3124
▁직장	-3125
▁태안	-3126
▁해산	-3127
▁협력	-3128
▁고려해	-3129
▁사건과	-3130
▁신원을	-3131
▁우리는	-3132
▁참석한	-3133
섰습니다	-3134
▁방식으로	-3135
▁집계됐습니다	-3136
▁망	-3137
검찰	-3138
관을	-3139
분을	-3140
사무	-3141
▁간호	-3142
▁과실	-3143
▁몰랐	-3144
▁서류	-3145
▁의결	-3146
▁절도	-3147
▁준수	-3148
▁치안	-3149
▁가능한	-3150
▁자리를	-3151
▁지역의	-3152
▁가상화폐	-3153
▁있었다고	-3154
▁적극적으로	-3155
▁상태였습니다	-3156
▁털	-3157
량이	-3158
신고	-3159
익을	-3160
해진	-3161
▁감찰	-3162
▁경계	-3163
▁경상	-3164
▁공모	-3165
▁날아	-3166
▁대변	-3167
▁등교	-3168
▁방위	-3169
▁부대	-3170
▁불편	-3171
▁서해	-3172
▁손을	-3173
▁수천	-3174
▁쓰고	-3175
▁윤석	-3176
▁입금	-3177
▁정밀	-3178
공무원	-3179
▁극단적	-3180
▁차량은	-3181
범죄수사	-3182
▁같습니다	-3183
▁있었는데	-3184
▁옮겨졌습니다	-3185
▁닫	-3186
▁앉	-3187
▁탐	-3188
보를	-3189
청에	-3190
▁00	-3191
▁가격	-3192
▁기능	-3193
▁복귀	-3194
▁압박	-3195
▁유럽	-3196
▁챙긴	-3197
▁한번	-3198
거든요	-3199
겠다며	-3200
되기도	-3201
했으나	-3202
▁아무런	-3203
▁영장을	-3204
▁이같이	-3205
▁조치가	-3206
▁증거를	-3207
▁냈습니다	-3208
▁현지시간	-3209
▁확진자와	-3210
▁휴대전화를	-3211
다시	-3212
된다	-3213
비가	-3214
업소	-3215
집행	-3216
청래	-3217
▁개선	-3218
▁높이	-3219
▁무관	-3220
▁부당	-3221
▁연관	-3222
▁음란	-3223
▁자백	-3224
▁198	-3225
▁다양한	-3226
▁다음날	-3227
▁문제로	-3228
▁사망한	-3229
▁상황에	-3230
▁얼굴을	-3231
▁업무상	-3232
▁윤석열	-3233
▁이유를	-3234
▁정청래	-3235
▁질문에	-3236
▁혐의에	-3237
▁사건으로	-3238
▁중이라고	-3239
봐야	-3240
의료	-3241
일에	-3242
주가	-3243
▁39	-3244
▁강도	-3245
▁기부	-3246
▁남자	-3247
▁대중	-3248
▁마찬	-3249
▁민원	-3250
▁쉽지	-3251
▁있지	-3252
▁의견을	-3253
▁촬영한	-3254
▁했다는	-3255
▁계속되고	-3256
▁왔습니다	-3257
▁입장입니다	-3258
▁송치했습니다	-3259
단이	-3260
란을	-3261
뿐만	-3262
일이	-3263
제한	-3264
▁과잉	-3265
▁군의	-3266
▁나라	-3267
▁나흘	-3268
▁못해	-3269
▁수집	-3270
▁안심	-3271
▁의암	-3272
▁작은	-3273
▁참사	-3274
▁효과	-3275
▁후원	-3276
통합당	-3277
▁112	-3278
▁가까운	-3279
▁강하게	-3280
▁블랙박	-3281
▁소방관	-3282
▁인천시	-3283
▁대구시는	-3284
▁시민들의	-3285
▁시위대를	-3286
▁이곳에서	-3287
건이	-3288
곳을	-3289
도시	-3290
리로	-3291
무를	-3292
▁건너	-3293
▁공포	-3294
▁굉장	-3295
▁기업	-3296
▁물을	-3297
▁부탁	-3298
▁쉽게	-3299
▁아닙	-3300
▁인용	-3301
▁진료	-3302
▁나타나	-3303
▁들어온	-3304
▁메신저	-3305
▁있으며	-3306
▁적발된	-3307
▁타이어	-3308
▁시민단체	-3309
▁이야기를	-3310
▁미래통합당	-3311
▁연결합니다	-3312
ic	-3313
시험	-3314
저녁	-3315
진료	-3316
▁33	-3317
▁가스	-3318
▁가혹	-3319
▁기념	-3320
▁나올	-3321
▁대공	-3322
▁등과	-3323
▁막아	-3324
▁여야	-3325
▁연장	-3326
▁의회	-3327
▁잃은	-3328
▁죽음	-3329
▁중고	-3330
▁혈중	-3331
▁회견	-3332
심에서	-3333
하지만	-3334
▁굉장히	-3335
▁대비해	-3336
▁머리를	-3337
▁별다른	-3338
▁피고인	-3339
웠습니다	-3340
▁어제저녁	-3341
▁질병관리	-3342
▁봤	-3343
놓고	-3344
북구	-3345
어진	-3346
이자	-3347
절한	-3348
편집	-3349
▁37	-3350
▁걱정	-3351
▁골목	-3352
▁몰려	-3353
▁변경	-3354
▁비대	-3355
▁약속	-3356
▁저항	-3357
▁전인	-3358
▁추산	-3359
▁199	-3360
▁근로자	-3361
▁받았고	-3362
▁스마트	-3363
▁여기에	-3364
▁연결해	-3365
▁이번에	-3366
▁제주도	-3367
위원회는	-3368
▁수사기관	-3369
▁영상편집	-3370
▁보건당국은	-3371
▁맨	-3372
▁빗	-3373
별로	-3374
분이	-3375
스럽	-3376
주간	-3377
▁개를	-3378
▁공간	-3379
▁바닥	-3380
▁불거	-3381
▁비행	-3382
▁손해	-3383
▁외에	-3384
▁입소	-3385
▁자금	-3386
▁전복	-3387
▁즉각	-3388
▁추천	-3389
▁출국	-3390
▁하다	-3391
▁한인	-3392
▁호흡	-3393
▁경찰도	-3394
▁노동자	-3395
▁민주화	-3396
▁범죄를	-3397
▁오늘도	-3398
▁접수된	-3399
있습니다	-3400
계가	-3401
곳에	-3402
내는	-3403
롭게	-3404
리며	-3405
스를	-3406
유예	-3407
주점	-3408
진을	-3409
ick	-3410
▁42	-3411
▁노조	-3412
▁다쳤	-3413
▁대처	-3414
▁마포	-3415
▁많아	-3416
▁산업	-3417
▁소유	-3418
▁송파	-3419
▁신뢰	-3420
▁아예	-3421
▁제시	-3422
▁키워	-3423
▁폭언	-3424
▁횡단	-3425
명에게	-3426
일에는	-3427
잖아요	-3428
하는데	-3429
▁감염된	-3430
▁도움을	-3431
▁언론에	-3432
▁전광훈	-3433
▁주변에	-3434
▁중학생	-3435
▁집회가	-3436
▁Pick	-3437
▁미국에서	-3438
▁어려움을	-3439
▁운전면허	-3440
▁방역당국은	-3441
▁입었습니다	-3442
▁시작됐습니다	-3443
▁옷	-3444
나라	-3445
병을	-3446
치가	-3447
치료	-3448
화가	-3449
▁43	-3450
▁노래	-3451
▁바꿔	-3452
▁부담	-3453
▁불은	-3454
▁사퇴	-3455
▁여당	-3456
▁체육	-3457
▁태풍	-3458
▁감염증	-3459
▁당국의	-3460
▁떨어져	-3461
▁지하차	-3462
▁집으로	-3463
▁민주당은	-3464
▁감염병예방	-3465
가던	-3466
리와	-3467
보니	-3468
오는	-3469
요원	-3470
우는	-3471
파로	-3472
하라	-3473
▁34	-3474
▁46	-3475
▁것과	-3476
▁베이	-3477
▁불만	-3478
▁연휴	-3479
▁정당	-3480
▁주최	-3481
▁증상	-3482
▁찾지	-3483
▁퇴원	-3484
▁훔친	-3485
씨에게	-3486
▁범죄가	-3487
▁변호인	-3488
▁부산의	-3489
▁사람들	-3490
▁실종된	-3491
▁않는다	-3492
▁여의도	-3493
▁일부를	-3494
▁저질렀	-3495
▁지침을	-3496
▁학대를	-3497
▁경기도는	-3498
▁공직선거	-3499
▁의심되는	-3500
▁있었는지	-3501
▁진행하고	-3502
▁염	-3503
▁컴	-3504
▁페	-3505
▁헤	-3506
건에	-3507
검사	-3508
어야	-3509
재난	-3510
질이	-3511
카드	-3512
해온	-3513
▁것에	-3514
▁곳에	-3515
▁당초	-3516
▁목적	-3517
▁물에	-3518
▁보트	-3519
▁세월	-3520
▁위에	-3521
▁유해	-3522
▁해도	-3523
▁훔쳐	-3524
회의를	-3525
▁거짓말	-3526
▁물건을	-3527
▁미국의	-3528
▁사이버	-3529
▁사태가	-3530
▁시간을	-3531
▁전공의	-3532
▁횡단보	-3533
▁T	-3534
▁닿	-3535
▁캠	-3536
개혁	-3537
대의	-3538
되기	-3539
란다	-3540
서가	-3541
에만	-3542
▁가져	-3543
▁노력	-3544
▁뛰어	-3545
▁무기	-3546
▁소비	-3547
▁신원	-3548
▁아기	-3549
▁자격	-3550
▁하며	-3551
▁훈련	-3552
칩니다	-3553
▁받아들	-3554
▁보이지	-3555
▁붙잡아	-3556
▁없었다	-3557
▁영향을	-3558
▁우리가	-3559
▁의사를	-3560
▁행위가	-3561
▁홈페이	-3562
▁유흥시설	-3563
감이	-3564
건의	-3565
았던	-3566
조직	-3567
▁47	-3568
▁겪고	-3569
▁경로	-3570
▁내가	-3571
▁내년	-3572
▁두기	-3573
▁매체	-3574
▁보장	-3575
▁본인	-3576
▁세워	-3577
▁시달	-3578
▁야간	-3579
▁입법	-3580
▁창원	-3581
▁추행	-3582
▁출연	-3583
▁취업	-3584
▁통일	-3585
▁회복	-3586
시까지	-3587
였다고	-3588
하려는	-3589
▁밤사이	-3590
▁이용한	-3591
▁행위에	-3592
해달라고	-3593
▁고등학생	-3594
▁선별진료	-3595
▁자치단체	-3596
▁현행범으로	-3597
▁숫	-3598
▁졸	-3599
비서	-3600
시를	-3601
시와	-3602
시죠	-3603
어를	-3604
이트	-3605
정에	-3606
중한	-3607
▁경쟁	-3608
▁다치	-3609
▁부적	-3610
▁상점	-3611
▁쇼핑	-3612
▁잡아	-3613
▁제안	-3614
▁참고	-3615
▁채취	-3616
▁터널	-3617
었지만	-3618
▁강력한	-3619
▁대상이	-3620
▁빠르게	-3621
▁착용을	-3622
▁아닙니다	-3623
▁항의하는	-3624
▁앓	-3625
▁컨	-3626
공단	-3627
란히	-3628
만간	-3629
만큼	-3630
사로	-3631
인권	-3632
▁검체	-3633
▁기대	-3634
▁기획	-3635
▁누가	-3636
▁대리	-3637
▁마친	-3638
▁말이	-3639
▁수거	-3640
▁용인	-3641
▁원래	-3642
▁위안	-3643
▁채팅	-3644
▁추석	-3645
▁택배	-3646
알코올	-3647
▁결정을	-3648
▁곳곳에	-3649
▁나오지	-3650
▁내용은	-3651
▁불길이	-3652
▁설치된	-3653
▁안전을	-3654
▁조만간	-3655
▁투입해	-3656
됐는데요	-3657
▁시위대는	-3658
▁자리에서	-3659
▁피해자에게	-3660
▁홍콩보안법	-3661
▁접수됐습니다	-3662
▁체포했습니다	-3663
▁갇	-3664
▁덕	-3665
▁썼	-3666
▁쟁	-3667
▁탓	-3668
▁홀	-3669
거돈	-3670
국제	-3671
수로	-3672
폭력	-3673
허가	-3674
▁49	-3675
▁강한	-3676
▁걸린	-3677
▁당사	-3678
▁데다	-3679
▁마시	-3680
▁말한	-3681
▁매점	-3682
▁몰고	-3683
▁보조	-3684
▁연속	-3685
▁이슬	-3686
▁통한	-3687
▁검사가	-3688
▁검찰총	-3689
▁규모의	-3690
▁넘겨진	-3691
▁수칙을	-3692
▁오거돈	-3693
▁제출한	-3694
▁지역에	-3695
▁필리핀	-3696
▁도로교통	-3697
▁행정안전	-3698
▁전해주시죠	-3699
▁슬	-3700
▁엘	-3701
▁짓	-3702
▁흐	-3703
관과	-3704
기업	-3705
내고	-3706
만에	-3707
법은	-3708
분간	-3709
수석	-3710
연히	-3711
월에	-3712
자도	-3713
희롱	-3714
▁52	-3715
▁걸어	-3716
▁군이	-3717
▁따라	-3718
▁모집	-3719
▁번호	-3720
▁북부	-3721
▁비가	-3722
▁사격	-3723
▁수험	-3724
▁실태	-3725
▁알게	-3726
▁위로	-3727
▁이내	-3728
▁입증	-3729
▁죄송	-3730
▁중부	-3731
▁항소	-3732
▁해안	-3733
주에서	-3734
▁대학생	-3735
▁동선을	-3736
▁드러나	-3737
▁들어갔	-3738
▁보건소	-3739
▁보인다	-3740
▁산사태	-3741
▁성희롱	-3742
▁숨지는	-3743
▁아들이	-3744
▁유리창	-3745
▁전부터	-3746
▁조사한	-3747
▁2019	-3748
▁국회에서	-3749
▁담겼습니다	-3750
▁전망입니다	-3751
▁혈중알코올	-3752
▁짚	-3753
관의	-3754
성과	-3755
이기	-3756
타임	-3757
▁48	-3758
▁55	-3759
▁가는	-3760
▁결혼	-3761
▁기술	-3762
▁보육	-3763
▁스쿨	-3764
▁재발	-3765
▁취해	-3766
▁카페	-3767
구에서	-3768
이라며	-3769
폴리스	-3770
하려고	-3771
▁신청을	-3772
▁안타까	-3773
▁이뤄진	-3774
▁장례식	-3775
▁장면이	-3776
▁최대한	-3777
▁흉기로	-3778
▁경기남부	-3779
▁경찰청은	-3780
▁공무원이	-3781
▁사망자는	-3782
▁진행되고	-3783
▁초등학생	-3784
▁구속영장이	-3785
▁열렸습니다	-3786
▁행정명령을	-3787
▁혈중알코올농	-3788
▁묶	-3789
▁휠	-3790
노총	-3791
령이	-3792
르지	-3793
리다	-3794
시켜	-3795
의회	-3796
이너	-3797
판매	-3798
퓨터	-3799
▁56	-3800
▁귀가	-3801
▁대체	-3802
▁등도	-3803
▁명확	-3804
▁몸을	-3805
▁벌여	-3806
▁비정	-3807
▁유죄	-3808
▁종결	-3809
▁총에	-3810
▁충청	-3811
▁토론	-3812
▁현실	-3813
았다고	-3814
었다는	-3815
▁건데요	-3816
▁경우도	-3817
▁붙잡힌	-3818
▁의무화	-3819
▁주진우	-3820
▁진행할	-3821
▁컴퓨터	-3822
▁콜센터	-3823
위원회를	-3824
▁많습니다	-3825
▁옮겨졌지만	-3826
▁해명했습니다	-3827
▁꼭	-3828
각을	-3829
대문	-3830
대한	-3831
망을	-3832
장도	-3833
질심	-3834
체가	-3835
판에	-3836
한테	-3837
▁가입	-3838
▁강경	-3839
▁고령	-3840
▁나는	-3841
▁면담	-3842
▁분명	-3843
▁비율	-3844
▁상습	-3845
▁수행	-3846
▁입수	-3847
▁잠수	-3848
▁종업	-3849
▁주는	-3850
▁취약	-3851
▁탄핵	-3852
▁퇴직	-3853
▁파티	-3854
▁달아난	-3855
▁명으로	-3856
▁시작한	-3857
▁연락을	-3858
▁음식점	-3859
▁이슬람	-3860
▁정인이	-3861
▁화재가	-3862
경찰서에	-3863
▁봤습니다	-3864
▁없었다고	-3865
▁임시생활	-3866
▁서울중앙지법	-3867
▁밟	-3868
▁탔	-3869
기간	-3870
끄러	-3871
등록	-3872
량의	-3873
렸다	-3874
스러	-3875
일간	-3876
점검	-3877
주행	-3878
표를	-3879
행정	-3880
▁65	-3881
▁가슴	-3882
▁강요	-3883
▁도박	-3884
▁도중	-3885
▁독립	-3886
▁등장	-3887
▁매장	-3888
▁바뀌	-3889
▁복지	-3890
▁상해	-3891
▁성적	-3892
▁시속	-3893
▁연기	-3894
▁입양	-3895
▁조선	-3896
▁초기	-3897
조치를	-3898
▁못하는	-3899
▁법원이	-3900
▁상당의	-3901
▁수사권	-3902
▁스쿨존	-3903
▁아니다	-3904
▁일당이	-3905
전문기관	-3906
▁2014	-3907
▁없었지만	-3908
▁중국에서	-3909
▁보였습니다	-3910
▁열었습니다	-3911
▁전문가들은	-3912
▁U	-3913
▁뽑	-3914
▁텐	-3915
게는	-3916
결과	-3917
시각	-3918
약을	-3919
어져	-3920
▁51	-3921
▁걸려	-3922
▁긴장	-3923
▁내놓	-3924
▁딸을	-3925
▁마주	-3926
▁며칠	-3927
▁반성	-3928
▁상임	-3929
▁생명	-3930
▁세종	-3931
▁연루	-3932
▁오른	-3933
▁이로	-3934
▁저장	-3935
▁적은	-3936
▁제품	-3937
된다고	-3938
에게는	-3939
중처벌	-3940
▁국방부	-3941
▁아이의	-3942
▁입국한	-3943
▁경찰관이	-3944
▁경찰에서	-3945
▁대중교통	-3946
▁민식이법	-3947
▁반대하는	-3948
▁소방대원	-3949
▁이어지는	-3950
▁인천공항	-3951
▁지방자치	-3952
▁공직선거법	-3953
▁들었습니다	-3954
▁능	-3955
▁즐	-3956
경을	-3957
귀포	-3958
대학	-3959
되어	-3960
방이	-3961
보험	-3962
일과	-3963
정은	-3964
팀을	-3965
▁개최	-3966
▁남은	-3967
▁된다	-3968
▁뒤인	-3969
▁반박	-3970
▁방화	-3971
▁부사	-3972
▁술집	-3973
▁영화	-3974
▁일자	-3975
▁지능	-3976
▁태운	-3977
▁화면	-3978
▁휘두	-3979
상으로	-3980
이지만	-3981
▁달하는	-3982
▁대한민	-3983
▁불가능	-3984
▁서귀포	-3985
▁실종자	-3986
▁쓰레기	-3987
▁연기가	-3988
▁위험이	-3989
▁중요한	-3990
▁직원을	-3991
▁차량의	-3992
▁철저히	-3993
▁확보해	-3994
▁블랙박스	-3995
▁집행유예	-3996
▁들이받았습니다	-3997
▁샤	-3998
▁흙	-3999
금이	-4000
단속	-4001
받는	-4002
아동	-4003
어도	-4004
치사	-4005
포츠	-4006
▁공익	-4007
▁괴롭	-4008
▁국적	-4009
▁끝나	-4010
▁업소	-4011
▁유도	-4012
▁자주	-4013
▁제도	-4014
▁존재	-4015
▁주인	-4016
▁질문	-4017
▁총회	-4018
▁포항	-4019
됐으며	-4020
▁감식을	-4021
▁다녀온	-4022
▁달리던	-4023
▁마치고	-4024
▁사무실	-4025
▁상당히	-4026
▁수험생	-4027
▁신고로	-4028
▁이번이	-4029
▁입건해	-4030
▁지키지	-4031
▁고등학교	-4032
▁고소장을	-4033
▁근처에서	-4034
▁사망자가	-4035
▁스마트폰	-4036
▁않았지만	-4037
▁꺼졌습니다	-4038
▁압수수색을	-4039
▁예상됩니다	-4040
▁전국적으로	-4041
▁플로이드의	-4042
NA	-4043
▁뜯	-4044
▁펼	-4045
건은	-4046
권이	-4047
회로	-4048
▁AP	-4049
▁고립	-4050
▁끝난	-4051
▁담은	-4052
▁뜻을	-4053
▁박찬	-4054
▁보행	-4055
▁분야	-4056
▁시점	-4057
▁엄벌	-4058
▁없을	-4059
▁오래	-4060
▁작동	-4061
▁잠적	-4062
▁전직	-4063
▁찾은	-4064
라면서	-4065
원들이	-4066
▁도착한	-4067
▁또다시	-4068
▁사회복	-4069
▁인근에	-4070
▁지금은	-4071
▁탈북민	-4072
▁목소리를	-4073
▁사람들을	-4074
▁승용차를	-4075
▁진단검사를	-4076
▁덜	-4077
▁띄	-4078
▁멀	-4079
▁멍	-4080
▁쓸	-4081
▁찔	-4082
▁컸	-4083
감독	-4084
고용	-4085
기지	-4086
라면	-4087
선에	-4088
수록	-4089
씨에	-4090
주를	-4091
질을	-4092
차에	-4093
▁건의	-4094
▁누리	-4095
▁듣고	-4096
▁마구	-4097
▁물리	-4098
▁미니	-4099
▁심리	-4100
▁조국	-4101
▁파견	-4102
▁하자	-4103
▁해운	-4104
▁흔들	-4105
판정을	-4106
포스트	-4107
하다며	-4108
행위를	-4109
▁과태료	-4110
▁끊이지	-4111
▁들어간	-4112
▁무면허	-4113
▁백신을	-4114
▁부장판	-4115
▁시설을	-4116
▁통해서	-4117
▁국회의원	-4118
▁아니라고	-4119
▁이뤄지지	-4120
▁카메라를	-4121
▁개인정보를	-4122
▁필요하다고	-4123
▁공개됐습니다	-4124
▁호소했습니다	-4125
▁I	-4126
▁줬	-4127
국민	-4128
나요	-4129
렸고	-4130
성에	-4131
세대	-4132
으니	-4133
인에	-4134
▁가던	-4135
▁감소	-4136
▁게임	-4137
▁반영	-4138
▁배송	-4139
▁부근	-4140
▁빼돌	-4141
▁설립	-4142
▁식품	-4143
▁예비	-4144
▁용산	-4145
▁장소	-4146
▁펜션	-4147
기까지	-4148
보호법	-4149
에서만	-4150
으로는	-4151
이어서	-4152
▁것이다	-4153
▁목사가	-4154
▁세월호	-4155
▁심하게	-4156
▁유튜버	-4157
▁이같은	-4158
▁이어질	-4159
▁일어나	-4160
▁있고요	-4161
▁저희가	-4162
▁정치적	-4163
▁폐기물	-4164
▁행동을	-4165
▁거주하는	-4166
▁보건복지	-4167
▁해상에서	-4168
▁답했습니다	-4169
▁객	-4170
▁깔	-4171
▁떼	-4172
▁쉬	-4173
▁캐	-4174
길을	-4175
났다	-4176
디아	-4177
소방	-4178
어난	-4179
웨이	-4180
주고	-4181
체육	-4182
▁강훈	-4183
▁검역	-4184
▁공적	-4185
▁그냥	-4186
▁끌어	-4187
▁동부	-4188
▁만인	-4189
▁모텔	-4190
▁목포	-4191
▁무료	-4192
▁발의	-4193
▁병상	-4194
▁불로	-4195
▁성남	-4196
▁은폐	-4197
▁자연	-4198
▁잡고	-4199
▁정세	-4200
▁주재	-4201
▁지구	-4202
▁진실	-4203
▁차지	-4204
▁폭동	-4205
서비스	-4206
▁DNA	-4207
▁경상남	-4208
▁국무총	-4209
▁사람의	-4210
▁사사건	-4211
▁사업을	-4212
▁사용한	-4213
▁시민이	-4214
▁어기고	-4215
▁택시를	-4216
▁해운대	-4217
인재개발	-4218
▁공장에서	-4219
▁국민청원	-4220
▁메시지를	-4221
▁목적으로	-4222
▁민주노총	-4223
▁보건당국	-4224
▁사람들은	-4225
▁아니냐는	-4226
▁유흥업소	-4227
▁이후에도	-4228
▁학생들이	-4229
▁일어났습니다	-4230
▁선고받았습니다	-4231
▁쌍	-4232
가에	-4233
되며	-4234
리포	-4235
매석	-4236
물로	-4237
살인	-4238
상현	-4239
스코	-4240
시코	-4241
시킨	-4242
해도	-4243
▁72	-4244
▁고객	-4245
▁김기	-4246
▁눈에	-4247
▁다리	-4248
▁대면	-4249
▁도와	-4250
▁되면	-4251
▁목사	-4252
▁분양	-4253
▁서초	-4254
▁유상	-4255
▁재심	-4256
▁정기	-4257
▁철도	-4258
▁측의	-4259
▁타이	-4260
▁현수	-4261
납니다	-4262
시스템	-4263
테이너	-4264
회에서	-4265
▁400	-4266
▁가해자	-4267
▁공개된	-4268
▁과정에	-4269
▁기사를	-4270
▁뉴스딱	-4271
▁둘러싼	-4272
▁미니애	-4273
▁안으로	-4274
▁여파로	-4275
▁장관이	-4276
▁정세균	-4277
▁증거가	-4278
▁지역을	-4279
▁협조를	-4280
렀습니다	-4281
중입니다	-4282
▁것이라는	-4283
▁매점매석	-4284
▁비정규직	-4285
▁사사건건	-4286
▁신상공개	-4287
▁이들에게	-4288
▁조주빈이	-4289
▁내놨습니다	-4290
▁브리핑에서	-4291
▁미니애폴리스	-4292
▁의뢰했습니다	-4293
▁J	-4294
▁똑	-4295
▁젊	-4296
내려	-4297
년의	-4298
법과	-4299
산업	-4300
전자	-4301
제의	-4302
조정	-4303
주지	-4304
질환	-4305
탄을	-4306
▁동해	-4307
▁몰아	-4308
▁무장	-4309
▁발전	-4310
▁보냈	-4311
▁빌려	-4312
▁빚어	-4313
▁산책	-4314
▁센터	-4315
▁속여	-4316
▁숙박	-4317
▁스트	-4318
▁안팎	-4319
▁애초	-4320
▁이행	-4321
▁자제	-4322
▁재확	-4323
▁전역	-4324
▁제정	-4325
▁주문	-4326
▁줄어	-4327
▁크레	-4328
▁하기	-4329
보다는	-4330
인들이	-4331
지방법	-4332
질랜드	-4333
▁발견돼	-4334
▁아들을	-4335
▁어려워	-4336
▁운영한	-4337
▁이번엔	-4338
▁자체가	-4339
▁제외한	-4340
▁지원을	-4341
▁찾아가	-4342
▁현수막	-4343
들입니다	-4344
위원회가	-4345
▁곳입니다	-4346
▁대한민국	-4347
▁현지시각	-4348
▁인명피해는	-4349
지방경찰청은	-4350
▁경고했습니다	-4351
▁기소됐습니다	-4352
▁확보했습니다	-4353
▁E	-4354
▁궁	-4355
▁돕	-4356
▁뜨	-4357
▁붕	-4358
▁웃	-4359
▁좁	-4360
개가	-4361
길에	-4362
등을	-4363
리던	-4364
방위	-4365
상황	-4366
수산	-4367
히는	-4368
▁58	-4369
▁공권	-4370
▁구형	-4371
▁규탄	-4372
▁담겨	-4373
▁담배	-4374
▁뒤따	-4375
▁보는	-4376
▁보석	-4377
▁사칭	-4378
▁살아	-4379
▁선정	-4380
▁성공	-4381
▁송금	-4382
▁수업	-4383
▁스타	-4384
▁심야	-4385
▁심의	-4386
▁양육	-4387
▁엘리	-4388
▁육군	-4389
▁작년	-4390
▁정식	-4391
▁중순	-4392
▁청약	-4393
▁최루	-4394
▁측에	-4395
▁판정	-4396
곳에서	-4397
쪽으로	-4398
▁가로챈	-4399
▁건가요	-4400
▁결정할	-4401
▁관광객	-4402
▁관리에	-4403
▁내려진	-4404
▁누리꾼	-4405
▁늘어날	-4406
▁발언을	-4407
▁성북구	-4408
▁이름을	-4409
▁일하던	-4410
▁주장을	-4411
▁환자의	-4412
병원에서	-4413
▁가능성도	-4414
▁공공기관	-4415
▁변호사는	-4416
▁않는다는	-4417
▁운전자를	-4418
▁컨테이너	-4419
하겠습니다	-4420
▁서울시장의	-4421
▁올렸습니다	-4422
▁깜	-4423
▁밥	-4424
▁첩	-4425
▁팬	-4426
리의	-4427
물에	-4428
사실	-4429
상해	-4430
숙현	-4431
스탄	-4432
이탈	-4433
특별	-4434
해드	-4435
했기	-4436
환경	-4437
회사	-4438
▁고민	-4439
▁고스	-4440
▁공조	-4441
▁군을	-4442
▁닿지	-4443
▁도내	-4444
▁동승	-4445
▁됐다	-4446
▁따로	-4447
▁막을	-4448
▁목을	-4449
▁몸싸	-4450
▁발사	-4451
▁산불	-4452
▁속출	-4453
▁안정	-4454
▁외신	-4455
▁자전	-4456
▁젊은	-4457
▁차로	-4458
▁채널	-4459
▁측정	-4460
▁표시	-4461
▁화성	-4462
▁힘든	-4463
관계를	-4464
듭니다	-4465
멕시코	-4466
목으로	-4467
시설을	-4468
어머니	-4469
차례에	-4470
▁경로를	-4471
▁내에서	-4472
▁대응을	-4473
▁무죄를	-4474
▁방침을	-4475
▁분석해	-4476
▁시위는	-4477
▁쓰러진	-4478
▁제기한	-4479
▁주장이	-4480
▁차량과	-4481
▁최숙현	-4482
▁취지로	-4483
▁회장은	-4484
경찰청은	-4485
영입니다	-4486
장실질심	-4487
▁2020	-4488
▁경찰관의	-4489
▁만입니다	-4490
▁신분으로	-4491
▁우한에서	-4492
▁직원들이	-4493
해왔습니다	-4494
▁아파트에서	-4495
▁예정이라고	-4496
▁진행됐습니다	-4497
▁진행했습니다	-4498
DD	-4499
▁닷	-4500
▁섬	-4501
▁쇠	-4502
▁척	-4503
가며	-4504
개의	-4505
교사	-4506
드를	-4507
받을	-4508
발을	-4509
와의	-4510
음이	-4511
▁관악	-4512
▁규명	-4513
▁넘긴	-4514
▁닷새	-4515
▁딸이	-4516
▁떠나	-4517
▁똑같	-4518
▁만난	-4519
▁멈추	-4520
▁물어	-4521
▁바다	-4522
▁빠른	-4523
▁수입	-4524
▁수출	-4525
▁씨도	-4526
▁엄격	-4527
▁여름	-4528
▁전원	-4529
▁전쟁	-4530
▁찾기	-4531
▁추격	-4532
▁특혜	-4533
▁평택	-4534
▁해변	-4535
네시아	-4536
단계로	-4537
번호를	-4538
시간여	-4539
시에서	-4540
위에서	-4541
▁ADD	-4542
▁금품을	-4543
▁말레이	-4544
▁부분이	-4545
▁생각이	-4546
▁소식을	-4547
▁수사는	-4548
▁스포츠	-4549
▁쓰러져	-4550
▁아이는	-4551
▁여자친	-4552
▁욕설을	-4553
▁이어진	-4554
▁잇따르	-4555
▁있어야	-4556
▁장애인	-4557
▁전까지	-4558
▁충격을	-4559
▁피해는	-4560
국제공항	-4561
자들에게	-4562
회의에서	-4563
▁고스란히	-4564
▁국정원법	-4565
▁남성에게	-4566
▁대통령을	-4567
▁명예훼손	-4568
▁보수단체	-4569
▁성폭행한	-4570
▁어린이가	-4571
▁위반으로	-4572
▁재판에서	-4573
▁추정하고	-4574
▁하는데요	-4575
▁구속했습니다	-4576
▁묘	-4577
▁액	-4578
▁흥	-4579
기술	-4580
로가	-4581
뮤니	-4582
스의	-4583
여서	-4584
졌던	-4585
지인	-4586
청이	-4587
층에	-4588
▁LG	-4589
▁개설	-4590
▁고향	-4591
▁공판	-4592
▁국과	-4593
▁네팔	-4594
▁대남	-4595
▁무려	-4596
▁물품	-4597
▁받기	-4598
▁배상	-4599
▁브라	-4600
▁빨리	-4601
▁선언	-4602
▁순식	-4603
▁숨을	-4604
▁암호	-4605
▁양의	-4606
▁유권	-4607
▁의식	-4608
▁정무	-4609
▁조회	-4610
▁종료	-4611
▁짚어	-4612
▁해군	-4613
▁혼란	-4614
면서도	-4615
▁700	-4616
▁가담한	-4617
▁계기로	-4618
▁관심이	-4619
▁박찬형	-4620
▁반정부	-4621
▁방역을	-4622
▁별도로	-4623
▁부상을	-4624
▁소방서	-4625
▁시간에	-4626
▁없도록	-4627
▁자전거	-4628
▁정부와	-4629
▁처리를	-4630
▁커뮤니	-4631
▁확인을	-4632
셨습니다	-4633
▁구속기소	-4634
▁법무부는	-4635
▁순식간에	-4636
▁조주빈의	-4637
시켰습니다	-4638
▁인도네시아	-4639
▁쏘	-4640
▁찌	-4641
▁칼	-4642
▁콘	-4643
▁튀	-4644
국이	-4645
권은	-4646
동에	-4647
만여	-4648
분의	-4649
으려	-4650
장치	-4651
행이	-4652
형이	-4653
호선	-4654
화학	-4655
▁44	-4656
▁57	-4657
▁강릉	-4658
▁개의	-4659
▁거죠	-4660
▁건축	-4661
▁과학	-4662
▁기초	-4663
▁나이	-4664
▁대폭	-4665
▁동선	-4666
▁두려	-4667
▁때린	-4668
▁마신	-4669
▁맞고	-4670
▁미만	-4671
▁바탕	-4672
▁방사	-4673
▁배제	-4674
▁불꽃	-4675
▁비닐	-4676
▁상가	-4677
▁수치	-4678
▁시절	-4679
▁연일	-4680
▁운용	-4681
▁잃고	-4682
▁자수	-4683
▁창녕	-4684
▁체류	-4685
▁측근	-4686
▁치솟	-4687
▁투약	-4688
▁하게	-4689
▁홍보	-4690
졌다는	-4691
▁가방에	-4692
▁고의로	-4693
▁교차로	-4694
▁도움이	-4695
▁뒤에도	-4696
▁들어와	-4697
▁멕시코	-4698
▁방문해	-4699
▁베이징	-4700
▁북한이	-4701
▁사고는	-4702
▁유학생	-4703
▁이르는	-4704
▁이유가	-4705
▁이유는	-4706
▁일부는	-4707
▁정도가	-4708
▁중국의	-4709
▁중상을	-4710
▁증상을	-4711
▁지목된	-4712
▁필요가	-4713
▁하다가	-4714
이었는데	-4715
▁경우에는	-4716
▁대변인은	-4717
▁민주당이	-4718
▁부산에서	-4719
▁시간으로	-4720
▁우리나라	-4721
▁자택에서	-4722
▁커뮤니티	-4723
▁확인하는	-4724
▁국가보안법	-4725
▁당했습니다	-4726
▁많았습니다	-4727
▁말레이시아	-4728
▁집단감염이	-4729
▁지방자치단체	-4730
▁셈	-4731
▁짧	-4732
▁흰	-4733
검색	-4734
광역	-4735
군을	-4736
됐을	-4737
소송	-4738
심한	-4739
아이	-4740
지며	-4741
팀은	-4742
▁거론	-4743
▁뒤집	-4744
▁목표	-4745
▁미뤄	-4746
▁민정	-4747
▁불에	-4748
▁소셜	-4749
▁수요	-4750
▁않다	-4751
▁역사	-4752
▁요즘	-4753
▁이루	-4754
▁일간	-4755
▁전략	-4756
▁정권	-4757
▁조성	-4758
▁지내	-4759
▁털어	-4760
▁현황	-4761
▁화염	-4762
▁확실	-4763
▁힘을	-4764
베이터	-4765
시설에	-4766
▁강력히	-4767
▁공개한	-4768
▁다리를	-4769
▁대표가	-4770
▁받아야	-4771
▁부모는	-4772
▁북한의	-4773
▁생각을	-4774
▁소식은	-4775
▁소식이	-4776
▁손해배	-4777
▁수사와	-4778
▁신원이	-4779
▁언론은	-4780
▁의사당	-4781
▁제주시	-4782
▁주변을	-4783
▁지시를	-4784
▁학교에	-4785
▁후베이	-4786
▁후원금	-4787
었는데요	-4788
▁공수처법	-4789
▁수법으로	-4790
▁주장하고	-4791
▁확인하기	-4792
▁엘리베이터	-4793
▁영장실질심	-4794
▁주장합니다	-4795
▁집중적으로	-4796
DC	-4797
▁런	-4798
▁뭔	-4799
▁옹	-4800
교도	-4801
들어	-4802
분에	-4803
산을	-4804
상의	-4805
서야	-4806
중이	-4807
청과	-4808
호우	-4809
▁41	-4810
▁개표	-4811
▁공무	-4812
▁급히	-4813
▁길이	-4814
▁나설	-4815
▁명도	-4816
▁모욕	-4817
▁식사	-4818
▁적혀	-4819
▁정체	-4820
▁찾는	-4821
였는데	-4822
이었고	-4823
▁600	-4824
▁가족과	-4825
▁달아나	-4826
▁대구시	-4827
▁도로에	-4828
▁모르는	-4829
▁바닥에	-4830
▁분석한	-4831
▁비공개	-4832
▁비판이	-4833
▁사실도	-4834
▁설치해	-4835
▁시장을	-4836
▁신상을	-4837
▁아래로	-4838
▁일부가	-4839
▁참가자	-4840
▁참여한	-4841
센터에서	-4842
▁들이받고	-4843
▁방문판매	-4844
▁시민들은	-4845
▁집중호우	-4846
▁모습입니다	-4847
▁시작합니다	-4848
▁처음입니다	-4849
▁발견했습니다	-4850
▁붙잡았습니다	-4851
▁조사했습니다	-4852
▁지능범죄수사	-4853
▁아동보호전문기관	-4854
▁류	-4855
▁흡	-4856
개로	-4857
계에	-4858
공원	-4859
기의	-4860
도와	-4861
든지	-4862
들인	-4863
마저	-4864
목을	-4865
문은	-4866
문화	-4867
보기	-4868
부도	-4869
소와	-4870
업자	-4871
처리	-4872
환자	-4873
▁강서	-4874
▁격렬	-4875
▁교체	-4876
▁구축	-4877
▁내에	-4878
▁동네	-4879
▁동참	-4880
▁런던	-4881
▁맡은	-4882
▁무사	-4883
▁보기	-4884
▁아빠	-4885
▁아프	-4886
▁앱을	-4887
▁업주	-4888
▁역대	-4889
▁우편	-4890
▁주행	-4891
▁진영	-4892
▁탓에	-4893
▁특례	-4894
▁한글	-4895
▁한때	-4896
였지만	-4897
음에도	-4898
▁가족의	-4899
▁검사는	-4900
▁규정을	-4901
▁단속에	-4902
▁때마다	-4903
▁미끄러	-4904
▁반응을	-4905
▁범죄에	-4906
▁범행에	-4907
▁불기소	-4908
▁불리는	-4909
▁사례는	-4910
▁상황은	-4911
▁수천만	-4912
▁없다며	-4913
▁올라온	-4914
▁유치원	-4915
▁의원님	-4916
▁의원의	-4917
▁이재명	-4918
▁이후에	-4919
▁인력을	-4920
▁자유를	-4921
▁조치에	-4922
▁착취물	-4923
▁처벌이	-4924
▁확진된	-4925
▁등입니다	-4926
▁사회복무	-4927
▁신상정보	-4928
▁차원에서	-4929
▁특별수사	-4930
▁폐쇄회로	-4931
▁관련해서는	-4932
▁내용입니다	-4933
▁인터뷰에서	-4934
▁공개했습니다	-4935
▁기각했습니다	-4936
▁전해드립니다	-4937
▁맥	-4938
▁슈	-4939
▁쏜	-4940
구와	-4941
달아	-4942
레탄	-4943
산의	-4944
상태	-4945
식에	-4946
실로	-4947
예요	-4948
치지	-4949
▁54	-4950
▁75	-4951
▁공천	-4952
▁그가	-4953
▁그룹	-4954
▁금은	-4955
▁기침	-4956
▁대대	-4957
▁대마	-4958
▁모양	-4959
▁받던	-4960
▁범인	-4961
▁붕괴	-4962
▁비교	-4963
▁빼앗	-4964
▁선임	-4965
▁수칙	-4966
▁승인	-4967
▁쌓여	-4968
▁어떻	-4969
▁완료	-4970
▁전라	-4971
▁접경	-4972
▁진짜	-4973
▁체온	-4974
▁포렌	-4975
▁헌법	-4976
▁헬기	-4977
▁화장	-4978
▁고위험	-4979
▁고통을	-4980
▁곳으로	-4981
▁로이터	-4982
▁마찬가	-4983
▁무증상	-4984
▁문제의	-4985
▁방지를	-4986
▁불가피	-4987
▁사전에	-4988
▁사진과	-4989
▁상태가	-4990
▁소송을	-4991
▁속에서	-4992
▁숨졌고	-4993
▁신호를	-4994
▁우레탄	-4995
▁일가족	-4996
▁일하는	-4997
▁점검을	-4998
▁정황을	-4999
▁참석자	-5000
▁현재는	-5001
▁희생자	-5002
▁개정안은	-5003
▁구속하고	-5004
▁규정하고	-5005
▁대공수사	-5006
▁무단이탈	-5007
▁바탕으로	-5008
▁받았다고	-5009
▁부산시는	-5010
▁아버지가	-5011
▁않았다는	-5012
▁유족들은	-5013
▁화장실에	-5014
▁계획이라고	-5015
▁인정했습니다	-5016
▁인천국제공항	-5017
▁잇따랐습니다	-5018
▁곡	-5019
▁냈	-5020
▁캘	-5021
관찰	-5022
기록	-5023
단의	-5024
디어	-5025
리게	-5026
리자	-5027
리카	-5028
발찌	-5029
사기	-5030
수도	-5031
수에	-5032
왔고	-5033
운용	-5034
인트	-5035
장관	-5036
재판	-5037
전에	-5038
직원	-5039
체포	-5040
카오	-5041
크를	-5042
피아	-5043
해주	-5044
협회	-5045
500	-5046
▁감금	-5047
▁결제	-5048
▁남녀	-5049
▁때려	-5050
▁뚫고	-5051
▁말고	-5052
▁무리	-5053
▁바라	-5054
▁박지	-5055
▁벨라	-5056
▁보다	-5057
▁보완	-5058
▁부패	-5059
▁비해	-5060
▁산하	-5061
▁숨져	-5062
▁열흘	-5063
▁자진	-5064
▁제압	-5065
▁집어	-5066
▁차가	-5067
▁치러	-5068
▁파출	-5069
▁폐렴	-5070
▁포장	-5071
▁화학	-5072
▁휩쓸	-5073
층짜리	-5074
▁강제로	-5075
▁검찰과	-5076
▁결과는	-5077
▁기록을	-5078
▁난동을	-5079
▁남성과	-5080
▁돌아가	-5081
▁들여다	-5082
▁발생할	-5083
▁발표한	-5084
▁버스를	-5085
▁사태로	-5086
▁신청할	-5087
▁요청을	-5088
▁의혹과	-5089
▁입장이	-5090
▁정보가	-5091
▁진행한	-5092
▁징계를	-5093
▁판매한	-5094
▁후보가	-5095
▁검사에서	-5096
▁계속해서	-5097
▁뉴질랜드	-5098
▁전자발찌	-5099
▁중앙선을	-5100
▁화물차가	-5101
▁시간입니다	-5102
▁신천지교회	-5103
▁부인했습니다	-5104
▁지시했습니다	-5105
▁꼽	-5106
▁꿇	-5107
▁삶	-5108
격을	-5109
려다	-5110
번에	-5111
북부	-5112
용한	-5113
있던	-5114
주에	-5115
초섬	-5116
희석	-5117
▁62	-5118
▁가량	-5119
▁가진	-5120
▁강풍	-5121
▁격상	-5122
▁곳을	-5123
▁공연	-5124
▁관여	-5125
▁군과	-5126
▁난입	-5127
▁다툼	-5128
▁도난	-5129
▁동행	-5130
▁마이	-5131
▁맞춰	-5132
▁모르	-5133
▁무더	-5134
▁물이	-5135
▁반출	-5136
▁빌라	-5137
▁전용	-5138
▁절단	-5139
▁초과	-5140
▁해킹	-5141
리면서	-5142
방에서	-5143
청소년	-5144
▁가족이	-5145
▁같아요	-5146
▁거리를	-5147
▁결과에	-5148
▁교도소	-5149
▁기소의	-5150
▁기자회	-5151
▁단체가	-5152
▁당국에	-5153
▁발견해	-5154
▁벗어나	-5155
▁벨라루	-5156
▁병원을	-5157
▁분위기	-5158
▁설치돼	-5159
▁시신이	-5160
▁없었고	-5161
▁유증상	-5162
▁잠수교	-5163
▁차이가	-5164
▁춘천시	-5165
▁캘리포	-5166
▁태우고	-5167
▁판단해	-5168
▁하거나	-5169
사법경찰	-5170
▁극단적인	-5171
▁불법으로	-5172
▁스트레스	-5173
▁시장에게	-5174
▁않는다고	-5175
▁영상물을	-5176
▁전역에서	-5177
▁지하차도	-5178
▁캘리포니아	-5179
▁피해자들은	-5180
▁피해자들이	-5181
▁검거했습니다	-5182
▁발부했습니다	-5183
▁제기됐습니다	-5184
FP	-5185
▁렌	-5186
▁큽	-5187
구조	-5188
구치	-5189
국회	-5190
금융	-5191
력과	-5192
보면	-5193
일러	-5194
청을	-5195
▁감정	-5196
▁거제	-5197
▁광역	-5198
▁꺼내	-5199
▁동안	-5200
▁때도	-5201
▁머무	-5202
▁명백	-5203
▁미군	-5204
▁보복	-5205
▁성인	-5206
▁소홀	-5207
▁수리	-5208
▁심사	-5209
▁심한	-5210
▁완화	-5211
▁이란	-5212
▁이중	-5213
▁인계	-5214
▁일고	-5215
▁일상	-5216
▁장갑	-5217
▁장을	-5218
▁접속	-5219
▁제지	-5220
▁폭로	-5221
▁풀려	-5222
▁풀어	-5223
▁해고	-5224
▁후속	-5225
▁흔적	-5226
지기도	-5227
▁AFP	-5228
▁고소한	-5229
▁관리를	-5230
▁다수의	-5231
▁데이터	-5232
▁때리고	-5233
▁아직도	-5234
▁안에는	-5235
▁여성과	-5236
▁운영진	-5237
▁위안부	-5238
▁의암댐	-5239
▁정도의	-5240
▁직원의	-5241
▁판단을	-5242
▁행위는	-5243
▁허가를	-5244
▁환자를	-5245
안전대책	-5246
▁긴급체포	-5247
▁부인하고	-5248
▁사전투표	-5249
▁업무방해	-5250
▁지역사회	-5251
▁지적장애	-5252
▁택시기사	-5253
▁필요하다	-5254
▁해당하는	-5255
▁검거됐습니다	-5256
▁넓	-5257
▁왜	-5258
면을	-5259
반이	-5260
위로	-5261
책을	-5262
▁가동	-5263
▁건지	-5264
▁김남	-5265
▁나간	-5266
▁남긴	-5267
▁내세	-5268
▁바꾸	-5269
▁밖에	-5270
▁법을	-5271
▁보통	-5272
▁붙어	-5273
▁사다	-5274
▁상승	-5275
▁수익	-5276
▁시각	-5277
▁실질	-5278
▁악화	-5279
▁양형	-5280
▁언제	-5281
▁연예	-5282
▁영수	-5283
▁유인	-5284
▁재범	-5285
▁직권	-5286
▁질주	-5287
▁첫날	-5288
▁투기	-5289
▁향후	-5290
▁형제	-5291
▁휴가	-5292
대병원	-5293
스러운	-5294
았지만	-5295
적이고	-5296
점에서	-5297
청에서	-5298
▁감염경	-5299
▁교사가	-5300
▁대사관	-5301
▁대상은	-5302
▁동영상	-5303
▁들어오	-5304
▁무기징	-5305
▁무차별	-5306
▁별도의	-5307
▁보이고	-5308
▁본인이	-5309
▁상태를	-5310
▁쇼핑몰	-5311
▁수색을	-5312
▁실시간	-5313
▁업체가	-5314
▁업체를	-5315
▁없었던	-5316
▁여학생	-5317
▁이들에	-5318
▁이르면	-5319
▁인정한	-5320
▁진행된	-5321
▁출동해	-5322
▁충청북	-5323
▁큽니다	-5324
▁타이완	-5325
▁학생이	-5326
▁회의를	-5327
▁개정안을	-5328
▁국토교통	-5329
▁넘습니다	-5330
▁달합니다	-5331
▁명목으로	-5332
▁반발하고	-5333
▁보안검색	-5334
▁생활치료	-5335
▁서울시장	-5336
▁소방당국	-5337
▁안타까운	-5338
▁위해서는	-5339
▁이릅니다	-5340
▁전국에서	-5341
▁추적하고	-5342
▁피해자들을	-5343
▁감염병예방법	-5344
▁굴	-5345
▁넉	-5346
▁밑	-5347
▁봐	-5348
▁층	-5349
년째	-5350
든가	-5351
량은	-5352
려가	-5353
르며	-5354
반기	-5355
없는	-5356
자료	-5357
전쟁	-5358
천시	-5359
측이	-5360
▁59	-5361
▁63	-5362
▁74	-5363
▁갑질	-5364
▁검증	-5365
▁공중	-5366
▁구금	-5367
▁구로	-5368
▁군인	-5369
▁규제	-5370
▁그때	-5371
▁달러	-5372
▁돈이	-5373
▁마트	-5374
▁명과	-5375
▁밀접	-5376
▁방법	-5377
▁배포	-5378
▁법사	-5379
▁불량	-5380
▁비리	-5381
▁빠진	-5382
▁살던	-5383
▁서부	-5384
▁스토	-5385
▁신용	-5386
▁실패	-5387
▁유입	-5388
▁이만	-5389
▁이스	-5390
▁전염	-5391
▁주소	-5392
▁주호	-5393
▁중증	-5394
▁파리	-5395
▁표결	-5396
▁해임	-5397
▁행진	-5398
▁홀로	-5399
▁화상	-5400
▁흉기	-5401
되는데	-5402
렸다고	-5403
았는데	-5404
▁검거된	-5405
▁공소장	-5406
▁과정을	-5407
▁구성된	-5408
▁목사는	-5409
▁보건용	-5410
▁부부가	-5411
▁부분을	-5412
▁사라진	-5413
▁상처를	-5414
▁생활을	-5415
▁소독제	-5416
▁수사도	-5417
▁신청한	-5418
▁실형을	-5419
▁아시아	-5420
▁않았던	-5421
▁없지만	-5422
▁여부는	-5423
▁응하지	-5424
▁이름과	-5425
▁인원이	-5426
▁장비를	-5427
▁적용할	-5428
▁정치권	-5429
▁종로구	-5430
▁주민이	-5431
▁철저한	-5432
▁체포해	-5433
▁파악한	-5434
▁판결을	-5435
▁폭력을	-5436
들로부터	-5437
시설에서	-5438
▁2013	-5439
▁마스크와	-5440
▁받았지만	-5441
▁발생하는	-5442
▁방역수칙	-5443
▁보호관찰	-5444
▁전수조사	-5445
▁통행금지	-5446
▁자가격리를	-5447
▁G	-5448
▁美	-5449
▁꼬	-5450
▁낳	-5451
▁엿	-5452
▁옛	-5453
경제	-5454
관광	-5455
그러	-5456
널드	-5457
두환	-5458
력에	-5459
망이	-5460
머스	-5461
시로	-5462
연금	-5463
왔다	-5464
운티	-5465
▁66	-5466
▁거창	-5467
▁경험	-5468
▁그랬	-5469
▁노예	-5470
▁느끼	-5471
▁밀수	-5472
▁배우	-5473
▁보좌	-5474
▁복구	-5475
▁서구	-5476
▁수술	-5477
▁신경	-5478
▁약국	-5479
▁연말	-5480
▁연설	-5481
▁오랜	-5482
▁요원	-5483
▁위생	-5484
▁있죠	-5485
▁적힌	-5486
▁전과	-5487
▁주식	-5488
▁중간	-5489
▁축구	-5490
▁토지	-5491
▁파주	-5492
▁필수	-5493
겠지만	-5494
분부터	-5495
비서관	-5496
▁140	-5497
▁강남구	-5498
▁경우는	-5499
▁광주시	-5500
▁기사가	-5501
▁다가가	-5502
▁말까지	-5503
▁말씀드	-5504
▁미시간	-5505
▁바란다	-5506
▁벌금을	-5507
▁범위를	-5508
▁분들이	-5509
▁성명을	-5510
▁식으로	-5511
▁열리는	-5512
▁윤상현	-5513
▁잘못된	-5514
▁전두환	-5515
▁제기된	-5516
▁지장이	-5517
▁직원은	-5518
▁집회와	-5519
▁해마다	-5520
이었지만	-5521
▁권력기관	-5522
▁발생하지	-5523
▁용의자를	-5524
▁있었다는	-5525
▁주민들의	-5526
▁주변에서	-5527
▁확산세가	-5528
▁넘었습니다	-5529
▁방역수칙을	-5530
mm	-5531
▁F	-5532
▁겹	-5533
▁꽃	-5534
▁눌	-5535
▁찢	-5536
▁칠	-5537
가락	-5538
계획	-5539
곳이	-5540
네소	-5541
대상	-5542
동물	-5543
명한	-5544
서부	-5545
수습	-5546
스터	-5547
약품	-5548
음에	-5549
인가	-5550
줄이	-5551
지사	-5552
하우	-5553
▁53	-5554
▁과속	-5555
▁구호	-5556
▁국세	-5557
▁기상	-5558
▁나누	-5559
▁도쿄	-5560
▁매달	-5561
▁모레	-5562
▁발급	-5563
▁방류	-5564
▁사재	-5565
▁선원	-5566
▁수정	-5567
▁아르	-5568
▁아마	-5569
▁안동	-5570
▁원어	-5571
▁위탁	-5572
▁인식	-5573
▁입찰	-5574
▁조항	-5575
▁주한	-5576
▁텐데	-5577
▁통합	-5578
▁퇴소	-5579
▁폐지	-5580
▁함께	-5581
▁호우	-5582
네소타	-5583
산에서	-5584
해달라	-5585
▁120	-5586
▁강화된	-5587
▁거예요	-5588
▁고양이	-5589
▁괴롭힘	-5590
▁그렇죠	-5591
▁당분간	-5592
▁당연히	-5593
▁뒤에서	-5594
▁드러난	-5595
▁밝히지	-5596
▁사우나	-5597
▁시설에	-5598
▁않을까	-5599
▁연기를	-5600
▁옮겨져	-5601
▁운전을	-5602
▁원에서	-5603
▁위해서	-5604
▁유상봉	-5605
▁음란물	-5606
▁일어났	-5607
▁작성한	-5608
▁주호영	-5609
▁참고인	-5610
▁최선을	-5611
▁충돌이	-5612
▁키워드	-5613
▁파악해	-5614
▁판단한	-5615
▁폭발이	-5616
▁화상을	-5617
청사에서	-5618
하면서도	-5619
▁가능성에	-5620
▁검찰개혁	-5621
▁받아들여	-5622
▁받았는데	-5623
▁벌어지고	-5624
▁본격적인	-5625
▁의붓아버	-5626
▁이어가고	-5627
▁접경지역	-5628
▁피의자가	-5629
▁어린이보호	-5630
▁결정했습니다	-5631
▁도착했습니다	-5632
▁포착됐습니다	-5633
▁둘	-5634
▁뻔	-5635
교생	-5636
기야	-5637
냐는	-5638
니터	-5639
달러	-5640
리도	-5641
반은	-5642
받지	-5643
방역	-5644
서에	-5645
서울	-5646
성의	-5647
스턴	-5648
안보	-5649
재해	-5650
전이	-5651
조합	-5652
치기	-5653
트가	-5654
튿날	-5655
파일	-5656
해양	-5657
▁격화	-5658
▁공군	-5659
▁과도	-5660
▁광고	-5661
▁날이	-5662
▁대치	-5663
▁복무	-5664
▁부여	-5665
▁성향	-5666
▁스페	-5667
▁시카	-5668
▁식약	-5669
▁않자	-5670
▁앞둔	-5671
▁이거	-5672
▁일방	-5673
▁임대	-5674
▁전반	-5675
▁주력	-5676
▁진주	-5677
▁차벽	-5678
▁챙겨	-5679
▁청탁	-5680
▁총기	-5681
▁치여	-5682
▁펜실	-5683
▁하늘	-5684
▁합격	-5685
▁휩싸	-5686
견으로	-5687
랍니다	-5688
명에서	-5689
버스터	-5690
시설로	-5691
시키는	-5692
왔다고	-5693
틀랜드	-5694
▁다치게	-5695
▁대검찰	-5696
▁도널드	-5697
▁따르지	-5698
▁말했다	-5699
▁모니터	-5700
▁모이는	-5701
▁민간인	-5702
▁발견한	-5703
▁법정에	-5704
▁부부는	-5705
▁사람도	-5706
▁사례를	-5707
▁사태를	-5708
▁상품권	-5709
▁서대문	-5710
▁속도로	-5711
▁아동을	-5712
▁아동의	-5713
▁아버지	-5714
▁올해는	-5715
▁요구한	-5716
▁요청한	-5717
▁이로써	-5718
▁이튿날	-5719
▁인천의	-5720
▁정부에	-5721
▁중학교	-5722
▁지금도	-5723
▁차례에	-5724
▁충분히	-5725
▁할아버	-5726
▁행사를	-5727
▁후보는	-5728
▁개정안이	-5729
▁근무하는	-5730
▁미네소타	-5731
▁받아들이	-5732
▁발생하고	-5733
▁보인다고	-5734
▁사람들의	-5735
▁서울시와	-5736
▁성추행을	-5737
▁용의자가	-5738
▁울산시장	-5739
▁일입니다	-5740
▁취재진의	-5741
▁피해자와	-5742
▁마찬가지로	-5743
▁필리버스터	-5744
▁굳	-5745
▁몇	-5746
▁핼	-5747
공직	-5748
관에	-5749
동부	-5750
로운	-5751
리티	-5752
림픽	-5753
메시	-5754
부로	-5755
사항	-5756
속히	-5757
수와	-5758
심의	-5759
안에	-5760
어는	-5761
운하	-5762
접촉	-5763
주기	-5764
평도	-5765
▁78	-5766
▁가서	-5767
▁가수	-5768
▁개학	-5769
▁궁금	-5770
▁글이	-5771
▁김해	-5772
▁깨고	-5773
▁꾸준	-5774
▁낮은	-5775
▁넘은	-5776
▁눈이	-5777
▁대답	-5778
▁되어	-5779
▁레이	-5780
▁발병	-5781
▁부부	-5782
▁부착	-5783
▁부추	-5784
▁불복	-5785
▁사찰	-5786
▁생존	-5787
▁소음	-5788
▁아주	-5789
▁악성	-5790
▁안티	-5791
▁앉아	-5792
▁엄중	-5793
▁에스	-5794
▁원룸	-5795
▁일제	-5796
▁입을	-5797
▁정비	-5798
▁조금	-5799
▁종사	-5800
▁증명	-5801
▁청문	-5802
▁촉발	-5803
▁총괄	-5804
▁축소	-5805
▁해석	-5806
▁향한	-5807
▁희망	-5808
▁흰색	-5809
대에서	-5810
복지법	-5811
통신은	-5812
▁갈등이	-5813
▁경주시	-5814
▁다니는	-5815
▁동의를	-5816
▁들어서	-5817
▁못했다	-5818
▁받았다	-5819
▁법원의	-5820
▁브라질	-5821
▁설치한	-5822
▁시카고	-5823
▁얼굴이	-5824
▁업체는	-5825
▁원으로	-5826
▁유출된	-5827
▁이스라	-5828
▁재개발	-5829
▁종업원	-5830
▁중국에	-5831
▁증세를	-5832
▁직고용	-5833
▁차례로	-5834
▁포함돼	-5835
▁협박해	-5836
▁확인이	-5837
렸는데요	-5838
▁광주광역	-5839
▁무엇보다	-5840
▁사용하는	-5841
▁시내버스	-5842
▁어머니가	-5843
▁요양병원	-5844
▁유흥주점	-5845
▁적극적인	-5846
▁전화번호	-5847
▁조두순이	-5848
▁최근까지	-5849
▁해양수산	-5850
▁확산으로	-5851
▁송치했다고	-5852
▁역학조사를	-5853
▁확진판정을	-5854
▁포함됐습니다	-5855
▁피해자들에게	-5856
▁낚	-5857
▁쉴	-5858
▁쳐	-5859
개시	-5860
군에	-5861
그룹	-5862
둥이	-5863
들목	-5864
러윈	-5865
렸던	-5866
례를	-5867
문서	-5868
발전	-5869
북한	-5870
비아	-5871
사인	-5872
세로	-5873
오던	-5874
일로	-5875
전담	-5876
종의	-5877
직을	-5878
형에	-5879
회에	-5880
▁거세	-5881
▁경주	-5882
▁계정	-5883
▁공작	-5884
▁공화	-5885
▁급격	-5886
▁깊은	-5887
▁끌고	-5888
▁나갔	-5889
▁내역	-5890
▁다르	-5891
▁도피	-5892
▁말에	-5893
▁미안	-5894
▁미흡	-5895
▁발굴	-5896
▁배경	-5897
▁살피	-5898
▁슈퍼	-5899
▁실내	-5900
▁애플	-5901
▁열차	-5902
▁유독	-5903
▁의문	-5904
▁이르	-5905
▁자율	-5906
▁재정	-5907
▁재활	-5908
▁좋은	-5909
▁출마	-5910
▁취임	-5911
▁치고	-5912
▁테이	-5913
▁호주	-5914
본부를	-5915
상에서	-5916
월에는	-5917
▁180	-5918
▁거라고	-5919
▁검찰로	-5920
▁국회에	-5921
▁돌아다	-5922
▁말씀을	-5923
▁비용을	-5924
▁소규모	-5925
▁소란을	-5926
▁시간은	-5927
▁시장에	-5928
▁신분을	-5929
▁어렵다	-5930
▁우려를	-5931
▁원인이	-5932
▁이름이	-5933
▁일요일	-5934
▁일정을	-5935
▁전국의	-5936
▁전세기	-5937
▁취지의	-5938
▁포렌식	-5939
▁학대한	-5940
▁핼러윈	-5941
▁혐의는	-5942
▁혐의와	-5943
▁화재로	-5944
▁훼손한	-5945
구역에서	-5946
▁교회에서	-5947
▁국가정보	-5948
▁국내에서	-5949
▁금지하는	-5950
▁김포공항	-5951
▁뉴욕타임	-5952
▁대통령과	-5953
▁들이받은	-5954
▁못했다고	-5955
▁서울시청	-5956
▁신속하게	-5957
▁인재개발	-5958
해졌습니다	-5959
▁걸렸습니다	-5960
▁원내대표는	-5961
▁플로이드가	-5962
▁하겠습니다	-5963
▁밝혀졌습니다	-5964
▁텔레그램에서	-5965
▁곤	-5966
▁꼼	-5967
▁꿈	-5968
▁끔	-5969
▁벤	-5970
▁뺑	-5971
당을	-5972
를린	-5973
소니	-5974
일보	-5975
자금	-5976
지기	-5977
카르	-5978
해를	-5979
▁LA	-5980
▁가방	-5981
▁고유	-5982
▁공백	-5983
▁극우	-5984
▁끔찍	-5985
▁내지	-5986
▁넣어	-5987
▁담임	-5988
▁동일	-5989
▁모른	-5990
▁밀집	-5991
▁발송	-5992
▁벌써	-5993
▁봉투	-5994
▁북측	-5995
▁뿐만	-5996
▁사각	-5997
▁산소	-5998
▁산재	-5999
▁상징	-6000
▁생후	-6001
▁설계	-6002
▁속속	-6003
▁손에	-6004
▁시급	-6005
▁쓰는	-6006
▁여수	-6007
▁열릴	-6008
▁엿새	-6009
▁워낙	-6010
▁일은	-6011
▁잠복	-6012
▁점점	-6013
▁주유	-6014
▁천막	-6015
▁추도	-6016
▁취득	-6017
▁클릭	-6018
▁한창	-6019
▁회장	-6020
경찰은	-6021
까지는	-6022
는지는	-6023
렸는데	-6024
렸다는	-6025
만으로	-6026
문에서	-6027
하려다	-6028
▁기준을	-6029
▁김남국	-6030
▁답변을	-6031
▁대응에	-6032
▁됐다고	-6033
▁들어보	-6034
▁마시고	-6035
▁마약류	-6036
▁무사히	-6037
▁베를린	-6038
▁보니까	-6039
▁보도가	-6040
▁뺑소니	-6041
▁송파구	-6042
▁시신은	-6043
▁안티파	-6044
▁위험한	-6045
▁있으면	-6046
▁장면을	-6047
▁절차에	-6048
▁주차된	-6049
▁지시한	-6050
▁지정된	-6051
▁총격을	-6052
▁최초로	-6053
▁카카오	-6054
▁투표용	-6055
▁황운하	-6056
▁흔적이	-6057
위원회에	-6058
졌는데요	-6059
줬습니다	-6060
하겠다며	-6061
▁교민들은	-6062
▁교육부는	-6063
▁국민연금	-6064
▁높아지고	-6065
▁바랍니다	-6066
▁받았다는	-6067
▁변호인은	-6068
▁의료기관	-6069
▁이스라엘	-6070
▁집회금지	-6071
▁경찰관에게	-6072
▁국가공무원	-6073
▁자가격리자	-6074
▁지지자들이	-6075
▁필요하다는	-6076
▁달아났습니다	-6077
▁중이었습니다	-6078
▁확진됐습니다	-6079
▁겸	-6080
▁빅	-6081
▁훌	-6082
데도	-6083
뜨린	-6084
바논	-6085
뱅크	-6086
법인	-6087
봉현	-6088
시킬	-6089
아가	-6090
아야	-6091
율은	-6092
이션	-6093
지침	-6094
청의	-6095
체류	-6096
초를	-6097
추홀	-6098
하여	-6099
▁61	-6100
▁64	-6101
▁강동	-6102
▁거센	-6103
▁건네	-6104
▁경영	-6105
▁계산	-6106
▁꾸려	-6107
▁나무	-6108
▁동구	-6109
▁매년	-6110
▁몸에	-6111
▁묵인	-6112
▁물러	-6113
▁법과	-6114
▁사드	-6115
▁사항	-6116
▁설득	-6117
▁소형	-6118
▁속도	-6119
▁스프	-6120
▁앓고	-6121
▁양이	-6122
▁없음	-6123
▁옆에	-6124
▁위장	-6125
▁응답	-6126
▁인공	-6127
▁인적	-6128
▁일산	-6129
▁임신	-6130
▁자정	-6131
▁점도	-6132
▁정작	-6133
▁정차	-6134
▁제재	-6135
▁조건	-6136
▁중구	-6137
▁차이	-6138
▁코너	-6139
▁피운	-6140
▁했을	-6141
▁화가	-6142
겼다고	-6143
대학교	-6144
도에서	-6145
된다는	-6146
면에서	-6147
업지도	-6148
에게도	-6149
연구소	-6150
인들의	-6151
점으로	-6152
▁경찰차	-6153
▁계획을	-6154
▁관련이	-6155
▁교수가	-6156
▁교수는	-6157
▁교회를	-6158
▁늘어난	-6159
▁달아났	-6160
▁대구의	-6161
▁된다고	-6162
▁레바논	-6163
▁명예를	-6164
▁미추홀	-6165
▁박지훈	-6166
▁보내는	-6167
▁본회의	-6168
▁부분에	-6169
▁부통령	-6170
▁사고의	-6171
▁소동이	-6172
▁소셜미	-6173
▁시간대	-6174
▁시도한	-6175
▁업체에	-6176
▁연루된	-6177
▁의사가	-6178
▁이만희	-6179
▁있다가	-6180
▁작업에	-6181
▁작업자	-6182
▁정확히	-6183
▁주택가	-6184
▁집회의	-6185
▁책임자	-6186
▁확인돼	-6187
베이니아	-6188
수입니다	-6189
운동연합	-6190
지입니다	-6191
▁고위공직	-6192
▁대구에서	-6193
▁마스크가	-6194
▁무단으로	-6195
▁성착취물	-6196
▁어린이를	-6197
▁여성단체	-6198
▁유리창을	-6199
▁이상으로	-6200
▁인터넷에	-6201
▁있다면서	-6202
▁주장하는	-6203
▁중앙재난	-6204
▁집행정지	-6205
▁촉구하는	-6206
▁피고인이	-6207
▁행정명령	-6208
▁관계자들이	-6209
▁횡단보도를	-6210
▁드러냈습니다	-6211
▁반박했습니다	-6212
▁사망했습니다	-6213
▁질병관리본부	-6214
▁펜실베이니아	-6215
▁M	-6216
▁갚	-6217
▁맹	-6218
겠죠	-6219
기사	-6220
널리	-6221
다툼	-6222
당이	-6223
란드	-6224
류에	-6225
리면	-6226
석을	-6227
수욕	-6228
스콘	-6229
에요	-6230
오고	-6231
은행	-6232
인인	-6233
작업	-6234
키는	-6235
▁개편	-6236
▁겨냥	-6237
▁경합	-6238
▁고무	-6239
▁광장	-6240
▁구입	-6241
▁기숙	-6242
▁냉장	-6243
▁동거	-6244
▁따져	-6245
▁뜯어	-6246
▁리원	-6247
▁매몰	-6248
▁밀어	-6249
▁변화	-6250
▁보름	-6251
▁부러	-6252
▁부활	-6253
▁뿌리	-6254
▁생긴	-6255
▁소리	-6256
▁수수	-6257
▁순천	-6258
▁승리	-6259
▁아는	-6260
▁악용	-6261
▁어긴	-6262
▁유일	-6263
▁유행	-6264
▁적법	-6265
▁전투	-6266
▁좋지	-6267
▁지연	-6268
▁청사	-6269
▁커피	-6270
▁현역	-6271
▁환전	-6272
년까지	-6273
대사관	-6274
사이트	-6275
월에도	-6276
▁건물이	-6277
▁공사를	-6278
▁권한을	-6279
▁근거가	-6280
▁김기현	-6281
▁김봉현	-6282
▁꾸준히	-6283
▁대법원	-6284
▁문자를	-6285
▁받았던	-6286
▁보시는	-6287
▁부족한	-6288
▁붙잡혔	-6289
▁비대면	-6290
▁사각지	-6291
▁사망에	-6292
▁사안이	-6293
▁사진이	-6294
▁사태에	-6295
▁세상을	-6296
▁식사를	-6297
▁쏟아져	-6298
▁아이디	-6299
▁여기서	-6300
▁영상은	-6301
▁움직임	-6302
▁유료회	-6303
▁이곳에	-6304
▁이용자	-6305
▁자세히	-6306
▁정신적	-6307
▁통보를	-6308
▁한글날	-6309
▁항소심	-6310
▁휘두른	-6311
▁공무원의	-6312
▁당했다고	-6313
▁문형욱은	-6314
▁발견하고	-6315
▁방역당국	-6316
▁방향으로	-6317
▁제주도는	-6318
▁직원들은	-6319
▁청원경찰	-6320
▁충격으로	-6321
▁피의자의	-6322
▁보냈습니다	-6323
▁부장판사는	-6324
▁기록했습니다	-6325
▁내려졌습니다	-6326
▁언급했습니다	-6327
▁제기했습니다	-6328
▁중앙재난안전대책	-6329
BS	-6330
cm	-6331
▁맺	-6332
▁솔	-6333
▁엽	-6334
▁짐	-6335
가가	-6336
간의	-6337
거운	-6338
구로	-6339
돈을	-6340
등포	-6341
르기	-6342
마자	-6343
생을	-6344
석에	-6345
시효	-6346
연한	-6347
일째	-6348
장인	-6349
종인	-6350
처에	-6351
통을	-6352
▁간의	-6353
▁개별	-6354
▁공약	-6355
▁구멍	-6356
▁그날	-6357
▁그를	-6358
▁남양	-6359
▁놓여	-6360
▁늦게	-6361
▁대행	-6362
▁됐고	-6363
▁들은	-6364
▁로스	-6365
▁묻는	-6366
▁발화	-6367
▁밤새	-6368
▁배수	-6369
▁브로	-6370
▁소년	-6371
▁소중	-6372
▁스티	-6373
▁신변	-6374
▁신설	-6375
▁오던	-6376
▁음악	-6377
▁이종	-6378
▁인멸	-6379
▁일명	-6380
▁임의	-6381
▁적지	-6382
▁지상	-6383
▁질식	-6384
▁천만	-6385
▁최신	-6386
▁침묵	-6387
▁탈옥	-6388
▁퇴근	-6389
동에서	-6390
들까지	-6391
사실을	-6392
센터에	-6393
스럽게	-6394
일까요	-6395
한다면	-6396
▁건수는	-6397
▁기간에	-6398
▁기간이	-6399
▁나타난	-6400
▁남학생	-6401
▁내용과	-6402
▁논란을	-6403
▁단속이	-6404
▁대상자	-6405
▁대화를	-6406
▁돌려보	-6407
▁뒤에야	-6408
▁드라이	-6409
▁말다툼	-6410
▁말라고	-6411
▁명백한	-6412
▁방역에	-6413
▁분석을	-6414
▁사고와	-6415
▁소방차	-6416
▁수사로	-6417
▁수상한	-6418
▁수준의	-6419
▁승객이	-6420
▁시행된	-6421
▁시험을	-6422
▁신속히	-6423
▁아니고	-6424
▁아들의	-6425
▁알려져	-6426
▁영등포	-6427
▁영수증	-6428
▁이뤄질	-6429
▁인근의	-6430
▁있어요	-6431
▁장소를	-6432
▁정당한	-6433
▁조사와	-6434
▁증거로	-6435
▁진상규	-6436
▁청장은	-6437
▁항공기	-6438
▁행위로	-6439
해달라는	-6440
▁가중처벌	-6441
▁강화하는	-6442
▁경찰에게	-6443
▁광주에서	-6444
▁내일부터	-6445
▁민주주의	-6446
▁방법으로	-6447
▁법정에서	-6448
▁벨라루스	-6449
▁부모에게	-6450
▁사회복지	-6451
▁시위대와	-6452
▁업무개시	-6453
▁운전자의	-6454
▁이뤄지고	-6455
▁인정하고	-6456
▁일대에서	-6457
▁자유북한	-6458
▁후베이성	-6459
▁국민의힘은	-6460
▁상대적으로	-6461
▁워싱턴에서	-6462
▁잡혔습니다	-6463
▁경찰인재개발	-6464
▁서울지방경찰청은	-6465
▁자유북한운동연합	-6466
▁지능범죄수사대는	-6467
▁혈중알코올농도는	-6468
▁니	-6469
▁잊	-6470
▁턱	-6471
▁티	-6472
▁혁	-6473
감시	-6474
개입	-6475
놓은	-6476
단독	-6477
단에	-6478
대도	-6479
률이	-6480
미가	-6481
쉼터	-6482
양을	-6483
이죠	-6484
자산	-6485
한국	-6486
▁간단	-6487
▁갇혀	-6488
▁걸릴	-6489
▁골절	-6490
▁과천	-6491
▁관제	-6492
▁구명	-6493
▁구상	-6494
▁군포	-6495
▁그만	-6496
▁근절	-6497
▁기재	-6498
▁기지	-6499
▁김용	-6500
▁난동	-6501
▁냉동	-6502
▁도움	-6503
▁마리	-6504
▁막고	-6505
▁만한	-6506
▁모인	-6507
▁발동	-6508
▁발효	-6509
▁버려	-6510
▁벌이	-6511
▁비례	-6512
▁살고	-6513
▁송환	-6514
▁수능	-6515
▁안보	-6516
▁없애	-6517
▁완치	-6518
▁유예	-6519
▁이끌	-6520
▁자살	-6521
▁장병	-6522
▁전신	-6523
▁절대	-6524
▁제동	-6525
▁찍은	-6526
▁채로	-6527
▁철수	-6528
▁체크	-6529
▁추궁	-6530
▁침범	-6531
▁트윗	-6532
▁포기	-6533
개월을	-6534
관으로	-6535
레이크	-6536
로에서	-6537
사고가	-6538
선에서	-6539
젤레스	-6540
졌으나	-6541
천여만	-6542
▁갈수록	-6543
▁건물에	-6544
▁건물을	-6545
▁경위와	-6546
▁관심을	-6547
▁내용도	-6548
▁마련된	-6549
▁마약을	-6550
▁마음을	-6551
▁못하게	-6552
▁무허가	-6553
▁보고서	-6554
▁부검을	-6555
▁부상자	-6556
▁사기를	-6557
▁살포를	-6558
▁상처가	-6559
▁서류를	-6560
▁서울역	-6561
▁선수가	-6562
▁수사의	-6563
▁수술을	-6564
▁수위가	-6565
▁스토킹	-6566
▁안전한	-6567
▁역주행	-6568
▁위스콘	-6569
▁의원을	-6570
▁장관과	-6571
▁장관의	-6572
▁재확산	-6573
▁제보를	-6574
▁찾아와	-6575
▁청주의	-6576
▁최희석	-6577
▁폭언과	-6578
▁폭행과	-6579
▁현금을	-6580
▁형태로	-6581
▁효과가	-6582
거리에서	-6583
위원회의	-6584
이었다고	-6585
▁관계기관	-6586
▁관련해서	-6587
▁나오면서	-6588
▁문자메시	-6589
▁발견되지	-6590
▁성범죄를	-6591
▁여성에게	-6592
▁원인으로	-6593
▁이라면서	-6594
▁입건하고	-6595
▁주민등록	-6596
▁청와대가	-6597
▁특정범죄	-6598
▁포틀랜드	-6599
▁회의에서	-6600
▁미성년자를	-6601
▁어떻습니까	-6602
▁오토바이를	-6603
▁입건했다고	-6604
▁찾았습니다	-6605
▁필요합니다	-6606
▁해양경찰청	-6607
▁기소했습니다	-6608
▁넘어섰습니다	-6609
▁파악했습니다	-6610
▁국립과학수사연구원	-6611
50	-6612
▁깃	-6613
▁끄	-6614
▁롯	-6615
▁싱	-6616
▁읽	-6617
군과	-6618
낙연	-6619
남용	-6620
리트	-6621
린다	-6622
면의	-6623
밀히	-6624
발니	-6625
범이	-6626
상품	-6627
승을	-6628
안이	-6629
액은	-6630
유를	-6631
졌을	-6632
착용	-6633
창호	-6634
터카	-6635
판이	-6636
푸르	-6637
합의	-6638
해질	-6639
▁77	-6640
▁88	-6641
▁99	-6642
▁개가	-6643
▁검경	-6644
▁고흥	-6645
▁기울	-6646
▁김원	-6647
▁당첨	-6648
▁대목	-6649
▁막는	-6650
▁방임	-6651
▁방콕	-6652
▁새해	-6653
▁선관	-6654
▁성과	-6655
▁수급	-6656
▁수영	-6657
▁시기	-6658
▁시인	-6659
▁싶다	-6660
▁쌓아	-6661
▁어깨	-6662
▁연수	-6663
▁온몸	-6664
▁왜곡	-6665
▁유형	-6666
▁육박	-6667
▁이슈	-6668
▁익명	-6669
▁임명	-6670
▁입주	-6671
▁자칫	-6672
▁장치	-6673
▁점이	-6674
▁찍힌	-6675
▁창문	-6676
▁채무	-6677
▁청소	-6678
▁투명	-6679
▁한복	-6680
교사가	-6681
단계를	-6682
브리핑	-6683
시간에	-6684
였다는	-6685
작업을	-6686
지원금	-6687
한다며	-6688
▁130	-6689
▁800	-6690
▁간호사	-6691
▁고개를	-6692
▁공분을	-6693
▁공직자	-6694
▁교회에	-6695
▁나발니	-6696
▁대가로	-6697
▁대화명	-6698
▁된다는	-6699
▁렌터카	-6700
▁밝히기	-6701
▁방문자	-6702
▁보안법	-6703
▁브로커	-6704
▁사다리	-6705
▁사용할	-6706
▁손님이	-6707
▁수색에	-6708
▁수업을	-6709
▁아내와	-6710
▁원인은	-6711
▁의암호	-6712
▁이낙연	-6713
▁접수돼	-6714
▁접촉을	-6715
▁조사도	-6716
▁주도한	-6717
▁줄줄이	-6718
▁직원과	-6719
▁착수한	-6720
▁처벌할	-6721
▁총기를	-6722
▁최소한	-6723
▁트럭이	-6724
▁특별한	-6725
▁행각을	-6726
▁2012	-6727
▁강화하고	-6728
▁교민들이	-6729
▁마찬가지	-6730
▁무시하고	-6731
▁물류센터	-6732
▁불법행위	-6733
▁아니라는	-6734
▁아버지는	-6735
▁안전관리	-6736
▁언론들은	-6737
▁위스콘신	-6738
▁이용하는	-6739
▁자신에게	-6740
▁통화에서	-6741
▁확진자를	-6742
▁교통사고가	-6743
▁도로교통법	-6744
▁보겠습니다	-6745
▁알아봅니다	-6746
▁요청했지만	-6747
▁아니었습니다	-6748
▁제출했습니다	-6749
▁청구했습니다	-6750
▁故	-6751
▁낼	-6752
▁멧	-6753
▁빛	-6754
▁엔	-6755
▁잦	-6756
▁칸	-6757
▁틀	-6758
건설	-6759
곳의	-6760
과정	-6761
께서	-6762
끼리	-6763
담당	-6764
당은	-6765
르던	-6766
미수	-6767
서와	-6768
스프	-6769
어로	-6770
여만	-6771
저기	-6772
점은	-6773
제에	-6774
져야	-6775
죄로	-6776
준비	-6777
탱크	-6778
터널	-6779
팀이	-6780
하신	-6781
항공	-6782
▁68	-6783
▁간담	-6784
▁것만	-6785
▁고정	-6786
▁공감	-6787
▁군산	-6788
▁그다	-6789
▁금품	-6790
▁기계	-6791
▁내달	-6792
▁노숙	-6793
▁노원	-6794
▁뇌물	-6795
▁땅을	-6796
▁롯데	-6797
▁멧돼	-6798
▁모바	-6799
▁무마	-6800
▁보시	-6801
▁보유	-6802
▁부따	-6803
▁분쟁	-6804
▁비극	-6805
▁사연	-6806
▁사천	-6807
▁산림	-6808
▁시공	-6809
▁실려	-6810
▁앞선	-6811
▁어두	-6812
▁연합	-6813
▁예측	-6814
▁우선	-6815
▁유기	-6816
▁이걸	-6817
▁이관	-6818
▁이렇	-6819
▁이혼	-6820
▁일관	-6821
▁입어	-6822
▁정류	-6823
▁직업	-6824
▁총장	-6825
▁트레	-6826
▁하명	-6827
▁합천	-6828
▁형식	-6829
▁호랑	-6830
▁홍천	-6831
됐다가	-6832
되거나	-6833
았다는	-6834
업체를	-6835
인에게	-6836
주의자	-6837
하지는	-6838
▁000	-6839
▁같은데	-6840
▁고발한	-6841
▁관악구	-6842
▁구호를	-6843
▁권리를	-6844
▁규모가	-6845
▁규모는	-6846
▁끔찍한	-6847
▁단체는	-6848
▁달리는	-6849
▁대출을	-6850
▁둘러싸	-6851
▁바람에	-6852
▁범인이	-6853
▁법안을	-6854
▁부모의	-6855
▁불만을	-6856
▁비판을	-6857
▁삼성물	-6858
▁신분증	-6859
▁우려해	-6860
▁위에서	-6861
▁이어가	-6862
▁일부러	-6863
▁자신은	-6864
▁재판이	-6865
▁절차가	-6866
▁조수석	-6867
▁죄질이	-6868
▁지역은	-6869
▁지지를	-6870
▁진주시	-6871
▁집회는	-6872
▁차들이	-6873
▁차에서	-6874
▁책임이	-6875
▁최소화	-6876
▁태도를	-6877
▁포함된	-6878
▁폭우로	-6879
▁하나로	-6880
교육청은	-6881
▁가정폭력	-6882
▁공무원과	-6883
▁관리사무	-6884
▁광주시는	-6885
▁국방부는	-6886
▁대부분의	-6887
▁대표적인	-6888
▁대화방에	-6889
▁들이받아	-6890
▁부적절한	-6891
▁불법체류	-6892
▁살해하고	-6893
▁생명에는	-6894
▁서울남부	-6895
▁서울에서	-6896
▁설치하고	-6897
▁수사하는	-6898
▁시위대의	-6899
▁신고했고	-6900
▁아이들을	-6901
▁않습니까	-6902
▁어렵다고	-6903
▁어렵다는	-6904
▁요구하고	-6905
▁유지하고	-6906
▁조주빈은	-6907
▁종교시설	-6908
▁중앙사고	-6909
▁증인으로	-6910
▁취재진이	-6911
▁아동복지법	-6912
▁기소의견으로	-6913
▁사과했습니다	-6914
▁사회복무요원	-6915
▁이뤄졌습니다	-6916
30	-6917
▁꽤	-6918
▁색	-6919
▁센	-6920
▁습	-6921
▁엉	-6922
감은	-6923
국에	-6924
군요	-6925
금속	-6926
났고	-6927
라스	-6928
리어	-6929
비는	-6930
사도	-6931
실은	-6932
액을	-6933
양이	-6934
위의	-6935
인멸	-6936
조끼	-6937
주와	-6938
지게	-6939
차선	-6940
천억	-6941
층을	-6942
침해	-6943
폭행	-6944
하나	-6945
함에	-6946
협력	-6947
히지	-6948
▁가벼	-6949
▁가평	-6950
▁감지	-6951
▁그게	-6952
▁김태	-6953
▁난간	-6954
▁노후	-6955
▁당부	-6956
▁대량	-6957
▁대유	-6958
▁라이	-6959
▁맞는	-6960
▁매주	-6961
▁메모	-6962
▁면접	-6963
▁모녀	-6964
▁무소	-6965
▁민생	-6966
▁법조	-6967
▁벗어	-6968
▁사죄	-6969
▁선발	-6970
▁선생	-6971
▁선출	-6972
▁수단	-6973
▁신문	-6974
▁안양	-6975
▁여객	-6976
▁외치	-6977
▁유력	-6978
▁유발	-6979
▁유세	-6980
▁잔혹	-6981
▁재차	-6982
▁전통	-6983
▁조심	-6984
▁조합	-6985
▁중태	-6986
▁증인	-6987
▁집값	-6988
▁체벌	-6989
▁침을	-6990
▁탈락	-6991
▁파업	-6992
▁파편	-6993
▁풍선	-6994
▁한밤	-6995
▁후진	-6996
됐는지	-6997
일에도	-6998
장관은	-6999
하려면	-7000
▁250	-7001
▁가이드	-7002
▁검은색	-7003
▁공권력	-7004
▁공소권	-7005
▁교회와	-7006
▁국정감	-7007
▁귀금속	-7008
▁도주한	-7009
▁도착해	-7010
▁라면서	-7011
▁마포구	-7012
▁말부터	-7013
▁말하는	-7014
▁모르고	-7015
▁무릎을	-7016
▁미착용	-7017
▁반려견	-7018
▁불길을	-7019
▁사례도	-7020
▁소리를	-7021
▁신고된	-7022
▁신속한	-7023
▁아기가	-7024
▁않다고	-7025
▁엄마가	-7026
▁엄마는	-7027
▁여행용	-7028
▁올림픽	-7029
▁외교부	-7030
▁요구를	-7031
▁요양원	-7032
▁인원은	-7033
▁자체를	-7034
▁점검한	-7035
▁제공한	-7036
▁조치도	-7037
▁출석해	-7038
▁통행이	-7039
▁파악에	-7040
▁후보자	-7041
정입니다	-7042
▁2008	-7043
▁가능성은	-7044
▁가족에게	-7045
▁가짜뉴스	-7046
▁건물에서	-7047
▁국가수사	-7048
▁국가인권	-7049
▁담당하는	-7050
▁방역지침	-7051
▁법원에서	-7052
▁사람에게	-7053
▁사이트에	-7054
▁삼성물산	-7055
▁셈입니다	-7056
▁손해배상	-7057
▁승용차는	-7058
▁시설에서	-7059
▁시위대에	-7060
▁아직까지	-7061
▁어머니는	-7062
▁어머니와	-7063
▁어업지도	-7064
▁연결해서	-7065
▁요구하며	-7066
▁장소에서	-7067
▁주민센터	-7068
▁트위터에	-7069
▁하겠다고	-7070
▁학생들의	-7071
▁공무원들이	-7072
▁누리꾼들은	-7073
▁성착취물을	-7074
▁알려지면서	-7075
▁휴대전화로	-7076
▁중앙사고수습	-7077
11	-7078
▁꺾	-7079
▁닥	-7080
객이	-7081
급을	-7082
모임	-7083
물질	-7084
미널	-7085
반을	-7086
분께	-7087
비로	-7088
사스	-7089
서의	-7090
신을	-7091
심은	-7092
왔던	-7093
인력	-7094
조를	-7095
청문	-7096
풀이	-7097
학과	-7098
해준	-7099
후보	-7100
히고	-7101
▁67	-7102
▁73	-7103
▁76	-7104
▁96	-7105
▁가려	-7106
▁검문	-7107
▁관내	-7108
▁군부	-7109
▁난민	-7110
▁남겨	-7111
▁납치	-7112
▁내릴	-7113
▁넘기	-7114
▁노트	-7115
▁늦은	-7116
▁다급	-7117
▁다루	-7118
▁담고	-7119
▁돌봄	-7120
▁떠난	-7121
▁마크	-7122
▁문의	-7123
▁미처	-7124
▁밀려	-7125
▁바꿨	-7126
▁밥을	-7127
▁법이	-7128
▁벤츠	-7129
▁별도	-7130
▁부수	-7131
▁부평	-7132
▁분들	-7133
▁사정	-7134
▁설정	-7135
▁수배	-7136
▁싶은	-7137
▁아찔	-7138
▁양천	-7139
▁양측	-7140
▁우회	-7141
▁인원	-7142
▁적절	-7143
▁전임	-7144
▁주간	-7145
▁지문	-7146
▁집무	-7147
▁체계	-7148
▁초래	-7149
▁통상	-7150
▁판사	-7151
▁한가	-7152
▁현대	-7153
관에서	-7154
등학교	-7155
리기도	-7156
명까지	-7157
시키고	-7158
업체에	-7159
으니까	-7160
을까요	-7161
인들은	-7162
줍니다	-7163
하느냐	-7164
▁감염을	-7165
▁것인지	-7166
▁교육부	-7167
▁그러자	-7168
▁기억이	-7169
▁끝까지	-7170
▁나중에	-7171
▁내리고	-7172
▁내용에	-7173
▁다세대	-7174
▁대구경	-7175
▁대체로	-7176
▁도로가	-7177
▁로스앤	-7178
▁면서도	-7179
▁모바일	-7180
▁목격자	-7181
▁무관용	-7182
▁무혐의	-7183
▁버스에	-7184
▁부장검	-7185
▁서울고	-7186
▁얘기를	-7187
▁울산시	-7188
▁의정부	-7189
▁의지를	-7190
▁이제는	-7191
▁인사를	-7192
▁잇달아	-7193
▁적절한	-7194
▁전화가	-7195
▁정책을	-7196
▁조사는	-7197
▁주먹을	-7198
▁지인의	-7199
▁진술이	-7200
▁탈출한	-7201
▁투입돼	-7202
▁투표를	-7203
▁특례법	-7204
▁판사는	-7205
▁화장품	-7206
▁확진돼	-7207
▁흉기에	-7208
스프레스	-7209
우입니다	-7210
하더라도	-7211
희입니다	-7212
▁2009	-7213
▁가해자가	-7214
▁가해자로	-7215
▁가해자의	-7216
▁거짓말을	-7217
▁경기도의	-7218
▁금융감독	-7219
▁대부분이	-7220
▁동영상을	-7221
▁모니터링	-7222
▁사실관계	-7223
▁선거개입	-7224
▁연쇄살인	-7225
▁운영하고	-7226
▁인사청문	-7227
▁제주에서	-7228
▁죄송하다	-7229
▁주장하며	-7230
▁증거인멸	-7231
▁지점에서	-7232
▁직원들의	-7233
▁카카오톡	-7234
▁킥보드를	-7235
▁하명수사	-7236
▁학생들은	-7237
▁해외에서	-7238
▁현장에는	-7239
▁확산하고	-7240
▁확진자도	-7241
당했습니다	-7242
시했습니다	-7243
▁가능합니다	-7244
▁마지막으로	-7245
▁알려졌는데	-7246
▁음주운전을	-7247
▁휴대전화에	-7248
▁로스앤젤레스	-7249
▁생활치료센터	-7250
▁경기남부지방경찰청	-7251
▁W	-7252
▁괜	-7253
▁댐	-7254
▁뱉	-7255
▁샌	-7256
▁싣	-7257
▁켜	-7258
▁텍	-7259
▁픽	-7260
갑을	-7261
기기	-7262
내기	-7263
년과	-7264
면에	-7265
보도	-7266
산물	-7267
세의	-7268
시민	-7269
아서	-7270
었죠	-7271
요양	-7272
이에	-7273
점에	-7274
총을	-7275
하셨	-7276
▁84	-7277
▁94	-7278
▁강간	-7279
▁갖추	-7280
▁거절	-7281
▁건넨	-7282
▁겨울	-7283
▁고성	-7284
▁고조	-7285
▁곳도	-7286
▁괴산	-7287
▁구역	-7288
▁기도	-7289
▁남해	-7290
▁납품	-7291
▁내는	-7292
▁넘나	-7293
▁녹취	-7294
▁놀라	-7295
▁다름	-7296
▁대거	-7297
▁돌며	-7298
▁되자	-7299
▁맞서	-7300
▁무게	-7301
▁묻지	-7302
▁믿고	-7303
▁바뀐	-7304
▁박상	-7305
▁받으	-7306
▁보강	-7307
▁부처	-7308
▁상정	-7309
▁생중	-7310
▁소요	-7311
▁시의	-7312
▁심상	-7313
▁양은	-7314
▁엄청	-7315
▁없던	-7316
▁외벽	-7317
▁원주	-7318
▁임금	-7319
▁임원	-7320
▁입구	-7321
▁장학	-7322
▁재직	-7323
▁정례	-7324
▁제설	-7325
▁제일	-7326
▁조기	-7327
▁지났	-7328
▁차장	-7329
▁천추	-7330
▁출장	-7331
▁충주	-7332
▁태워	-7333
▁특성	-7334
▁포천	-7335
▁포털	-7336
▁표류	-7337
▁피소	-7338
▁학살	-7339
▁한진	-7340
▁해주	-7341
▁훈육	-7342
▁휴게	-7343
감염증	-7344
경찰이	-7345
교육청	-7346
더라고	-7347
자료를	-7348
했다면	-7349
▁KNN	-7350
▁가로막	-7351
▁거래를	-7352
▁검사와	-7353
▁검찰청	-7354
▁게시글	-7355
▁경남의	-7356
▁고발할	-7357
▁과도한	-7358
▁규모로	-7359
▁그것이	-7360
▁근처에	-7361
▁끝나는	-7362
▁논란에	-7363
▁늘면서	-7364
▁대책이	-7365
▁덕분에	-7366
▁되는데	-7367
▁떠내려	-7368
▁또다른	-7369
▁마리가	-7370
▁맞은편	-7371
▁분류돼	-7372
▁사람과	-7373
▁소환해	-7374
▁수준인	-7375
▁스프링	-7376
▁쌍둥이	-7377
▁우려도	-7378
▁원칙에	-7379
▁원칙을	-7380
▁월요일	-7381
▁위험을	-7382
▁윤창호	-7383
▁이전에	-7384
▁있을지	-7385
▁전화로	-7386
▁접근해	-7387
▁주차장	-7388
▁체포한	-7389
▁최근에	-7390
▁카운티	-7391
▁하기로	-7392
▁합동감	-7393
▁했다며	-7394
▁협박한	-7395
▁황당한	-7396
▁후보를	-7397
▁휘둘러	-7398
▁휴대폰	-7399
집행방해	-7400
▁강력하게	-7401
▁공무원은	-7402
▁구명조끼	-7403
▁노동자가	-7404
▁대구경북	-7405
▁밝혀지지	-7406
▁벌어지는	-7407
▁사이트를	-7408
▁사회관계	-7409
▁삼성전자	-7410
▁생각한다	-7411
▁서비스를	-7412
▁신속대응	-7413
▁어제부터	-7414
▁이야기가	-7415
▁장례식장	-7416
▁재산피해	-7417
▁착용하지	-7418
▁추진하고	-7419
▁취재파일	-7420
▁피고인은	-7421
▁확인했다	-7422
▁구속했다고	-7423
▁설명입니다	-7424
▁소방당국이	-7425
▁잡았습니다	-7426
▁조주빈에게	-7427
▁취재진에게	-7428
▁해양수산부	-7429
▁들이받습니다	-7430
▁통보했습니다	-7431
▁살펴보겠습니다	-7432
▁코로나바이러스감염증	-7433
10	-7434
▁균	-7435
▁링	-7436
▁왼	-7437
▁젠	-7438
건강	-7439
결제	-7440
기념	-7441
단과	-7442
됨에	-7443
리케	-7444
많은	-7445
말을	-7446
뼈가	-7447
사령	-7448
작용	-7449
참모	-7450
처분	-7451
하이	-7452
함이	-7453
해경	-7454
화한	-7455
훈련	-7456
▁곧장	-7457
▁괴한	-7458
▁그녀	-7459
▁그럴	-7460
▁그림	-7461
▁김영	-7462
▁누락	-7463
▁느낀	-7464
▁다투	-7465
▁달이	-7466
▁돈만	-7467
▁동작	-7468
▁되찾	-7469
▁뒤를	-7470
▁듯한	-7471
▁많다	-7472
▁맡고	-7473
▁반중	-7474
▁범람	-7475
▁봐야	-7476
▁분열	-7477
▁분향	-7478
▁불응	-7479
▁사장	-7480
▁소집	-7481
▁수를	-7482
▁실랑	-7483
▁실무	-7484
▁알선	-7485
▁없게	-7486
▁여쭤	-7487
▁왕복	-7488
▁원대	-7489
▁웨이	-7490
▁의도	-7491
▁이수	-7492
▁일도	-7493
▁잡은	-7494
▁장착	-7495
▁제목	-7496
▁좁은	-7497
▁주에	-7498
▁주점	-7499
▁줄이	-7500
▁중독	-7501
▁직위	-7502
▁찍어	-7503
▁찾을	-7504
▁첩보	-7505
▁토로	-7506
▁파괴	-7507
▁하이	-7508
▁합참	-7509
▁해온	-7510
▁허술	-7511
▁홍익	-7512
▁흙탕	-7513
가량을	-7514
달라며	-7515
본부가	-7516
수사를	-7517
졌으며	-7518
조사가	-7519
지검은	-7520
카메라	-7521
판에서	-7522
하시는	-7523
하우스	-7524
힙니다	-7525
▁감염자	-7526
▁경위는	-7527
▁경제적	-7528
▁경찰로	-7529
▁고소장	-7530
▁공개할	-7531
▁교수의	-7532
▁국민을	-7533
▁국적의	-7534
▁그러다	-7535
▁극심한	-7536
▁내역을	-7537
▁냉장고	-7538
▁두기를	-7539
▁많게는	-7540
▁모두가	-7541
▁못했고	-7542
▁무소속	-7543
▁무제한	-7544
▁문화재	-7545
▁민원을	-7546
▁방송을	-7547
▁범인을	-7548
▁범행이	-7549
▁별개로	-7550
▁부분은	-7551
▁분명히	-7552
▁비디오	-7553
▁새롭게	-7554
▁수많은	-7555
▁시민들	-7556
▁아기를	-7557
▁엄벌을	-7558
▁영상물	-7559
▁영장이	-7560
▁예방을	-7561
▁예배에	-7562
▁예정된	-7563
▁위치를	-7564
▁의뢰한	-7565
▁의원과	-7566
▁의혹도	-7567
▁이용할	-7568
▁전체가	-7569
▁정리해	-7570
▁주장한	-7571
▁중에는	-7572
▁지적도	-7573
▁진압에	-7574
▁차원의	-7575
▁창문을	-7576
▁총리가	-7577
▁추적을	-7578
▁출입을	-7579
▁측에서	-7580
▁텍사스	-7581
▁하도록	-7582
▁행방을	-7583
▁화제가	-7584
▁확산에	-7585
구역으로	-7586
더라고요	-7587
뒀습니다	-7588
▁2010	-7589
▁감염자가	-7590
▁것이라며	-7591
▁공소시효	-7592
▁공수처장	-7593
▁과태료를	-7594
▁관리하는	-7595
▁국정원의	-7596
▁기다리고	-7597
▁나왔는데	-7598
▁대구교회	-7599
▁대구시가	-7600
▁대법원은	-7601
▁밝혔지만	-7602
▁범죄단체	-7603
▁법무부가	-7604
▁본회의를	-7605
▁살인사건	-7606
▁소중하다	-7607
▁아르바이	-7608
▁않았는데	-7609
▁않았다며	-7610
▁엄정하게	-7611
▁용의자는	-7612
▁접촉자로	-7613
▁정보통신	-7614
▁조두순은	-7615
▁직권남용	-7616
▁질문에는	-7617
▁플로리다	-7618
▁호소하는	-7619
▁확대하고	-7620
리겠습니다	-7621
▁모였습니다	-7622
▁방역당국이	-7623
▁본격적으로	-7624
▁비밀번호를	-7625
▁소셜미디어	-7626
▁옮겨졌으나	-7627
▁의붓어머니	-7628
▁타이어뱅크	-7629
▁피해자들의	-7630
▁현장입니다	-7631
▁들어왔습니다	-7632
▁소방대원들이	-7633
▁뚜	-7634
▁춤	-7635
▁틈	-7636
▁핸	-7637
▁혐	-7638
▁혜	-7639
국을	-7640
기계	-7641
니를	-7642
대포	-7643
대회	-7644
돼야	-7645
려던	-7646
려면	-7647
로로	-7648
류가	-7649
류의	-7650
마켓	-7651
명씩	-7652
미로	-7653
바다	-7654
오지	-7655
일의	-7656
정책	-7657
제품	-7658
죄를	-7659
쳤고	-7660
추는	-7661
트로	-7662
파가	-7663
평가	-7664
평등	-7665
행동	-7666
협의	-7667
▁SK	-7668
▁거다	-7669
▁고가	-7670
▁내내	-7671
▁누출	-7672
▁대포	-7673
▁도운	-7674
▁모자	-7675
▁반환	-7676
▁버린	-7677
▁번도	-7678
▁보상	-7679
▁보지	-7680
▁본부	-7681
▁부총	-7682
▁비운	-7683
▁사살	-7684
▁선포	-7685
▁세운	-7686
▁세탁	-7687
▁쉼터	-7688
▁시대	-7689
▁야외	-7690
▁어른	-7691
▁유실	-7692
▁이례	-7693
▁인접	-7694
▁입력	-7695
▁저도	-7696
▁제거	-7697
▁젠더	-7698
▁주관	-7699
▁주저	-7700
▁중지	-7701
▁질의	-7702
▁질환	-7703
▁쫓고	-7704
▁찬성	-7705
▁채택	-7706
▁타임	-7707
▁탱크	-7708
▁터져	-7709
▁투숙	-7710
▁흐름	-7711
개월의	-7712
금으로	-7713
생활을	-7714
운동을	-7715
이라도	-7716
조사에	-7717
탭니다	-7718
하기는	-7719
해지고	-7720
▁거주지	-7721
▁걸까요	-7722
▁결정에	-7723
▁결정이	-7724
▁고발을	-7725
▁교사는	-7726
▁교회가	-7727
▁구조된	-7728
▁구조에	-7729
▁귀국한	-7730
▁금지된	-7731
▁기승을	-7732
▁나오면	-7733
▁나왔다	-7734
▁놀이터	-7735
▁다녀간	-7736
▁다중이	-7737
▁단체의	-7738
▁돌아온	-7739
▁만들고	-7740
▁명의로	-7741
▁목격한	-7742
▁무장한	-7743
▁방안도	-7744
▁범죄로	-7745
▁부모가	-7746
▁부적절	-7747
▁부활절	-7748
▁빼돌린	-7749
▁사무총	-7750
▁서울과	-7751
▁수초섬	-7752
▁시민의	-7753
▁식약처	-7754
▁신고는	-7755
▁어렵게	-7756
▁엄중한	-7757
▁업무에	-7758
▁여부가	-7759
▁여부에	-7760
▁올라가	-7761
▁우려로	-7762
▁운영을	-7763
▁위치한	-7764
▁위험에	-7765
▁위협을	-7766
▁유사한	-7767
▁유출한	-7768
▁음식을	-7769
▁의견이	-7770
▁이곳을	-7771
▁있느냐	-7772
▁전단을	-7773
▁전에도	-7774
▁점에서	-7775
▁조사해	-7776
▁조직원	-7777
▁주민의	-7778
▁중국이	-7779
▁중단을	-7780
▁창고에	-7781
▁청구한	-7782
▁촬영을	-7783
▁최루탄	-7784
▁출발해	-7785
▁출석한	-7786
▁폭우가	-7787
▁호흡기	-7788
▁회장이	-7789
▁후보의	-7790
▁휴스턴	-7791
자산운용	-7792
적으로는	-7793
▁2007	-7794
▁거부하는	-7795
▁경찰들이	-7796
▁경찰서에	-7797
▁나섰지만	-7798
▁도시에서	-7799
▁서울시의	-7800
▁암호화폐	-7801
▁앞으로도	-7802
▁인권침해	-7803
▁자신들의	-7804
▁정부서울	-7805
▁제작하고	-7806
▁조주빈과	-7807
▁직원에게	-7808
▁처음에는	-7809
▁탔습니다	-7810
▁합동으로	-7811
▁후보자는	-7812
있었습니다	-7813
▁가상화폐를	-7814
▁대상입니다	-7815
▁바이러스가	-7816
▁사례입니다	-7817
▁사실관계를	-7818
▁생각합니다	-7819
▁있었는데요	-7820
▁주목됩니다	-7821
▁체포했다고	-7822
▁구조됐습니다	-7823
▁워싱턴포스트	-7824
▁이송됐습니다	-7825
▁입건됐습니다	-7826
▁적용했습니다	-7827
▁충돌했습니다	-7828
▁압수수색했습니다	-7829
21	-7830
▁낀	-7831
▁푸	-7832
기면	-7833
나가	-7834
매체	-7835
미를	-7836
받침	-7837
방지	-7838
범위	-7839
성은	-7840
심사	-7841
여객	-7842
유기	-7843
인척	-7844
종을	-7845
지구	-7846
진압	-7847
철호	-7848
클럽	-7849
투쟁	-7850
하러	-7851
하시	-7852
합동	-7853
▁감성	-7854
▁거기	-7855
▁계곡	-7856
▁고장	-7857
▁공원	-7858
▁구분	-7859
▁기습	-7860
▁끼어	-7861
▁남동	-7862
▁낮아	-7863
▁녹음	-7864
▁녹화	-7865
▁당진	-7866
▁당해	-7867
▁더는	-7868
▁많고	-7869
▁문건	-7870
▁민관	-7871
▁부른	-7872
▁부회	-7873
▁분산	-7874
▁빌린	-7875
▁사체	-7876
▁산청	-7877
▁새끼	-7878
▁선제	-7879
▁세무	-7880
▁수송	-7881
▁시는	-7882
▁신생	-7883
▁신축	-7884
▁심폐	-7885
▁아까	-7886
▁않게	-7887
▁여전	-7888
▁연행	-7889
▁용역	-7890
▁우체	-7891
▁원격	-7892
▁이순	-7893
▁일시	-7894
▁일치	-7895
▁입에	-7896
▁장마	-7897
▁적도	-7898
▁전송	-7899
▁전후	-7900
▁조카	-7901
▁집결	-7902
▁철원	-7903
▁초속	-7904
▁총경	-7905
▁출산	-7906
▁치밀	-7907
▁치열	-7908
▁퍼져	-7909
▁표명	-7910
▁피격	-7911
▁필라	-7912
▁한꺼	-7913
▁합리	-7914
▁행인	-7915
▁흡입	-7916
까지도	-7917
냅니다	-7918
됐다며	-7919
치면서	-7920
카르타	-7921
▁900	-7922
▁가벼운	-7923
▁격리된	-7924
▁계약을	-7925
▁공화당	-7926
▁관계를	-7927
▁교육을	-7928
▁구성해	-7929
▁국내로	-7930
▁그만큼	-7931
▁기간을	-7932
▁김종인	-7933
▁다음달	-7934
▁달라는	-7935
▁되풀이	-7936
▁뒷받침	-7937
▁명에게	-7938
▁모임을	-7939
▁몰랐다	-7940
▁무너져	-7941
▁문제에	-7942
▁물리적	-7943
▁방해한	-7944
▁법안이	-7945
▁보도한	-7946
▁불거진	-7947
▁비율은	-7948
▁상황과	-7949
▁생중계	-7950
▁송철호	-7951
▁수사할	-7952
▁수사해	-7953
▁수십억	-7954
▁순찰을	-7955
▁순찰차	-7956
▁승인을	-7957
▁신상이	-7958
▁쏟아진	-7959
▁아찔한	-7960
▁않다는	-7961
▁야당의	-7962
▁어려울	-7963
▁영상에	-7964
▁와중에	-7965
▁운동을	-7966
▁운전한	-7967
▁위기에	-7968
▁이상을	-7969
▁이유에	-7970
▁입원한	-7971
▁자신도	-7972
▁장치를	-7973
▁재활용	-7974
▁접수한	-7975
▁조치는	-7976
▁조치로	-7977
▁중대한	-7978
▁지나던	-7979
▁지사는	-7980
▁진화에	-7981
▁징역형	-7982
▁추적해	-7983
▁친인척	-7984
▁커지자	-7985
▁크리스	-7986
▁파악된	-7987
▁하겠다	-7988
▁하기도	-7989
▁협의해	-7990
▁활동가	-7991
가중처벌	-7992
발적으로	-7993
▁가해자는	-7994
▁경상남도	-7995
▁경주시청	-7996
▁계속되는	-7997
▁공개하지	-7998
▁국방과학	-7999
▁금융기관	-8000
▁기자회견	-8001
▁높습니다	-8002
▁다릅니다	-8003
▁다중이용	-8004
▁무더기로	-8005
▁벌금형을	-8006
▁부근에서	-8007
▁사이에서	-8008
▁상탭니다	-8009
▁서귀포시	-8010
▁승용차에	-8011
▁신용카드	-8012
▁아이들이	-8013
▁어려움이	-8014
▁잇따르자	-8015
▁자율주행	-8016
▁자카르타	-8017
▁점입니다	-8018
▁제기되고	-8019
▁진행되는	-8020
▁하겠다는	-8021
▁한꺼번에	-8022
▁허위사실	-8023
▁경찰관들이	-8024
▁사회관계망	-8025
▁서울경찰청	-8026
▁소식입니다	-8027
▁알렸습니다	-8028
▁전동킥보드	-8029
▁학생들에게	-8030
▁행정안전부	-8031
▁현장에서는	-8032
▁고소했습니다	-8033
▁라임자산운용	-8034
▁조치했습니다	-8035
▁특별사법경찰	-8036
▁평가했습니다	-8037
▁국립과학수사연구원에	-8038
JB	-8039
▁몽	-8040
▁빙	-8041
▁쏴	-8042
▁쯤	-8043
▁케	-8044
감한	-8045
대행	-8046
되던	-8047
드레	-8048
득이	-8049
들만	-8050
률은	-8051
마을	-8052
명만	-8053
므로	-8054
버린	-8055
변을	-8056
복합	-8057
비에	-8058
비와	-8059
뻘건	-8060
산지	-8061
살을	-8062
선은	-8063
신이	-8064
실과	-8065
정의	-8066
제와	-8067
조로	-8068
중인	-8069
지면	-8070
타운	-8071
통이	-8072
특정	-8073
폴리	-8074
활동	-8075
TBC	-8076
▁69	-8077
▁82	-8078
▁TV	-8079
▁US	-8080
▁가을	-8081
▁개시	-8082
▁거칠	-8083
▁고급	-8084
▁골라	-8085
▁공지	-8086
▁괜찮	-8087
▁구미	-8088
▁그중	-8089
▁글로	-8090
▁난사	-8091
▁남용	-8092
▁내무	-8093
▁노무	-8094
▁논문	-8095
▁놀란	-8096
▁단정	-8097
▁달간	-8098
▁답답	-8099
▁대검	-8100
▁됐던	-8101
▁두절	-8102
▁면책	-8103
▁문이	-8104
▁발로	-8105
▁벌일	-8106
▁법령	-8107
▁상관	-8108
▁상주	-8109
▁숨겨	-8110
▁어쩔	-8111
▁영하	-8112
▁용접	-8113
▁원씩	-8114
▁응시	-8115
▁인질	-8116
▁자영	-8117
▁작품	-8118
▁재소	-8119
▁전격	-8120
▁정서	-8121
▁정오	-8122
▁줄을	-8123
▁지명	-8124
▁집권	-8125
▁짧은	-8126
▁청도	-8127
▁추후	-8128
▁침몰	-8129
▁쿠팡	-8130
▁통계	-8131
▁필기	-8132
▁한정	-8133
▁회계	-8134
▁훌쩍	-8135
▁흘러	-8136
단에서	-8137
델피아	-8138
주시기	-8139
하고도	-8140
활동을	-8141
▁197	-8142
▁350	-8143
▁가족을	-8144
▁거리로	-8145
▁검토할	-8146
▁공정한	-8147
▁국회를	-8148
▁권한이	-8149
▁규정에	-8150
▁금은방	-8151
▁나섰고	-8152
▁남성에	-8153
▁내부에	-8154
▁뒤따라	-8155
▁들어갈	-8156
▁마련해	-8157
▁마음에	-8158
▁마음이	-8159
▁만드는	-8160
▁면담을	-8161
▁무기한	-8162
▁무너진	-8163
▁무릎에	-8164
▁밝혔다	-8165
▁밝히는	-8166
▁방사청	-8167
▁버스가	-8168
▁번째로	-8169
▁벌금에	-8170
▁범죄의	-8171
▁베란다	-8172
▁보행자	-8173
▁부딪힌	-8174
▁부리고	-8175
▁부수고	-8176
▁불특정	-8177
▁붙잡혀	-8178
▁사고에	-8179
▁사과를	-8180
▁사우스	-8181
▁사이로	-8182
▁사회의	-8183
▁식품의	-8184
▁아닌가	-8185
▁아들은	-8186
▁아산의	-8187
▁어두운	-8188
▁요구에	-8189
▁의식이	-8190
▁이것이	-8191
▁인권을	-8192
▁자녀를	-8193
▁정의당	-8194
▁제한속	-8195
▁젠더특	-8196
▁조직을	-8197
▁주민은	-8198
▁청주시	-8199
▁초부터	-8200
▁출신의	-8201
▁출입이	-8202
▁토요일	-8203
▁통과한	-8204
▁통행을	-8205
▁판단이	-8206
▁평가를	-8207
▁폭력과	-8208
▁표현의	-8209
▁학대가	-8210
▁해경에	-8211
▁허위로	-8212
▁호소해	-8213
▁홍익표	-8214
▁홍콩의	-8215
수사대는	-8216
스트리아	-8217
▁2021	-8218
▁경찰관과	-8219
▁경찰관을	-8220
▁경찰청과	-8221
▁나섭니다	-8222
▁대마초를	-8223
▁베트남인	-8224
▁않겠다고	-8225
▁영향으로	-8226
▁용의자로	-8227
▁우레탄폼	-8228
▁운전대를	-8229
▁위협하는	-8230
▁입장문을	-8231
▁있습니까	-8232
▁조사하는	-8233
▁주택에서	-8234
▁지속해서	-8235
▁통제하고	-8236
▁피고인의	-8237
▁한국전쟁	-8238
▁형사소송	-8239
▁확진자로	-8240
▁관계자들을	-8241
▁미국에서는	-8242
▁잃었습니다	-8243
▁지속적으로	-8244
▁필라델피아	-8245
▁홈페이지에	-8246
▁화장실에서	-8247
▁확인됐다고	-8248
▁등장했습니다	-8249
▁떨어졌습니다	-8250
▁실종됐습니다	-8251
▁쏟아졌습니다	-8252
▁이어갔습니다	-8253
▁추정했습니다	-8254
▁출석했습니다	-8255
kg	-8256
▁랜	-8257
▁앤	-8258
▁젖	-8259
경호	-8260
근무	-8261
길이	-8262
년대	-8263
노샤	-8264
듬해	-8265
마를	-8266
만원	-8267
매가	-8268
분한	-8269
상담	-8270
스에	-8271
스타	-8272
식은	-8273
심이	-8274
재를	-8275
점과	-8276
조에	-8277
주인	-8278
주차	-8279
채를	-8280
커녕	-8281
펌프	-8282
함마	-8283
항쟁	-8284
해져	-8285
현장	-8286
▁87	-8287
▁89	-8288
▁95	-8289
▁간격	-8290
▁감안	-8291
▁강사	-8292
▁강아	-8293
▁강압	-8294
▁경력	-8295
▁교량	-8296
▁권리	-8297
▁그걸	-8298
▁김여	-8299
▁날인	-8300
▁눈을	-8301
▁덮친	-8302
▁돌발	-8303
▁뒤쫓	-8304
▁리조	-8305
▁마라	-8306
▁마린	-8307
▁모아	-8308
▁미터	-8309
▁복원	-8310
▁부하	-8311
▁불분	-8312
▁비위	-8313
▁비틀	-8314
▁사설	-8315
▁서면	-8316
▁서서	-8317
▁선을	-8318
▁세력	-8319
▁속옷	-8320
▁쌓인	-8321
▁안나	-8322
▁앞을	-8323
▁에어	-8324
▁여긴	-8325
▁영결	-8326
▁영동	-8327
▁예를	-8328
▁외곽	-8329
▁용납	-8330
▁울타	-8331
▁원천	-8332
▁음모	-8333
▁이라	-8334
▁이러	-8335
▁이외	-8336
▁일일	-8337
▁정면	-8338
▁정전	-8339
▁제천	-8340
▁조현	-8341
▁졸업	-8342
▁종종	-8343
▁좋아	-8344
▁좌회	-8345
▁쫓아	-8346
▁찔러	-8347
▁철회	-8348
▁콘크	-8349
▁크고	-8350
▁통금	-8351
▁편지	-8352
▁피살	-8353
▁한쪽	-8354
▁한참	-8355
▁혐오	-8356
▁형을	-8357
깁니다	-8358
노동자	-8359
리스트	-8360
리에서	-8361
병원에	-8362
부에서	-8363
았다가	-8364
에서의	-8365
협의회	-8366
▁194	-8367
▁고교생	-8368
▁고소인	-8369
▁골목길	-8370
▁공공의	-8371
▁관리가	-8372
▁교육생	-8373
▁기능을	-8374
▁기록이	-8375
▁나들목	-8376
▁나왔고	-8377
▁노력을	-8378
▁눈물을	-8379
▁다단계	-8380
▁대응할	-8381
▁대표의	-8382
▁댓글을	-8383
▁도착할	-8384
▁드러내	-8385
▁라디오	-8386
▁무함마	-8387
▁받으며	-8388
▁받으면	-8389
▁보도를	-8390
▁사재기	-8391
▁상반기	-8392
▁생명과	-8393
▁생명을	-8394
▁세상에	-8395
▁수사관	-8396
▁수시로	-8397
▁수위를	-8398
▁승무원	-8399
▁시뻘건	-8400
▁시설이	-8401
▁신체를	-8402
▁안타깝	-8403
▁않거나	-8404
▁않아서	-8405
▁압수한	-8406
▁억울한	-8407
▁업체의	-8408
▁외부에	-8409
▁요청에	-8410
▁원인과	-8411
▁위반과	-8412
▁의무를	-8413
▁이곳은	-8414
▁이듬해	-8415
▁이탈한	-8416
▁이해찬	-8417
▁입국해	-8418
▁장소에	-8419
▁전라남	-8420
▁정신과	-8421
▁제보가	-8422
▁중앙선	-8423
▁지역구	-8424
▁진단을	-8425
▁착용한	-8426
▁출입국	-8427
▁충분한	-8428
▁커노샤	-8429
▁커지는	-8430
▁클럽과	-8431
▁하나가	-8432
▁학생을	-8433
▁행사가	-8434
방역대책	-8435
▁JTBC	-8436
▁가족들이	-8437
▁거리에서	-8438
▁게시판에	-8439
▁경기도가	-8440
▁경찰청에	-8441
▁고용노동	-8442
▁공소장에	-8443
▁그렇다면	-8444
▁나눔의집	-8445
▁단계에서	-8446
▁들어가는	-8447
▁보육교사	-8448
▁사망사고	-8449
▁선거운동	-8450
▁수원여객	-8451
▁시작으로	-8452
▁식당에서	-8453
▁신분증을	-8454
▁아파트에	-8455
▁안전하게	-8456
▁오후부터	-8457
▁음성으로	-8458
▁이어졌고	-8459
▁정리해드	-8460
▁최고위원	-8461
▁통제되고	-8462
▁특수상해	-8463
▁폭행하고	-8464
▁피해자에	-8465
▁할머니는	-8466
▁형사처벌	-8467
▁형사합의	-8468
▁확인되면	-8469
▁회원들이	-8470
▁겪었습니다	-8471
▁교차로에서	-8472
▁국가정보원	-8473
▁김포공항에	-8474
▁덮쳤습니다	-8475
▁방침이라고	-8476
▁부산경찰청	-8477
▁사람들에게	-8478
▁오스트리아	-8479
▁운전자에게	-8480
▁휴대전화가	-8481
▁명령했습니다	-8482
▁반발했습니다	-8483
▁비난했습니다	-8484
▁적발했습니다	-8485
▁추가됐습니다	-8486
▁알아보겠습니다	-8487
▁사회관계망서비스	-8488
▁웡	-8489
▁웹	-8490
▁짜	-8491
▁첨	-8492
▁핀	-8493
갔다	-8494
구청	-8495
나마	-8496
느라	-8497
들고	-8498
리조	-8499
만한	-8500
모닝	-8501
모빌	-8502
밴드	-8503
범은	-8504
병이	-8505
부패	-8506
불명	-8507
수익	-8508
안은	-8509
어가	-8510
억여	-8511
요한	-8512
웠던	-8513
율이	-8514
이버	-8515
체계	-8516
층과	-8517
파크	-8518
패를	-8519
화로	-8520
화탄	-8521
▁LP	-8522
▁가구	-8523
▁개방	-8524
▁건넸	-8525
▁견디	-8526
▁경호	-8527
▁권유	-8528
▁기온	-8529
▁기저	-8530
▁김웅	-8531
▁나지	-8532
▁눈치	-8533
▁느낌	-8534
▁늦어	-8535
▁달린	-8536
▁도용	-8537
▁뚜렷	-8538
▁루카	-8539
▁마땅	-8540
▁말라	-8541
▁먹고	-8542
▁먹지	-8543
▁바깥	-8544
▁배가	-8545
▁병력	-8546
▁병역	-8547
▁붙여	-8548
▁상급	-8549
▁석방	-8550
▁성실	-8551
▁성지	-8552
▁소견	-8553
▁소연	-8554
▁손상	-8555
▁수립	-8556
▁스위	-8557
▁승진	-8558
▁시가	-8559
▁실체	-8560
▁어서	-8561
▁업계	-8562
▁연계	-8563
▁오리	-8564
▁옥살	-8565
▁왕실	-8566
▁우울	-8567
▁유서	-8568
▁이주	-8569
▁인구	-8570
▁자릿	-8571
▁잔해	-8572
▁전부	-8573
▁전산	-8574
▁전시	-8575
▁점은	-8576
▁정경	-8577
▁조언	-8578
▁지미	-8579
▁지붕	-8580
▁진열	-8581
▁찾고	-8582
▁초대	-8583
▁커다	-8584
▁코드	-8585
▁특이	-8586
▁품귀	-8587
▁하류	-8588
▁하얀	-8589
▁한층	-8590
▁행렬	-8591
▁행복	-8592
▁형이	-8593
▁휘둘	-8594
개월간	-8595
는지를	-8596
단체가	-8597
당에서	-8598
된다며	-8599
리거나	-8600
발적인	-8601
본부에	-8602
왔는데	-8603
으로써	-8604
인데도	-8605
장관이	-8606
하더니	-8607
하려던	-8608
하자는	-8609
▁110	-8610
▁갈등을	-8611
▁거라는	-8612
▁겁니까	-8613
▁격렬한	-8614
▁결정될	-8615
▁공격을	-8616
▁공문을	-8617
▁구급차	-8618
▁금지한	-8619
▁다쳤고	-8620
▁당국과	-8621
▁대상을	-8622
▁둔기로	-8623
▁말라는	-8624
▁반부패	-8625
▁배상훈	-8626
▁번호를	-8627
▁벌였고	-8628
▁보호를	-8629
▁불만이	-8630
▁불안해	-8631
▁불편을	-8632
▁사들인	-8633
▁사실과	-8634
▁사용된	-8635
▁사항을	-8636
▁상담을	-8637
▁상태인	-8638
▁서둘러	-8639
▁선수를	-8640
▁송치할	-8641
▁숨지기	-8642
▁아내가	-8643
▁아들과	-8644
▁않기로	-8645
▁여론이	-8646
▁오전에	-8647
▁원까지	-8648
▁유족은	-8649
▁이루어	-8650
▁인용해	-8651
▁일으킨	-8652
▁입건된	-8653
▁전기난	-8654
▁전체의	-8655
▁조직이	-8656
▁조처를	-8657
▁추락해	-8658
▁출연해	-8659
▁통제를	-8660
▁한다며	-8661
▁해경이	-8662
▁확산의	-8663
▁확산이	-8664
▁효과를	-8665
모빌리티	-8666
지방검찰	-8667
▁가운데는	-8668
▁경찰서를	-8669
▁고현준의	-8670
▁공유하는	-8671
▁과실치사	-8672
▁늘어나고	-8673
▁대통령에	-8674
▁도심에서	-8675
▁동물보호	-8676
▁문형욱이	-8677
▁방송시간	-8678
▁브리핑을	-8679
▁블레이크	-8680
▁비밀경호	-8681
▁서울북부	-8682
▁성추행한	-8683
▁어제까지	-8684
▁없었다는	-8685
▁여기저기	-8686
▁열립니다	-8687
▁외신들은	-8688
▁우편투표	-8689
▁인도에서	-8690
▁있을까요	-8691
▁주지사는	-8692
▁차량에서	-8693
▁판단하고	-8694
▁할머니가	-8695
▁했는데요	-8696
▁현장으로	-8697
▁호소하고	-8698
▁고속도로를	-8699
▁금지됩니다	-8700
▁민주화운동	-8701
▁발생했다고	-8702
▁보건복지부	-8703
▁부산에서는	-8704
▁빠졌습니다	-8705
▁수준입니다	-8706
▁오토바이가	-8707
▁이어지면서	-8708
▁인종차별에	-8709
▁전자발찌를	-8710
▁분석했습니다	-8711
▁선고됐습니다	-8712
▁스타모빌리티	-8713
▁어린이집에서	-8714
▁이동했습니다	-8715
▁중앙방역대책	-8716
▁나눠보겠습니다	-8717
▁뺨	-8718
▁엇	-8719
▁윗	-8720
▁팩	-8721
갔고	-8722
같이	-8723
곳과	-8724
권과	-8725
기준	-8726
노조	-8727
는다	-8728
대사	-8729
두에	-8730
득을	-8731
디터	-8732
랑곳	-8733
물은	-8734
바닥	-8735
배가	-8736
셴코	-8737
소생	-8738
시티	-8739
신문	-8740
실이	-8741
양은	-8742
양의	-8743
이면	-8744
일은	-8745
자유	-8746
주년	-8747
주로	-8748
집회	-8749
투본	-8750
확인	-8751
200	-8752
▁가라	-8753
▁갑작	-8754
▁검출	-8755
▁경부	-8756
▁경증	-8757
▁고도	-8758
▁고생	-8759
▁공관	-8760
▁관측	-8761
▁구치	-8762
▁군데	-8763
▁그럼	-8764
▁그에	-8765
▁길게	-8766
▁높게	-8767
▁다크	-8768
▁단호	-8769
▁대를	-8770
▁도민	-8771
▁독려	-8772
▁되돌	-8773
▁두드	-8774
▁딸의	-8775
▁마침	-8776
▁말도	-8777
▁멍이	-8778
▁모를	-8779
▁몰카	-8780
▁무력	-8781
▁무언	-8782
▁묻자	-8783
▁뭔가	-8784
▁미루	-8785
▁민경	-8786
▁바꾼	-8787
▁박탈	-8788
▁발레	-8789
▁밝힐	-8790
▁방어	-8791
▁배정	-8792
▁배후	-8793
▁범위	-8794
▁복역	-8795
▁부천	-8796
▁부품	-8797
▁분이	-8798
▁붙은	-8799
▁빚은	-8800
▁사냥	-8801
▁샤를	-8802
▁서민	-8803
▁성형	-8804
▁소극	-8805
▁수면	-8806
▁수의	-8807
▁순서	-8808
▁스파	-8809
▁실은	-8810
▁실험	-8811
▁아닐	-8812
▁알지	-8813
▁애도	-8814
▁어쨌	-8815
▁얻어	-8816
▁옷을	-8817
▁와서	-8818
▁와의	-8819
▁유착	-8820
▁이승	-8821
▁입힌	-8822
▁잠을	-8823
▁잠정	-8824
▁장군	-8825
▁재학	-8826
▁적색	-8827
▁제약	-8828
▁조롱	-8829
▁존중	-8830
▁주범	-8831
▁중소	-8832
▁지갑	-8833
▁짓눌	-8834
▁차명	-8835
▁철인	-8836
▁커진	-8837
▁표기	-8838
▁품고	-8839
▁피싱	-8840
▁하원	-8841
▁항상	-8842
▁혼잡	-8843
▁화폐	-8844
개월에	-8845
기관인	-8846
라스틱	-8847
번방을	-8848
시간이	-8849
었다가	-8850
으로도	-8851
인지는	-8852
지법은	-8853
차이나	-8854
통신에	-8855
통신이	-8856
하고자	-8857
▁감사를	-8858
▁개인의	-8859
▁개혁을	-8860
▁거리에	-8861
▁거칠게	-8862
▁것들이	-8863
▁계정을	-8864
▁고립된	-8865
▁공개를	-8866
▁과정이	-8867
▁관련자	-8868
▁구조를	-8869
▁국회가	-8870
▁근무한	-8871
▁기록한	-8872
▁나서는	-8873
▁논의가	-8874
▁대국민	-8875
▁대유행	-8876
▁뒤에는	-8877
▁들이닥	-8878
▁똑같은	-8879
▁머물고	-8880
▁모습도	-8881
▁모자를	-8882
▁목사의	-8883
▁몸싸움	-8884
▁미국인	-8885
▁받도록	-8886
▁방법을	-8887
▁방향을	-8888
▁벌이다	-8889
▁범행은	-8890
▁부당한	-8891
▁사람만	-8892
▁사유를	-8893
▁사태의	-8894
▁상당수	-8895
▁선거법	-8896
▁소리가	-8897
▁소비자	-8898
▁손으로	-8899
▁수사한	-8900
▁시간당	-8901
▁시민을	-8902
▁시위로	-8903
▁시작해	-8904
▁신생아	-8905
▁실시한	-8906
▁아동이	-8907
▁아랑곳	-8908
▁안팎의	-8909
▁않아도	-8910
▁않았을	-8911
▁없는데	-8912
▁없는지	-8913
▁에디터	-8914
▁에스퍼	-8915
▁여부도	-8916
▁연락해	-8917
▁외교관	-8918
▁용도로	-8919
▁유흥업	-8920
▁이르게	-8921
▁이틀째	-8922
▁있으나	-8923
▁잘못을	-8924
▁재수사	-8925
▁적발해	-8926
▁전국에	-8927
▁전력이	-8928
▁주민들	-8929
▁주방위	-8930
▁주소를	-8931
▁주에서	-8932
▁주의를	-8933
▁주인이	-8934
▁주한미	-8935
▁죽음을	-8936
▁증세가	-8937
▁진실을	-8938
▁충돌한	-8939
▁코너명	-8940
▁통화를	-8941
▁특성상	-8942
▁폭력에	-8943
▁필요해	-8944
▁학생은	-8945
▁학원강	-8946
▁행동이	-8947
▁현장의	-8948
▁협의를	-8949
▁환자와	-8950
▁활동에	-8951
석입니다	-8952
지역에서	-8953
▁경찰관은	-8954
▁고소장이	-8955
▁공간에서	-8956
▁공항에서	-8957
▁그런데도	-8958
▁근무하던	-8959
▁기다리던	-8960
▁루카셴코	-8961
▁마을에서	-8962
▁만들어진	-8963
▁부산시장	-8964
▁사무실을	-8965
▁설치하는	-8966
▁시스템을	-8967
▁심폐소생	-8968
▁썼습니다	-8969
▁어머니를	-8970
▁언급하며	-8971
▁여성가족	-8972
▁유료회원	-8973
▁의료진이	-8974
▁의원들은	-8975
▁의원에게	-8976
▁제주도가	-8977
▁지자체가	-8978
▁진행하는	-8979
▁집회에서	-8980
▁취재진은	-8981
▁플라스틱	-8982
▁피해자인	-8983
▁확산하는	-8984
▁확인해야	-8985
▁교통사고를	-8986
▁국무총리는	-8987
▁끝났습니다	-8988
▁높였습니다	-8989
▁무기징역을	-8990
▁바이러스를	-8991
▁밝혔는데요	-8992
▁신청했지만	-8993
▁실시간으로	-8994
▁어렵습니다	-8995
▁온라인으로	-8996
▁올림픽대로	-8997
▁인명피해가	-8998
▁적었습니다	-8999
▁빚어졌습니다	-9000
▁사우스차이나	-9001
▁예고했습니다	-9002
▁올라왔습니다	-9003
▁프로그램명을	-9004
▁현지시간으로	-9005
▁정부서울청사에서	-9006
▁값	-9007
▁끈	-9008
▁섭	-9009
▁옵	-9010
▁좀	-9011
▁톈	-9012
▁톤	-9013
강도	-9014
개정	-9015
객을	-9016
곳은	-9017
년여	-9018
등이	-9019
라서	-9020
무장	-9021
방은	-9022
상공	-9023
상은	-9024
소득	-9025
소의	-9026
수라	-9027
순영	-9028
와는	-9029
용진	-9030
워서	-9031
인민	-9032
자원	-9033
제도	-9034
창룡	-9035
철도	-9036
층의	-9037
치상	-9038
통제	-9039
▁85	-9040
▁가고	-9041
▁가림	-9042
▁가출	-9043
▁갔다	-9044
▁객관	-9045
▁건이	-9046
▁게재	-9047
▁겪는	-9048
▁고사	-9049
▁고지	-9050
▁공영	-9051
▁구타	-9052
▁극복	-9053
▁근본	-9054
▁금감	-9055
▁김재	-9056
▁내각	-9057
▁내사	-9058
▁도둑	-9059
▁딸과	-9060
▁떠올	-9061
▁말해	-9062
▁맞지	-9063
▁맡긴	-9064
▁명절	-9065
▁모으	-9066
▁모의	-9067
▁무고	-9068
▁무인	-9069
▁문구	-9070
▁반갑	-9071
▁북구	-9072
▁불필	-9073
▁서산	-9074
▁선동	-9075
▁소명	-9076
▁소장	-9077
▁소화	-9078
▁손목	-9079
▁수련	-9080
▁수석	-9081
▁실효	-9082
▁심문	-9083
▁알리	-9084
▁야권	-9085
▁얻은	-9086
▁에브	-9087
▁오지	-9088
▁올랐	-9089
▁옮긴	-9090
▁옵티	-9091
▁왔다	-9092
▁운송	-9093
▁의장	-9094
▁일각	-9095
▁일선	-9096
▁임용	-9097
▁자원	-9098
▁잔인	-9099
▁장난	-9100
▁절실	-9101
▁점에	-9102
▁점차	-9103
▁점포	-9104
▁정한	-9105
▁제이	-9106
▁조례	-9107
▁조문	-9108
▁조처	-9109
▁중계	-9110
▁중립	-9111
▁중재	-9112
▁지낸	-9113
▁진돗	-9114
▁천여	-9115
▁축하	-9116
▁충전	-9117
▁취할	-9118
▁치킨	-9119
▁친일	-9120
▁크다	-9121
▁터뜨	-9122
▁특활	-9123
▁파는	-9124
▁팔아	-9125
▁하셨	-9126
▁합쳐	-9127
▁해병	-9128
▁해소	-9129
▁혜택	-9130
▁화를	-9131
▁활성	-9132
▁회삿	-9133
▁후에	-9134
▁휴업	-9135
렸지만	-9136
사태를	-9137
사항을	-9138
스트라	-9139
심사를	-9140
영장을	-9141
으려고	-9142
코로나	-9143
행정법	-9144
▁감식이	-9145
▁건너던	-9146
▁건물의	-9147
▁검사한	-9148
▁결론을	-9149
▁고발된	-9150
▁고인의	-9151
▁관여한	-9152
▁광주의	-9153
▁교육감	-9154
▁교회는	-9155
▁구매한	-9156
▁국내에	-9157
▁그것을	-9158
▁금요일	-9159
▁급기야	-9160
▁기사는	-9161
▁기존에	-9162
▁김창룡	-9163
▁나타났	-9164
▁내사에	-9165
▁넘어져	-9166
▁노인이	-9167
▁당시에	-9168
▁대표이	-9169
▁명확히	-9170
▁모두를	-9171
▁무시한	-9172
▁물대포	-9173
▁미국은	-9174
▁바람이	-9175
▁받기도	-9176
▁밝히고	-9177
▁북한에	-9178
▁불꽃이	-9179
▁비행기	-9180
▁사건도	-9181
▁상황도	-9182
▁설치를	-9183
▁성지순	-9184
▁소재를	-9185
▁속도가	-9186
▁숫자가	-9187
▁심상치	-9188
▁영업이	-9189
▁옆으로	-9190
▁올리고	-9191
▁우리의	-9192
▁위반이	-9193
▁유전자	-9194
▁유족이	-9195
▁음성이	-9196
▁인물로	-9197
▁인정해	-9198
▁인터폴	-9199
▁일일이	-9200
▁입수한	-9201
▁지원할	-9202
▁참석해	-9203
▁첩보를	-9204
▁체포돼	-9205
▁총선을	-9206
▁추가돼	-9207
▁출근길	-9208
▁측정을	-9209
▁커다란	-9210
▁크레인	-9211
▁포인트	-9212
▁폭행은	-9213
▁하고요	-9214
▁한국에	-9215
▁했는지	-9216
▁활용한	-9217
분쯤에는	-9218
였는데요	-9219
원입니다	-9220
지방법원	-9221
▁2011	-9222
▁가족들은	-9223
▁가해자를	-9224
▁감성주점	-9225
▁갔습니다	-9226
▁강제수사	-9227
▁경찰청장	-9228
▁공중보건	-9229
▁관계자가	-9230
▁국가경찰	-9231
▁국가안보	-9232
▁국립중앙	-9233
▁그다음에	-9234
▁그럼에도	-9235
▁넘겨받은	-9236
▁단체들은	-9237
▁당선인은	-9238
▁대화방을	-9239
▁드라이브	-9240
▁명입니다	-9241
▁모두에게	-9242
▁발생했다	-9243
▁보여주는	-9244
▁비례대표	-9245
▁사망자도	-9246
▁사용하지	-9247
▁상태였던	-9248
▁섰습니다	-9249
▁수준으로	-9250
▁쏟아지고	-9251
▁아이들의	-9252
▁열겠다고	-9253
▁옵티머스	-9254
▁요양보호	-9255
▁요양시설	-9256
▁이사장은	-9257
▁이춘재가	-9258
▁일어나고	-9259
▁자신들이	-9260
▁정신질환	-9261
▁제공하는	-9262
▁주력하고	-9263
▁중고거래	-9264
▁중요하다	-9265
▁증가하고	-9266
▁지방선거	-9267
▁지켜지지	-9268
▁직접적인	-9269
▁청와대에	-9270
▁최소한의	-9271
▁콘크리트	-9272
▁피의자는	-9273
▁필기시험	-9274
▁필요성이	-9275
▁학생들을	-9276
▁해양경찰	-9277
모닝포스트	-9278
▁감염경로가	-9279
▁들어갑니다	-9280
▁떠났습니다	-9281
▁미네소타주	-9282
▁방역지침을	-9283
▁보건당국이	-9284
▁서울행정법	-9285
▁시민들에게	-9286
▁아르바이트	-9287
▁온라인에서	-9288
▁주차장에서	-9289
▁직원들에게	-9290
▁집중호우로	-9291
▁확인했다고	-9292
▁선별진료소를	-9293
▁사우스차이나모닝포스트	-9294
12	-9295
▁까	-9296
▁벚	-9297
▁섞	-9298
▁쐈	-9299
▁을	-9300
▁캄	-9301
▁혹	-9302
가포	-9303
경비	-9304
공동	-9305
국의	-9306
권익	-9307
금은	-9308
나다	-9309
단지	-9310
래도	-9311
렀고	-9312
로서	-9313
류를	-9314
미콘	-9315
발의	-9316
방사	-9317
보에	-9318
봉사	-9319
부족	-9320
선의	-9321
수용	-9322
슈아	-9323
식도	-9324
심히	-9325
았을	-9326
었을	-9327
연맹	-9328
연습	-9329
오자	-9330
우드	-9331
인당	-9332
자동	-9333
정차	-9334
제는	-9335
쳤다	-9336
치의	-9337
킬로	-9338
트코	-9339
펀드	-9340
포폴	-9341
프로	-9342
항에	-9343
화와	-9344
▁86	-9345
▁DC	-9346
▁가르	-9347
▁강북	-9348
▁거친	-9349
▁걷던	-9350
▁걸고	-9351
▁광진	-9352
▁구직	-9353
▁그래	-9354
▁나갈	-9355
▁남지	-9356
▁내야	-9357
▁농민	-9358
▁농협	-9359
▁달에	-9360
▁담아	-9361
▁담합	-9362
▁대다	-9363
▁대여	-9364
▁대회	-9365
▁도는	-9366
▁독극	-9367
▁뒤덮	-9368
▁마셨	-9369
▁메르	-9370
▁명칭	-9371
▁몇몇	-9372
▁모터	-9373
▁무궁	-9374
▁물건	-9375
▁방호	-9376
▁배임	-9377
▁법리	-9378
▁법에	-9379
▁벚꽃	-9380
▁보낼	-9381
▁본다	-9382
▁상고	-9383
▁성북	-9384
▁세우	-9385
▁속아	-9386
▁수법	-9387
▁수위	-9388
▁순경	-9389
▁숨어	-9390
▁신빙	-9391
▁실현	-9392
▁안개	-9393
▁안성	-9394
▁연령	-9395
▁오르	-9396
▁옥천	-9397
▁옮겼	-9398
▁옹호	-9399
▁은평	-9400
▁이민	-9401
▁인상	-9402
▁인증	-9403
▁일로	-9404
▁일한	-9405
▁일행	-9406
▁재검	-9407
▁점거	-9408
▁정관	-9409
▁정직	-9410
▁중상	-9411
▁참모	-9412
▁총책	-9413
▁최우	-9414
▁치과	-9415
▁타살	-9416
▁탄압	-9417
▁투쟁	-9418
▁퍼뜨	-9419
▁폭파	-9420
▁프리	-9421
▁한반	-9422
▁함바	-9423
▁합법	-9424
대원이	-9425
되도록	-9426
마저도	-9427
선으로	-9428
시설의	-9429
예배를	-9430
이면서	-9431
주의를	-9432
지사는	-9433
튜디오	-9434
푸르나	-9435
행위에	-9436
▁가방을	-9437
▁가족은	-9438
▁거래가	-9439
▁결혼식	-9440
▁경상을	-9441
▁경찰법	-9442
▁고무보	-9443
▁고양시	-9444
▁골프장	-9445
▁구체적	-9446
▁국가가	-9447
▁국민이	-9448
▁국세청	-9449
▁그들은	-9450
▁글로벌	-9451
▁금액을	-9452
▁급격히	-9453
▁기소돼	-9454
▁김경진	-9455
▁남편이	-9456
▁내리는	-9457
▁노트북	-9458
▁뇌물을	-9459
▁뉴욕주	-9460
▁다르게	-9461
▁다크웹	-9462
▁대응이	-9463
▁데리고	-9464
▁돌진한	-9465
▁동승자	-9466
▁등에게	-9467
▁레미콘	-9468
▁많은데	-9469
▁메시지	-9470
▁문구가	-9471
▁물품을	-9472
▁밖에서	-9473
▁방법이	-9474
▁보좌관	-9475
▁보트를	-9476
▁부작용	-9477
▁사업에	-9478
▁사회에	-9479
▁상태는	-9480
▁새벽에	-9481
▁서울대	-9482
▁서울에	-9483
▁선거에	-9484
▁선고한	-9485
▁선수의	-9486
▁소지품	-9487
▁손가락	-9488
▁송치된	-9489
▁수백만	-9490
▁수법이	-9491
▁수사팀	-9492
▁시장과	-9493
▁싱가포	-9494
▁아수라	-9495
▁어쨌든	-9496
▁언론사	-9497
▁언론의	-9498
▁예산을	-9499
▁외에는	-9500
▁원장은	-9501
▁위기를	-9502
▁유서를	-9503
▁이렇다	-9504
▁이밖에	-9505
▁이상한	-9506
▁이종필	-9507
▁일본군	-9508
▁일종의	-9509
▁임순영	-9510
▁자금을	-9511
▁장소로	-9512
▁전임의	-9513
▁접근을	-9514
▁정부를	-9515
▁정신을	-9516
▁조슈아	-9517
▁줄어든	-9518
▁중환자	-9519
▁지인을	-9520
▁지키고	-9521
▁차관은	-9522
▁차선을	-9523
▁초등생	-9524
▁코리아	-9525
▁크기의	-9526
▁클럽을	-9527
▁토사가	-9528
▁트럭을	-9529
▁판단에	-9530
▁퍼지고	-9531
▁폭행에	-9532
▁폭행이	-9533
▁피하기	-9534
▁학생의	-9535
▁한계가	-9536
▁한동안	-9537
▁협조해	-9538
▁활용해	-9539
▁회장의	-9540
▁횡령한	-9541
과정에서	-9542
시간가량	-9543
일부터는	-9544
▁공범으로	-9545
▁교민들을	-9546
▁구조대원	-9547
▁당했다는	-9548
▁대대적인	-9549
▁대부분은	-9550
▁대상에서	-9551
▁뒤따르던	-9552
▁메시지가	-9553
▁몸싸움을	-9554
▁못했다는	-9555
▁반려동물	-9556
▁발생하면	-9557
▁부당하게	-9558
▁살펴보고	-9559
▁서울구치	-9560
▁성폭행을	-9561
▁소연평도	-9562
▁슈퍼마켓	-9563
▁알려지지	-9564
▁였습니다	-9565
▁오늘까지	-9566
▁이뤄지는	-9567
▁재판부에	-9568
▁저희들이	-9569
▁정기국회	-9570
▁제조업체	-9571
▁중대재해	-9572
▁징역이나	-9573
▁청소년의	-9574
▁최근에는	-9575
▁친어머니	-9576
▁파악되지	-9577
▁프로포폴	-9578
▁한가운데	-9579
▁현금으로	-9580
버렸습니다	-9581
▁거리두기가	-9582
▁거리두기를	-9583
▁마쳤습니다	-9584
▁물었습니다	-9585
▁보이는데요	-9586
▁안나푸르나	-9587
▁정도입니다	-9588
▁주장입니다	-9589
▁페이스북에	-9590
▁프로그램명	-9591
▁확산하면서	-9592
▁계속됐습니다	-9593
▁구형했습니다	-9594
▁나오셨습니다	-9595
▁대공수사권을	-9596
▁사라졌습니다	-9597
▁처분했습니다	-9598
▁통과했습니다	-9599
▁서울중앙지검에	-9600
▁서울중앙지검은	-9601
▁영장실질심사를	-9602
▁R	-9603
▁낭	-9604
▁쏠	-9605
▁줘	-9606
▁칭	-9607
▁흩	-9608
가리	-9609
가스	-9610
광장	-9611
구나	-9612
금과	-9613
냐후	-9614
데믹	-9615
되게	-9616
만을	-9617
별한	-9618
병기	-9619
보지	-9620
부처	-9621
분리	-9622
사슬	-9623
순환	-9624
심과	-9625
연대	-9626
월과	-9627
읍의	-9628
이상	-9629
자나	-9630
자흐	-9631
절차	-9632
책임	-9633
취를	-9634
투자	-9635
프는	-9636
하듯	-9637
▁EU	-9638
▁KF	-9639
▁건널	-9640
▁건을	-9641
▁견인	-9642
▁견제	-9643
▁결심	-9644
▁결의	-9645
▁고니	-9646
▁관찰	-9647
▁금전	-9648
▁기강	-9649
▁기름	-9650
▁기밀	-9651
▁끊어	-9652
▁끌려	-9653
▁끝났	-9654
▁나면	-9655
▁난방	-9656
▁넘길	-9657
▁네타	-9658
▁노사	-9659
▁농장	-9660
▁느껴	-9661
▁담보	-9662
▁대의	-9663
▁던져	-9664
▁데려	-9665
▁돌고	-9666
▁동기	-9667
▁동반	-9668
▁뒷좌	-9669
▁딸은	-9670
▁때만	-9671
▁로마	-9672
▁마비	-9673
▁말로	-9674
▁맡아	-9675
▁매입	-9676
▁명부	-9677
▁밀폐	-9678
▁반입	-9679
▁방범	-9680
▁병사	-9681
▁복직	-9682
▁부시	-9683
▁빨간	-9684
▁사들	-9685
▁사직	-9686
▁사후	-9687
▁상세	-9688
▁상자	-9689
▁상처	-9690
▁선체	-9691
▁성산	-9692
▁세정	-9693
▁순직	-9694
▁시켜	-9695
▁신발	-9696
▁실업	-9697
▁안이	-9698
▁안쪽	-9699
▁알렉	-9700
▁약식	-9701
▁억제	-9702
▁엇갈	-9703
▁엔진	-9704
▁연대	-9705
▁예외	-9706
▁옹벽	-9707
▁위축	-9708
▁이메	-9709
▁이자	-9710
▁잇는	-9711
▁잡지	-9712
▁재일	-9713
▁적시	-9714
▁전치	-9715
▁즐기	-9716
▁청산	-9717
▁촉법	-9718
▁총파	-9719
▁취지	-9720
▁측과	-9721
▁치사	-9722
▁키우	-9723
▁포토	-9724
▁폭탄	-9725
▁피할	-9726
▁필로	-9727
▁한해	-9728
▁합성	-9729
▁행안	-9730
▁헌병	-9731
▁현관	-9732
▁황당	-9733
▁휠을	-9734
단체는	-9735
명이나	-9736
백여만	-9737
범죄의	-9738
분가량	-9739
산으로	-9740
었다며	-9741
여명이	-9742
왔지만	-9743
으로서	-9744
이고요	-9745
자들과	-9746
점검을	-9747
차로를	-9748
▁160	-9749
▁196	-9750
▁TBC	-9751
▁USB	-9752
▁가드레	-9753
▁가라앉	-9754
▁가림막	-9755
▁강북구	-9756
▁개정을	-9757
▁거부한	-9758
▁건으로	-9759
▁검토해	-9760
▁것이고	-9761
▁것인데	-9762
▁게시판	-9763
▁격리를	-9764
▁결국은	-9765
▁계정에	-9766
▁계좌로	-9767
▁계좌를	-9768
▁공모해	-9769
▁공사가	-9770
▁공유기	-9771
▁광범위	-9772
▁구하기	-9773
▁급속히	-9774
▁기획재	-9775
▁나오자	-9776
▁남기고	-9777
▁넘어가	-9778
▁늘었고	-9779
▁다치는	-9780
▁담배를	-9781
▁당하는	-9782
▁대전과	-9783
▁대전의	-9784
▁됐는데	-9785
▁두기가	-9786
▁드론을	-9787
▁딸에게	-9788
▁무궁화	-9789
▁묻지마	-9790
▁민원이	-9791
▁방위군	-9792
▁배제할	-9793
▁번지고	-9794
▁번화가	-9795
▁벌어져	-9796
▁보여주	-9797
▁분석이	-9798
▁불안감	-9799
▁사회가	-9800
▁사흘째	-9801
▁생각해	-9802
▁선거를	-9803
▁소지한	-9804
▁수원시	-9805
▁시공사	-9806
▁시기에	-9807
▁시사용	-9808
▁시위와	-9809
▁신고할	-9810
▁실태를	-9811
▁아이돌	-9812
▁안정을	-9813
▁양부모	-9814
▁어제도	-9815
▁언론이	-9816
▁엄격히	-9817
▁엄청난	-9818
▁없어서	-9819
▁없으며	-9820
▁없으면	-9821
▁예방법	-9822
▁예정돼	-9823
▁운영에	-9824
▁유일한	-9825
▁의원도	-9826
▁이것은	-9827
▁이동할	-9828
▁이동해	-9829
▁이익을	-9830
▁인원을	-9831
▁자리에	-9832
▁장기간	-9833
▁재심을	-9834
▁전화해	-9835
▁접촉해	-9836
▁제작한	-9837
▁조지아	-9838
▁주의가	-9839
▁주인은	-9840
▁중국과	-9841
▁지나지	-9842
▁지내던	-9843
▁지인이	-9844
▁처분이	-9845
▁체계를	-9846
▁카자흐	-9847
▁특정해	-9848
▁판정이	-9849
▁폭행해	-9850
▁하루에	-9851
▁학대로	-9852
▁학생과	-9853
▁협박을	-9854
▁확보를	-9855
▁확실한	-9856
▁회의에	-9857
▁후보로	-9858
▁훼손된	-9859
▁휩쓸려	-9860
▁흑인의	-9861
병원으로	-9862
장입니다	-9863
적입니다	-9864
췄습니다	-9865
▁감염병의	-9866
▁건강보험	-9867
▁경비원이	-9868
▁과잉진압	-9869
▁관계자를	-9870
▁국민들의	-9871
▁군사경찰	-9872
▁금지하고	-9873
▁긴장감이	-9874
▁나타나고	-9875
▁나타나지	-9876
▁내부에서	-9877
▁네타냐후	-9878
▁대한체육	-9879
▁도움으로	-9880
▁들어오는	-9881
▁목소리도	-9882
▁무기징역	-9883
▁발견하지	-9884
▁보고서를	-9885
▁불가피한	-9886
▁불필요한	-9887
▁비공개로	-9888
▁선고받고	-9889
▁선고받은	-9890
▁수도권을	-9891
▁승객들이	-9892
▁시작했고	-9893
▁신도들이	-9894
▁싱가포르	-9895
▁억울함을	-9896
▁오전부터	-9897
▁외교부는	-9898
▁인터뷰를	-9899
▁자전거를	-9900
▁점검하고	-9901
▁제출하지	-9902
▁제한하는	-9903
▁조사결과	-9904
▁주먹으로	-9905
▁중국으로	-9906
▁지자체의	-9907
▁통일부는	-9908
▁통합당은	-9909
▁퍼지면서	-9910
▁학교에서	-9911
▁해달라고	-9912
▁화물차를	-9913
▁확인됐다	-9914
▁회견에서	-9915
익스프레스	-9916
▁강화하기로	-9917
▁고위공직자	-9918
▁공개적으로	-9919
▁관계자들의	-9920
▁금융감독원	-9921
▁대통령에게	-9922
▁맞았습니다	-9923
▁받아들이지	-9924
▁상습적으로	-9925
▁신청했다고	-9926
▁저질렀다고	-9927
▁줄었습니다	-9928
▁텔레그램을	-9929
▁국립중앙의료	-9930
▁권고했습니다	-9931
▁방문판매업체	-9932
▁범죄단체조직	-9933
▁심폐소생술을	-9934
▁약속했습니다	-9935
▁캘리포니아주	-9936
▁확정됐습니다	-9937
▁내용이었습니다	-9938
▁사랑제일교회에	-9939
94	-9940
▁득	-9941
▁뮤	-9942
▁찼	-9943
▁히	-9944
개는	-9945
고발	-9946
공급	-9947
국공	-9948
권의	-9949
기인	-9950
끼로	-9951
냈고	-9952
냐고	-9953
당에	-9954
대인	-9955
데시	-9956
됐기	-9957
말로	-9958
모델	-9959
박한	-9960
붙은	-9961
사한	-9962
생이	-9963
셔야	-9964
셔츠	-9965
소한	-9966
수칙	-9967
승주	-9968
씨도	-9969
업무	-9970
자고	-9971
자들	-9972
증명	-9973
집에	-9974
취소	-9975
파제	-9976
형두	-9977
호는	-9978
▁81	-9979
▁83	-9980
▁가린	-9981
▁가만	-9982
▁간이	-9983
▁감싸	-9984
▁개조	-9985
▁건에	-9986
▁걸친	-9987
▁공용	-9988
▁과격	-9989
▁극좌	-9990
▁급여	-9991
▁기반	-9992
▁김은	-9993
▁나아	-9994
▁난폭	-9995
▁내걸	-9996
▁네덜	-9997
▁누워	-9998
▁동남	-9999
▁돼서	-10000
▁드나	-10001
▁로드	-10002
▁말은	-10003
▁매출	-10004
▁멀리	-10005
▁못할	-10006
▁무색	-10007
▁무효	-10008
▁밀반	-10009
▁받자	-10010
▁발달	-10011
▁벽돌	-10012
▁변을	-10013
▁불빛	-10014
▁불어	-10015
▁뺨을	-10016
▁생겼	-10017
▁소위	-10018
▁속인	-10019
▁속초	-10020
▁수년	-10021
▁숨긴	-10022
▁시범	-10023
▁시즌	-10024
▁시흥	-10025
▁싣고	-10026
▁싶어	-10027
▁싸움	-10028
▁써야	-10029
▁안을	-10030
▁약을	-10031
▁올리	-10032
▁외제	-10033
▁운반	-10034
▁원장	-10035
▁유류	-10036
▁이명	-10037
▁인양	-10038
▁일삼	-10039
▁일용	-10040
▁잇단	-10041
▁작전	-10042
▁잔불	-10043
▁접어	-10044
▁줄여	-10045
▁진심	-10046
▁철조	-10047
▁최다	-10048
▁측면	-10049
▁층간	-10050
▁통영	-10051
▁폭주	-10052
▁항만	-10053
▁행태	-10054
▁확충	-10055
▁회수	-10056
▁힘이	-10057
교도소	-10058
년에도	-10059
는데도	-10060
다시피	-10061
로서는	-10062
부터는	-10063
센터는	-10064
십니다	-10065
용으로	-10066
위원장	-10067
지니아	-10068
편으로	-10069
하라며	-10070
협회는	-10071
▁TJB	-10072
▁감염의	-10073
▁거기에	-10074
▁걱정이	-10075
▁검거해	-10076
▁계기가	-10077
▁공급이	-10078
▁관계가	-10079
▁관리소	-10080
▁교민을	-10081
▁교직원	-10082
▁규명을	-10083
▁규모를	-10084
▁근무를	-10085
▁금액은	-10086
▁금액이	-10087
▁급하게	-10088
▁나흘째	-10089
▁남자가	-10090
▁논란은	-10091
▁늘어나	-10092
▁다가구	-10093
▁다음은	-10094
▁대기업	-10095
▁돌진해	-10096
▁들었다	-10097
▁많았고	-10098
▁명단에	-10099
▁방송에	-10100
▁범죄는	-10101
▁법안소	-10102
▁벗어난	-10103
▁보내고	-10104
▁부위를	-10105
▁부인한	-10106
▁분류된	-10107
▁불안을	-10108
▁불어난	-10109
▁비상이	-10110
▁상당한	-10111
▁선생님	-10112
▁소방과	-10113
▁시위의	-10114
▁신뢰를	-10115
▁아이들	-10116
▁알리는	-10117
▁어디에	-10118
▁여부와	-10119
▁역량을	-10120
▁연예인	-10121
▁오후에	-10122
▁올리는	-10123
▁요구가	-10124
▁유통한	-10125
▁의뢰할	-10126
▁이것을	-10127
▁이동한	-10128
▁인국공	-10129
▁일자리	-10130
▁있으니	-10131
▁자제를	-10132
▁잠적한	-10133
▁재산을	-10134
▁적어도	-10135
▁전라북	-10136
▁전염병	-10137
▁전체를	-10138
▁전해진	-10139
▁제목의	-10140
▁제주항	-10141
▁조작한	-10142
▁주위를	-10143
▁주진모	-10144
▁지구대	-10145
▁지침에	-10146
▁지켜야	-10147
▁청구할	-10148
▁촉발된	-10149
▁최신종	-10150
▁최형두	-10151
▁충격에	-10152
▁침입한	-10153
▁캐나다	-10154
▁파출소	-10155
▁하나씩	-10156
▁학교와	-10157
▁해경의	-10158
▁해수욕	-10159
▁협력해	-10160
▁형체를	-10161
▁회삿돈	-10162
리케이션	-10163
명이라고	-10164
받았다고	-10165
자치경찰	-10166
켰습니다	-10167
킬로미터	-10168
현입니다	-10169
▁감염으로	-10170
▁개정안에	-10171
▁검색어는	-10172
▁검찰에서	-10173
▁공판에서	-10174
▁귀금속을	-10175
▁근무했던	-10176
▁내용으로	-10177
▁당선인의	-10178
▁못하도록	-10179
▁못합니다	-10180
▁민관합동	-10181
▁발견됐고	-10182
▁방해하는	-10183
▁범인으로	-10184
▁부인하는	-10185
▁불가능한	-10186
▁비판하는	-10187
▁산사태가	-10188
▁상품권을	-10189
▁성매매를	-10190
▁수도권에	-10191
▁수원지법	-10192
▁숨졌다고	-10193
▁신고하고	-10194
▁아프리카	-10195
▁앞서가던	-10196
▁여론조사	-10197
▁여자친구	-10198
▁영장전담	-10199
▁이름으로	-10200
▁인천에서	-10201
▁정상적인	-10202
▁제한하고	-10203
▁조주빈을	-10204
▁지나가던	-10205
▁지역으로	-10206
▁지인에게	-10207
▁지자체는	-10208
▁지자체에	-10209
▁직원들과	-10210
▁징역형을	-10211
▁차단하기	-10212
▁차량으로	-10213
▁참여하는	-10214
▁촉법소년	-10215
▁파악하는	-10216
▁폐기물을	-10217
▁피해자만	-10218
▁한국에서	-10219
▁현수막이	-10220
▁확인하지	-10221
들었습니다	-10222
위원회에서	-10223
▁경찰로부터	-10224
▁노동자들이	-10225
▁대목입니다	-10226
▁대화방에서	-10227
▁보건당국의	-10228
▁선거운동을	-10229
▁아동청소년	-10230
▁이어집니다	-10231
▁잇따르면서	-10232
▁정보통신망	-10233
▁종합적으로	-10234
▁지난해보다	-10235
▁지적합니다	-10236
▁카자흐스탄	-10237
▁공무집행방해	-10238
▁뉴욕타임스는	-10239
▁돌아갔습니다	-10240
▁돌아왔습니다	-10241
▁분위기입니다	-10242
▁설치했습니다	-10243
▁송치됐습니다	-10244
▁애플리케이션	-10245
▁역학조사에서	-10246
▁주문했습니다	-10247
▁참석했습니다	-10248
▁들어보겠습니다	-10249
▁어린이보호구역에서	-10250
24	-10251
MW	-10252
▁떴	-10253
▁맛	-10254
▁셀	-10255
▁폼	-10256
가의	-10257
계는	-10258
고에	-10259
는가	-10260
당의	-10261
라노	-10262
란색	-10263
만이	-10264
멘트	-10265
밀한	-10266
사경	-10267
세에	-10268
시고	-10269
실장	-10270
어린	-10271
용품	-10272
웠다	-10273
율을	-10274
이로	-10275
정거	-10276
제네	-10277
중심	-10278
집을	-10279
초가	-10280
침입	-10281
터리	-10282
하니	-10283
한을	-10284
할지	-10285
화된	-10286
▁08	-10287
▁IT	-10288
▁갖춰	-10289
▁결코	-10290
▁계신	-10291
▁계열	-10292
▁곡성	-10293
▁공안	-10294
▁공채	-10295
▁공황	-10296
▁교란	-10297
▁구두	-10298
▁국감	-10299
▁균형	-10300
▁나쁜	-10301
▁남의	-10302
▁느슨	-10303
▁당내	-10304
▁대립	-10305
▁대우	-10306
▁독재	-10307
▁돌입	-10308
▁동급	-10309
▁따뜻	-10310
▁레저	-10311
▁마사	-10312
▁매수	-10313
▁맨홀	-10314
▁먹는	-10315
▁명시	-10316
▁목이	-10317
▁무겁	-10318
▁물질	-10319
▁미칠	-10320
▁미혼	-10321
▁밀착	-10322
▁발을	-10323
▁배를	-10324
▁보셨	-10325
▁부르	-10326
▁사적	-10327
▁삶을	-10328
▁상시	-10329
▁생계	-10330
▁석유	-10331
▁설비	-10332
▁성격	-10333
▁수강	-10334
▁수렴	-10335
▁승강	-10336
▁승합	-10337
▁시정	-10338
▁신임	-10339
▁실행	-10340
▁씨앗	-10341
▁않기	-10342
▁애틀	-10343
▁야생	-10344
▁어떤	-10345
▁열려	-10346
▁오랫	-10347
▁오염	-10348
▁옥상	-10349
▁이익	-10350
▁익산	-10351
▁인테	-10352
▁잃어	-10353
▁입학	-10354
▁자문	-10355
▁잡혔	-10356
▁잡힌	-10357
▁장성	-10358
▁쟁점	-10359
▁정문	-10360
▁정인	-10361
▁존슨	-10362
▁죄책	-10363
▁줄지	-10364
▁중점	-10365
▁증오	-10366
▁집안	-10367
▁집이	-10368
▁총력	-10369
▁최진	-10370
▁출생	-10371
▁치매	-10372
▁치명	-10373
▁치어	-10374
▁파면	-10375
▁펼쳐	-10376
▁풀이	-10377
▁피서	-10378
▁함정	-10379
▁협약	-10380
▁호송	-10381
▁후배	-10382
가에서	-10383
당하는	-10384
되지만	-10385
병원의	-10386
센터를	-10387
입니까	-10388
졌는지	-10389
지역에	-10390
처벌법	-10391
하는지	-10392
화하는	-10393
▁270	-10394
▁BMW	-10395
▁LPG	-10396
▁감찰을	-10397
▁강서구	-10398
▁개입한	-10399
▁건물은	-10400
▁결정적	-10401
▁경상북	-10402
▁관리법	-10403
▁국과수	-10404
▁국민들	-10405
▁금지를	-10406
▁기준이	-10407
▁기회를	-10408
▁김여정	-10409
▁김정은	-10410
▁깃발을	-10411
▁끝나고	-10412
▁끝나면	-10413
▁내놓은	-10414
▁노무현	-10415
▁농기계	-10416
▁눈사태	-10417
▁뉴스를	-10418
▁다툼이	-10419
▁단체에	-10420
▁당선인	-10421
▁대도시	-10422
▁데이트	-10423
▁도박을	-10424
▁때리는	-10425
▁마라톤	-10426
▁마크롱	-10427
▁만일의	-10428
▁만취한	-10429
▁머리에	-10430
▁명령이	-10431
▁미국에	-10432
▁미국이	-10433
▁발표된	-10434
▁벌이는	-10435
▁범죄인	-10436
▁법사위	-10437
▁보내지	-10438
▁보조금	-10439
▁보트가	-10440
▁사격장	-10441
▁사실로	-10442
▁사용이	-10443
▁사용해	-10444
▁사칭한	-10445
▁상원의	-10446
▁상태에	-10447
▁생명에	-10448
▁샤를리	-10449
▁서초구	-10450
▁성남시	-10451
▁시비가	-10452
▁시비를	-10453
▁시중에	-10454
▁시청자	-10455
▁시행령	-10456
▁신병을	-10457
▁아닌지	-10458
▁알리지	-10459
▁알아볼	-10460
▁알코올	-10461
▁언급한	-10462
▁업주가	-10463
▁여성도	-10464
▁연관된	-10465
▁오가는	-10466
▁우한에	-10467
▁운영해	-10468
▁의미로	-10469
▁의미를	-10470
▁이순신	-10471
▁이천시	-10472
▁인공수	-10473
▁인파가	-10474
▁일단은	-10475
▁일대에	-10476
▁일으키	-10477
▁있었을	-10478
▁자신과	-10479
▁자택에	-10480
▁작업은	-10481
▁장치가	-10482
▁적발돼	-10483
▁전날인	-10484
▁전달한	-10485
▁정관용	-10486
▁정보위	-10487
▁정의연	-10488
▁조속히	-10489
▁조작해	-10490
▁좀처럼	-10491
▁좌회전	-10492
▁주거지	-10493
▁주지사	-10494
▁죽음에	-10495
▁진입을	-10496
▁진행될	-10497
▁쪽에서	-10498
▁차별에	-10499
▁찾아온	-10500
▁충돌해	-10501
▁치러진	-10502
▁크다고	-10503
▁투약한	-10504
▁평화의	-10505
▁포스터	-10506
▁폭력이	-10507
▁현황을	-10508
▁화재는	-10509
국민투쟁	-10510
안전보건	-10511
약품안전	-10512
이라든가	-10513
해지면서	-10514
▁경찰까지	-10515
▁국민들이	-10516
▁기다리는	-10517
▁남양주시	-10518
▁냉동창고	-10519
▁네덜란드	-10520
▁늘어나는	-10521
▁당시에도	-10522
▁대피하는	-10523
▁둘러싸고	-10524
▁마스크는	-10525
▁버지니아	-10526
▁벌금형에	-10527
▁변호사가	-10528
▁부산시가	-10529
▁불안감을	-10530
▁사상자가	-10531
▁상당수가	-10532
▁서울서부	-10533
▁속출하고	-10534
▁손님들이	-10535
▁스튜디오	-10536
▁승용차와	-10537
▁쓰레기가	-10538
▁아이들은	-10539
▁안에서는	-10540
▁않겠다는	-10541
▁앞으로는	-10542
▁예정대로	-10543
▁오랫동안	-10544
▁요청했고	-10545
▁운전자에	-10546
▁운전자와	-10547
▁운전자인	-10548
▁유럽연합	-10549
▁이번에도	-10550
▁이야기는	-10551
▁이어지자	-10552
▁전국으로	-10553
▁전문가는	-10554
▁조건으로	-10555
▁조두순의	-10556
▁주민들을	-10557
▁중앙분리	-10558
▁지원하는	-10559
▁직원들을	-10560
▁진압으로	-10561
▁착용하고	-10562
▁처벌하고	-10563
▁총선에서	-10564
▁출동하는	-10565
▁컸습니다	-10566
▁트레일러	-10567
▁확보하고	-10568
▁확인됐고	-10569
▁환자들이	-10570
▁경찰서에서	-10571
▁교통사고로	-10572
▁기자회견을	-10573
▁대공수사권	-10574
▁만났습니다	-10575
▁발견됐는데	-10576
▁비닐하우스	-10577
▁사이버안전	-10578
▁상황이라고	-10579
▁수도권에서	-10580
▁신종코로나	-10581
▁올랐습니다	-10582
▁요구했지만	-10583
▁원칙적으로	-10584
▁인사청문회	-10585
▁조직적으로	-10586
▁주민들에게	-10587
▁텔레그램에	-10588
▁플로이드를	-10589
▁학부모들은	-10590
▁혐의입니다	-10591
▁거부했습니다	-10592
▁경부고속도로	-10593
▁구조했습니다	-10594
▁대응하겠다고	-10595
▁대피했습니다	-10596
▁동의했습니다	-10597
▁민관합동조사	-10598
▁전달했습니다	-10599
▁증가했습니다	-10600
▁추락했습니다	-10601
▁털어놨습니다	-10602
▁투입됐습니다	-10603
▁식품의약품안전	-10604
▁질병관리본부는	-10605
▁서울지방경찰청에	-10606
▁특정범죄가중처벌	-10607
20	-10608
▁갱	-10609
▁델	-10610
▁땐	-10611
▁람	-10612
▁롬	-10613
▁뭘	-10614
▁뿜	-10615
▁샀	-10616
▁섰	-10617
▁앙	-10618
▁웨	-10619
▁짙	-10620
▁탁	-10621
▁험	-10622
계약	-10623
근혜	-10624
기부	-10625
끄는	-10626
도급	-10627
독교	-10628
동원	-10629
둥성	-10630
락을	-10631
려보	-10632
로에	-10633
로와	-10634
로의	-10635
률을	-10636
리한	-10637
명인	-10638
물의	-10639
분기	-10640
빌딩	-10641
석희	-10642
세종	-10643
셔서	-10644
순찰	-10645
심에	-10646
아웃	-10647
악한	-10648
안먼	-10649
역에	-10650
연주	-10651
웨어	-10652
위험	-10653
음식	-10654
의무	-10655
이란	-10656
재단	-10657
저우	-10658
조선	-10659
중독	-10660
지노	-10661
차량	-10662
참여	-10663
체의	-10664
추적	-10665
치에	-10666
티즌	-10667
픔을	-10668
학원	-10669
해튼	-10670
화에	-10671
회와	-10672
▁79	-10673
▁가한	-10674
▁간에	-10675
▁갈아	-10676
▁강의	-10677
▁갖게	-10678
▁개성	-10679
▁걷어	-10680
▁격려	-10681
▁겪은	-10682
▁고속	-10683
▁골든	-10684
▁공고	-10685
▁공통	-10686
▁과열	-10687
▁과제	-10688
▁관해	-10689
▁구제	-10690
▁구한	-10691
▁권역	-10692
▁그간	-10693
▁그건	-10694
▁그리	-10695
▁김모	-10696
▁김완	-10697
▁김진	-10698
▁깊이	-10699
▁깔린	-10700
▁깜깜	-10701
▁꼼꼼	-10702
▁낚시	-10703
▁내보	-10704
▁농업	-10705
▁느꼈	-10706
▁달여	-10707
▁도마	-10708
▁돕는	-10709
▁동시	-10710
▁둘째	-10711
▁들끓	-10712
▁로비	-10713
▁망가	-10714
▁무산	-10715
▁민사	-10716
▁민족	-10717
▁배당	-10718
▁보전	-10719
▁불허	-10720
▁비춰	-10721
▁비협	-10722
▁사립	-10723
▁상상	-10724
▁상업	-10725
▁상인	-10726
▁생겨	-10727
▁생필	-10728
▁서식	-10729
▁시키	-10730
▁실형	-10731
▁아쉬	-10732
▁안장	-10733
▁애국	-10734
▁야구	-10735
▁영어	-10736
▁예보	-10737
▁완주	-10738
▁원생	-10739
▁위작	-10740
▁위태	-10741
▁유관	-10742
▁유엔	-10743
▁윤영	-10744
▁의대	-10745
▁이건	-10746
▁이광	-10747
▁이륜	-10748
▁이모	-10749
▁인간	-10750
▁인민	-10751
▁인삼	-10752
▁인출	-10753
▁자국	-10754
▁자랑	-10755
▁자해	-10756
▁잠금	-10757
▁재해	-10758
▁전형	-10759
▁정착	-10760
▁조짐	-10761
▁줄일	-10762
▁중징	-10763
▁지리	-10764
▁찌른	-10765
▁처할	-10766
▁철제	-10767
▁초량	-10768
▁최악	-10769
▁추세	-10770
▁치아	-10771
▁캠페	-10772
▁탄원	-10773
▁탈퇴	-10774
▁탐지	-10775
▁특검	-10776
▁폭스	-10777
▁한마	-10778
▁핸드	-10779
▁행각	-10780
▁현안	-10781
▁확장	-10782
▁회식	-10783
객들은	-10784
객들이	-10785
곱미터	-10786
공사는	-10787
교육을	-10788
기관이	-10789
단체의	-10790
라데시	-10791
라든가	-10792
라든지	-10793
명이고	-10794
밀하게	-10795
별로는	-10796
뿐만이	-10797
웁니다	-10798
이기도	-10799
정으로	-10800
제네카	-10801
준다는	-10802
지역의	-10803
체계를	-10804
층으로	-10805
하지도	-10806
해주는	-10807
▁감정을	-10808
▁골자로	-10809
▁공격이	-10810
▁국토부	-10811
▁그나마	-10812
▁그중에	-10813
▁기관과	-10814
▁기관을	-10815
▁기관의	-10816
▁기지국	-10817
▁김은배	-10818
▁남편과	-10819
▁났다는	-10820
▁내부를	-10821
▁네티즌	-10822
▁노래방	-10823
▁높다고	-10824
▁눈치채	-10825
▁다리가	-10826
▁단순히	-10827
▁당했다	-10828
▁대상에	-10829
▁대표와	-10830
▁던지는	-10831
▁돌아갈	-10832
▁되면서	-10833
▁듭니다	-10834
▁뜨거운	-10835
▁마피아	-10836
▁맨해튼	-10837
▁명확한	-10838
▁모터보	-10839
▁무리한	-10840
▁미혼모	-10841
▁박근혜	-10842
▁박상학	-10843
▁박용진	-10844
▁반응이	-10845
▁방식을	-10846
▁방안이	-10847
▁배치해	-10848
▁버스와	-10849
▁벌이던	-10850
▁부딪혀	-10851
▁부부의	-10852
▁부서진	-10853
▁부인이	-10854
▁비트코	-10855
▁빌미로	-10856
▁사무국	-10857
▁사이의	-10858
▁선박이	-10859
▁소녀상	-10860
▁소재가	-10861
▁손님을	-10862
▁손석희	-10863
▁쇠사슬	-10864
▁수감자	-10865
▁수갑을	-10866
▁수익을	-10867
▁수치를	-10868
▁스페셜	-10869
▁승객을	-10870
▁시신의	-10871
▁신고해	-10872
▁싶다는	-10873
▁애틀랜	-10874
▁약탈과	-10875
▁어려움	-10876
▁얼굴에	-10877
▁역부족	-10878
▁열심히	-10879
▁예고한	-10880
▁옮겨진	-10881
▁용인시	-10882
▁운영이	-10883
▁운전기	-10884
▁원장이	-10885
▁원하지	-10886
▁월북한	-10887
▁위력에	-10888
▁유기한	-10889
▁유족과	-10890
▁유죄로	-10891
▁의견도	-10892
▁의사는	-10893
▁이기야	-10894
▁이어져	-10895
▁인도에	-10896
▁일용직	-10897
▁자회사	-10898
▁장관을	-10899
▁장소는	-10900
▁적용을	-10901
▁점검에	-10902
▁정권의	-10903
▁정치인	-10904
▁정황도	-10905
▁제안을	-10906
▁조금씩	-10907
▁조직은	-10908
▁주장도	-10909
▁주택이	-10910
▁준하는	-10911
▁줄지어	-10912
▁중국어	-10913
▁증가한	-10914
▁지인과	-10915
▁찌그러	-10916
▁찾아내	-10917
▁추적이	-10918
▁치과의	-10919
▁치열한	-10920
▁침수된	-10921
▁탈북자	-10922
▁토론을	-10923
▁통제가	-10924
▁특사경	-10925
▁특혜를	-10926
▁팬데믹	-10927
▁폐쇄된	-10928
▁프로듀	-10929
▁피해도	-10930
▁학대에	-10931
▁한국여	-10932
▁해리스	-10933
▁해제된	-10934
▁행정대	-10935
▁행진을	-10936
▁호소한	-10937
▁확정된	-10938
▁환자도	-10939
▁회사의	-10940
고등학교	-10941
민입니다	-10942
았는데요	-10943
진입니다	-10944
▁2006	-10945
▁감사에서	-10946
▁검찰총장	-10947
▁경우에도	-10948
▁경찰차를	-10949
▁고발하고	-10950
▁공소장을	-10951
▁국과수에	-10952
▁기본적인	-10953
▁나서면서	-10954
▁나왔다고	-10955
▁남북관계	-10956
▁내렸다고	-10957
▁단독보도	-10958
▁달아나는	-10959
▁당했다며	-10960
▁돌아다니	-10961
▁마스크도	-10962
▁맞습니다	-10963
▁민주당의	-10964
▁받았으며	-10965
▁벌입니다	-10966
▁변호인이	-10967
▁보험사기	-10968
▁보호하는	-10969
▁분석하고	-10970
▁사람들도	-10971
▁새벽까지	-10972
▁아스트라	-10973
▁어린이는	-10974
▁여성들을	-10975
▁우려되는	-10976
▁위반하면	-10977
▁일이라고	-10978
▁입주민의	-10979
▁줄었지만	-10980
▁차단하는	-10981
▁처벌하는	-10982
▁총격으로	-10983
▁촬영물을	-10984
▁최루탄을	-10985
▁카메라가	-10986
▁합동감식	-10987
명으로부터	-10988
브리핑에서	-10989
▁개인정보가	-10990
▁그쳤습니다	-10991
▁나갔습니다	-10992
▁달아납니다	-10993
▁뒤였습니다	-10994
▁발견됐다고	-10995
▁불과합니다	-10996
▁선별진료소	-10997
▁아동학대로	-10998
▁압수수색해	-10999
▁어업지도선	-11000
▁영상입니다	-11001
▁옮겼습니다	-11002
▁외쳤습니다	-11003
▁우려됩니다	-11004
▁유가족들은	-11005
▁의무적으로	-11006
▁이었습니다	-11007
▁이유입니다	-11008
▁인공수초섬	-11009
▁인재개발원	-11010
▁일방적으로	-11011
▁일었습니다	-11012
▁재산피해가	-11013
▁전수조사를	-11014
▁지역에서는	-11015
▁진행합니다	-11016
▁참가자들은	-11017
▁챙겼습니다	-11018
▁측으로부터	-11019
▁풀이됩니다	-11020
▁한복판에서	-11021
▁향했습니다	-11022
▁고발하겠다고	-11023
▁기각됐습니다	-11024
▁늘어났습니다	-11025
▁방문했습니다	-11026
▁적용됐습니다	-11027
▁제시했습니다	-11028
▁중단됐습니다	-11029
▁증언했습니다	-11030
▁출동했습니다	-11031
▁한익스프레스	-11032
▁사랑제일교회를	-11033
▁아스트라제네카	-11034
▁어린이보호구역	-11035
▁혈중알코올농도	-11036
▁중앙사고수습본부	-11037
▁X	-11038
▁겉	-11039
▁닉	-11040
▁덩	-11041
▁룸	-11042
▁멸	-11043
▁봄	-11044
▁셋	-11045
▁횟	-11046
건축	-11047
겼고	-11048
고도	-11049
공업	-11050
공작	-11051
공장	-11052
급여	-11053
다니	-11054
대출	-11055
더라	-11056
더미	-11057
드의	-11058
들지	-11059
렀다	-11060
로워	-11061
료품	-11062
루트	-11063
배기	-11064
병은	-11065
부대	-11066
분석	-11067
사키	-11068
수급	-11069
스카	-11070
시위	-11071
오다	-11072
원우	-11073
월쯤	-11074
일까	-11075
일용	-11076
젓이	-11077
줄을	-11078
중을	-11079
즈니	-11080
증이	-11081
지던	-11082
차이	-11083
텐츠	-11084
퇴근	-11085
편이	-11086
폰을	-11087
프트	-11088
피를	-11089
▁71	-11090
▁가기	-11091
▁가야	-11092
▁가중	-11093
▁간주	-11094
▁감수	-11095
▁거로	-11096
▁경과	-11097
▁경산	-11098
▁관람	-11099
▁교정	-11100
▁구리	-11101
▁권익	-11102
▁그을	-11103
▁꿇고	-11104
▁끊은	-11105
▁나름	-11106
▁내다	-11107
▁내며	-11108
▁노린	-11109
▁노선	-11110
▁놓은	-11111
▁닉네	-11112
▁단축	-11113
▁대사	-11114
▁던진	-11115
▁도보	-11116
▁도청	-11117
▁동래	-11118
▁동포	-11119
▁되기	-11120
▁뒤엉	-11121
▁드문	-11122
▁득표	-11123
▁떠오	-11124
▁많지	-11125
▁매매	-11126
▁명씩	-11127
▁목록	-11128
▁목에	-11129
▁무렵	-11130
▁물려	-11131
▁미화	-11132
▁바짝	-11133
▁반민	-11134
▁발행	-11135
▁방에	-11136
▁배출	-11137
▁법제	-11138
▁벽에	-11139
▁보존	-11140
▁봐도	-11141
▁분당	-11142
▁분실	-11143
▁빨래	-11144
▁사임	-11145
▁살려	-11146
▁상륙	-11147
▁서버	-11148
▁선전	-11149
▁세부	-11150
▁세입	-11151
▁손수	-11152
▁술자	-11153
▁실수	-11154
▁아베	-11155
▁압도	-11156
▁여럿	-11157
▁영월	-11158
▁오프	-11159
▁우월	-11160
▁원정	-11161
▁원치	-11162
▁유공	-11163
▁유모	-11164
▁유언	-11165
▁유혈	-11166
▁유효	-11167
▁응원	-11168
▁임무	-11169
▁입시	-11170
▁자경	-11171
▁잠겨	-11172
▁잠실	-11173
▁저축	-11174
▁적어	-11175
▁접견	-11176
▁정규	-11177
▁조달	-11178
▁조혜	-11179
▁주방	-11180
▁주상	-11181
▁중개	-11182
▁지검	-11183
▁지칭	-11184
▁질서	-11185
▁참변	-11186
▁처방	-11187
▁체모	-11188
▁추징	-11189
▁캠프	-11190
▁캠핑	-11191
▁특가	-11192
▁퍼진	-11193
▁피난	-11194
▁피를	-11195
▁하와	-11196
▁하청	-11197
▁헬스	-11198
관리법	-11199
관에게	-11200
됐으나	-11201
라이나	-11202
라인을	-11203
받아야	-11204
방망이	-11205
부분이	-11206
불명의	-11207
사태가	-11208
소방서	-11209
시간의	-11210
시설인	-11211
시키기	-11212
신고를	-11213
어린이	-11214
업체와	-11215
에게서	-11216
자동차	-11217
장치를	-11218
전문가	-11219
직원을	-11220
하고는	-11221
했거나	-11222
화하고	-11223
▁190	-11224
▁BBC	-11225
▁가격이	-11226
▁감독과	-11227
▁강남의	-11228
▁강행한	-11229
▁개정된	-11230
▁거리가	-11231
▁것이란	-11232
▁경위에	-11233
▁곳곳을	-11234
▁공개해	-11235
▁공공장	-11236
▁공백이	-11237
▁교사의	-11238
▁국장은	-11239
▁권력을	-11240
▁권일용	-11241
▁급류에	-11242
▁급정거	-11243
▁기관에	-11244
▁기관은	-11245
▁기사의	-11246
▁기소를	-11247
▁기술을	-11248
▁나가는	-11249
▁나서야	-11250
▁나와서	-11251
▁난항을	-11252
▁네팔인	-11253
▁논의할	-11254
▁다니던	-11255
▁단속도	-11256
▁댓글이	-11257
▁도망치	-11258
▁드러낸	-11259
▁등장한	-11260
▁리조트	-11261
▁마련에	-11262
▁막대한	-11263
▁면밀히	-11264
▁명부를	-11265
▁모습은	-11266
▁모양새	-11267
▁목사와	-11268
▁목표로	-11269
▁무게를	-11270
▁문구를	-11271
▁받고도	-11272
▁발표를	-11273
▁밤부터	-11274
▁방치한	-11275
▁배수로	-11276
▁백원우	-11277
▁버젓이	-11278
▁범인은	-11279
▁범투본	-11280
▁북한은	-11281
▁비난이	-11282
▁비닐봉	-11283
▁비무장	-11284
▁비율이	-11285
▁비판도	-11286
▁사기와	-11287
▁사람에	-11288
▁사용을	-11289
▁사유가	-11290
▁사퇴를	-11291
▁사표를	-11292
▁살펴볼	-11293
▁상대방	-11294
▁생방송	-11295
▁소상공	-11296
▁수십만	-11297
▁수요일	-11298
▁스파링	-11299
▁시설과	-11300
▁식료품	-11301
▁식중독	-11302
▁신도는	-11303
▁신도와	-11304
▁아동은	-11305
▁아래에	-11306
▁악용해	-11307
▁않지만	-11308
▁양육비	-11309
▁어제는	-11310
▁언론을	-11311
▁얼굴과	-11312
▁업소는	-11313
▁에어컨	-11314
▁연이어	-11315
▁연평도	-11316
▁염두에	-11317
▁예정인	-11318
▁오늘로	-11319
▁위원회	-11320
▁위협한	-11321
▁유명한	-11322
▁유족의	-11323
▁음모론	-11324
▁의무가	-11325
▁의원에	-11326
▁이끄는	-11327
▁이상은	-11328
▁이용구	-11329
▁이재용	-11330
▁인근을	-11331
▁인력이	-11332
▁인적이	-11333
▁인지한	-11334
▁일당은	-11335
▁일대를	-11336
▁일하고	-11337
▁임무를	-11338
▁임의로	-11339
▁잇따른	-11340
▁있다면	-11341
▁자료가	-11342
▁재판은	-11343
▁쟁점이	-11344
▁저질러	-11345
▁전과가	-11346
▁전원이	-11347
▁전주시	-11348
▁정도를	-11349
▁제시한	-11350
▁주인을	-11351
▁준비를	-11352
▁준비한	-11353
▁중대본	-11354
▁증언이	-11355
▁지나치	-11356
▁지역이	-11357
▁지정해	-11358
▁지켜보	-11359
▁지켜본	-11360
▁진입한	-11361
▁차량도	-11362
▁차례나	-11363
▁채팅앱	-11364
▁추적에	-11365
▁출입자	-11366
▁출퇴근	-11367
▁충돌을	-11368
▁취재를	-11369
▁침입해	-11370
▁태어난	-11371
▁테러가	-11372
▁통신이	-11373
▁통화한	-11374
▁특보는	-11375
▁파악이	-11376
▁파악할	-11377
▁파장이	-11378
▁파티를	-11379
▁판단할	-11380
▁폭언을	-11381
▁표현을	-11382
▁풀려난	-11383
▁프라이	-11384
▁피고소	-11385
▁학교를	-11386
▁학생들	-11387
▁해명을	-11388
▁허술한	-11389
▁호랑이	-11390
▁회사가	-11391
▁회사는	-11392
▁후에도	-11393
▁흔적을	-11394
▁힘들어	-11395
곳입니다	-11396
성입니다	-11397
▁경찰차가	-11398
▁과학수사	-11399
▁교통안전	-11400
▁국무총리	-11401
▁국민권익	-11402
▁극단주의	-11403
▁당시에는	-11404
▁말씀하신	-11405
▁말입니다	-11406
▁문제점을	-11407
▁밀입국한	-11408
▁밝혔다고	-11409
▁방문했던	-11410
▁범죄수익	-11411
▁보이는데	-11412
▁부산지역	-11413
▁비상대책	-11414
▁사무실에	-11415
▁상태라고	-11416
▁선고하고	-11417
▁수사에서	-11418
▁수익금을	-11419
▁시달리다	-11420
▁시민들을	-11421
▁시스템이	-11422
▁시작되는	-11423
▁실질적인	-11424
▁싶습니다	-11425
▁아무래도	-11426
▁아파트를	-11427
▁안타깝게	-11428
▁않는다며	-11429
▁알면서도	-11430
▁애틀랜타	-11431
▁양성으로	-11432
▁어렵다며	-11433
▁없었는지	-11434
▁예상되는	-11435
▁운전기사	-11436
▁유통업체	-11437
▁의원들이	-11438
▁이춘재의	-11439
▁일반음식	-11440
▁일본에서	-11441
▁일어나는	-11442
▁장애아동	-11443
▁전세기가	-11444
▁접촉자는	-11445
▁정부세종	-11446
▁제기하고	-11447
▁지역감염	-11448
▁지지하는	-11449
▁지켜봐야	-11450
▁직무유기	-11451
▁진단검사	-11452
▁진상규명	-11453
▁진심으로	-11454
▁태국에서	-11455
▁편의점에	-11456
▁피의자를	-11457
▁필요성을	-11458
▁해외입국	-11459
▁현수막을	-11460
▁확보하지	-11461
▁확진자인	-11462
▁횡단보도	-11463
▁공중보건의	-11464
▁관련해서도	-11465
▁광주광역시	-11466
▁교도소에서	-11467
▁국민의힘이	-11468
▁그었습니다	-11469
▁기획재정부	-11470
▁길거리에서	-11471
▁때문이라고	-11472
▁발생했다는	-11473
▁부산시장이	-11474
▁생겼습니다	-11475
▁운전자들이	-11476
▁자치경찰제	-11477
▁정규직으로	-11478
▁최종적으로	-11479
▁투표용지를	-11480
▁감염됐습니다	-11481
▁것이었습니다	-11482
▁경찰관들에게	-11483
▁국가수사본부	-11484
▁돌진했습니다	-11485
▁마련됐습니다	-11486
▁마련했습니다	-11487
▁의결했습니다	-11488
▁자수했습니다	-11489
▁제안했습니다	-11490
▁중대재해기업	-11491
▁추돌했습니다	-11492
▁상황이었습니다	-11493
▁인천지방경찰청	-11494
▁전해드렸는데요	-11495
▁임시생활시설에서	-11496
▁중앙재난안전대책본부	-11497
18	-11498
27	-11499
39	-11500
YT	-11501
▁v	-11502
▁中	-11503
▁긍	-11504
▁냄	-11505
▁널	-11506
▁놔	-11507
▁뜬	-11508
▁몫	-11509
▁삽	-11510
▁솜	-11511
▁쌀	-11512
▁씻	-11513
▁킹	-11514
▁텅	-11515
▁튕	-11516
게요	-11517
겼다	-11518
경기	-11519
고는	-11520
구급	-11521
권도	-11522
기동	-11523
나운	-11524
남기	-11525
냈다	-11526
년도	-11527
노이	-11528
듯이	-11529
랙터	-11530
렀던	-11531
리그	-11532
리즘	-11533
리퍼	-11534
문과	-11535
분권	-11536
비오	-11537
수수	-11538
스티	-11539
시한	-11540
안의	-11541
액의	-11542
었기	-11543
연락	-11544
영향	-11545
예수	-11546
욕탕	-11547
운영	-11548
워크	-11549
원인	-11550
위반	-11551
위와	-11552
으셨	-11553
저지	-11554
조무	-11555
진이	-11556
척이	-11557
천명	-11558
추진	-11559
평을	-11560
하에	-11561
학대	-11562
호흡	-11563
홀딩	-11564
확진	-11565
800	-11566
▁가둬	-11567
▁가리	-11568
▁가파	-11569
▁간첩	-11570
▁감옥	-11571
▁감추	-11572
▁개그	-11573
▁경마	-11574
▁계시	-11575
▁고열	-11576
▁곤란	-11577
▁공산	-11578
▁과장	-11579
▁관세	-11580
▁광산	-11581
▁구의	-11582
▁국경	-11583
▁긍정	-11584
▁기적	-11585
▁김천	-11586
▁김현	-11587
▁깜짝	-11588
▁꺼진	-11589
▁끝이	-11590
▁날려	-11591
▁누설	-11592
▁단기	-11593
▁답안	-11594
▁대교	-11595
▁대부	-11596
▁대산	-11597
▁대조	-11598
▁두리	-11599
▁들려	-11600
▁만났	-11601
▁만료	-11602
▁맞추	-11603
▁묶어	-11604
▁묻힌	-11605
▁물론	-11606
▁물살	-11607
▁미제	-11608
▁백여	-11609
▁백화	-11610
▁버티	-11611
▁번의	-11612
▁법의	-11613
▁베네	-11614
▁벽을	-11615
▁병행	-11616
▁복잡	-11617
▁부린	-11618
▁분담	-11619
▁분량	-11620
▁분주	-11621
▁불명	-11622
▁상류	-11623
▁상무	-11624
▁새겨	-11625
▁생길	-11626
▁성주	-11627
▁세금	-11628
▁세대	-11629
▁세로	-11630
▁소란	-11631
▁수억	-11632
▁수형	-11633
▁스루	-11634
▁스리	-11635
▁스미	-11636
▁양쪽	-11637
▁어길	-11638
▁여순	-11639
▁영광	-11640
▁오면	-11641
▁요금	-11642
▁유유	-11643
▁유턴	-11644
▁이럴	-11645
▁이은	-11646
▁인과	-11647
▁자고	-11648
▁자매	-11649
▁잔디	-11650
▁잡는	-11651
▁장대	-11652
▁재수	-11653
▁재임	-11654
▁재택	-11655
▁저수	-11656
▁전개	-11657
▁정쟁	-11658
▁조각	-11659
▁주가	-11660
▁주기	-11661
▁주석	-11662
▁죽을	-11663
▁지불	-11664
▁진범	-11665
▁차려	-11666
▁초당	-11667
▁총탄	-11668
▁친모	-11669
▁캄보	-11670
▁콜롬	-11671
▁타스	-11672
▁팔을	-11673
▁평범	-11674
▁하드	-11675
▁한두	-11676
▁한탄	-11677
▁한파	-11678
▁할지	-11679
▁해수	-11680
▁헤엄	-11681
▁현상	-11682
▁협회	-11683
▁형성	-11684
▁호남	-11685
▁홍수	-11686
거리는	-11687
계획을	-11688
국으로	-11689
까지만	-11690
도까지	-11691
들과의	-11692
들면서	-11693
리조나	-11694
마스크	-11695
모델링	-11696
밴드를	-11697
보호에	-11698
성폭력	-11699
손으로	-11700
야말로	-11701
었어요	-11702
으려면	-11703
자라고	-11704
재판을	-11705
전으로	-11706
줬다는	-11707
차례나	-11708
책으로	-11709
쳤다는	-11710
터미널	-11711
하자고	-11712
해수욕	-11713
했고요	-11714
▁가스가	-11715
▁감식에	-11716
▁강행할	-11717
▁같다는	-11718
▁거대한	-11719
▁거주자	-11720
▁거창군	-11721
▁걸리지	-11722
▁검사에	-11723
▁검사의	-11724
▁검역을	-11725
▁검찰도	-11726
▁공개가	-11727
▁공사장	-11728
▁공유한	-11729
▁공포에	-11730
▁과실이	-11731
▁구간을	-11732
▁규정이	-11733
▁그것도	-11734
▁기다려	-11735
▁기부금	-11736
▁긴장이	-11737
▁나란히	-11738
▁넘어간	-11739
▁넘어서	-11740
▁노동당	-11741
▁높이고	-11742
▁누구도	-11743
▁늘었다	-11744
▁대전시	-11745
▁대처가	-11746
▁대피한	-11747
▁던지고	-11748
▁도로는	-11749
▁돌아와	-11750
▁동생이	-11751
▁두려워	-11752
▁등록을	-11753
▁마련한	-11754
▁말하지	-11755
▁멧돼지	-11756
▁모스크	-11757
▁몰리는	-11758
▁무관한	-11759
▁미디어	-11760
▁미안해	-11761
▁반대편	-11762
▁반부터	-11763
▁받아서	-11764
▁방지법	-11765
▁벌금이	-11766
▁보고를	-11767
▁봅니다	-11768
▁부담을	-11769
▁부모님	-11770
▁부모와	-11771
▁부분도	-11772
▁붙잡은	-11773
▁사례로	-11774
▁사업자	-11775
▁사항이	-11776
▁상자를	-11777
▁상태였	-11778
▁선거인	-11779
▁선고가	-11780
▁선고를	-11781
▁수위는	-11782
▁시설로	-11783
▁시행에	-11784
▁신청이	-11785
▁실수로	-11786
▁실시할	-11787
▁실장은	-11788
▁안산시	-11789
▁안전이	-11790
▁알고도	-11791
▁알리고	-11792
▁엄격한	-11793
▁연락처	-11794
▁엿새째	-11795
▁예방접	-11796
▁오늘의	-11797
▁외출을	-11798
▁외출한	-11799
▁위해선	-11800
▁윤영석	-11801
▁의문을	-11802
▁이득을	-11803
▁이어갈	-11804
▁이연주	-11805
▁이재오	-11806
▁인도로	-11807
▁인도를	-11808
▁인스타	-11809
▁인용할	-11810
▁일반인	-11811
▁입국자	-11812
▁자택을	-11813
▁재검토	-11814
▁적게는	-11815
▁전주의	-11816
▁조해진	-11817
▁주민과	-11818
▁주시죠	-11819
▁주장해	-11820
▁주제로	-11821
▁줄이기	-11822
▁중으로	-11823
▁중이며	-11824
▁지지율	-11825
▁직원들	-11826
▁진료를	-11827
▁진정을	-11828
▁진천의	-11829
▁집행을	-11830
▁차로를	-11831
▁참여를	-11832
▁처리할	-11833
▁초과해	-11834
▁총리의	-11835
▁최악의	-11836
▁추적한	-11837
▁출입구	-11838
▁층간소	-11839
▁치료비	-11840
▁크다는	-11841
▁탑승한	-11842
▁통신은	-11843
▁튀어나	-11844
▁포착된	-11845
▁표기해	-11846
▁표현이	-11847
▁하나인	-11848
▁학교의	-11849
▁한국전	-11850
▁해안가	-11851
▁해외로	-11852
▁허점이	-11853
▁형태의	-11854
▁혼란을	-11855
▁훈련을	-11856
요원으로	-11857
▁간호조무	-11858
▁강력범죄	-11859
▁거부하고	-11860
▁계속하고	-11861
▁골프장에	-11862
▁공황장애	-11863
▁관리하고	-11864
▁권한대행	-11865
▁근로자가	-11866
▁기저질환	-11867
▁긴장하고	-11868
▁나왔지만	-11869
▁남성으로	-11870
▁내리면서	-11871
▁뉴욕에서	-11872
▁들이받는	-11873
▁리모델링	-11874
▁마스크로	-11875
▁면허취소	-11876
▁박사방을	-11877
▁반려견을	-11878
▁발령하고	-11879
▁방문자와	-11880
▁범행으로	-11881
▁보이지만	-11882
▁북한에서	-11883
▁비밀번호	-11884
▁빌라에서	-11885
▁설명했다	-11886
▁성범죄자	-11887
▁수도권의	-11888
▁수색하고	-11889
▁신고하는	-11890
▁실시하고	-11891
▁실제로는	-11892
▁실종자를	-11893
▁씨로부터	-11894
▁아버지를	-11895
▁않으면서	-11896
▁알려지자	-11897
▁애리조나	-11898
▁여성으로	-11899
▁연관성이	-11900
▁영상에는	-11901
▁옥살이를	-11902
▁외부에서	-11903
▁요청하는	-11904
▁움직임이	-11905
▁위원장은	-11906
▁유족들이	-11907
▁유포하는	-11908
▁인권위는	-11909
▁일산화탄	-11910
▁일자리를	-11911
▁있는데도	-11912
▁적발되면	-11913
▁전국적인	-11914
▁전세버스	-11915
▁전역으로	-11916
▁전화금융	-11917
▁접수하고	-11918
▁조수석에	-11919
▁주상복합	-11920
▁중소기업	-11921
▁지역별로	-11922
▁지원하고	-11923
▁집중하고	-11924
▁참가자가	-11925
▁찾았다가	-11926
▁청소년을	-11927
▁총회장이	-11928
▁캄보디아	-11929
▁토지거래	-11930
▁할머니를	-11931
▁협박하는	-11932
▁형식으로	-11933
▁홈페이지	-11934
▁확보하기	-11935
▁확산되고	-11936
▁환자들을	-11937
▁회사에서	-11938
▁훼손하는	-11939
▁간담회에서	-11940
▁거부하거나	-11941
▁경상남도는	-11942
▁공소시효가	-11943
▁공식적으로	-11944
▁관계자들은	-11945
▁교통사고는	-11946
▁국토교통부	-11947
▁노동자들의	-11948
▁달랐습니다	-11949
▁대중교통을	-11950
▁드러나면서	-11951
▁들어보시죠	-11952
▁모았습니다	-11953
▁받았는데요	-11954
▁보육교사가	-11955
▁사이트에서	-11956
▁손해배상을	-11957
▁수사본부를	-11958
▁스쿨존에서	-11959
▁압수수색에	-11960
▁운전면허를	-11961
▁의무화하는	-11962
▁이송됐지만	-11963
▁인스타그램	-11964
▁일각에서는	-11965
▁재난지원금	-11966
▁정상적으로	-11967
▁지적입니다	-11968
▁진행됩니다	-11969
▁퍼졌습니다	-11970
▁학부모들이	-11971
▁확인됐는데	-11972
▁강행했습니다	-11973
▁고발됐습니다	-11974
▁만들었습니다	-11975
▁받아들여지지	-11976
▁배치됐습니다	-11977
▁서울남부지검	-11978
▁인정하면서도	-11979
▁저질렀습니다	-11980
▁통제됐습니다	-11981
▁투입했습니다	-11982
▁파손됐습니다	-11983
▁표기해주시기	-11984
▁개인정보보호법	-11985
▁국방과학연구소	-11986
▁마무리됐습니다	-11987
▁정례브리핑에서	-11988
▁고위공직자범죄수사	-11989
▁곽	-11990
▁뱀	-11991
▁싫	-11992
▁십	-11993
▁엎	-11994
▁쥐	-11995
감과	-11996
개소	-11997
개에	-11998
격포	-11999
고가	-12000
국인	-12001
금리	-12002
기구	-12003
년생	-12004
능력	-12005
당해	-12006
대기	-12007
대리	-12008
데이	-12009
도도	-12010
도피	-12011
드라	-12012
등급	-12013
라의	-12014
마의	-12015
매장	-12016
머그	-12017
메이	-12018
바람	-12019
발로	-12020
발적	-12021
방향	-12022
범계	-12023
보좌	-12024
서만	-12025
성적	-12026
수배	-12027
스와	-12028
스키	-12029
어의	-12030
역과	-12031
위기	-12032
유입	-12033
일인	-12034
전한	-12035
절도	-12036
정한	-12037
중개	-12038
줬다	-12039
지요	-12040
지휘	-12041
진은	-12042
진흥	-12043
차와	-12044
치로	-12045
치며	-12046
팀의	-12047
편을	-12048
했죠	-12049
▁GP	-12050
▁갓난	-12051
▁강정	-12052
▁개념	-12053
▁건조	-12054
▁결탁	-12055
▁경유	-12056
▁계도	-12057
▁고교	-12058
▁공인	-12059
▁광안	-12060
▁구마	-12061
▁구석	-12062
▁그린	-12063
▁김득	-12064
▁깔려	-12065
▁낙하	-12066
▁날짜	-12067
▁남쪽	-12068
▁남한	-12069
▁났고	-12070
▁냄새	-12071
▁널리	-12072
▁노스	-12073
▁달성	-12074
▁답을	-12075
▁당신	-12076
▁데는	-12077
▁돈은	-12078
▁돌연	-12079
▁돕기	-12080
▁동상	-12081
▁되게	-12082
▁라파	-12083
▁리치	-12084
▁마찰	-12085
▁맞게	-12086
▁면적	-12087
▁멸종	-12088
▁명소	-12089
▁명품	-12090
▁무서	-12091
▁묻고	-12092
▁미주	-12093
▁반납	-12094
▁발주	-12095
▁방금	-12096
▁방을	-12097
▁보증	-12098
▁불쾌	-12099
▁브룩	-12100
▁빈과	-12101
▁빼내	-12102
▁선물	-12103
▁성동	-12104
▁소용	-12105
▁솔직	-12106
▁수여	-12107
▁신천	-12108
▁실어	-12109
▁쓰게	-12110
▁씨로	-12111
▁안고	-12112
▁안다	-12113
▁앤드	-12114
▁어겨	-12115
▁어둠	-12116
▁어선	-12117
▁어쩌	-12118
▁엉뚱	-12119
▁연제	-12120
▁오산	-12121
▁외면	-12122
▁원심	-12123
▁위중	-12124
▁유령	-12125
▁의존	-12126
▁인솔	-12127
▁인수	-12128
▁인재	-12129
▁일련	-12130
▁일리	-12131
▁일찍	-12132
▁전학	-12133
▁조율	-12134
▁조절	-12135
▁조종	-12136
▁좌파	-12137
▁주춤	-12138
▁죽어	-12139
▁증권	-12140
▁집은	-12141
▁쪽에	-12142
▁차고	-12143
▁착륙	-12144
▁참작	-12145
▁첫째	-12146
▁쳐다	-12147
▁최강	-12148
▁출혈	-12149
▁취급	-12150
▁크지	-12151
▁태양	-12152
▁통지	-12153
▁튕겨	-12154
▁특징	-12155
▁펌프	-12156
▁페트	-12157
▁펜스	-12158
▁편성	-12159
▁평생	-12160
▁풍경	-12161
▁피우	-12162
▁하남	-12163
▁한미	-12164
▁헬멧	-12165
▁혁명	-12166
▁협상	-12167
▁흡연	-12168
가량이	-12169
갔지만	-12170
공사가	-12171
기간을	-12172
널리즘	-12173
니까요	-12174
대책을	-12175
라인에	-12176
물질을	-12177
사무소	-12178
스에서	-12179
시설은	-12180
시켰고	-12181
식으로	-12182
원들의	-12183
웠다고	-12184
자금을	-12185
주간의	-12186
주년을	-12187
지거나	-12188
코리아	-12189
키스탄	-12190
▁170	-12191
▁220	-12192
▁230	-12193
▁450	-12194
▁가만히	-12195
▁각별한	-12196
▁감독이	-12197
▁감염돼	-12198
▁갑니다	-12199
▁같다고	-12200
▁거치지	-12201
▁건물로	-12202
▁걸어서	-12203
▁것들을	-12204
▁것인가	-12205
▁게시물	-12206
▁결론이	-12207
▁결정한	-12208
▁고발이	-12209
▁공기업	-12210
▁공장은	-12211
▁관계에	-12212
▁관용차	-12213
▁교수를	-12214
▁교육청	-12215
▁구로구	-12216
▁구멍이	-12217
▁국가의	-12218
▁권총을	-12219
▁그들의	-12220
▁기관이	-12221
▁긴장을	-12222
▁나서고	-12223
▁남아있	-12224
▁내렸고	-12225
▁내리지	-12226
▁넘도록	-12227
▁뉴스에	-12228
▁대선을	-12229
▁도구를	-12230
▁도로로	-12231
▁독극물	-12232
▁동거남	-12233
▁됐지만	-12234
▁되는지	-12235
▁되도록	-12236
▁등록된	-12237
▁마련이	-12238
▁명단과	-12239
▁명의의	-12240
▁문제도	-12241
▁뭐라고	-12242
▁바람직	-12243
▁박격포	-12244
▁박범계	-12245
▁받기로	-12246
▁발생을	-12247
▁발언에	-12248
▁발언이	-12249
▁버려진	-12250
▁범행한	-12251
▁본인의	-12252
▁분량의	-12253
▁불길은	-12254
▁사고도	-12255
▁사문서	-12256
▁사우디	-12257
▁사이드	-12258
▁사이렌	-12259
▁사장은	-12260
▁사정을	-12261
▁사퇴한	-12262
▁사흘간	-12263
▁산청군	-12264
▁생명도	-12265
▁소식에	-12266
▁손수레	-12267
▁수거해	-12268
▁수수료	-12269
▁수준에	-12270
▁시작될	-12271
▁신고자	-12272
▁신체적	-12273
▁신호가	-12274
▁심리로	-12275
▁아니며	-12276
▁안전에	-12277
▁약탈이	-12278
▁어디서	-12279
▁영상과	-12280
▁옆에서	-12281
▁외치며	-12282
▁요청이	-12283
▁요청할	-12284
▁원심을	-12285
▁원짜리	-12286
▁유력한	-12287
▁의미가	-12288
▁의혹은	-12289
▁이동을	-12290
▁이들과	-12291
▁이뤄져	-12292
▁이메일	-12293
▁인구가	-12294
▁인력과	-12295
▁일정이	-12296
▁일했던	-12297
▁입수해	-12298
▁입증할	-12299
▁잇따랐	-12300
▁자녀가	-12301
▁자백을	-12302
▁자영업	-12303
▁잡아당	-12304
▁전국을	-12305
▁전문의	-12306
▁전제로	-12307
▁정보와	-12308
▁정의를	-12309
▁제도를	-12310
▁종류의	-12311
▁주민을	-12312
▁주장은	-12313
▁중국을	-12314
▁지르며	-12315
▁지원금	-12316
▁지원이	-12317
▁지점에	-12318
▁지휘를	-12319
▁진행해	-12320
▁짓눌려	-12321
▁창원시	-12322
▁청구를	-12323
▁체온을	-12324
▁총격에	-12325
▁촬영된	-12326
▁충격이	-12327
▁취약계	-12328
▁타격을	-12329
▁톈안먼	-12330
▁트랙터	-12331
▁트럭과	-12332
▁특별히	-12333
▁판사가	-12334
▁피해액	-12335
▁하도급	-12336
▁한밤중	-12337
▁했으나	-12338
▁했으며	-12339
▁행정과	-12340
▁행패를	-12341
▁확산한	-12342
▁회견이	-12343
▁효력을	-12344
기입니다	-12345
대로라면	-12346
되는데요	-12347
선거관리	-12348
성보호법	-12349
슬입니다	-12350
시쯤부터	-12351
주의보가	-12352
지역으로	-12353
차적으로	-12354
하는데요	-12355
함으로써	-12356
해집니다	-12357
현장에서	-12358
호입니다	-12359
▁1999	-12360
▁가족들의	-12361
▁가혹행위	-12362
▁감사하다	-12363
▁결정으로	-12364
▁공동주택	-12365
▁과거에도	-12366
▁과태료가	-12367
▁구간에서	-12368
▁그렇다고	-12369
▁근무하고	-12370
▁기록적인	-12371
▁나섰는데	-12372
▁나타났다	-12373
▁내년부터	-12374
▁누구보다	-12375
▁누군가가	-12376
▁다쳤다고	-12377
▁대부분을	-12378
▁대상자가	-12379
▁무릎으로	-12380
▁물론이고	-12381
▁미국으로	-12382
▁미래한국	-12383
▁미추홀구	-12384
▁민정수석	-12385
▁반대하고	-12386
▁방위군이	-12387
▁범인도피	-12388
▁베이루트	-12389
▁변호사와	-12390
▁보호구역	-12391
▁부사장과	-12392
▁분위기가	-12393
▁생각하고	-12394
▁서대문구	-12395
▁선거에서	-12396
▁선수들은	-12397
▁아니라며	-12398
▁아버지의	-12399
▁어린이의	-12400
▁업체들이	-12401
▁여성아동	-12402
▁영상으로	-12403
▁오전까지	-12404
▁운영자인	-12405
▁운영하며	-12406
▁음란물을	-12407
▁의료진과	-12408
▁인지하고	-12409
▁인터넷을	-12410
▁인테리어	-12411
▁전국인민	-12412
▁조직으로	-12413
▁주거지를	-12414
▁지원금을	-12415
▁직원으로	-12416
▁진상조사	-12417
▁차량들이	-12418
▁철저하게	-12419
▁출석하지	-12420
▁콜롬비아	-12421
▁크리스마	-12422
▁투입되는	-12423
▁특별단속	-12424
▁파악하기	-12425
▁폐쇄하고	-12426
▁피의자로	-12427
▁할머니와	-12428
▁해역에서	-12429
▁행정조사	-12430
▁혐의로도	-12431
▁화물차에	-12432
▁화학물질	-12433
이었는데요	-12434
지방법원은	-12435
진영입니다	-12436
▁가드레일을	-12437
▁걸었습니다	-12438
▁고발하기로	-12439
▁고속도로에	-12440
▁끊겼습니다	-12441
▁달했습니다	-12442
▁담았습니다	-12443
▁들어옵니다	-12444
▁민정비서관	-12445
▁바꿨습니다	-12446
▁반갑습니다	-12447
▁베이징에서	-12448
▁보건소에서	-12449
▁비디오머그	-12450
▁비밀경호국	-12451
▁서울역에서	-12452
▁세웠습니다	-12453
▁수치입니다	-12454
▁신고했지만	-12455
▁아이들에게	-12456
▁오토바이와	-12457
▁의도적으로	-12458
▁자체적으로	-12459
▁정체불명의	-12460
▁제기됩니다	-12461
▁체포됐다고	-12462
▁택시기사가	-12463
▁포털사이트	-12464
▁한국대사관	-12465
▁확인되면서	-12466
▁확진자들이	-12467
▁논의했습니다	-12468
▁다녀왔습니다	-12469
▁도로교통법상	-12470
▁문자메시지를	-12471
▁중단했습니다	-12472
▁집합금지명령	-12473
▁참여했습니다	-12474
▁최진석입니다	-12475
▁토지거래허가	-12476
▁해양경찰청은	-12477
▁확대했습니다	-12478
▁확정했습니다	-12479
▁휘둘렀습니다	-12480
▁감염병예방법에	-12481
▁사랑제일교회와	-12482
▁연결하겠습니다	-12483
▁정리해드립니다	-12484
▁정부세종청사에서	-12485
▁국가공무원인재개발	-12486
15	-12487
17	-12488
▁꽉	-12489
▁낯	-12490
▁늑	-12491
▁밸	-12492
▁붉	-12493
▁뼈	-12494
▁솟	-12495
▁헛	-12496
갑수	-12497
갔던	-12498
건물	-12499
경보	-12500
군데	-12501
기나	-12502
김에	-12503
끄럽	-12504
독한	-12505
동포	-12506
랫폼	-12507
루가	-12508
만은	-12509
망에	-12510
명당	-12511
모토	-12512
바르	-12513
백을	-12514
버그	-12515
범을	-12516
변호	-12517
빨리	-12518
사범	-12519
살포	-12520
성구	-12521
수당	-12522
시께	-12523
시오	-12524
쓰고	-12525
야구	-12526
오모	-12527
을까	-12528
음과	-12529
이와	-12530
장비	-12531
장현	-12532
재수	-12533
조가	-12534
종일	-12535
지다	-12536
지하	-12537
진에	-12538
질러	-12539
차는	-12540
처는	-12541
체인	-12542
클러	-12543
터를	-12544
턱을	-12545
테러	-12546
톤급	-12547
통에	-12548
품과	-12549
학기	-12550
협박	-12551
화나	-12552
화할	-12553
화해	-12554
힌두	-12555
700	-12556
▁가맹	-12557
▁가축	-12558
▁개통	-12559
▁건립	-12560
▁것뿐	-12561
▁경매	-12562
▁계부	-12563
▁고심	-12564
▁공부	-12565
▁공주	-12566
▁과다	-12567
▁교외	-12568
▁군경	-12569
▁귀를	-12570
▁그곳	-12571
▁그려	-12572
▁금광	-12573
▁급진	-12574
▁기금	-12575
▁기동	-12576
▁김민	-12577
▁김유	-12578
▁김정	-12579
▁깜빡	-12580
▁깨진	-12581
▁나체	-12582
▁난곡	-12583
▁날을	-12584
▁내놨	-12585
▁놓인	-12586
▁눌러	-12587
▁뉴딜	-12588
▁늘려	-12589
▁다운	-12590
▁대외	-12591
▁더미	-12592
▁도매	-12593
▁돌파	-12594
▁동조	-12595
▁드는	-12596
▁때가	-12597
▁막은	-12598
▁만남	-12599
▁맡겨	-12600
▁멈춘	-12601
▁명인	-12602
▁몰라	-12603
▁물놀	-12604
▁미세	-12605
▁미술	-12606
▁미온	-12607
▁믿을	-12608
▁바닷	-12609
▁반경	-12610
▁발원	-12611
▁밤에	-12612
▁방불	-12613
▁범칙	-12614
▁별로	-12615
▁부풀	-12616
▁블로	-12617
▁빙판	-12618
▁빚고	-12619
▁빨라	-12620
▁사마	-12621
▁사육	-12622
▁삼아	-12623
▁상원	-12624
▁상의	-12625
▁상향	-12626
▁성립	-12627
▁세희	-12628
▁소청	-12629
▁손잡	-12630
▁스크	-12631
▁스탠	-12632
▁습격	-12633
▁승선	-12634
▁식별	-12635
▁신부	-12636
▁신중	-12637
▁앉은	-12638
▁억압	-12639
▁언니	-12640
▁여중	-12641
▁연습	-12642
▁오고	-12643
▁완강	-12644
▁외상	-12645
▁왼쪽	-12646
▁욕을	-12647
▁용서	-12648
▁우파	-12649
▁위급	-12650
▁위헌	-12651
▁유대	-12652
▁유용	-12653
▁유혹	-12654
▁윤희	-12655
▁의약	-12656
▁이때	-12657
▁이분	-12658
▁이성	-12659
▁인건	-12660
▁인위	-12661
▁일탈	-12662
▁임기	-12663
▁있겠	-12664
▁있으	-12665
▁자본	-12666
▁자재	-12667
▁작용	-12668
▁잠긴	-12669
▁장모	-12670
▁장이	-12671
▁재생	-12672
▁전력	-12673
▁정원	-12674
▁조류	-12675
▁준공	-12676
▁지어	-12677
▁지옥	-12678
▁지출	-12679
▁지켰	-12680
▁지폐	-12681
▁찔려	-12682
▁차는	-12683
▁착각	-12684
▁채워	-12685
▁초소	-12686
▁최전	-12687
▁최후	-12688
▁추념	-12689
▁칠곡	-12690
▁테니	-12691
▁통학	-12692
▁판례	-12693
▁폭설	-12694
▁폭죽	-12695
▁풍자	-12696
▁피켓	-12697
▁한라	-12698
▁한류	-12699
▁혈액	-12700
▁화환	-12701
▁회피	-12702
개월이	-12703
검사가	-12704
국장은	-12705
기관은	-12706
기관의	-12707
기록을	-12708
년에는	-12709
느냐는	-12710
단계에	-12711
당으로	-12712
당하고	-12713
드린다	-12714
류협력	-12715
받았고	-12716
사령부	-12717
사회의	-12718
센터가	-12719
스럽다	-12720
에서야	-12721
연대는	-12722
연하게	-12723
오면서	-12724
왔다는	-12725
의료원	-12726
이거나	-12727
인가요	-12728
자마자	-12729
준비생	-12730
직원이	-12731
집에서	-12732
집행을	-12733
했더니	-12734
히면서	-12735
▁123	-12736
▁145	-12737
▁210	-12738
▁가슴을	-12739
▁가입한	-12740
▁가정을	-12741
▁감독은	-12742
▁감독을	-12743
▁감독의	-12744
▁감시를	-12745
▁감염에	-12746
▁강화를	-12747
▁강훈식	-12748
▁개인형	-12749
▁개혁의	-12750
▁거부할	-12751
▁경비업	-12752
▁고강도	-12753
▁고소를	-12754
▁곳곳이	-12755
▁공장에	-12756
▁광고를	-12757
▁광장에	-12758
▁교회의	-12759
▁구간은	-12760
▁구상권	-12761
▁국가를	-12762
▁권고를	-12763
▁그리스	-12764
▁근거를	-12765
▁기능이	-12766
▁기숙사	-12767
▁긴급히	-12768
▁김갑수	-12769
▁김득중	-12770
▁끝나지	-12771
▁나아가	-12772
▁날아온	-12773
▁남편은	-12774
▁내렸다	-12775
▁넘어진	-12776
▁노출된	-12777
▁녹취록	-12778
▁뉴욕시	-12779
▁다가온	-12780
▁다니며	-12781
▁다루는	-12782
▁단계로	-12783
▁대구에	-12784
▁대다수	-12785
▁대리기	-12786
▁대피해	-12787
▁던지며	-12788
▁돈으로	-12789
▁동급생	-12790
▁동대문	-12791
▁두려움	-12792
▁뒷돈을	-12793
▁드론이	-12794
▁따뜻한	-12795
▁똑같이	-12796
▁롬바르	-12797
▁마련을	-12798
▁마린온	-12799
▁맞는지	-12800
▁맞지만	-12801
▁매달려	-12802
▁머무는	-12803
▁머물러	-12804
▁멈추지	-12805
▁명단이	-12806
▁목사를	-12807
▁목욕탕	-12808
▁못하면	-12809
▁무료로	-12810
▁미끼로	-12811
▁밖에도	-12812
▁방송이	-12813
▁방에서	-12814
▁방치된	-12815
▁배치돼	-12816
▁배치된	-12817
▁변화가	-12818
▁병원은	-12819
▁보면서	-12820
▁보시죠	-12821
▁봉쇄령	-12822
▁부정확	-12823
▁부평구	-12824
▁분노가	-12825
▁분노한	-12826
▁비교해	-12827
▁비난을	-12828
▁비용은	-12829
▁빼앗은	-12830
▁뿜어져	-12831
▁사안의	-12832
▁사업은	-12833
▁살인자	-12834
▁살펴보	-12835
▁상임위	-12836
▁상해를	-12837
▁생각에	-12838
▁생각은	-12839
▁선관위	-12840
▁설치할	-12841
▁성향의	-12842
▁세인트	-12843
▁소견을	-12844
▁소식도	-12845
▁시멘트	-12846
▁식당과	-12847
▁신도가	-12848
▁아기의	-12849
▁아내를	-12850
▁아침에	-12851
▁않겠다	-12852
▁앞까지	-12853
▁야당은	-12854
▁약속한	-12855
▁엄정한	-12856
▁업무가	-12857
▁없이는	-12858
▁여성에	-12859
▁여행을	-12860
▁열차가	-12861
▁왔는데	-12862
▁우려에	-12863
▁운동가	-12864
▁운행이	-12865
▁원하는	-12866
▁월북을	-12867
▁위반해	-12868
▁위협이	-12869
▁유유히	-12870
▁유죄를	-12871
▁유포된	-12872
▁유포해	-12873
▁음주측	-12874
▁의도가	-12875
▁의료계	-12876
▁의심이	-12877
▁이거는	-12878
▁이광철	-12879
▁이내에	-12880
▁이사장	-12881
▁이수정	-12882
▁이틀간	-12883
▁이해할	-12884
▁이후로	-12885
▁인물이	-12886
▁임시로	-12887
▁입장료	-12888
▁있었죠	-12889
▁자료에	-12890
▁자치구	-12891
▁잡히지	-12892
▁장비가	-12893
▁장학금	-12894
▁재학생	-12895
▁적발한	-12896
▁적용된	-12897
▁전보다	-12898
▁전에는	-12899
▁절반에	-12900
▁접근한	-12901
▁접종을	-12902
▁정경두	-12903
▁정체가	-12904
▁제동목	-12905
▁제주에	-12906
▁조건을	-12907
▁조치할	-12908
▁주간지	-12909
▁주고받	-12910
▁주변의	-12911
▁주장에	-12912
▁주저앉	-12913
▁주차돼	-12914
▁준수사	-12915
▁중단된	-12916
▁중태에	-12917
▁지금의	-12918
▁지나간	-12919
▁지내고	-12920
▁지시에	-12921
▁지원에	-12922
▁지점은	-12923
▁직무를	-12924
▁진술도	-12925
▁진압을	-12926
▁차단을	-12927
▁처벌도	-12928
▁처벌에	-12929
▁청년이	-12930
▁초점을	-12931
▁총격이	-12932
▁총으로	-12933
▁총장이	-12934
▁추격전	-12935
▁출신인	-12936
▁출연자	-12937
▁충주시	-12938
▁취하지	-12939
▁치료받	-12940
▁커피숍	-12941
▁쿠오모	-12942
▁태국인	-12943
▁터미널	-12944
▁털어놓	-12945
▁통일부	-12946
▁통제된	-12947
▁퇴근길	-12948
▁투입된	-12949
▁트윗을	-12950
▁파도에	-12951
▁파주시	-12952
▁하나둘	-12953
▁하나의	-12954
▁하원의	-12955
▁학교가	-12956
▁한국은	-12957
▁한국을	-12958
▁한탄강	-12959
▁합의를	-12960
▁해서는	-12961
▁행동에	-12962
▁행적을	-12963
▁현상을	-12964
▁형제가	-12965
▁혼란이	-12966
▁홍콩에	-12967
▁화제의	-12968
▁확보에	-12969
▁활동이	-12970
▁흘리며	-12971
건입니다	-12972
검사에서	-12973
대입니다	-12974
덕입니다	-12975
시스템을	-12976
어린이집	-12977
이었다는	-12978
하기에는	-12979
했는데도	-12980
▁1980	-12981
▁감식에서	-12982
▁거짓으로	-12983
▁격리조치	-12984
▁경찰서로	-12985
▁공무원을	-12986
▁관계자와	-12987
▁관계자의	-12988
▁관련해선	-12989
▁교차로를	-12990
▁꺼졌지만	-12991
▁나갑니다	-12992
▁나서기로	-12993
▁난폭운전	-12994
▁단독으로	-12995
▁대구지역	-12996
▁대남병원	-12997
▁대선에서	-12998
▁데이터를	-12999
▁동부구치	-13000
▁뒷좌석에	-13001
▁드러났다	-13002
▁말했다고	-13003
▁매장에서	-13004
▁머리채를	-13005
▁몰랐다고	-13006
▁무리하게	-13007
▁문형욱의	-13008
▁바라보는	-13009
▁반복되고	-13010
▁발생하자	-13011
▁번지면서	-13012
▁변호사님	-13013
▁부총리는	-13014
▁부추기는	-13015
▁빈과일보	-13016
▁사람들에	-13017
▁상징하는	-13018
▁서울고검	-13019
▁성관계를	-13020
▁성보호에	-13021
▁소송에서	-13022
▁수단으로	-13023
▁스포츠카	-13024
▁시스템에	-13025
▁시작되자	-13026
▁심각하게	-13027
▁안전결제	-13028
▁안전수칙	-13029
▁안정적인	-13030
▁앞부분이	-13031
▁양성평등	-13032
▁예비후보	-13033
▁온라인에	-13034
▁우려하고	-13035
▁운영자가	-13036
▁원칙으로	-13037
▁유도하는	-13038
▁육박하는	-13039
▁의혹으로	-13040
▁이동통신	-13041
▁이야기도	-13042
▁이춘재는	-13043
▁인천시는	-13044
▁입주민이	-13045
▁자격정지	-13046
▁자동으로	-13047
▁자유한국	-13048
▁작동하지	-13049
▁장갑차를	-13050
▁재판부가	-13051
▁적용하는	-13052
▁전달받은	-13053
▁전달하는	-13054
▁접촉자를	-13055
▁정확하게	-13056
▁제곱미터	-13057
▁조두순을	-13058
▁지자체와	-13059
▁철도경찰	-13060
▁청주의료	-13061
▁추정되고	-13062
▁크레인이	-13063
▁투자금을	-13064
▁투표용지	-13065
▁트위터를	-13066
▁특별조사	-13067
▁파악하지	-13068
▁파출소에	-13069
▁폭행하는	-13070
▁피해액은	-13071
▁해변에서	-13072
▁확인했고	-13073
▁후원금을	-13074
▁희생자를	-13075
▁과정에서도	-13076
▁관리사무소	-13077
▁국민청원에	-13078
▁남겼습니다	-13079
▁남았습니다	-13080
▁노동자들은	-13081
▁대검찰청은	-13082
▁롬바르디아	-13083
▁막았습니다	-13084
▁말았습니다	-13085
▁미성년자인	-13086
▁부과됩니다	-13087
▁비서실장은	-13088
▁사망했다고	-13089
▁소방당국에	-13090
▁스프링클러	-13091
▁아랑곳하지	-13092
▁안타까움을	-13093
▁유치장에서	-13094
▁음주운전이	-13095
▁이어갑니다	-13096
▁자발적으로	-13097
▁지난해부터	-13098
▁지역에서도	-13099
▁지지자들은	-13100
▁추정되는데	-13101
▁커졌습니다	-13102
▁표했습니다	-13103
▁플로이드는	-13104
▁허위사실을	-13105
▁확진자들의	-13106
▁휴대전화와	-13107
▁국민연금공단	-13108
▁급증했습니다	-13109
▁동원됐습니다	-13110
▁성폭력범죄의	-13111
▁우려했습니다	-13112
▁이유였습니다	-13113
▁폐쇄됐습니다	-13114
▁홍콩보안법은	-13115
▁범죄단체조직죄	-13116
▁빠져나갔습니다	-13117
▁전해드렸습니다	-13118
▁경북지방경찰청은	-13119
▁아동보호전문기관은	-13120
▁중앙재난안전대책본부는	-13121
BI	-13122
▁北	-13123
▁낡	-13124
▁닦	-13125
▁딱	-13126
▁맘	-13127
▁벼	-13128
▁앨	-13129
▁윌	-13130
▁캔	-13131
▁펑	-13132
▁힐	-13133
갔을	-13134
같은	-13135
결을	-13136
계좌	-13137
구르	-13138
권에	-13139
규칙	-13140
급히	-13141
기억	-13142
내용	-13143
냈던	-13144
당할	-13145
데다	-13146
동생	-13147
동호	-13148
돼서	-13149
들며	-13150
량과	-13151
르크	-13152
맞이	-13153
무부	-13154
베르	-13155
부부	-13156
사랑	-13157
사례	-13158
사용	-13159
상진	-13160
서로	-13161
설명	-13162
세탁	-13163
숙한	-13164
순위	-13165
슈빌	-13166
신청	-13167
예술	-13168
예트	-13169
우저	-13170
웠고	-13171
위생	-13172
위치	-13173
유가	-13174
윤리	-13175
의원	-13176
자비	-13177
적한	-13178
정과	-13179
제보	-13180
조각	-13181
종합	-13182
차도	-13183
척과	-13184
철을	-13185
층이	-13186
트는	-13187
티가	-13188
파출	-13189
하실	-13190
해보	-13191
형사	-13192
100	-13193
900	-13194
▁03	-13195
▁SR	-13196
▁TF	-13197
▁UA	-13198
▁간병	-13199
▁간접	-13200
▁갇힌	-13201
▁갈비	-13202
▁경보	-13203
▁곳의	-13204
▁교환	-13205
▁굳게	-13206
▁굴착	-13207
▁글쎄	-13208
▁금속	-13209
▁금천	-13210
▁김두	-13211
▁김문	-13212
▁깨물	-13213
▁꼬집	-13214
▁끄고	-13215
▁끝날	-13216
▁나눈	-13217
▁나를	-13218
▁났을	-13219
▁내란	-13220
▁내면	-13221
▁넘고	-13222
▁넣은	-13223
▁늑장	-13224
▁다뤄	-13225
▁단란	-13226
▁당뇨	-13227
▁당정	-13228
▁당혹	-13229
▁당황	-13230
▁대단	-13231
▁대에	-13232
▁독직	-13233
▁돌을	-13234
▁동양	-13235
▁동향	-13236
▁떠넘	-13237
▁뚫린	-13238
▁링크	-13239
▁많을	-13240
▁먹을	-13241
▁멈췄	-13242
▁모델	-13243
▁몰다	-13244
▁몸이	-13245
▁묵묵	-13246
▁묶여	-13247
▁미곡	-13248
▁박영	-13249
▁배에	-13250
▁버튼	-13251
▁번진	-13252
▁보신	-13253
▁복사	-13254
▁복합	-13255
▁본토	-13256
▁부의	-13257
▁부합	-13258
▁불행	-13259
▁비하	-13260
▁빅데	-13261
▁산산	-13262
▁상반	-13263
▁상조	-13264
▁상호	-13265
▁서명	-13266
▁서열	-13267
▁서현	-13268
▁성분	-13269
▁세게	-13270
▁세차	-13271
▁셋째	-13272
▁소통	-13273
▁쉬지	-13274
▁시군	-13275
▁신지	-13276
▁악몽	-13277
▁악취	-13278
▁안면	-13279
▁않겠	-13280
▁애를	-13281
▁앱에	-13282
▁약사	-13283
▁어르	-13284
▁언어	-13285
▁업종	-13286
▁여부	-13287
▁여아	-13288
▁연희	-13289
▁열람	-13290
▁영웅	-13291
▁예약	-13292
▁올바	-13293
▁와치	-13294
▁우수	-13295
▁원과	-13296
▁원활	-13297
▁유의	-13298
▁은닉	-13299
▁이준	-13300
▁이체	-13301
▁인화	-13302
▁잃게	-13303
▁자필	-13304
▁장도	-13305
▁잦아	-13306
▁재배	-13307
▁저해	-13308
▁전현	-13309
▁조용	-13310
▁종식	-13311
▁주시	-13312
▁주체	-13313
▁줄곧	-13314
▁지른	-13315
▁지은	-13316
▁지체	-13317
▁집주	-13318
▁짙은	-13319
▁차오	-13320
▁책을	-13321
▁철근	-13322
▁추경	-13323
▁춤을	-13324
▁코인	-13325
▁타당	-13326
▁탈레	-13327
▁탔던	-13328
▁태평	-13329
▁통고	-13330
▁통째	-13331
▁틈을	-13332
▁팀을	-13333
▁파기	-13334
▁파라	-13335
▁패널	-13336
▁펀드	-13337
▁편법	-13338
▁편집	-13339
▁포순	-13340
▁표출	-13341
▁피신	-13342
▁하동	-13343
▁할인	-13344
▁행방	-13345
▁형법	-13346
▁홍대	-13347
▁화천	-13348
▁활발	-13349
개월여	-13350
고양이	-13351
공사의	-13352
과대학	-13353
국에서	-13354
금지를	-13355
금지법	-13356
기지에	-13357
길에서	-13358
년으로	-13359
되었다	-13360
뜨리고	-13361
마리가	-13362
만원을	-13363
사고로	-13364
사고를	-13365
소송을	-13366
수익을	-13367
시켜야	-13368
안에서	-13369
어지고	-13370
역으로	-13371
연합회	-13372
원들은	-13373
음으로	-13374
입구역	-13375
장비를	-13376
지사가	-13377
차량을	-13378
쳤다고	-13379
학년생	-13380
할머니	-13381
홀딩스	-13382
▁173	-13383
▁280	-13384
▁FBI	-13385
▁가로채	-13386
▁가슴이	-13387
▁간단한	-13388
▁간부가	-13389
▁감염도	-13390
▁갓길에	-13391
▁갔다가	-13392
▁강동구	-13393
▁강화도	-13394
▁개그맨	-13395
▁거세게	-13396
▁건강을	-13397
▁건설사	-13398
▁건수가	-13399
▁건축물	-13400
▁검거한	-13401
▁검찰을	-13402
▁검체를	-13403
▁경계를	-13404
▁경고를	-13405
▁경우에	-13406
▁경적을	-13407
▁계속된	-13408
▁계획이	-13409
▁공조해	-13410
▁과거사	-13411
▁과거에	-13412
▁과제를	-13413
▁광주와	-13414
▁교인이	-13415
▁교통이	-13416
▁구간의	-13417
▁구속돼	-13418
▁구속해	-13419
▁국민적	-13420
▁규정한	-13421
▁근처를	-13422
▁급증한	-13423
▁기간제	-13424
▁기술이	-13425
▁기온이	-13426
▁기존의	-13427
▁기회가	-13428
▁김씨는	-13429
▁김원웅	-13430
▁김태년	-13431
▁김해의	-13432
▁깜깜이	-13433
▁내놓고	-13434
▁내슈빌	-13435
▁너무나	-13436
▁노력이	-13437
▁노인을	-13438
▁논의를	-13439
▁누군지	-13440
▁눈길을	-13441
▁뉴스픽	-13442
▁능력을	-13443
▁다이버	-13444
▁담당한	-13445
▁담배꽁	-13446
▁답하지	-13447
▁당국도	-13448
▁당일인	-13449
▁대리점	-13450
▁대정부	-13451
▁대출규	-13452
▁대학교	-13453
▁동상을	-13454
▁뒤집어	-13455
▁드러났	-13456
▁들어선	-13457
▁들었고	-13458
▁등교를	-13459
▁따라가	-13460
▁레이싱	-13461
▁많다고	-13462
▁많다는	-13463
▁말하며	-13464
▁면책특	-13465
▁몰다가	-13466
▁물의를	-13467
▁밀반입	-13468
▁밀어붙	-13469
▁밀폐된	-13470
▁발견될	-13471
▁발열과	-13472
▁방파제	-13473
▁백신이	-13474
▁법률에	-13475
▁병사가	-13476
▁병사의	-13477
▁병원과	-13478
▁보고한	-13479
▁보도된	-13480
▁봉투를	-13481
▁부르는	-13482
▁부산에	-13483
▁부산진	-13484
▁부주의	-13485
▁불복해	-13486
▁불분명	-13487
▁불편한	-13488
▁비대위	-13489
▁비아이	-13490
▁비협조	-13491
▁사안을	-13492
▁사업장	-13493
▁사인을	-13494
▁사장과	-13495
▁사정은	-13496
▁사정이	-13497
▁살배기	-13498
▁살피고	-13499
▁설명을	-13500
▁성과를	-13501
▁성관계	-13502
▁세력과	-13503
▁세우고	-13504
▁세워진	-13505
▁소개해	-13506
▁손목을	-13507
▁송병기	-13508
▁수백억	-13509
▁수법을	-13510
▁수상히	-13511
▁숙박업	-13512
▁스탠든	-13513
▁스티커	-13514
▁스페인	-13515
▁슬리퍼	-13516
▁승객은	-13517
▁시위도	-13518
▁시인한	-13519
▁신고도	-13520
▁신고와	-13521
▁신호등	-13522
▁아기는	-13523
▁아내는	-13524
▁아내의	-13525
▁아빠가	-13526
▁아산과	-13527
▁아이언	-13528
▁약사법	-13529
▁양천구	-13530
▁어깨를	-13531
▁언론과	-13532
▁엄마의	-13533
▁업무는	-13534
▁업소를	-13535
▁엉뚱한	-13536
▁여론을	-13537
▁여야가	-13538
▁연설을	-13539
▁연세대	-13540
▁영향이	-13541
▁오가며	-13542
▁오세요	-13543
▁욕설과	-13544
▁우려의	-13545
▁운전석	-13546
▁운행을	-13547
▁원산지	-13548
▁위법한	-13549
▁유감을	-13550
▁유독가	-13551
▁유상범	-13552
▁유서가	-13553
▁의료인	-13554
▁의약품	-13555
▁의장은	-13556
▁이륜차	-13557
▁이명박	-13558
▁이번주	-13559
▁일본의	-13560
▁일어날	-13561
▁입원해	-13562
▁있거나	-13563
▁있을까	-13564
▁자백한	-13565
▁저장된	-13566
▁저희는	-13567
▁전역에	-13568
▁전체에	-13569
▁제보자	-13570
▁제한을	-13571
▁조비오	-13572
▁조용한	-13573
▁조직적	-13574
▁조혜연	-13575
▁존재를	-13576
▁주목할	-13577
▁주인과	-13578
▁지위를	-13579
▁지키는	-13580
▁진술은	-13581
▁진주의	-13582
▁착수해	-13583
▁처리가	-13584
▁청구된	-13585
▁청원은	-13586
▁총력을	-13587
▁총장은	-13588
▁총파업	-13589
▁촬영물	-13590
▁최우선	-13591
▁추행한	-13592
▁출발한	-13593
▁충돌은	-13594
▁취약한	-13595
▁코뼈가	-13596
▁콘텐츠	-13597
▁클럽발	-13598
▁키우는	-13599
▁태양광	-13600
▁테이블	-13601
▁투숙객	-13602
▁투자금	-13603
▁투표가	-13604
▁투표할	-13605
▁파도가	-13606
▁퍼뜨린	-13607
▁포스코	-13608
▁폭우에	-13609
▁플랫폼	-13610
▁피하지	-13611
▁필요할	-13612
▁하니까	-13613
▁하려고	-13614
▁하반기	-13615
▁한반도	-13616
▁할까요	-13617
▁해결을	-13618
▁해경과	-13619
▁했다가	-13620
▁행동은	-13621
▁현상이	-13622
▁황급히	-13623
▁회원을	-13624
▁후보에	-13625
▁휴가를	-13626
▁흑인이	-13627
▁희생된	-13628
규입니다	-13629
리겠다고	-13630
범죄조사	-13631
본부장은	-13632
시쯤에는	-13633
업체에서	-13634
이라면서	-13635
주에서는	-13636
폴리머스	-13637
하자마자	-13638
▁1986	-13639
▁1987	-13640
▁2003	-13641
▁2005	-13642
▁간호사가	-13643
▁경찰이나	-13644
▁고향으로	-13645
▁골목길을	-13646
▁공개하는	-13647
▁공수처가	-13648
▁공익신고	-13649
▁광범위한	-13650
▁금은방에	-13651
▁나타나는	-13652
▁내일까지	-13653
▁노동자의	-13654
▁다급하게	-13655
▁단체들이	-13656
▁대상자는	-13657
▁대통령령	-13658
▁대한항공	-13659
▁도착했을	-13660
▁독직폭행	-13661
▁동료들은	-13662
▁등지에서	-13663
▁때립니다	-13664
▁뜻입니다	-13665
▁라파예트	-13666
▁마련하고	-13667
▁마포구의	-13668
▁말다툼을	-13669
▁모스크바	-13670
▁민정비서	-13671
▁박격포탄	-13672
▁반성하고	-13673
▁받으면서	-13674
▁방지하기	-13675
▁버스에서	-13676
▁법률대리	-13677
▁변호인을	-13678
▁보건소에	-13679
▁보인다는	-13680
▁보호하고	-13681
▁부딪히는	-13682
▁북한으로	-13683
▁분석하는	-13684
▁분위기를	-13685
▁불안감이	-13686
▁비난하는	-13687
▁비서관은	-13688
▁빅데이터	-13689
▁사망하는	-13690
▁사회에서	-13691
▁상황으로	-13692
▁새벽부터	-13693
▁서울동부	-13694
▁선수들이	-13695
▁성지순례	-13696
▁순찰차가	-13697
▁시민사회	-13698
▁시행하고	-13699
▁신도들에	-13700
▁써달라고	-13701
▁쓰레기를	-13702
▁야산에서	-13703
▁어디까지	-13704
▁영국에서	-13705
▁온라인을	-13706
▁운영되고	-13707
▁움직임을	-13708
▁위반하는	-13709
▁위험구역	-13710
▁위협하고	-13711
▁유치장에	-13712
▁윤창호법	-13713
▁응급실로	-13714
▁의심하고	-13715
▁이뤄졌고	-13716
▁인천지법	-13717
▁있다고요	-13718
▁저축은행	-13719
▁전세기는	-13720
▁전세기를	-13721
▁정의기억	-13722
▁조직적인	-13723
▁주고받은	-13724
▁중부지방	-13725
▁지나가는	-13726
▁지나서야	-13727
▁지나치게	-13728
▁지도부는	-13729
▁지속적인	-13730
▁창고에서	-13731
▁체육시설	-13732
▁체포하고	-13733
▁촉구한다	-13734
▁추모하는	-13735
▁취재진에	-13736
▁친구들과	-13737
▁코로나가	-13738
▁텍사스주	-13739
▁특수절도	-13740
▁특수협박	-13741
▁파악되고	-13742
▁파키스탄	-13743
▁평화로운	-13744
▁포함되지	-13745
▁한강공원	-13746
▁한인타운	-13747
▁해외유입	-13748
▁현행법상	-13749
▁협조하지	-13750
▁홍콩보안	-13751
▁홍콩에서	-13752
▁확보하는	-13753
▁희생자가	-13754
성폭력상담	-13755
▁감염경로를	-13756
▁강조합니다	-13757
▁강화됩니다	-13758
▁거뒀습니다	-13759
▁검찰총장의	-13760
▁결정했다고	-13761
▁경찰공무원	-13762
▁경찰관들은	-13763
▁경찰청장은	-13764
▁고려했다고	-13765
▁고발했다고	-13766
▁고용노동부	-13767
▁공개하기로	-13768
▁공사장에서	-13769
▁다가구주택	-13770
▁민주노총은	-13771
▁방역당국의	-13772
▁번졌습니다	-13773
▁보도자료를	-13774
▁부장검사는	-13775
▁빚었습니다	-13776
▁사무실에서	-13777
▁사회적으로	-13778
▁서울시장을	-13779
▁신천지예수	-13780
▁여자친구를	-13781
▁오토바이에	-13782
▁이례적으로	-13783
▁인터넷에서	-13784
▁중국에서는	-13785
▁초등학생을	-13786
▁취지입니다	-13787
▁치솟습니다	-13788
▁크리스마스	-13789
▁투표소에서	-13790
▁파악됩니다	-13791
▁판단입니다	-13792
▁페이스북을	-13793
▁할머니들을	-13794
▁해당한다고	-13795
▁형사소송법	-13796
특별사법경찰	-13797
▁강화하겠다고	-13798
▁김용덕입니다	-13799
▁디지털교도소	-13800
▁받아왔습니다	-13801
▁보호구역에서	-13802
▁서부경찰서는	-13803
▁쓰러졌습니다	-13804
▁아동학대치사	-13805
▁압수했습니다	-13806
▁전국인민대표	-13807
▁휩싸였습니다	-13808
▁돌려보냈습니다	-13809
▁사이버안전과는	-13810
▁연결해보겠습니다	-13811
▁특정범죄가중처벌법상	-13812
13	-13813
▁O	-13814
▁Y	-13815
▁c	-13816
▁p	-13817
▁닭	-13818
▁씁	-13819
▁웰	-13820
▁홧	-13821
강립	-13822
개골	-13823
개와	-13824
것도	-13825
공간	-13826
국가	-13827
기획	-13828
녹화	-13829
늦은	-13830
도체	-13831
돌고	-13832
마취	-13833
모를	-13834
미향	-13835
미화	-13836
반에	-13837
법률	-13838
벙커	-13839
병과	-13840
봉쇄	-13841
부시	-13842
분향	-13843
살롱	-13844
서쪽	-13845
선과	-13846
선수	-13847
세계	-13848
소유	-13849
속도	-13850
손괴	-13851
수면	-13852
시청	-13853
식품	-13854
억원	-13855
언론	-13856
에겐	-13857
연은	-13858
외과	-13859
으론	-13860
인보	-13861
있어	-13862
자녀	-13863
저리	-13864
정권	-13865
졌기	-13866
죄는	-13867
진단	-13868
총괄	-13869
캐롤	-13870
타워	-13871
통과	-13872
파에	-13873
패스	-13874
퍼드	-13875
평균	-13876
하진	-13877
한석	-13878
합한	-13879
해가	-13880
해제	-13881
혁신	-13882
혈압	-13883
호의	-13884
히자	-13885
▁93	-13886
▁가면	-13887
▁간판	-13888
▁갇혔	-13889
▁개원	-13890
▁걸렸	-13891
▁검언	-13892
▁경광	-13893
▁계량	-13894
▁고맙	-13895
▁곡예	-13896
▁공언	-13897
▁교내	-13898
▁교섭	-13899
▁구글	-13900
▁국산	-13901
▁굳이	-13902
▁그거	-13903
▁그로	-13904
▁기여	-13905
▁기피	-13906
▁길목	-13907
▁김성	-13908
▁나기	-13909
▁나도	-13910
▁나자	-13911
▁남구	-13912
▁남영	-13913
▁남짓	-13914
▁납득	-13915
▁났다	-13916
▁내외	-13917
▁내정	-13918
▁넣고	-13919
▁높여	-13920
▁다들	-13921
▁다를	-13922
▁다짐	-13923
▁단어	-13924
▁당직	-13925
▁대성	-13926
▁도덕	-13927
▁도전	-13928
▁동이	-13929
▁될지	-13930
▁듣지	-13931
▁떠밀	-13932
▁또래	-13933
▁라면	-13934
▁마산	-13935
▁마틴	-13936
▁면제	-13937
▁모은	-13938
▁문체	-13939
▁물체	-13940
▁미수	-13941
▁밀양	-13942
▁바로	-13943
▁박형	-13944
▁발걸	-13945
▁발포	-13946
▁발휘	-13947
▁밤샘	-13948
▁배회	-13949
▁버섯	-13950
▁번씩	-13951
▁보궐	-13952
▁본사	-13953
▁본청	-13954
▁봉사	-13955
▁북미	-13956
▁불출	-13957
▁불태	-13958
▁붙인	-13959
▁비관	-13960
▁비어	-13961
▁빗발	-13962
▁빚을	-13963
▁빼곡	-13964
▁사형	-13965
▁삼척	-13966
▁상장	-13967
▁생생	-13968
▁서너	-13969
▁서핑	-13970
▁선배	-13971
▁설훈	-13972
▁성도	-13973
▁소동	-13974
▁소득	-13975
▁수당	-13976
▁수신	-13977
▁수중	-13978
▁승려	-13979
▁시계	-13980
▁시에	-13981
▁시외	-13982
▁시한	-13983
▁신병	-13984
▁신장	-13985
▁신혼	-13986
▁쓰여	-13987
▁쓰인	-13988
▁아냐	-13989
▁악의	-13990
▁악플	-13991
▁안치	-13992
▁앞뒤	-13993
▁양상	-13994
▁양을	-13995
▁어땠	-13996
▁어떨	-13997
▁얼어	-13998
▁여고	-13999
▁여주	-14000
▁연간	-14001
▁연동	-14002
▁연소	-14003
▁연출	-14004
▁열지	-14005
▁영구	-14006
▁영양	-14007
▁외장	-14008
▁우산	-14009
▁월세	-14010
▁이겨	-14011
▁이리	-14012
▁이면	-14013
▁이소	-14014
▁인기	-14015
▁인후	-14016
▁일기	-14017
▁잠이	-14018
▁재무	-14019
▁재유	-14020
▁전봇	-14021
▁전쯤	-14022
▁점심	-14023
▁정해	-14024
▁제때	-14025
▁제발	-14026
▁조명	-14027
▁조서	-14028
▁조장	-14029
▁종이	-14030
▁주둔	-14031
▁주일	-14032
▁중도	-14033
▁지사	-14034
▁질타	-14035
▁찍게	-14036
▁찍혔	-14037
▁참수	-14038
▁처참	-14039
▁체결	-14040
▁최민	-14041
▁최위	-14042
▁최장	-14043
▁충원	-14044
▁친척	-14045
▁칭찬	-14046
▁커플	-14047
▁코스	-14048
▁클라	-14049
▁키운	-14050
▁토사	-14051
▁통장	-14052
▁퇴진	-14053
▁파고	-14054
▁파헤	-14055
▁팩트	-14056
▁포획	-14057
▁표지	-14058
▁하차	-14059
▁학술	-14060
▁한동	-14061
▁해커	-14062
▁했죠	-14063
▁허락	-14064
▁환불	-14065
▁활약	-14066
▁회전	-14067
▁후유	-14068
▁힌두	-14069
겠네요	-14070
겼다는	-14071
곳으로	-14072
공개를	-14073
공사와	-14074
교회를	-14075
군에서	-14076
는지도	-14077
단으로	-14078
단체인	-14079
당하자	-14080
르면서	-14081
리겠다	-14082
리다가	-14083
본부와	-14084
부르크	-14085
속에서	-14086
시하는	-14087
십시오	-14088
요원을	-14089
으려는	-14090
이에서	-14091
자까지	-14092
자들에	-14093
장치가	-14094
적이며	-14095
정부는	-14096
졌다며	-14097
조사는	-14098
중공업	-14099
처분을	-14100
총으로	-14101
치료를	-14102
팻말을	-14103
해지자	-14104
환자가	-14105
회의에	-14106
▁101	-14107
▁114	-14108
▁306	-14109
▁360	-14110
▁NYT	-14111
▁UAE	-14112
▁UBC	-14113
▁간격을	-14114
▁검거에	-14115
▁게시한	-14116
▁겨냥한	-14117
▁격리돼	-14118
▁결과도	-14119
▁경기를	-14120
▁경로와	-14121
▁경비함	-14122
▁경우엔	-14123
▁고의가	-14124
▁고한석	-14125
▁고혈압	-14126
▁공간에	-14127
▁공간을	-14128
▁공천을	-14129
▁관리도	-14130
▁구조돼	-14131
▁국회는	-14132
▁규정도	-14133
▁규제가	-14134
▁그러한	-14135
▁글에는	-14136
▁글에서	-14137
▁기간은	-14138
▁기준에	-14139
▁긴밀히	-14140
▁김강립	-14141
▁김재련	-14142
▁끝으로	-14143
▁나가고	-14144
▁나서서	-14145
▁나섰다	-14146
▁나섰던	-14147
▁나이트	-14148
▁남자친	-14149
▁넘어선	-14150
▁노란색	-14151
▁농성을	-14152
▁늘리고	-14153
▁닉네임	-14154
▁다치지	-14155
▁단속은	-14156
▁단체를	-14157
▁달라진	-14158
▁달라질	-14159
▁당시의	-14160
▁당하고	-14161
▁대답을	-14162
▁대표를	-14163
▁대표적	-14164
▁더욱이	-14165
▁데려가	-14166
▁동선이	-14167
▁되돌아	-14168
▁두개골	-14169
▁때보다	-14170
▁뚜렷한	-14171
▁뛰어넘	-14172
▁뜻으로	-14173
▁뜻하는	-14174
▁룸살롱	-14175
▁마을에	-14176
▁마이삭	-14177
▁마치는	-14178
▁말고도	-14179
▁매장을	-14180
▁머리카	-14181
▁메르스	-14182
▁명령에	-14183
▁모으고	-14184
▁모자라	-14185
▁모텔에	-14186
▁목적이	-14187
▁몰랐던	-14188
▁무거운	-14189
▁무더기	-14190
▁문건을	-14191
▁미국과	-14192
▁미치는	-14193
▁민스크	-14194
▁반도체	-14195
▁반려동	-14196
▁반발이	-14197
▁받아낸	-14198
▁밤늦게	-14199
▁방문객	-14200
▁방불케	-14201
▁방조한	-14202
▁범칙금	-14203
▁법안은	-14204
▁병원이	-14205
▁보내주	-14206
▁보세요	-14207
▁보장을	-14208
▁보험사	-14209
▁본사가	-14210
▁분노를	-14211
▁분통을	-14212
▁불안한	-14213
▁비서의	-14214
▁빚어진	-14215
▁빼돌려	-14216
▁빼앗아	-14217
▁사과와	-14218
▁사기가	-14219
▁사기꾼	-14220
▁사장이	-14221
▁사칭해	-14222
▁사회를	-14223
▁살인과	-14224
▁상세히	-14225
▁상태의	-14226
▁새마을	-14227
▁생각도	-14228
▁생활이	-14229
▁서울로	-14230
▁서해안	-14231
▁소년이	-14232
▁송금한	-14233
▁수단을	-14234
▁수법은	-14235
▁수용할	-14236
▁숨기고	-14237
▁시내를	-14238
▁시민과	-14239
▁시키는	-14240
▁신문은	-14241
▁싶다고	-14242
▁싸움을	-14243
▁않았기	-14244
▁알렉산	-14245
▁앞바다	-14246
▁어기면	-14247
▁어르신	-14248
▁어제와	-14249
▁엄마와	-14250
▁업소가	-14251
▁없이도	-14252
▁여당이	-14253
▁여지가	-14254
▁열기로	-14255
▁예방과	-14256
▁왜곡된	-14257
▁요건을	-14258
▁용기를	-14259
▁우리나	-14260
▁우한을	-14261
▁위중한	-14262
▁유류품	-14263
▁유리를	-14264
▁유통된	-14265
▁유포자	-14266
▁윤미향	-14267
▁윤장현	-14268
▁의뢰해	-14269
▁의혹의	-14270
▁이상인	-14271
▁이성윤	-14272
▁이송을	-14273
▁이승만	-14274
▁이해가	-14275
▁인권위	-14276
▁임동호	-14277
▁입었고	-14278
▁자기가	-14279
▁자료는	-14280
▁자유가	-14281
▁자취를	-14282
▁작성된	-14283
▁장시간	-14284
▁저렇게	-14285
▁적용한	-14286
▁전복된	-14287
▁전원을	-14288
▁전하고	-14289
▁절반이	-14290
▁접촉이	-14291
▁정도는	-14292
▁정도에	-14293
▁정부도	-14294
▁정해진	-14295
▁제공할	-14296
▁제기돼	-14297
▁제출을	-14298
▁제품을	-14299
▁조항을	-14300
▁조항이	-14301
▁좋겠다	-14302
▁주머니	-14303
▁주부터	-14304
▁주유소	-14305
▁주재로	-14306
▁주택을	-14307
▁준비가	-14308
▁중단한	-14309
▁중상해	-14310
▁중에도	-14311
▁중인데	-14312
▁지나가	-14313
▁지리산	-14314
▁지적을	-14315
▁지정할	-14316
▁지휘관	-14317
▁진술과	-14318
▁진술에	-14319
▁집단휴	-14320
▁참여할	-14321
▁찾아낸	-14322
▁청문회	-14323
▁체포영	-14324
▁총장의	-14325
▁출소를	-14326
▁취득한	-14327
▁카드를	-14328
▁탑승객	-14329
▁태평양	-14330
▁탱크로	-14331
▁테이프	-14332
▁통과가	-14333
▁퇴원한	-14334
▁특별법	-14335
▁판결에	-14336
▁판매를	-14337
▁패스트	-14338
▁폭발로	-14339
▁표결에	-14340
▁헌법상	-14341
▁현장감	-14342
▁호흡곤	-14343
▁화재를	-14344
▁활동한	-14345
▁회장을	-14346
▁흔적은	-14347
경제범죄	-14348
공장에서	-14349
성의전화	-14350
소방재난	-14351
요양병원	-14352
월부터는	-14353
위원장이	-14354
초등학교	-14355
총연합회	-14356
▁1989	-14357
▁2000	-14358
▁2004	-14359
▁간격으로	-14360
▁거주지를	-14361
▁검토하는	-14362
▁것이고요	-14363
▁경기도와	-14364
▁경찰청의	-14365
▁고속버스	-14366
▁공영방송	-14367
▁과학기술	-14368
▁관계부처	-14369
▁광주시의	-14370
▁그야말로	-14371
▁금감원은	-14372
▁기대하고	-14373
▁나발니가	-14374
▁내립니다	-14375
▁넘나드는	-14376
▁단속하고	-14377
▁대비하고	-14378
▁대통령도	-14379
▁대형마트	-14380
▁동영상이	-14381
▁되는데요	-14382
▁드러나고	-14383
▁들어오면	-14384
▁디지털성	-14385
▁떨어지는	-14386
▁말했지만	-14387
▁문화체육	-14388
▁발견되면	-14389
▁방송통신	-14390
▁범죄조직	-14391
▁보조금을	-14392
▁부산지법	-14393
▁부정적인	-14394
▁분위기는	-14395
▁비틀거리	-14396
▁사건까지	-14397
▁사용하고	-14398
▁상관없이	-14399
▁상당수는	-14400
▁상황인데	-14401
▁생각하는	-14402
▁성명에서	-14403
▁소지하고	-14404
▁솜방망이	-14405
▁수사팀은	-14406
▁숨지거나	-14407
▁신청했고	-14408
▁실종자가	-14409
▁쏟아지는	-14410
▁쓰레기로	-14411
▁씨입니다	-14412
▁아무것도	-14413
▁아이에게	-14414
▁여성들의	-14415
▁연락처를	-14416
▁예정인데	-14417
▁오후에는	-14418
▁운영자는	-14419
▁원어치를	-14420
▁위원장의	-14421
▁위태롭게	-14422
▁의과대학	-14423
▁의식불명	-14424
▁이용하고	-14425
▁이용하지	-14426
▁이후에는	-14427
▁인정하지	-14428
▁입구에서	-14429
▁있었다면	-14430
▁잔혹하게	-14431
▁전공의와	-14432
▁정무수석	-14433
▁정보공개	-14434
▁정치자금	-14435
▁제주지역	-14436
▁제출했다	-14437
▁존재하지	-14438
▁주변에는	-14439
▁주장했고	-14440
▁중단하고	-14441
▁중에서도	-14442
▁증가세가	-14443
▁지방정부	-14444
▁지하주차	-14445
▁진술하고	-14446
▁진정서를	-14447
▁차단하고	-14448
▁차지하는	-14449
▁착용해야	-14450
▁처리하는	-14451
▁처음부터	-14452
▁촉구하고	-14453
▁출장비를	-14454
▁충격적인	-14455
▁클럽에서	-14456
▁테러리즘	-14457
▁판단되면	-14458
▁폭력으로	-14459
▁학원강사	-14460
▁한국전력	-14461
▁합동분향	-14462
▁합동조사	-14463
▁합동참모	-14464
▁헌법재판	-14465
▁현지에서	-14466
▁혐의점이	-14467
▁형사사건	-14468
▁확인되고	-14469
▁환경미화	-14470
▁활용하는	-14471
대병원으로	-14472
보건소에서	-14473
캐롤라이나	-14474
▁경기지사는	-14475
▁경제적으로	-14476
▁경찰청장이	-14477
▁공소사실을	-14478
▁광주에서는	-14479
▁광화문에서	-14480
▁규모입니다	-14481
▁냉장고에서	-14482
▁대북전단을	-14483
▁도로입니다	-14484
▁들여다보고	-14485
▁때문인데요	-14486
▁맞은편에서	-14487
▁무함마드를	-14488
▁민식이법을	-14489
▁민식이법이	-14490
▁반복적으로	-14491
▁벌어지기도	-14492
▁범국민투쟁	-14493
▁부동산시장	-14494
▁불안해하고	-14495
▁붙었습니다	-14496
▁블랙박스를	-14497
▁상황에서도	-14498
▁선수들에게	-14499
▁수사기관에	-14500
▁스트레스를	-14501
▁시작됩니다	-14502
▁시행합니다	-14503
▁실시하기로	-14504
▁실정입니다	-14505
▁아니었다고	-14506
▁아수라장이	-14507
▁예정이었던	-14508
▁원내대표가	-14509
▁유흥시설을	-14510
▁음성판정을	-14511
▁이뤄졌다고	-14512
▁이뤄집니다	-14513
▁자가격리에	-14514
▁조치입니다	-14515
▁종로경찰서	-14516
▁중점적으로	-14517
▁지시했다고	-14518
▁찍혔습니다	-14519
▁청주의료원	-14520
▁충청북도는	-14521
▁커뮤니티에	-14522
▁탈북민단체	-14523
▁해외입국자	-14524
▁해운대구의	-14525
▁확대하기로	-14526
▁확보했다고	-14527
▁확인합니다	-14528
명이었습니다	-14529
▁고속도로에서	-14530
▁나타냈습니다	-14531
▁반복했습니다	-14532
▁산업안전보건	-14533
▁살펴봤습니다	-14534
▁소개했습니다	-14535
▁속출했습니다	-14536
▁심의위원회를	-14537
▁오피스텔에서	-14538
▁음주운전으로	-14539
▁자가격리자의	-14540
▁정리했습니다	-14541
▁조치됐습니다	-14542
▁중앙선거관리	-14543
▁차지했습니다	-14544
▁처벌하겠다고	-14545
▁최위지입니다	-14546
▁취소됐습니다	-14547
▁토로했습니다	-14548
▁특정경제범죄	-14549
▁풀려났습니다	-14550
▁해제했습니다	-14551
▁확진자입니다	-14552
▁단독보도입니다	-14553
▁마찬가지입니다	-14554
▁모습이었습니다	-14555
▁사랑제일교회가	-14556
▁선별진료소에서	-14557
▁울산지방경찰청	-14558
▁한국여성의전화	-14559
▁긴급체포했습니다	-14560
▁고위공직자범죄수사처	-14561
16	-14562
22	-14563
25	-14564
75	-14565
76	-14566
OK	-14567
▁h	-14568
▁꼴	-14569
▁낫	-14570
▁둑	-14571
▁래	-14572
▁르	-14573
▁멱	-14574
▁몬	-14575
▁밧	-14576
▁셰	-14577
▁씌	-14578
▁앗	-14579
▁잉	-14580
▁잭	-14581
▁쥔	-14582
▁짝	-14583
▁켠	-14584
▁탕	-14585
▁폴	-14586
▁햄	-14587
값을	-14588
강댐	-14589
공무	-14590
극을	-14591
급적	-14592
동과	-14593
됐죠	-14594
두는	-14595
뒀던	-14596
라기	-14597
라를	-14598
랑카	-14599
리섬	-14600
리오	-14601
마크	-14602
바마	-14603
반의	-14604
범의	-14605
벨트	-14606
보와	-14607
분들	-14608
비뉴	-14609
선언	-14610
설을	-14611
세는	-14612
센트	-14613
속한	-14614
수거	-14615
심리	-14616
싸움	-14617
쓰레	-14618
아르	-14619
여분	-14620
여행	-14621
영상	-14622
용지	-14623
운드	-14624
워드	-14625
월드	-14626
으신	-14627
이스	-14628
인식	-14629
자며	-14630
작전	-14631
장학	-14632
쟁이	-14633
전남	-14634
조건	-14635
조는	-14636
준다	-14637
줘야	-14638
찌를	-14639
책이	-14640
청사	-14641
총장	-14642
출혈	-14643
타고	-14644
통장	-14645
특례	-14646
포트	-14647
풍이	-14648
플루	-14649
호가	-14650
호에	-14651
호트	-14652
희룡	-14653
400	-14654
600	-14655
IBS	-14656
▁98	-14657
▁IP	-14658
▁PD	-14659
▁SL	-14660
▁XX	-14661
▁vs	-14662
▁가볍	-14663
▁가치	-14664
▁거실	-14665
▁검정	-14666
▁경각	-14667
▁고문	-14668
▁고시	-14669
▁공표	-14670
▁교신	-14671
▁교주	-14672
▁군수	-14673
▁군에	-14674
▁귀향	-14675
▁극히	-14676
▁글은	-14677
▁기차	-14678
▁기후	-14679
▁길에	-14680
▁깃발	-14681
▁나뉘	-14682
▁나뒹	-14683
▁나빠	-14684
▁낡은	-14685
▁남매	-14686
▁납부	-14687
▁낮추	-14688
▁낳은	-14689
▁내비	-14690
▁너머	-14691
▁노점	-14692
▁농성	-14693
▁농촌	-14694
▁높다	-14695
▁눌려	-14696
▁다툰	-14697
▁다해	-14698
▁대담	-14699
▁대만	-14700
▁대인	-14701
▁덜미	-14702
▁들과	-14703
▁들통	-14704
▁때와	-14705
▁떼어	-14706
▁라마	-14707
▁라인	-14708
▁리얼	-14709
▁막지	-14710
▁말만	-14711
▁맞물	-14712
▁맺고	-14713
▁메이	-14714
▁면세	-14715
▁명성	-14716
▁모친	-14717
▁무거	-14718
▁묶인	-14719
▁문진	-14720
▁미숙	-14721
▁미용	-14722
▁밖의	-14723
▁발목	-14724
▁발신	-14725
▁배려	-14726
▁번쩍	-14727
▁법은	-14728
▁벗은	-14729
▁보은	-14730
▁보훈	-14731
▁복부	-14732
▁복용	-14733
▁부두	-14734
▁부유	-14735
▁부지	-14736
▁북송	-14737
▁북적	-14738
▁북항	-14739
▁불의	-14740
▁비는	-14741
▁비토	-14742
▁뿌려	-14743
▁사내	-14744
▁상식	-14745
▁상판	-14746
▁상하	-14747
▁색깔	-14748
▁석탄	-14749
▁성장	-14750
▁세제	-14751
▁소아	-14752
▁수달	-14753
▁수해	-14754
▁숨기	-14755
▁숫자	-14756
▁시상	-14757
▁식의	-14758
▁신랑	-14759
▁실습	-14760
▁실천	-14761
▁심해	-14762
▁쓰기	-14763
▁쓸어	-14764
▁아슬	-14765
▁아시	-14766
▁알림	-14767
▁알았	-14768
▁앓던	-14769
▁앗아	-14770
▁앞장	-14771
▁어지	-14772
▁에는	-14773
▁연천	-14774
▁열이	-14775
▁영문	-14776
▁영산	-14777
▁영통	-14778
▁예의	-14779
▁예전	-14780
▁온갖	-14781
▁완성	-14782
▁왔던	-14783
▁용량	-14784
▁울려	-14785
▁원은	-14786
▁월급	-14787
▁월드	-14788
▁웡은	-14789
▁위력	-14790
▁육성	-14791
▁윤성	-14792
▁윤태	-14793
▁의류	-14794
▁의학	-14795
▁이기	-14796
▁이끈	-14797
▁이별	-14798
▁이철	-14799
▁인쇄	-14800
▁일면	-14801
▁일회	-14802
▁임상	-14803
▁임차	-14804
▁자기	-14805
▁장외	-14806
▁잦은	-14807
▁전액	-14808
▁전한	-14809
▁정재	-14810
▁졸라	-14811
▁좁혀	-14812
▁좌석	-14813
▁주를	-14814
▁죽인	-14815
▁중복	-14816
▁지우	-14817
▁지워	-14818
▁진동	-14819
▁진보	-14820
▁짧게	-14821
▁차관	-14822
▁차일	-14823
▁처우	-14824
▁처한	-14825
▁총영	-14826
▁코를	-14827
▁콜럼	-14828
▁큰불	-14829
▁타낸	-14830
▁테슬	-14831
▁틀어	-14832
▁파쇄	-14833
▁퍼부	-14834
▁포상	-14835
▁하룻	-14836
▁하산	-14837
▁하시	-14838
▁한기	-14839
▁한명	-14840
▁항목	-14841
▁해체	-14842
▁했기	-14843
▁호기	-14844
▁화제	-14845
▁화훼	-14846
▁확성	-14847
▁환수	-14848
▁후퇴	-14849
거래법	-14850
건에서	-14851
검사는	-14852
교회와	-14853
기독교	-14854
나들목	-14855
단계가	-14856
대들이	-14857
대표는	-14858
되지는	-14859
뒀다고	-14860
리고는	-14861
명인데	-14862
모병원	-14863
번방과	-14864
번방의	-14865
보건소	-14866
사실에	-14867
사진을	-14868
상품권	-14869
센터로	-14870
셉니다	-14871
속으로	-14872
스크포	-14873
시간씩	-14874
시설이	-14875
시위를	-14876
식에서	-14877
억원을	-14878
윱니다	-14879
인디아	-14880
일간의	-14881
자였던	-14882
절차를	-14883
조치가	-14884
지도를	-14885
지법인	-14886
집행에	-14887
카드를	-14888
해서는	-14889
했느냐	-14890
▁115	-14891
▁240	-14892
▁GPS	-14893
▁가급적	-14894
▁가맹점	-14895
▁가져온	-14896
▁가짜뉴	-14897
▁가혹한	-14898
▁감시장	-14899
▁감정이	-14900
▁갓난아	-14901
▁강조한	-14902
▁강화군	-14903
▁강화한	-14904
▁강화해	-14905
▁강훈은	-14906
▁강훈이	-14907
▁갖추고	-14908
▁같고요	-14909
▁개혁과	-14910
▁거액의	-14911
▁건물과	-14912
▁걸리는	-14913
▁검토를	-14914
▁격리장	-14915
▁견디지	-14916
▁경기가	-14917
▁경기장	-14918
▁경범죄	-14919
▁계약한	-14920
▁고려할	-14921
▁고인이	-14922
▁곧이어	-14923
▁곳까지	-14924
▁공격한	-14925
▁괴한이	-14926
▁교민이	-14927
▁교사를	-14928
▁교체를	-14929
▁구매할	-14930
▁귀국을	-14931
▁그렇기	-14932
▁그림을	-14933
▁급격한	-14934
▁기각된	-14935
▁김원장	-14936
▁김포시	-14937
▁꺼리는	-14938
▁나눠서	-14939
▁나라가	-14940
▁날아든	-14941
▁날치기	-14942
▁남북교	-14943
▁내려앉	-14944
▁내리막	-14945
▁넘었고	-14946
▁노출돼	-14947
▁높이는	-14948
▁누구나	-14949
▁누르기	-14950
▁느끼고	-14951
▁느끼는	-14952
▁늘어서	-14953
▁단서가	-14954
▁달려와	-14955
▁담임목	-14956
▁당사자	-14957
▁대구를	-14958
▁대변인	-14959
▁대사는	-14960
▁대응과	-14961
▁도로와	-14962
▁도시를	-14963
▁도입을	-14964
▁도주의	-14965
▁동구의	-14966
▁동료를	-14967
▁동상이	-14968
▁동시다	-14969
▁동안의	-14970
▁동해시	-14971
▁됐다는	-14972
▁되지만	-14973
▁두바이	-14974
▁뒤부터	-14975
▁뒤집힌	-14976
▁들에게	-14977
▁따라붙	-14978
▁때부터	-14979
▁마침내	-14980
▁멱살을	-14981
▁면허가	-14982
▁면허를	-14983
▁명의를	-14984
▁못했던	-14985
▁무등록	-14986
▁무엇을	-14987
▁무정차	-14988
▁문제와	-14989
▁물량이	-14990
▁미만의	-14991
▁민감한	-14992
▁민주적	-14993
▁밀라노	-14994
▁바다에	-14995
▁바우저	-14996
▁박지원	-14997
▁받아온	-14998
▁발표가	-14999
▁발화지	-15000
▁방침에	-15001
▁배달을	-15002
▁번호가	-15003
▁번호로	-15004
▁벌금형	-15005
▁병력이	-15006
▁보도는	-15007
▁보도와	-15008
▁보였다	-15009
▁보험료	-15010
▁보호자	-15011
▁부과할	-15012
▁부득이	-15013
▁부르며	-15014
▁부모를	-15015
▁부탁을	-15016
▁분명한	-15017
▁분석도	-15018
▁불과한	-15019
▁불리한	-15020
▁붙잡고	-15021
▁비접촉	-15022
▁비판의	-15023
▁빗물이	-15024
▁빨간색	-15025
▁사격을	-15026
▁사라져	-15027
▁사망과	-15028
▁사생활	-15029
▁사이를	-15030
▁사체가	-15031
▁사태와	-15032
▁살펴본	-15033
▁살포가	-15034
▁상태라	-15035
▁상품을	-15036
▁선거가	-15037
▁설명회	-15038
▁성인이	-15039
▁세심한	-15040
▁소개한	-15041
▁소모임	-15042
▁소방대	-15043
▁소재로	-15044
▁소중한	-15045
▁속이고	-15046
▁송국회	-15047
▁수감돼	-15048
▁수거한	-15049
▁수리온	-15050
▁수색은	-15051
▁수색이	-15052
▁수습을	-15053
▁숫자를	-15054
▁스위스	-15055
▁승리를	-15056
▁시기를	-15057
▁시민은	-15058
▁신분이	-15059
▁신세계	-15060
▁실체가	-15061
▁실체적	-15062
▁심인보	-15063
▁싶더니	-15064
▁아나운	-15065
▁안내를	-15066
▁어디로	-15067
▁업체와	-15068
▁에스코	-15069
▁연락한	-15070
▁연휴를	-15071
▁연희동	-15072
▁열리지	-15073
▁엽니다	-15074
▁오리건	-15075
▁오바마	-15076
▁올라와	-15077
▁와치맨	-15078
▁우려한	-15079
▁우체국	-15080
▁우한의	-15081
▁운동처	-15082
▁운영할	-15083
▁울산의	-15084
▁원대의	-15085
▁원어치	-15086
▁원희룡	-15087
▁위반에	-15088
▁의도를	-15089
▁의지가	-15090
▁이것도	-15091
▁이라크	-15092
▁이르고	-15093
▁이름의	-15094
▁이보다	-15095
▁이송돼	-15096
▁이용섭	-15097
▁인사가	-15098
▁인식을	-15099
▁인접한	-15100
▁인정할	-15101
▁인증을	-15102
▁일인데	-15103
▁일인지	-15104
▁일정한	-15105
▁임대차	-15106
▁입건한	-15107
▁입교생	-15108
▁입장은	-15109
▁있나요	-15110
▁있어도	-15111
▁있었기	-15112
▁있음을	-15113
▁자정쯤	-15114
▁작업과	-15115
▁잘못이	-15116
▁장소가	-15117
▁쟁점은	-15118
▁적법한	-15119
▁전원책	-15120
▁전후해	-15121
▁점검해	-15122
▁정보도	-15123
▁정책에	-15124
▁제작해	-15125
▁제조업	-15126
▁제출할	-15127
▁조용히	-15128
▁조합원	-15129
▁조회한	-15130
▁종사자	-15131
▁주인공	-15132
▁줬다는	-15133
▁증거는	-15134
▁지르고	-15135
▁지목한	-15136
▁지점을	-15137
▁직업을	-15138
▁진상을	-15139
▁질문을	-15140
▁집에만	-15141
▁착용이	-15142
▁착취한	-15143
▁참사가	-15144
▁창원의	-15145
▁찾아간	-15146
▁채취해	-15147
▁처분에	-15148
▁처음에	-15149
▁청약에	-15150
▁청원이	-15151
▁체계가	-15152
▁초기에	-15153
▁총동원	-15154
▁최민희	-15155
▁추돌한	-15156
▁추진해	-15157
▁출범을	-15158
▁출소한	-15159
▁취소된	-15160
▁친구를	-15161
▁친분이	-15162
▁코호트	-15163
▁타임스	-15164
▁택시가	-15165
▁테러로	-15166
▁테러를	-15167
▁텐데요	-15168
▁통고를	-15169
▁통째로	-15170
▁트럭에	-15171
▁특보가	-15172
▁티셔츠	-15173
▁파견해	-15174
▁평범한	-15175
▁폐지를	-15176
▁포순이	-15177
▁폭발과	-15178
▁프리랜	-15179
▁하는지	-15180
▁하라고	-15181
▁학대의	-15182
▁학원에	-15183
▁한동훈	-15184
▁한마디	-15185
▁합천군	-15186
▁해맞이	-15187
▁해변에	-15188
▁해산을	-15189
▁해수부	-15190
▁해외에	-15191
▁현장은	-15192
▁현재의	-15193
▁형제는	-15194
▁호텔을	-15195
▁화면을	-15196
▁확산된	-15197
▁확실히	-15198
▁활용할	-15199
▁홧김에	-15200
▁회원이	-15201
▁회의가	-15202
▁횡령과	-15203
▁후보인	-15204
▁휩싸인	-15205
▁흐름을	-15206
▁흔적도	-15207
▁힘들다	-15208
되더라도	-15209
만으로도	-15210
명인데요	-15211
서입니다	-15212
씨로부터	-15213
안전공사	-15214
위원장은	-15215
위원회와	-15216
으면서도	-15217
일입니다	-15218
했다면서	-15219
▁2002	-15220
▁2022	-15221
▁가정에서	-15222
▁강원관광	-15223
▁건강상태	-15224
▁경비원의	-15225
▁경찰청이	-15226
▁계정으로	-15227
▁골든타임	-15228
▁공개되지	-15229
▁광주시가	-15230
▁구급차를	-15231
▁구마모토	-15232
▁국민참여	-15233
▁글입니다	-15234
▁급속도로	-15235
▁급증하고	-15236
▁넘겨받아	-15237
▁넘겼다고	-15238
▁단란주점	-15239
▁달아나던	-15240
▁대구시와	-15241
▁대법원이	-15242
▁대상자로	-15243
▁대응반은	-15244
▁대표이사	-15245
▁도착하기	-15246
▁돌아가고	-15247
▁돌아가는	-15248
▁들어갔고	-15249
▁리원량의	-15250
▁마리화나	-15251
▁명령에도	-15252
▁무엇인지	-15253
▁미끄러져	-15254
▁민간인이	-15255
▁민주항쟁	-15256
▁반발하며	-15257
▁받아들일	-15258
▁발생했고	-15259
▁발표하고	-15260
▁백악관은	-15261
▁벌였지만	-15262
▁법무법인	-15263
▁법무장관	-15264
▁보관하고	-15265
▁보여주고	-15266
▁부사장은	-15267
▁분노하고	-15268
▁분리수거	-15269
▁불분명한	-15270
▁비서실장	-15271
▁빠져나간	-15272
▁사건에서	-15273
▁사망으로	-15274
▁사망하고	-15275
▁산발적인	-15276
▁살펴보면	-15277
▁상태였고	-15278
▁선거범죄	-15279
▁성범죄는	-15280
▁성범죄에	-15281
▁성적으로	-15282
▁세계에서	-15283
▁소개해드	-15284
▁소속으로	-15285
▁수사망을	-15286
▁순찰차를	-15287
▁시간대에	-15288
▁시민들과	-15289
▁시사용어	-15290
▁시행되는	-15291
▁신고하지	-15292
▁신빙성이	-15293
▁신천지가	-15294
▁아이디와	-15295
▁아침부터	-15296
▁알아보기	-15297
▁알아보는	-15298
▁양육비를	-15299
▁엄격하게	-15300
▁연관성을	-15301
▁영상녹화	-15302
▁영향력을	-15303
▁예정이며	-15304
▁오프라인	-15305
▁옮겨졌고	-15306
▁외교관의	-15307
▁외국인은	-15308
▁외할머니	-15309
▁요청하고	-15310
▁운전하던	-15311
▁울타리를	-15312
▁원룸에서	-15313
▁위치추적	-15314
▁의뢰하고	-15315
▁의사당에	-15316
▁이동금지	-15317
▁이마저도	-15318
▁인권감독	-15319
▁인사혁신	-15320
▁인정하는	-15321
▁일관되게	-15322
▁일면식도	-15323
▁일부개정	-15324
▁일어나지	-15325
▁임시국회	-15326
▁잇따르는	-15327
▁있는지를	-15328
▁있었어요	-15329
▁자원봉사	-15330
▁전세기로	-15331
▁전형적인	-15332
▁제주공항	-15333
▁제한속도	-15334
▁주민들도	-15335
▁죽음으로	-15336
▁준비하고	-15337
▁준비하는	-15338
▁중이었던	-15339
▁지급하지	-15340
▁지명수배	-15341
▁직원들에	-15342
▁진주시는	-15343
▁참석했던	-15344
▁찼습니다	-15345
▁청와대는	-15346
▁체포되는	-15347
▁총괄하는	-15348
▁총회장의	-15349
▁최신종은	-15350
▁충청북도	-15351
▁취소하고	-15352
▁카메라에	-15353
▁콜럼버스	-15354
▁탄원서를	-15355
▁택시에서	-15356
▁트위터는	-15357
▁평소보다	-15358
▁폭행당한	-15359
▁프라이팬	-15360
▁한진그룹	-15361
▁합동단속	-15362
▁해양쓰레	-15363
▁협박하고	-15364
▁호소하며	-15365
▁호흡곤란	-15366
▁화염병을	-15367
상현입니다	-15368
▁가능하다고	-15369
▁게시판에는	-15370
▁결정됩니다	-15371
▁곳곳에서는	-15372
▁공개되면서	-15373
▁공무원들은	-15374
▁광화문광장	-15375
▁꼽았습니다	-15376
▁끊었습니다	-15377
▁나이트클럽	-15378
▁뉴스브리핑	-15379
▁대응하기로	-15380
▁바이러스에	-15381
▁발생하면서	-15382
▁방식입니다	-15383
▁베를린에서	-15384
▁본회의에서	-15385
▁블랙리스트	-15386
▁비상사태를	-15387
▁빠져나오지	-15388
▁사라집니다	-15389
▁서울시에서	-15390
▁서울시장이	-15391
▁소극적으로	-15392
▁신상정보를	-15393
▁않았는데요	-15394
▁역학조사에	-15395
▁요구합니다	-15396
▁운영합니다	-15397
▁위반했다는	-15398
▁위해섭니다	-15399
▁인물입니다	-15400
▁인정하느냐	-15401
▁인터넷으로	-15402
▁입주민에게	-15403
▁있었는지도	-15404
▁자연스럽게	-15405
▁잠겼습니다	-15406
▁전문가들이	-15407
▁정류장에서	-15408
▁제외하고는	-15409
▁조사하기로	-15410
▁중이었는데	-15411
▁지금까지는	-15412
▁지난해에는	-15413
▁진행했다고	-15414
▁청와대에서	-15415
▁코리아빌딩	-15416
▁택시기사를	-15417
▁택시기사의	-15418
▁포토라인에	-15419
▁하나입니다	-15420
▁한진중공업	-15421
▁한창입니다	-15422
▁할아버지는	-15423
▁홈페이지를	-15424
▁휴대전화는	-15425
▁휴대전화의	-15426
▁희생자들의	-15427
고속도로에서	-15428
보호전문기관	-15429
지방법원에서	-15430
▁강화했습니다	-15431
▁건강보험공단	-15432
▁검토하겠다고	-15433
▁과학기술정보	-15434
▁국가정보원법	-15435
▁금지했습니다	-15436
▁내놓았습니다	-15437
▁디지털성범죄	-15438
▁모양새입니다	-15439
▁발동했습니다	-15440
▁발령했습니다	-15441
▁부딪쳤습니다	-15442
▁불거졌습니다	-15443
▁소셜미디어에	-15444
▁실시했습니다	-15445
▁쏟아냈습니다	-15446
▁위해서입니다	-15447
▁의붓아버지가	-15448
▁잠적했습니다	-15449
▁전화금융사기	-15450
▁정보통신망법	-15451
▁찾아냈습니다	-15452
▁판시했습니다	-15453
▁표명했습니다	-15454
▁합의했습니다	-15455
▁경기남부경찰청	-15456
▁시작하겠습니다	-15457
▁여성아동범죄조사	-15458
▁인천국제공항공사	-15459
▁국립과학수사연구원은	-15460
▁토지거래허가구역으로	-15461
33	-15462
35	-15463
40	-15464
LL	-15465
QR	-15466
▁文	-15467
▁꽂	-15468
▁띕	-15469
▁란	-15470
▁멤	-15471
▁뭉	-15472
▁뺀	-15473
▁숲	-15474
▁윈	-15475
▁찰	-15476
▁캡	-15477
▁톨	-15478
▁헝	-15479
감치	-15480
건과	-15481
게도	-15482
격이	-15483
결된	-15484
고한	-15485
곳도	-15486
공에	-15487
과실	-15488
관도	-15489
구요	-15490
금고	-15491
급인	-15492
나와	-15493
나지	-15494
난성	-15495
남은	-15496
노래	-15497
니언	-15498
다못	-15499
대전	-15500
대체	-15501
둘이	-15502
뜨려	-15503
라마	-15504
랐다	-15505
로도	-15506
루즈	-15507
리움	-15508
마이	-15509
만의	-15510
머리	-15511
명민	-15512
명부	-15513
물고	-15514
미칼	-15515
박람	-15516
받게	-15517
발굴	-15518
방울	-15519
벽을	-15520
병도	-15521
보죠	-15522
비리	-15523
사전	-15524
산나	-15525
살의	-15526
설이	-15527
속이	-15528
스틴	-15529
시영	-15530
아슬	-15531
어오	-15532
에야	-15533
연수	-15534
오기	-15535
오바	-15536
월엔	-15537
위조	-15538
율로	-15539
은닉	-15540
을지	-15541
의사	-15542
이노	-15543
일리	-15544
일으	-15545
자문	-15546
적부	-15547
전용	-15548
전철	-15549
전형	-15550
정류	-15551
제출	-15552
조의	-15553
종결	-15554
중지	-15555
채취	-15556
천히	-15557
청장	-15558
체크	-15559
층은	-15560
킨스	-15561
태세	-15562
터가	-15563
토론	-15564
토미	-15565
투를	-15566
티아	-15567
평화	-15568
하곤	-15569
하죠	-15570
함께	-15571
행사	-15572
행에	-15573
현석	-15574
협약	-15575
화는	-15576
회장	-15577
▁92	-15578
▁QR	-15579
▁YG	-15580
▁가깝	-15581
▁가난	-15582
▁가시	-15583
▁간편	-15584
▁감봉	-15585
▁강변	-15586
▁같아	-15587
▁개는	-15588
▁거는	-15589
▁거소	-15590
▁걷는	-15591
▁것인	-15592
▁것일	-15593
▁겨눈	-15594
▁경선	-15595
▁경향	-15596
▁계양	-15597
▁고물	-15598
▁공단	-15599
▁공보	-15600
▁과목	-15601
▁교황	-15602
▁구겨	-15603
▁구할	-15604
▁국도	-15605
▁국유	-15606
▁국화	-15607
▁군주	-15608
▁귀성	-15609
▁규칙	-15610
▁금고	-15611
▁기원	-15612
▁기절	-15613
▁김수	-15614
▁김지	-15615
▁까다	-15616
▁꾸며	-15617
▁꿇은	-15618
▁끊고	-15619
▁끊긴	-15620
▁끼워	-15621
▁나눴	-15622
▁날린	-15623
▁남원	-15624
▁내기	-15625
▁넓은	-15626
▁넘을	-15627
▁농경	-15628
▁농림	-15629
▁다닌	-15630
▁다수	-15631
▁다중	-15632
▁닫은	-15633
▁대낮	-15634
▁대략	-15635
▁대원	-15636
▁더해	-15637
▁덮쳐	-15638
▁델라	-15639
▁도봉	-15640
▁동굴	-15641
▁동산	-15642
▁동서	-15643
▁동창	-15644
▁됐을	-15645
▁듣게	-15646
▁들면	-15647
▁등산	-15648
▁땅에	-15649
▁랜덤	-15650
▁랜딩	-15651
▁마감	-15652
▁막말	-15653
▁막힌	-15654
▁만날	-15655
▁많기	-15656
▁말아	-15657
▁메인	-15658
▁멤버	-15659
▁무작	-15660
▁민중	-15661
▁밀쳐	-15662
▁밑에	-15663
▁바란	-15664
▁바퀴	-15665
▁박기	-15666
▁박정	-15667
▁받다	-15668
▁발각	-15669
▁발이	-15670
▁발족	-15671
▁발현	-15672
▁밟아	-15673
▁밤을	-15674
▁방배	-15675
▁백두	-15676
▁번에	-15677
▁변성	-15678
▁봤을	-15679
▁부위	-15680
▁부재	-15681
▁불미	-15682
▁비추	-15683
▁빌딩	-15684
▁빗길	-15685
▁사촌	-15686
▁산지	-15687
▁상위	-15688
▁샌드	-15689
▁서른	-15690
▁서정	-15691
▁서지	-15692
▁서쪽	-15693
▁설날	-15694
▁성능	-15695
▁성당	-15696
▁성명	-15697
▁손녀	-15698
▁숙인	-15699
▁스카	-15700
▁시골	-15701
▁시선	-15702
▁시중	-15703
▁시켰	-15704
▁신한	-15705
▁실린	-15706
▁실망	-15707
▁심층	-15708
▁아끼	-15709
▁아영	-15710
▁안건	-15711
▁암살	-15712
▁야산	-15713
▁양계	-15714
▁어느	-15715
▁없지	-15716
▁엎드	-15717
▁여는	-15718
▁열쇠	-15719
▁예치	-15720
▁오간	-15721
▁오인	-15722
▁오클	-15723
▁오픈	-15724
▁옥외	-15725
▁옮길	-15726
▁외침	-15727
▁용도	-15728
▁울음	-15729
▁원동	-15730
▁유감	-15731
▁음압	-15732
▁의지	-15733
▁이래	-15734
▁이력	-15735
▁이륙	-15736
▁이우	-15737
▁일병	-15738
▁일축	-15739
▁잃을	-15740
▁임실	-15741
▁입사	-15742
▁자의	-15743
▁자행	-15744
▁잠재	-15745
▁잡혀	-15746
▁재물	-15747
▁저렴	-15748
▁저유	-15749
▁전무	-15750
▁정정	-15751
▁져야	-15752
▁죄를	-15753
▁중경	-15754
▁중랑	-15755
▁중한	-15756
▁진원	-15757
▁진지	-15758
▁진출	-15759
▁진해	-15760
▁짐작	-15761
▁징후	-15762
▁차림	-15763
▁창립	-15764
▁채우	-15765
▁챙기	-15766
▁처인	-15767
▁천명	-15768
▁청렴	-15769
▁체납	-15770
▁초동	-15771
▁초유	-15772
▁최영	-15773
▁추방	-15774
▁추운	-15775
▁출구	-15776
▁출판	-15777
▁측도	-15778
▁치우	-15779
▁침착	-15780
▁캠퍼	-15781
▁컸던	-15782
▁콜로	-15783
▁쿠바	-15784
▁크로	-15785
▁큰소	-15786
▁타는	-15787
▁탈세	-15788
▁터키	-15789
▁팔당	-15790
▁퍼붓	-15791
▁평등	-15792
▁포르	-15793
▁포차	-15794
▁폭도	-15795
▁폭염	-15796
▁풀고	-15797
▁피부	-15798
▁피터	-15799
▁한시	-15800
▁한일	-15801
▁합류	-15802
▁행적	-15803
▁허벅	-15804
▁혁신	-15805
▁호루	-15806
▁홍성	-15807
▁환영	-15808
▁후폭	-15809
▁후회	-15810
▁휘발	-15811
▁휠체	-15812
▁흐른	-15813
가면서	-15814
갔는데	-15815
갔다는	-15816
개소에	-15817
거리를	-15818
겼는데	-15819
관계가	-15820
권으로	-15821
기에서	-15822
냈다고	-15823
년에서	-15824
년형을	-15825
뉴스룸	-15826
돕니다	-15827
됐거나	-15828
들끼리	-15829
디어를	-15830
렀다는	-15831
레스타	-15832
렸다가	-15833
문으로	-15834
방으로	-15835
범들이	-15836
베이션	-15837
서에서	-15838
시간을	-15839
아이가	-15840
업무를	-15841
업체가	-15842
었는지	-15843
었더니	-15844
요원의	-15845
임에도	-15846
장까지	-15847
장애인	-15848
점검에	-15849
정보를	-15850
지검에	-15851
찌감치	-15852
층부터	-15853
카운티	-15854
케미칼	-15855
트럼프	-15856
특보가	-15857
하기가	-15858
하느라	-15859
하세요	-15860
행각을	-15861
행위가	-15862
▁102	-15863
▁103	-15864
▁113	-15865
▁195	-15866
▁241	-15867
▁367	-15868
▁NLL	-15869
▁PCC	-15870
▁SOK	-15871
▁가격을	-15872
▁가정폭	-15873
▁가져가	-15874
▁가족들	-15875
▁가파른	-15876
▁가해가	-15877
▁강경한	-15878
▁강아지	-15879
▁강요한	-15880
▁강화할	-15881
▁개발한	-15882
▁개선을	-15883
▁개정에	-15884
▁객실에	-15885
▁거듭된	-15886
▁거리는	-15887
▁거쳐야	-15888
▁건강이	-15889
▁검토한	-15890
▁것이라	-15891
▁경위가	-15892
▁계속될	-15893
▁골프를	-15894
▁공공부	-15895
▁공문서	-15896
▁공항에	-15897
▁과제로	-15898
▁구조해	-15899
▁구축해	-15900
▁국내외	-15901
▁군에게	-15902
▁궁금한	-15903
▁권고가	-15904
▁그것은	-15905
▁그에게	-15906
▁그치지	-15907
▁근무자	-15908
▁글쎄요	-15909
▁길가에	-15910
▁김승주	-15911
▁김용균	-15912
▁나가지	-15913
▁나누는	-15914
▁나무에	-15915
▁남기지	-15916
▁남녀가	-15917
▁남성도	-15918
▁남편을	-15919
▁내면서	-15920
▁내세운	-15921
▁넘어섰	-15922
▁노래를	-15923
▁높다는	-15924
▁늘어났	-15925
▁능력이	-15926
▁다음주	-15927
▁단어를	-15928
▁달러를	-15929
▁대공분	-15930
▁대교협	-15931
▁대구와	-15932
▁대출금	-15933
▁덜미가	-15934
▁도시에	-15935
▁도주할	-15936
▁동남아	-15937
▁동물이	-15938
▁동생을	-15939
▁동원한	-15940
▁동일한	-15941
▁동작구	-15942
▁들어올	-15943
▁띕니다	-15944
▁말했고	-15945
▁맡았던	-15946
▁명이나	-15947
▁모녀를	-15948
▁모자와	-15949
▁목소리	-15950
▁목숨도	-15951
▁목요일	-15952
▁목적의	-15953
▁목줄을	-15954
▁몰려든	-15955
▁무기를	-15956
▁문턱을	-15957
▁물건이	-15958
▁물러서	-15959
▁바라보	-15960
▁박시영	-15961
▁반기를	-15962
▁반발해	-15963
▁반중국	-15964
▁발언도	-15965
▁발표할	-15966
▁밝혀내	-15967
▁방문을	-15968
▁방법은	-15969
▁방송은	-15970
▁방식이	-15971
▁방역의	-15972
▁방역이	-15973
▁배경을	-15974
▁버리고	-15975
▁번이나	-15976
▁범죄와	-15977
▁법률상	-15978
▁법조계	-15979
▁변화를	-15980
▁보관한	-15981
▁보도로	-15982
▁보시면	-15983
▁보일러	-15984
▁보호에	-15985
▁봤다고	-15986
▁부딪혔	-15987
▁부실한	-15988
▁북구의	-15989
▁북한군	-15990
▁분들은	-15991
▁불이익	-15992
▁비바람	-15993
▁빌려준	-15994
▁빗길에	-15995
▁사들여	-15996
▁사안에	-15997
▁사업가	-15998
▁사연을	-15999
▁사장을	-16000
▁사진도	-16001
▁사진에	-16002
▁사진은	-16003
▁사형을	-16004
▁산불이	-16005
▁상당을	-16006
▁상수도	-16007
▁상판이	-16008
▁생각한	-16009
▁서울이	-16010
▁선거일	-16011
▁선택한	-16012
▁섭니다	-16013
▁세계로	-16014
▁소녀는	-16015
▁소속인	-16016
▁소음을	-16017
▁소지자	-16018
▁소홀히	-16019
▁손바닥	-16020
▁손해를	-16021
▁송치한	-16022
▁수문을	-16023
▁수용소	-16024
▁숫자는	-16025
▁스미싱	-16026
▁승객의	-16027
▁시간과	-16028
▁시설은	-16029
▁시설의	-16030
▁시작할	-16031
▁시점에	-16032
▁시행될	-16033
▁시행을	-16034
▁시험장	-16035
▁신발을	-16036
▁신부를	-16037
▁실거래	-16038
▁실질심	-16039
▁심경을	-16040
▁심문을	-16041
▁심정지	-16042
▁아무리	-16043
▁아직은	-16044
▁악취가	-16045
▁안개가	-16046
▁안산의	-16047
▁안전과	-16048
▁안조로	-16049
▁알아서	-16050
▁압수물	-16051
▁앗아간	-16052
▁앞차를	-16053
▁애도를	-16054
▁앤드루	-16055
▁양상을	-16056
▁양측의	-16057
▁얘기가	-16058
▁억지로	-16059
▁언제든	-16060
▁업주를	-16061
▁에토미	-16062
▁역무원	-16063
▁연결돼	-16064
▁열리고	-16065
▁오래된	-16066
▁오류가	-16067
▁오르는	-16068
▁오른쪽	-16069
▁온몸에	-16070
▁올해도	-16071
▁요구할	-16072
▁요원이	-16073
▁용산구	-16074
▁용서를	-16075
▁우연히	-16076
▁울음을	-16077
▁원장을	-16078
▁유명인	-16079
▁유언비	-16080
▁유인한	-16081
▁유통을	-16082
▁윤태호	-16083
▁은평구	-16084
▁의료법	-16085
▁의사와	-16086
▁의식한	-16087
▁의심해	-16088
▁의회가	-16089
▁이들도	-16090
▁이름은	-16091
▁이소현	-16092
▁이송된	-16093
▁이후의	-16094
▁인물은	-16095
▁인물을	-16096
▁일들이	-16097
▁일제히	-16098
▁입구를	-16099
▁입국을	-16100
▁입금한	-16101
▁입법을	-16102
▁자녀는	-16103
▁자신에	-16104
▁장관도	-16105
▁장관에	-16106
▁장성규	-16107
▁저소득	-16108
▁적용될	-16109
▁전반에	-16110
▁전원에	-16111
▁전했다	-16112
▁점수를	-16113
▁정리를	-16114
▁정서적	-16115
▁제도가	-16116
▁제주의	-16117
▁조기에	-16118
▁조화를	-16119
▁주목을	-16120
▁주식을	-16121
▁주장과	-16122
▁중간에	-16123
▁중구의	-16124
▁증상은	-16125
▁증세로	-16126
▁지나는	-16127
▁지도자	-16128
▁지시가	-16129
▁지적에	-16130
▁직원에	-16131
▁질서를	-16132
▁집행할	-16133
▁차단할	-16134
▁차벽을	-16135
▁차질이	-16136
▁참다못	-16137
▁참사를	-16138
▁참석을	-16139
▁참여해	-16140
▁챙기는	-16141
▁처벌해	-16142
▁처분의	-16143
▁처해질	-16144
▁천천히	-16145
▁체포에	-16146
▁초까지	-16147
▁초래할	-16148
▁촬영해	-16149
▁최강욱	-16150
▁추가된	-16151
▁출입문	-16152
▁충돌도	-16153
▁충북의	-16154
▁측근인	-16155
▁치료가	-16156
▁침범해	-16157
▁침수돼	-16158
▁탑승자	-16159
▁태안읍	-16160
▁택시에	-16161
▁통신에	-16162
▁퇴원을	-16163
▁파라과	-16164
▁포천시	-16165
▁폭력은	-16166
▁폭력적	-16167
▁폼페이	-16168
▁하나를	-16169
▁하룻밤	-16170
▁학교는	-16171
▁한국수	-16172
▁함바왕	-16173
▁함부로	-16174
▁항의를	-16175
▁해달라	-16176
▁해병대	-16177
▁했고요	-16178
▁행위도	-16179
▁향하는	-16180
▁헬기가	-16181
▁혐의자	-16182
▁형기를	-16183
▁홍남기	-16184
▁화염병	-16185
▁화제를	-16186
▁확대할	-16187
▁확보가	-16188
▁확보된	-16189
▁확인과	-16190
▁회사에	-16191
▁회장과	-16192
▁훼손이	-16193
▁흩어져	-16194
노동조합	-16195
드립니다	-16196
들에게도	-16197
만으로는	-16198
보입니다	-16199
이라든지	-16200
적으로도	-16201
주택에서	-16202
지원센터	-16203
해수욕장	-16204
훈입니다	-16205
▁1988	-16206
▁2001	-16207
▁JIBS	-16208
▁가로질러	-16209
▁각지에서	-16210
▁간담회를	-16211
▁강행하는	-16212
▁개천절에	-16213
▁거부권을	-16214
▁거부하며	-16215
▁거소투표	-16216
▁검거하고	-16217
▁것인데요	-16218
▁게시물을	-16219
▁경기지역	-16220
▁경찰개혁	-16221
▁고려했다	-16222
▁고발장을	-16223
▁고발했고	-16224
▁고양이를	-16225
▁공개하고	-16226
▁공개하며	-16227
▁공공병원	-16228
▁공무원에	-16229
▁공인중개	-16230
▁관계자에	-16231
▁관할하는	-16232
▁광안대교	-16233
▁괴롭힘을	-16234
▁교도소를	-16235
▁교도소에	-16236
▁구급대원	-16237
▁구조됐고	-16238
▁국정감사	-16239
▁그리고는	-16240
▁근무성적	-16241
▁기금운용	-16242
▁기록하고	-16243
▁기부금품	-16244
▁기상청은	-16245
▁나섰다가	-16246
▁나오기도	-16247
▁나왔다는	-16248
▁날입니다	-16249
▁내려받은	-16250
▁누군가의	-16251
▁다음날인	-16252
▁다하겠다	-16253
▁단속반이	-16254
▁당사자의	-16255
▁대정부질	-16256
▁대해서만	-16257
▁델라웨어	-16258
▁돌아보고	-16259
▁렌터카를	-16260
▁로드리게	-16261
▁마무리할	-16262
▁마스크나	-16263
▁마음으로	-16264
▁명확하게	-16265
▁모레부터	-16266
▁무언가를	-16267
▁무함마드	-16268
▁발원지인	-16269
▁밝혔는데	-16270
▁방위군은	-16271
▁배치하고	-16272
▁버스정류	-16273
▁벌였다고	-16274
▁범위에서	-16275
▁법무부와	-16276
▁법안들이	-16277
▁보냈지만	-16278
▁보도해드	-16279
▁보이기도	-16280
▁보험금을	-16281
▁보호자가	-16282
▁부동산을	-16283
▁부산에선	-16284
▁부산진구	-16285
▁부통령은	-16286
▁불량하다	-16287
▁불러일으	-16288
▁비교하면	-16289
▁비판하고	-16290
▁비행기를	-16291
▁비행기에	-16292
▁사다리차	-16293
▁사람들로	-16294
▁사망자의	-16295
▁사법경찰	-16296
▁사법처리	-16297
▁사상자를	-16298
▁산사태로	-16299
▁샌드위치	-16300
▁서울시에	-16301
▁서울특별	-16302
▁선거인단	-16303
▁선임행정	-16304
▁성형외과	-16305
▁소식은요	-16306
▁소유권을	-16307
▁수사하기	-16308
▁수행하는	-16309
▁스리랑카	-16310
▁시내에서	-16311
▁실종자의	-16312
▁아니지만	-16313
▁아들에게	-16314
▁아슬아슬	-16315
▁안심밴드	-16316
▁않았으며	-16317
▁어떤가요	-16318
▁없다면서	-16319
▁에스코베	-16320
▁여성들이	-16321
▁여순사건	-16322
▁여학생이	-16323
▁예상보다	-16324
▁예정됐던	-16325
▁올라오고	-16326
▁올해부터	-16327
▁우려하는	-16328
▁운전하는	-16329
▁원입니다	-16330
▁유증상자	-16331
▁유통기한	-16332
▁유포하고	-16333
▁유해발굴	-16334
▁의뢰했고	-16335
▁의료진은	-16336
▁이동하는	-16337
▁이와함께	-16338
▁이윱니다	-16339
▁이행하지	-16340
▁인사들이	-16341
▁인적사항	-16342
▁일방적인	-16343
▁일주일이	-16344
▁있음에도	-16345
▁자료들을	-16346
▁자제하고	-16347
▁적용할지	-16348
▁전단살포	-16349
▁접촉자가	-16350
▁정면으로	-16351
▁제공하고	-16352
▁제외하면	-16353
▁좋아하는	-16354
▁주민에게	-16355
▁주방위군	-16356
▁주차장을	-16357
▁주한미국	-16358
▁중앙정보	-16359
▁중학생이	-16360
▁줬습니다	-16361
▁지급하고	-16362
▁지켜보는	-16363
▁지하철역	-16364
▁진입하는	-16365
▁처벌받을	-16366
▁청문회를	-16367
▁청주에서	-16368
▁추천위원	-16369
▁취재진을	-16370
▁측면에서	-16371
▁친구들이	-16372
▁투입됐던	-16373
▁투표소에	-16374
▁특가법상	-16375
▁특별입국	-16376
▁특수학교	-16377
▁팔레스타	-16378
▁평화롭게	-16379
▁한국으로	-16380
▁해운대구	-16381
▁현장에선	-16382
▁확진됐고	-16383
▁회복하지	-16384
▁후보에게	-16385
예슬입니다	-16386
이노베이션	-16387
▁가능하도록	-16388
▁가혹행위를	-16389
▁감시카메라	-16390
▁검찰개혁을	-16391
▁검찰총장이	-16392
▁경북에서는	-16393
▁공무원들의	-16394
▁구마모토현	-16395
▁구명조끼를	-16396
▁국회에서는	-16397
▁기저질환이	-16398
▁나서겠다고	-16399
▁대구에서는	-16400
▁롯데케미칼	-16401
▁맡았습니다	-16402
▁메웠습니다	-16403
▁모셨습니다	-16404
▁보호관찰관	-16405
▁불구속기소	-16406
▁불법체류자	-16407
▁비서실장을	-16408
▁비슷합니다	-16409
▁빚어지기도	-16410
▁사각지대에	-16411
▁사거리에서	-16412
▁사건입니다	-16413
▁사고입니다	-16414
▁사이버수사	-16415
▁새마을금고	-16416
▁서울고검은	-16417
▁서울에서는	-16418
▁수술실에서	-16419
▁순차적으로	-16420
▁시도했지만	-16421
▁신고하면서	-16422
▁아동학대가	-16423
▁아동학대에	-16424
▁여성청소년	-16425
▁운영하면서	-16426
▁운전면허증	-16427
▁유가족에게	-16428
▁음식점에서	-16429
▁의심된다며	-16430
▁인종차별적	-16431
▁자전거도로	-16432
▁자치단체가	-16433
▁제한속도를	-16434
▁종교시설과	-16435
▁주장했지만	-16436
▁준수사항을	-16437
▁중요하다고	-16438
▁지난달부터	-16439
▁지적장애인	-16440
▁지하철에서	-16441
▁진상규명을	-16442
▁집무실에서	-16443
▁짚어봅니다	-16444
▁참가자들을	-16445
▁참고인으로	-16446
▁참석자들은	-16447
▁천안에서는	-16448
▁추산됩니다	-16449
▁추진됩니다	-16450
▁추진합니다	-16451
▁출동했지만	-16452
▁취업준비생	-16453
▁포함됩니다	-16454
▁플로리다주	-16455
▁피고인들이	-16456
▁해당합니다	-16457
▁허용됩니다	-16458
▁현실적으로	-16459
▁확인해보니	-16460
▁감소했습니다	-16461
▁강화됐습니다	-16462
▁국무회의에서	-16463
▁꼬집었습니다	-16464
▁높아졌습니다	-16465
▁다가왔습니다	-16466
▁동참했습니다	-16467
▁문화체육관광	-16468
▁박기원입니다	-16469
▁보건복지부가	-16470
▁보건복지부는	-16471
▁부산경찰청은	-16472
▁서울행정법원	-16473
▁선언했습니다	-16474
▁설치됐습니다	-16475
▁송국회입니다	-16476
▁순이었습니다	-16477
▁시도했습니다	-16478
▁업무개시명령	-16479
▁입수했습니다	-16480
▁장애아동전문	-16481
▁전체회의에서	-16482
▁조진영입니다	-16483
▁진화됐습니다	-16484
▁추진하겠다고	-16485
▁출발했습니다	-16486
▁침수됐습니다	-16487
▁항의했습니다	-16488
▁국가인권위원회	-16489
▁사랑제일교회는	-16490
▁집합금지명령을	-16491
▁짚어보겠습니다	-16492
▁과학기술정보통신	-16493
▁중앙사고수습본부는	-16494
▁경기남부지방경찰청은	-16495
26	-16496
49	-16497
66	-16498
70	-16499
TX	-16500
▁굶	-16501
▁굽	-16502
▁꽁	-16503
▁끓	-16504
▁덴	-16505
▁떳	-16506
▁뻗	-16507
▁쇳	-16508
▁잣	-16509
▁즈	-16510
▁째	-16511
▁챌	-16512
▁첸	-16513
▁촘	-16514
▁촛	-16515
▁춥	-16516
▁쾌	-16517
가구	-16518
가정	-16519
감사	-16520
감정	-16521
겨운	-16522
관인	-16523
교를	-16524
극이	-16525
긴급	-16526
길로	-16527
나무	-16528
누리	-16529
님이	-16530
다리	-16531
다운	-16532
대구	-16533
도박	-16534
디언	-16535
라텍	-16536
란티	-16537
론을	-16538
리주	-16539
마리	-16540
만명	-16541
만인	-16542
매를	-16543
모독	-16544
무가	-16545
물도	-16546
물류	-16547
뮤지	-16548
미야	-16549
미한	-16550
바탕	-16551
발과	-16552
방의	-16553
배에	-16554
법원	-16555
법의	-16556
보조	-16557
봉을	-16558
부름	-16559
부장	-16560
사일	-16561
산과	-16562
산이	-16563
상가	-16564
새를	-16565
석방	-16566
성도	-16567
성향	-16568
세력	-16569
셔널	-16570
손을	-16571
수무	-16572
수업	-16573
습을	-16574
신히	-16575
실히	-16576
애나	-16577
여성	-16578
였기	-16579
오늘	-16580
운이	-16581
워야	-16582
원한	-16583
유로	-16584
으러	-16585
이도	-16586
이렌	-16587
이사	-16588
일종	-16589
일쯤	-16590
임이	-16591
입건	-16592
입금	-16593
있고	-16594
자리	-16595
재산	-16596
정신	-16597
조작	-16598
지컬	-16599
진핑	-16600
질서	-16601
채용	-16602
척을	-16603
체는	-16604
쳐나	-16605
쳤던	-16606
축구	-16607
치면	-16608
클린	-16609
키로	-16610
타르	-16611
터테	-16612
토록	-16613
통한	-16614
트의	-16615
하길	-16616
하놉	-16617
하되	-16618
함과	-16619
혁명	-16620
형은	-16621
회도	-16622
▁ID	-16623
▁WH	-16624
▁가거	-16625
▁가다	-16626
▁강민	-16627
▁강호	-16628
▁객실	-16629
▁거고	-16630
▁건은	-16631
▁걷고	-16632
▁걸음	-16633
▁경관	-16634
▁고쳐	-16635
▁고치	-16636
▁공기	-16637
▁공을	-16638
▁관공	-16639
▁광륵	-16640
▁광양	-16641
▁구토	-16642
▁국군	-16643
▁국외	-16644
▁군용	-16645
▁권영	-16646
▁그친	-16647
▁그해	-16648
▁근교	-16649
▁글과	-16650
▁글도	-16651
▁금강	-16652
▁금정	-16653
▁급성	-16654
▁급습	-16655
▁급식	-16656
▁기아	-16657
▁길어	-16658
▁김대	-16659
▁김도	-16660
▁꺼져	-16661
▁끊이	-16662
▁날씨	-16663
▁남기	-16664
▁남측	-16665
▁낯선	-16666
▁내던	-16667
▁내의	-16668
▁넣는	-16669
▁논현	-16670
▁누르	-16671
▁눈앞	-16672
▁뉴델	-16673
▁다닐	-16674
▁다뤘	-16675
▁닥터	-16676
▁단일	-16677
▁닫혀	-16678
▁달째	-16679
▁당연	-16680
▁당원	-16681
▁대장	-16682
▁대접	-16683
▁데도	-16684
▁데서	-16685
▁도서	-16686
▁독자	-16687
▁돌이	-16688
▁동아	-16689
▁동종	-16690
▁동호	-16691
▁돼지	-16692
▁두렵	-16693
▁뒤편	-16694
▁뒷돈	-16695
▁듣는	-16696
▁등기	-16697
▁따돌	-16698
▁뜯겨	-16699
▁뜻에	-16700
▁레드	-16701
▁리버	-16702
▁막바	-16703
▁막판	-16704
▁말할	-16705
▁맞다	-16706
▁맡는	-16707
▁매각	-16708
▁맺은	-16709
▁멍과	-16710
▁모더	-16711
▁모독	-16712
▁모래	-16713
▁모씨	-16714
▁모호	-16715
▁몽키	-16716
▁무릅	-16717
▁무분	-16718
▁묻혀	-16719
▁물결	-16720
▁물량	-16721
▁미투	-16722
▁밀고	-16723
▁밀항	-16724
▁바가	-16725
▁바구	-16726
▁발발	-16727
▁밟고	-16728
▁방청	-16729
▁밸브	-16730
▁병을	-16731
▁봉화	-16732
▁부마	-16733
▁북쪽	-16734
▁분간	-16735
▁분뇨	-16736
▁비로	-16737
▁비만	-16738
▁뽑는	-16739
▁사령	-16740
▁사범	-16741
▁사자	-16742
▁사제	-16743
▁사주	-16744
▁사학	-16745
▁산간	-16746
▁산을	-16747
▁삼엄	-16748
▁삼은	-16749
▁상생	-16750
▁상실	-16751
▁상온	-16752
▁상응	-16753
▁생기	-16754
▁생일	-16755
▁서슴	-16756
▁선양	-16757
▁설문	-16758
▁섭취	-16759
▁성경	-16760
▁성별	-16761
▁성용	-16762
▁세르	-16763
▁송구	-16764
▁수갑	-16765
▁수만	-16766
▁수산	-16767
▁수주	-16768
▁시세	-16769
▁시와	-16770
▁시커	-16771
▁신림	-16772
▁신성	-16773
▁신은	-16774
▁신입	-16775
▁심판	-16776
▁싶지	-16777
▁쏘아	-16778
▁아픈	-16779
▁악질	-16780
▁안겨	-16781
▁안상	-16782
▁안승	-16783
▁양도	-16784
▁어울	-16785
▁연내	-16786
▁연인	-16787
▁열사	-16788
▁염려	-16789
▁오브	-16790
▁올릴	-16791
▁외무	-16792
▁외주	-16793
▁요약	-16794
▁우정	-16795
▁우측	-16796
▁울고	-16797
▁원고	-16798
▁위대	-16799
▁윌리	-16800
▁유골	-16801
▁유례	-16802
▁육아	-16803
▁응한	-16804
▁이념	-16805
▁이더	-16806
▁이원	-16807
▁이정	-16808
▁이첩	-16809
▁인부	-16810
▁인생	-16811
▁임산	-16812
▁입는	-16813
▁입항	-16814
▁잊지	-16815
▁자극	-16816
▁자는	-16817
▁자식	-16818
▁자아	-16819
▁자초	-16820
▁장사	-16821
▁장악	-16822
▁장항	-16823
▁재고	-16824
▁잭슨	-16825
▁저하	-16826
▁적재	-16827
▁전교	-16828
▁전락	-16829
▁전속	-16830
▁점과	-16831
▁점주	-16832
▁접한	-16833
▁정답	-16834
▁제과	-16835
▁제임	-16836
▁조력	-16837
▁좌우	-16838
▁주무	-16839
▁주부	-16840
▁준항	-16841
▁줄고	-16842
▁지배	-16843
▁지킨	-16844
▁진도	-16845
▁질러	-16846
▁쪽을	-16847
▁창업	-16848
▁챌린	-16849
▁청취	-16850
▁체제	-16851
▁촛불	-16852
▁최선	-16853
▁출몰	-16854
▁충족	-16855
▁취하	-16856
▁측을	-16857
▁치는	-16858
▁친족	-16859
▁친중	-16860
▁칠레	-16861
▁칼리	-16862
▁탈취	-16863
▁탐사	-16864
▁퇴선	-16865
▁팀장	-16866
▁파열	-16867
▁패턴	-16868
▁편도	-16869
▁편입	-16870
▁폐차	-16871
▁포트	-16872
▁폭넓	-16873
▁폭등	-16874
▁표창	-16875
▁프레	-16876
▁피자	-16877
▁하락	-16878
▁하죠	-16879
▁학습	-16880
▁한달	-16881
▁함양	-16882
▁향상	-16883
▁헌금	-16884
▁형은	-16885
▁형평	-16886
▁혹시	-16887
▁화해	-16888
▁확립	-16889
▁확신	-16890
▁환매	-16891
▁환송	-16892
▁회고	-16893
▁훌륭	-16894
▁휴식	-16895
결과를	-16896
계약을	-16897
공단이	-16898
기간이	-16899
대까지	-16900
더미가	-16901
데이트	-16902
되어야	-16903
들에겐	-16904
뜨리는	-16905
라이언	-16906
렸다며	-16907
리지만	-16908
머니를	-16909
명이며	-16910
뮤지엄	-16911
버스가	-16912
변인은	-16913
봤더니	-16914
사건을	-16915
살짜리	-16916
서까지	-16917
선도로	-16918
시키지	-16919
신청을	-16920
았다며	-16921
웠다는	-16922
웠지만	-16923
자들도	-16924
자로서	-16925
장관과	-16926
장이나	-16927
적이지	-16928
주기를	-16929
주면서	-16930
지도록	-16931
지역을	-16932
층에는	-16933
투성이	-16934
플루엔	-16935
항에서	-16936
해서도	-16937
해지는	-16938
협회가	-16939
▁108	-16940
▁122	-16941
▁126	-16942
▁156	-16943
▁CBS	-16944
▁ITC	-16945
▁가능할	-16946
▁가장이	-16947
▁가지가	-16948
▁가처분	-16949
▁간신히	-16950
▁감사원	-16951
▁감안해	-16952
▁감염은	-16953
▁감추지	-16954
▁강남역	-16955
▁개인적	-16956
▁거래로	-16957
▁거액을	-16958
▁걸렸다	-16959
▁검사도	-16960
▁게임을	-16961
▁결과와	-16962
▁결정된	-16963
▁경감은	-16964
▁경력이	-16965
▁경주를	-16966
▁계산대	-16967
▁계좌가	-16968
▁계획은	-16969
▁고객이	-16970
▁고려한	-16971
▁고소할	-16972
▁고통은	-16973
▁공범을	-16974
▁공범인	-16975
▁공사는	-16976
▁공사의	-16977
▁공정성	-16978
▁광둥성	-16979
▁교도관	-16980
▁교민들	-16981
▁교수님	-16982
▁교인과	-16983
▁구속이	-16984
▁구청은	-16985
▁구호가	-16986
▁국내선	-16987
▁군인이	-16988
▁궁금해	-16989
▁규모와	-16990
▁그랬다	-16991
▁그러고	-16992
▁금니를	-16993
▁기능도	-16994
▁기부한	-16995
▁기사에	-16996
▁기소가	-16997
▁기침을	-16998
▁길게는	-16999
▁김진태	-17000
▁나뉘어	-17001
▁나면서	-17002
▁난간에	-17003
▁남겨진	-17004
▁남양주	-17005
▁남영동	-17006
▁내려져	-17007
▁내부가	-17008
▁노리고	-17009
▁노숙인	-17010
▁높이의	-17011
▁뉴스는	-17012
▁뉴저지	-17013
▁다수를	-17014
▁다시는	-17015
▁다주택	-17016
▁단서를	-17017
▁단지에	-17018
▁단체로	-17019
▁달하고	-17020
▁답변이	-17021
▁당신이	-17022
▁당연한	-17023
▁당했던	-17024
▁대마초	-17025
▁대비한	-17026
▁대사가	-17027
▁대성당	-17028
▁대응해	-17029
▁대책도	-17030
▁도대체	-17031
▁도망가	-17032
▁도망친	-17033
▁도심의	-17034
▁도지사	-17035
▁돌고래	-17036
▁돌아간	-17037
▁동기는	-17038
▁동기를	-17039
▁따라야	-17040
▁떠밀려	-17041
▁레이더	-17042
▁로비를	-17043
▁마사회	-17044
▁마이클	-17045
▁매체는	-17046
▁매체에	-17047
▁머물던	-17048
▁메모리	-17049
▁명단도	-17050
▁명에서	-17051
▁모두의	-17052
▁무엇이	-17053
▁무정부	-17054
▁물질이	-17055
▁뮤지컬	-17056
▁미국을	-17057
▁미래를	-17058
▁박형철	-17059
▁반민특	-17060
▁반복된	-17061
▁발생은	-17062
▁밝히며	-17063
▁방법도	-17064
▁방역과	-17065
▁방치돼	-17066
▁방치해	-17067
▁백화점	-17068
▁벌어질	-17069
▁법적인	-17070
▁벚꽃길	-17071
▁병상을	-17072
▁보복을	-17073
▁보상을	-17074
▁보였고	-17075
▁복귀를	-17076
▁복수의	-17077
▁본격화	-17078
▁부당이	-17079
▁부부를	-17080
▁부정한	-17081
▁부제로	-17082
▁분만에	-17083
▁분양권	-17084
▁불길과	-17085
▁불안에	-17086
▁불안이	-17087
▁불평등	-17088
▁붙이고	-17089
▁블로그	-17090
▁비리를	-17091
▁사과할	-17092
▁사기로	-17093
▁사랑의	-17094
▁사실에	-17095
▁사업이	-17096
▁사연이	-17097
▁사이가	-17098
▁사이인	-17099
▁사태는	-17100
▁산책을	-17101
▁살인의	-17102
▁서정협	-17103
▁선고받	-17104
▁선수는	-17105
▁선정해	-17106
▁설명도	-17107
▁설명이	-17108
▁설치가	-17109
▁성차별	-17110
▁세워져	-17111
▁소견이	-17112
▁소독을	-17113
▁소용이	-17114
▁소유한	-17115
▁소장을	-17116
▁소지가	-17117
▁속수무	-17118
▁수그러	-17119
▁수년간	-17120
▁수요가	-17121
▁수원의	-17122
▁수준을	-17123
▁수집한	-17124
▁순위를	-17125
▁시내의	-17126
▁시설인	-17127
▁시진핑	-17128
▁식당에	-17129
▁신고에	-17130
▁신문조	-17131
▁실종돼	-17132
▁심부름	-17133
▁심사를	-17134
▁쓰이는	-17135
▁아동과	-17136
▁아래와	-17137
▁아산에	-17138
▁아이와	-17139
▁악용한	-17140
▁악화로	-17141
▁안심할	-17142
▁않느냐	-17143
▁않다가	-17144
▁않다며	-17145
▁야당이	-17146
▁약속을	-17147
▁양현석	-17148
▁어렵고	-17149
▁어제에	-17150
▁언급된	-17151
▁언급은	-17152
▁언론인	-17153
▁업주는	-17154
▁여고생	-17155
▁여러분	-17156
▁연결된	-17157
▁연루돼	-17158
▁열악한	-17159
▁염려가	-17160
▁오리무	-17161
▁요청해	-17162
▁용납할	-17163
▁우려는	-17164
▁우리를	-17165
▁우울증	-17166
▁운동부	-17167
▁원주시	-17168
▁웨이보	-17169
▁위반을	-17170
▁위해를	-17171
▁유권자	-17172
▁유리한	-17173
▁유세를	-17174
▁유재수	-17175
▁유족을	-17176
▁유형의	-17177
▁의뢰를	-17178
▁의심돼	-17179
▁이동이	-17180
▁이랜드	-17181
▁이사를	-17182
▁이상원	-17183
▁이슈가	-17184
▁이씨는	-17185
▁이용객	-17186
▁이용이	-17187
▁이우환	-17188
▁인도와	-17189
▁인사는	-17190
▁인식이	-17191
▁인후통	-17192
▁일까지	-17193
▁일본에	-17194
▁일상을	-17195
▁일으켜	-17196
▁일행이	-17197
▁일회용	-17198
▁임시국	-17199
▁입구에	-17200
▁입소자	-17201
▁입소한	-17202
▁입장인	-17203
▁있는가	-17204
▁자국이	-17205
▁작년에	-17206
▁잔인한	-17207
▁잡아끈	-17208
▁장갑차	-17209
▁장군의	-17210
▁장면도	-17211
▁장면은	-17212
▁장애를	-17213
▁재건축	-17214
▁재선거	-17215
▁저지르	-17216
▁적극적	-17217
▁전인대	-17218
▁전파를	-17219
▁전후로	-17220
▁절차는	-17221
▁젊은이	-17222
▁점검이	-17223
▁정체를	-17224
▁정황은	-17225
▁제안한	-17226
▁제작과	-17227
▁제품은	-17228
▁제한된	-17229
▁조사단	-17230
▁조작을	-17231
▁종합해	-17232
▁주겠다	-17233
▁주말인	-17234
▁줄어들	-17235
▁줄이지	-17236
▁중단할	-17237
▁중심을	-17238
▁증거능	-17239
▁증거물	-17240
▁증권사	-17241
▁증언을	-17242
▁지반이	-17243
▁지시로	-17244
▁지원해	-17245
▁지장은	-17246
▁지정돼	-17247
▁지하에	-17248
▁질식사	-17249
▁질환을	-17250
▁집계한	-17251
▁집어넣	-17252
▁집회나	-17253
▁집회로	-17254
▁차관이	-17255
▁차명진	-17256
▁참가한	-17257
▁창문에	-17258
▁처리한	-17259
▁처음엔	-17260
▁첫날인	-17261
▁초유의	-17262
▁총리실	-17263
▁총장을	-17264
▁최고의	-17265
▁추도식	-17266
▁추락한	-17267
▁추진을	-17268
▁춘천지	-17269
▁출석할	-17270
▁친구가	-17271
▁카지노	-17272
▁콜라텍	-17273
▁키우고	-17274
▁타인의	-17275
▁탑승을	-17276
▁탔다가	-17277
▁태도가	-17278
▁태풍이	-17279
▁택시와	-17280
▁통계를	-17281
▁통과를	-17282
▁투자를	-17283
▁투표에	-17284
▁티하놉	-17285
▁파손된	-17286
▁파업에	-17287
▁판단은	-17288
▁팔당댐	-17289
▁팔란티	-17290
▁팻말을	-17291
▁평택의	-17292
▁폭발물	-17293
▁품으로	-17294
▁프레스	-17295
▁피고발	-17296
▁피해로	-17297
▁하나는	-17298
▁하느냐	-17299
▁하천에	-17300
▁한국의	-17301
▁한기총	-17302
▁한명숙	-17303
▁한바탕	-17304
▁한병도	-17305
▁했다면	-17306
▁했더니	-17307
▁행사는	-17308
▁행사에	-17309
▁현장실	-17310
▁혐의의	-17311
▁형사과	-17312
▁형제의	-17313
▁형태를	-17314
▁호소를	-17315
▁홈리스	-17316
▁화성시	-17317
▁화재와	-17318
▁확대해	-17319
▁확보할	-17320
▁확산은	-17321
▁확인될	-17322
▁확진을	-17323
▁확진이	-17324
▁황희석	-17325
▁효과는	-17326
▁휴가철	-17327
▁힘으로	-17328
교육지원	-17329
교육청이	-17330
구입니다	-17331
단계에서	-17332
당했다고	-17333
만입니다	-17334
보호법상	-17335
시켰다고	-17336
아입니다	-17337
연입니다	-17338
운동본부	-17339
장에게는	-17340
전문매체	-17341
증명서를	-17342
터널에서	-17343
프라데시	-17344
프로그램	-17345
한다면서	-17346
해서라도	-17347
협의회는	-17348
▁1950	-17349
▁가족이나	-17350
▁가해자에	-17351
▁간부들이	-17352
▁강화되고	-17353
▁거론하며	-17354
▁건강상의	-17355
▁건축물대	-17356
▁검사들이	-17357
▁게시글을	-17358
▁격렬하게	-17359
▁격리하는	-17360
▁결정적인	-17361
▁경기에서	-17362
▁경비원과	-17363
▁계속되자	-17364
▁고무보트	-17365
▁공공부문	-17366
▁공권력을	-17367
▁공소사실	-17368
▁공식적인	-17369
▁공중에서	-17370
▁공직자의	-17371
▁교인들이	-17372
▁국무부는	-17373
▁국정원이	-17374
▁균형발전	-17375
▁그때마다	-17376
▁급증하는	-17377
▁긍정적인	-17378
▁기념식에	-17379
▁기사들이	-17380
▁기사에게	-17381
▁긴급재난	-17382
▁나가있는	-17383
▁내부고발	-17384
▁넘나들며	-17385
▁노동조합	-17386
▁논의하고	-17387
▁다가오자	-17388
▁대검찰청	-17389
▁대기하던	-17390
▁대변인이	-17391
▁대화방인	-17392
▁도로에는	-17393
▁도착하는	-17394
▁돌아가지	-17395
▁돌아오지	-17396
▁동료들이	-17397
▁드러내지	-17398
▁득표율로	-17399
▁들어있는	-17400
▁등에서도	-17401
▁때리거나	-17402
▁마린시티	-17403
▁마무리될	-17404
▁만들어서	-17405
▁말하기도	-17406
▁명성교회	-17407
▁명이라고	-17408
▁못했다며	-17409
▁무너지고	-17410
▁물놀이를	-17411
▁밀입국을	-17412
▁바다에서	-17413
▁반발하는	-17414
▁반성하는	-17415
▁발생했을	-17416
▁방호복을	-17417
▁배수로를	-17418
▁배수펌프	-17419
▁벌어졌고	-17420
▁범죄심리	-17421
▁법적으로	-17422
▁법정구속	-17423
▁변호사를	-17424
▁보궐선거	-17425
▁부과하는	-17426
▁부상자가	-17427
▁부장판사	-17428
▁부통령이	-17429
▁불거지자	-17430
▁불법촬영	-17431
▁불이익을	-17432
▁비상등을	-17433
▁비서관이	-17434
▁빠져나와	-17435
▁사과문을	-17436
▁사과하고	-17437
▁사망했고	-17438
▁사망했다	-17439
▁사진으로	-17440
▁삭제하는	-17441
▁산산조각	-17442
▁살아있는	-17443
▁살인미수	-17444
▁상인들은	-17445
▁상태였다	-17446
▁상황이라	-17447
▁성실하게	-17448
▁성희롱을	-17449
▁송치하고	-17450
▁송치했고	-17451
▁숙박업소	-17452
▁숨졌는데	-17453
▁숨지면서	-17454
▁시달리는	-17455
▁시도하고	-17456
▁시작됐고	-17457
▁신고자는	-17458
▁신고했던	-17459
▁실종됐던	-17460
▁아나운서	-17461
▁아버지와	-17462
▁아시아나	-17463
▁안내하고	-17464
▁알렉산드	-17465
▁약국에서	-17466
▁어머니의	-17467
▁업무에서	-17468
▁없었는데	-17469
▁여기까지	-17470
▁여기에는	-17471
▁연방수사	-17472
▁옮겼지만	-17473
▁외국인이	-17474
▁요청했다	-17475
▁우월주의	-17476
▁운영하던	-17477
▁웨이하이	-17478
▁위반자에	-17479
▁위험성이	-17480
▁유대교회	-17481
▁유족에게	-17482
▁의견서를	-17483
▁의원들의	-17484
▁의혹까지	-17485
▁이리저리	-17486
▁이송됐고	-17487
▁인정된다	-17488
▁일당에게	-17489
▁일리노이	-17490
▁일반재판	-17491
▁일으키는	-17492
▁일찌감치	-17493
▁입장료를	-17494
▁입증되지	-17495
▁있거든요	-17496
▁있겠지만	-17497
▁있잖아요	-17498
▁자릿수를	-17499
▁자영업자	-17500
▁자유연대	-17501
▁작업하던	-17502
▁재판부의	-17503
▁저널리즘	-17504
▁전날까지	-17505
▁전날보다	-17506
▁전북지역	-17507
▁전주에서	-17508
▁정보보호	-17509
▁정부에서	-17510
▁정책담당	-17511
▁조지아주	-17512
▁종합하면	-17513
▁주목하고	-17514
▁주한미군	-17515
▁준수하지	-17516
▁중경상을	-17517
▁중이어서	-17518
▁중인데요	-17519
▁지났지만	-17520
▁지원하기	-17521
▁지인들과	-17522
▁지지자들	-17523
▁진술서를	-17524
▁진술했다	-17525
▁진행했고	-17526
▁찌그러진	-17527
▁차량에는	-17528
▁채널에서	-17529
▁청원인은	-17530
▁체포했고	-17531
▁추적하는	-17532
▁추진하는	-17533
▁춘천시의	-17534
▁출동했던	-17535
▁출입구를	-17536
▁충북지역	-17537
▁취재진과	-17538
▁친구들은	-17539
▁코인노래	-17540
▁타임아웃	-17541
▁태스크포	-17542
▁특수경비	-17543
▁특정하고	-17544
▁파주에서	-17545
▁평택시의	-17546
▁평화적인	-17547
▁폭행으로	-17548
▁폼페이오	-17549
▁프로듀스	-17550
▁프리랜서	-17551
▁학교폭력	-17552
▁학부모가	-17553
▁한국인이	-17554
▁할머니의	-17555
▁항공기에	-17556
▁항의하며	-17557
▁해당하지	-17558
▁핼러윈데	-17559
▁허위정보	-17560
▁협박까지	-17561
▁호텔에서	-17562
▁홍천에서	-17563
▁확산세를	-17564
▁확진자에	-17565
▁회원들을	-17566
▁훼손하고	-17567
심의위원회	-17568
어졌습니다	-17569
연했습니다	-17570
지방검찰청	-17571
▁가능하다는	-17572
▁가능하지만	-17573
▁가득합니다	-17574
▁가해자들이	-17575
▁감췄습니다	-17576
▁건넸습니다	-17577
▁경찰관들의	-17578
▁고등학생이	-17579
▁관련자들을	-17580
▁구조됐지만	-17581
▁구조합니다	-17582
▁국민청원이	-17583
▁급증하면서	-17584
▁넘어집니다	-17585
▁노동자들을	-17586
▁누군가에게	-17587
▁늘렸습니다	-17588
▁늘었는데요	-17589
▁달렸습니다	-17590
▁달아났다가	-17591
▁대법원에서	-17592
▁대응하겠다	-17593
▁돌진합니다	-17594
▁동물보호법	-17595
▁뒷받침하는	-17596
▁들어갔다가	-17597
▁들어섭니다	-17598
▁러시아에서	-17599
▁몽키뮤지엄	-17600
▁민주노총이	-17601
▁민주주의를	-17602
▁발견했다고	-17603
▁방역당국에	-17604
▁버렸습니다	-17605
▁번째입니다	-17606
▁벌어집니다	-17607
▁변했습니다	-17608
▁보시다시피	-17609
▁부당하다고	-17610
▁부산시장에	-17611
▁부족하다고	-17612
▁부족하다는	-17613
▁부족하다며	-17614
▁불렀습니다	-17615
▁뻔했습니다	-17616
▁사망했다는	-17617
▁삼성물산이	-17618
▁상고심에서	-17619
▁상황이었다	-17620
▁상황이지만	-17621
▁서울시장은	-17622
▁선고했다고	-17623
▁선제적으로	-17624
▁소방관들이	-17625
▁소비자들의	-17626
▁수사기관이	-17627
▁순서입니다	-17628
▁시작됐는데	-17629
▁시작했다고	-17630
▁신고했는데	-17631
▁실시합니다	-17632
▁실질적으로	-17633
▁쏟아지면서	-17634
▁씨였습니다	-17635
▁않았습니까	-17636
▁어린이집에	-17637
▁여성가족부	-17638
▁여성들에게	-17639
▁여자친구가	-17640
▁예정인데요	-17641
▁요구했다고	-17642
▁요양원에서	-17643
▁우리나라는	-17644
▁우한시에서	-17645
▁운동처방사	-17646
▁운영됩니다	-17647
▁위스콘신주	-17648
▁의원들에게	-17649
▁인정된다고	-17650
▁인종차별을	-17651
▁인천공항을	-17652
▁일반음식점	-17653
▁있습니다만	-17654
▁자가격리가	-17655
▁자치단체의	-17656
▁작업장에서	-17657
▁적용하기로	-17658
▁전화번호를	-17659
▁제한적으로	-17660
▁중앙정보부	-17661
▁지원하기로	-17662
▁지지자들의	-17663
▁집행유예를	-17664
▁착용하도록	-17665
▁참가자들이	-17666
▁청소년들이	-17667
▁체포영장을	-17668
▁추정된다고	-17669
▁추진하기로	-17670
▁택시기사는	-17671
▁통합뉴스룸	-17672
▁투입됩니다	-17673
▁편의점에서	-17674
▁프랑스에서	-17675
▁프로그램을	-17676
▁한국기독교	-17677
▁함께합니다	-17678
▁행정조치를	-17679
▁현장예배를	-17680
▁회원들에게	-17681
공무집행방해	-17682
▁광역수사대는	-17683
▁교통사고처리	-17684
▁국정감사에서	-17685
▁국제범죄수사	-17686
▁귀가했습니다	-17687
▁기금운용본부	-17688
▁남북교류협력	-17689
▁담겨있습니다	-17690
▁답변했습니다	-17691
▁들어봤습니다	-17692
▁목격됐습니다	-17693
▁무산됐습니다	-17694
▁백상현입니다	-17695
▁보고했습니다	-17696
▁보이스피싱에	-17697
▁부딪혔습니다	-17698
▁부산경찰청에	-17699
▁부탁했습니다	-17700
▁사회복지법인	-17701
▁성용희입니다	-17702
▁스페셜에서는	-17703
▁시인했습니다	-17704
▁신속대응팀을	-17705
▁신천지예수교	-17706
▁영동고속도로	-17707
▁인계했습니다	-17708
▁임시생활시설	-17709
▁자가격리자가	-17710
▁전하겠습니다	-17711
▁접수했습니다	-17712
▁조사하겠다고	-17713
▁조선우입니다	-17714
▁종결했습니다	-17715
▁중환자실에서	-17716
▁진행중입니다	-17717
▁짚어봤습니다	-17718
▁취소했습니다	-17719
▁통행금지령이	-17720
▁폭행했습니다	-17721
▁표시했습니다	-17722
▁피해자로부터	-17723
▁허용했습니다	-17724
▁광주지방경찰청	-17725
▁노스캐롤라이나	-17726
▁대상이었습니다	-17727
▁더불어민주당은	-17728
▁마무리했습니다	-17729
▁받아들였습니다	-17730
▁사이버수사대는	-17731
▁예정이었습니다	-17732
▁인도네시아에서	-17733
▁전국인민대표대	-17734
▁지방자치단체가	-17735
▁청소년성보호법	-17736
▁한국성폭력상담	-17737
▁미니애폴리스에서	-17738
▁식품의약품안전처	-17739
▁전해드리겠습니다	-17740
▁혈중알코올농도가	-17741
▁국립중앙의료원으로	-17742
▁사회관계망서비스에	-17743
14	-17744
36	-17745
54	-17746
AT	-17747
HK	-17748
tt	-17749
ᄏᄏ	-17750
▁H	-17751
▁尹	-17752
▁檢	-17753
▁秋	-17754
▁靑	-17755
▁굵	-17756
▁껐	-17757
▁껴	-17758
▁닌	-17759
▁뚝	-17760
▁띠	-17761
▁램	-17762
▁밭	-17763
▁붐	-17764
▁섀	-17765
▁섹	-17766
▁앰	-17767
▁엑	-17768
▁엠	-17769
▁옳	-17770
▁웬	-17771
▁읍	-17772
▁푹	-17773
▁핏	-17774
▁혀	-17775
▁획	-17776
강간	-17777
견이	-17778
겹게	-17779
경에	-17780
계의	-17781
고사	-17782
고짜	-17783
과도	-17784
교안	-17785
교포	-17786
국대	-17787
국장	-17788
규를	-17789
그로	-17790
근로	-17791
기금	-17792
길래	-17793
내역	-17794
니메	-17795
닝썬	-17796
데타	-17797
될지	-17798
드가	-17799
드니	-17800
따라	-17801
라호	-17802
랐고	-17803
령도	-17804
로폼	-17805
루를	-17806
르담	-17807
르트	-17808
리려	-17809
림을	-17810
마가	-17811
막한	-17812
맘때	-17813
먼드	-17814
먼트	-17815
면적	-17816
믿음	-17817
방한	-17818
밭에	-17819
버거	-17820
번을	-17821
번의	-17822
벤투	-17823
보자	-17824
비상	-17825
비용	-17826
비행	-17827
산면	-17828
살과	-17829
색을	-17830
석이	-17831
설수	-17832
세훈	-17833
센티	-17834
수본	-17835
수엘	-17836
심판	-17837
아치	-17838
애슬	-17839
야는	-17840
어에	-17841
어학	-17842
여름	-17843
연도	-17844
영민	-17845
욕을	-17846
용접	-17847
우며	-17848
울을	-17849
위인	-17850
유도	-17851
유와	-17852
유치	-17853
일엔	-17854
일출	-17855
자재	-17856
자형	-17857
쟁을	-17858
저히	-17859
절을	-17860
정당	-17861
주면	-17862
준생	-17863
중부	-17864
줬고	-17865
즈가	-17866
지폐	-17867
진교	-17868
짐에	-17869
집이	-17870
찌민	-17871
참사	-17872
처로	-17873
충돌	-17874
측근	-17875
측은	-17876
치와	-17877
친타	-17878
코니	-17879
쿠버	-17880
태서	-17881
텐도	-17882
통합	-17883
트륨	-17884
팀장	-17885
파를	-17886
폐쇄	-17887
품질	-17888
피어	-17889
하긴	-17890
하야	-17891
학을	-17892
해에	-17893
해줄	-17894
했단	-17895
행선	-17896
헌법	-17897
헬기	-17898
호텔	-17899
휴게	-17900
▁AI	-17901
▁가공	-17902
▁가누	-17903
▁가도	-17904
▁가며	-17905
▁가속	-17906
▁가죽	-17907
▁감기	-17908
▁감천	-17909
▁갔고	-17910
▁강구	-17911
▁강수	-17912
▁강연	-17913
▁강우	-17914
▁갖춘	-17915
▁거란	-17916
▁건과	-17917
▁결빙	-17918
▁경사	-17919
▁계모	-17920
▁고액	-17921
▁고작	-17922
▁고창	-17923
▁고충	-17924
▁공갈	-17925
▁공제	-17926
▁과수	-17927
▁관중	-17928
▁교토	-17929
▁구걸	-17930
▁구해	-17931
▁국면	-17932
▁규슈	-17933
▁기내	-17934
▁깊게	-17935
▁끊임	-17936
▁나쁘	-17937
▁낙인	-17938
▁낭독	-17939
▁내륙	-17940
▁내뱉	-17941
▁네가	-17942
▁노상	-17943
▁녹색	-17944
▁놀랍	-17945
▁놓친	-17946
▁늦추	-17947
▁다각	-17948
▁다녔	-17949
▁다룬	-17950
▁다섯	-17951
▁다짜	-17952
▁단신	-17953
▁단위	-17954
▁달래	-17955
▁당산	-17956
▁대문	-17957
▁대안	-17958
▁대청	-17959
▁도달	-17960
▁도우	-17961
▁도의	-17962
▁동천	-17963
▁됐죠	-17964
▁되팔	-17965
▁둘이	-17966
▁들을	-17967
▁등급	-17968
▁디아	-17969
▁때를	-17970
▁떠났	-17971
▁뜨겁	-17972
▁레스	-17973
▁리더	-17974
▁막걸	-17975
▁막대	-17976
▁만기	-17977
▁만의	-17978
▁말과	-17979
▁맞이	-17980
▁매단	-17981
▁머문	-17982
▁멀쩡	-17983
▁모금	-17984
▁몰릴	-17985
▁몸통	-17986
▁묘사	-17987
▁무섭	-17988
▁묵살	-17989
▁문서	-17990
▁물고	-17991
▁미셸	-17992
▁미지	-17993
▁밀캠	-17994
▁바른	-17995
▁박물	-17996
▁박성	-17997
▁박종	-17998
▁발길	-17999
▁방공	-18000
▁배웅	-18001
▁번복	-18002
▁벗고	-18003
▁변명	-18004
▁보류	-18005
▁보며	-18006
▁보일	-18007
▁복도	-18008
▁부순	-18009
▁분기	-18010
▁불참	-18011
▁불타	-18012
▁붉은	-18013
▁브루	-18014
▁블록	-18015
▁블룸	-18016
▁비자	-18017
▁비켜	-18018
▁빅토	-18019
▁빚이	-18020
▁빠짐	-18021
▁사귀	-18022
▁사러	-18023
▁사외	-18024
▁사인	-18025
▁사채	-18026
▁산부	-18027
▁산후	-18028
▁서방	-18029
▁섞여	-18030
▁선미	-18031
▁설탕	-18032
▁성난	-18033
▁성탄	-18034
▁세상	-18035
▁소양	-18036
▁소외	-18037
▁수뇌	-18038
▁수령	-18039
▁수확	-18040
▁스팸	-18041
▁스피	-18042
▁슬픔	-18043
▁승마	-18044
▁시일	-18045
▁신촌	-18046
▁실직	-18047
▁실탄	-18048
▁쏘고	-18049
▁쏘는	-18050
▁아꼈	-18051
▁아름	-18052
▁애로	-18053
▁앱이	-18054
▁양구	-18055
▁양정	-18056
▁양호	-18057
▁어긋	-18058
▁어미	-18059
▁엄단	-18060
▁에워	-18061
▁에이	-18062
▁여겨	-18063
▁여권	-18064
▁여느	-18065
▁연금	-18066
▁연이	-18067
▁열자	-18068
▁영농	-18069
▁영유	-18070
▁예년	-18071
▁예술	-18072
▁예식	-18073
▁오갈	-18074
▁완벽	-18075
▁요건	-18076
▁용기	-18077
▁운항	-18078
▁웰컴	-18079
▁유심	-18080
▁윤리	-18081
▁은신	-18082
▁음독	-18083
▁음해	-18084
▁이산	-18085
▁인신	-18086
▁일할	-18087
▁입지	-18088
▁있다	-18089
▁자퇴	-18090
▁잔뜩	-18091
▁잘라	-18092
▁잠그	-18093
▁잡기	-18094
▁장롱	-18095
▁장의	-18096
▁재가	-18097
▁재선	-18098
▁재외	-18099
▁저를	-18100
▁저작	-18101
▁적게	-18102
▁전가	-18103
▁전철	-18104
▁정민	-18105
▁정진	-18106
▁제자	-18107
▁조리	-18108
▁조형	-18109
▁종류	-18110
▁주뉴	-18111
▁주사	-18112
▁중의	-18113
▁지게	-18114
▁지고	-18115
▁지날	-18116
▁지을	-18117
▁직격	-18118
▁직면	-18119
▁진흙	-18120
▁집시	-18121
▁찔린	-18122
▁참지	-18123
▁참혹	-18124
▁채권	-18125
▁채운	-18126
▁처럼	-18127
▁천장	-18128
▁청송	-18129
▁촘촘	-18130
▁최연	-18131
▁최저	-18132
▁추억	-18133
▁추측	-18134
▁축제	-18135
▁출전	-18136
▁취객	-18137
▁치닫	-18138
▁카메	-18139
▁커질	-18140
▁코챈	-18141
▁쿠드	-18142
▁탐문	-18143
▁태도	-18144
▁터라	-18145
▁터진	-18146
▁투신	-18147
▁튀니	-18148
▁파일	-18149
▁판명	-18150
▁팔과	-18151
▁팔려	-18152
▁팬티	-18153
▁평창	-18154
▁폭증	-18155
▁표선	-18156
▁프루	-18157
▁하수	-18158
▁하에	-18159
▁하여	-18160
▁하향	-18161
▁한겨	-18162
▁해가	-18163
▁해돋	-18164
▁해설	-18165
▁해지	-18166
▁헌혈	-18167
▁화려	-18168
▁화순	-18169
▁환기	-18170
▁활보	-18171
▁황금	-18172
▁후송	-18173
▁후이	-18174
▁휘말	-18175
▁휴진	-18176
가지를	-18177
갔다가	-18178
건이나	-18179
경보가	-18180
고장을	-18181
광역시	-18182
교사는	-18183
교사의	-18184
급여를	-18185
기관에	-18186
기한을	-18187
께서는	-18188
당국에	-18189
대학원	-18190
들이는	-18191
력발전	-18192
력으로	-18193
리라는	-18194
마리를	-18195
마파크	-18196
만큼은	-18197
민주화	-18198
바닥에	-18199
방송을	-18200
번방에	-18201
번이나	-18202
번호와	-18203
병원과	-18204
보니까	-18205
보도록	-18206
분까지	-18207
비디오	-18208
설수설	-18209
셨어요	-18210
[...]
